<?xml version="1.0"?>
<MethodSetup Method="BDT::WpH_Tagger_qqbb_17MP_wocosth">
  <GeneralInfo>
    <Info name="TMVA Release" value="4.2.1 [262657]"/>
    <Info name="ROOT Release" value="6.18/04 [397828]"/>
    <Info name="Creator" value="s6subans"/>
    <Info name="Date" value="Fri Oct 29 07:06:37 2021"/>
    <Info name="Host" value="Linux lcgapp-centos7-x86-64-32.cern.ch 3.10.0-957.21.3.el7.x86_64 #1 SMP Tue Jun 18 16:35:19 UTC 2019 x86_64 x86_64 x86_64 GNU/Linux"/>
    <Info name="Dir" value="/cephfs/user/s6subans/ChargedHiggsAna_V2L2/Code"/>
    <Info name="Training events" value="23730185"/>
    <Info name="TrainingTime" value="1.42489324e+04"/>
    <Info name="AnalysisType" value="Classification"/>
  </GeneralInfo>
  <Options>
    <Option name="V" modified="Yes">False</Option>
    <Option name="VerbosityLevel" modified="No">Default</Option>
    <Option name="VarTransform" modified="No">None</Option>
    <Option name="H" modified="Yes">False</Option>
    <Option name="CreateMVAPdfs" modified="No">False</Option>
    <Option name="IgnoreNegWeightsInTraining" modified="No">False</Option>
    <Option name="NTrees" modified="Yes">400</Option>
    <Option name="MaxDepth" modified="Yes">5</Option>
    <Option name="MinNodeSize" modified="Yes">2.0%</Option>
    <Option name="nCuts" modified="Yes">40</Option>
    <Option name="BoostType" modified="Yes">Grad</Option>
    <Option name="AdaBoostR2Loss" modified="No">quadratic</Option>
    <Option name="UseBaggedBoost" modified="Yes">True</Option>
    <Option name="Shrinkage" modified="Yes">1.000000e-01</Option>
    <Option name="AdaBoostBeta" modified="No">5.000000e-01</Option>
    <Option name="UseRandomisedTrees" modified="No">False</Option>
    <Option name="UseNvars" modified="No">3</Option>
    <Option name="UsePoissonNvars" modified="No">True</Option>
    <Option name="BaggedSampleFraction" modified="No">2.500000e-01</Option>
    <Option name="UseYesNoLeaf" modified="No">True</Option>
    <Option name="NegWeightTreatment" modified="Yes">ignorenegweightsintraining</Option>
    <Option name="Css" modified="No">1.000000e+00</Option>
    <Option name="Cts_sb" modified="No">1.000000e+00</Option>
    <Option name="Ctb_ss" modified="No">1.000000e+00</Option>
    <Option name="Cbb" modified="No">1.000000e+00</Option>
    <Option name="NodePurityLimit" modified="No">5.000000e-01</Option>
    <Option name="SeparationType" modified="Yes">giniindex</Option>
    <Option name="RegressionLossFunctionBDTG" modified="No">huber</Option>
    <Option name="HuberQuantile" modified="No">7.000000e-01</Option>
    <Option name="DoBoostMonitor" modified="Yes">True</Option>
    <Option name="UseFisherCuts" modified="No">False</Option>
    <Option name="MinLinCorrForFisher" modified="No">8.000000e-01</Option>
    <Option name="UseExclusiveVars" modified="No">False</Option>
    <Option name="DoPreselection" modified="No">False</Option>
    <Option name="SigToBkgFraction" modified="No">1.000000e+00</Option>
    <Option name="PruneMethod" modified="No">nopruning</Option>
    <Option name="PruneStrength" modified="No">0.000000e+00</Option>
    <Option name="PruningValFraction" modified="No">5.000000e-01</Option>
    <Option name="SkipNormalization" modified="No">False</Option>
    <Option name="nEventsMin" modified="No">0</Option>
    <Option name="UseBaggedGrad" modified="No">False</Option>
    <Option name="GradBaggingFraction" modified="Yes">2.500000e-01</Option>
    <Option name="UseNTrainEvents" modified="No">0</Option>
    <Option name="NNodesMax" modified="No">0</Option>
  </Options>
  <Variables NVar="10">
    <Variable VarIndex="0" Expression="btagjH1" Label="btagjH1" Title="btagjH1" Unit="" Internal="btagjH1" Type="D" Min="1.00000000e+00" Max="5.00000000e+00"/>
    <Variable VarIndex="1" Expression="btagjH2" Label="btagjH2" Title="btagjH2" Unit="" Internal="btagjH2" Type="D" Min="1.00000000e+00" Max="5.00000000e+00"/>
    <Variable VarIndex="2" Expression="btagjW1" Label="btagjW1" Title="btagjW1" Unit="" Internal="btagjW1" Type="D" Min="1.00000000e+00" Max="5.00000000e+00"/>
    <Variable VarIndex="3" Expression="btagjW2" Label="btagjW2" Title="btagjW2" Unit="" Internal="btagjW2" Type="D" Min="1.00000000e+00" Max="5.00000000e+00"/>
    <Variable VarIndex="4" Expression="H_mass" Label="H_mass" Title="H_mass" Unit="" Internal="H_mass" Type="D" Min="1.20725231e+01" Max="2.49999893e+02"/>
    <Variable VarIndex="5" Expression="Wp_mass" Label="Wp_mass" Title="Wp_mass" Unit="" Internal="Wp_mass" Type="D" Min="1.20725231e+01" Max="1.59999924e+02"/>
    <Variable VarIndex="6" Expression="Phi_HW" Label="Phi_HW" Title="Phi_HW" Unit="" Internal="Phi_HW" Type="D" Min="3.13482388e-07" Max="3.14159226e+00"/>
    <Variable VarIndex="7" Expression="Eta_HW" Label="Eta_HW" Title="Eta_HW" Unit="" Internal="Eta_HW" Type="D" Min="2.91683278e-07" Max="1.16901751e+01"/>
    <Variable VarIndex="8" Expression="H_pT/mass_VH" Label="H_pT/mass_VH" Title="H_pT/mass_VH" Unit="" Internal="H_pT_D_mass_VH" Type="D" Min="1.24471335e-04" Max="5.15786076e+00"/>
    <Variable VarIndex="9" Expression="Wp_pT/mass_VH" Label="Wp_pT/mass_VH" Title="Wp_pT/mass_VH" Unit="" Internal="Wp_pT_D_mass_VH" Type="D" Min="1.24471335e-04" Max="4.92129326e+00"/>
  </Variables>
  <Spectators NSpec="0"/>
  <Classes NClass="2">
    <Class Name="Signal" Index="0"/>
    <Class Name="Background" Index="1"/>
  </Classes>
  <Transformations NTransformations="0"/>
  <MVAPdfs/>
  <Weights NTrees="400" AnalysisType="1">
    <BinaryTree type="DecisionTree" boostWeight="1.0000000000000000e+00" itree="0">
      <Node pos="s" depth="0" NCoef="0" IVar="0" Cut="1.0975610017776489e+00" cType="1" res="-3.2706835190765560e-04" rms="4.9999988079071045e-01" purity="4.9967291951179504e-01" nType="0">
        <Node pos="l" depth="1" NCoef="0" IVar="1" Cut="2.0731706619262695e+00" cType="1" res="0.0000000000000000e+00" rms="0.0000000000000000e+00" purity="1.8313574790954590e-01" nType="0">
          <Node pos="l" depth="2" NCoef="0" IVar="2" Cut="3.0487804412841797e+00" cType="1" res="0.0000000000000000e+00" rms="0.0000000000000000e+00" purity="6.8351499736309052e-02" nType="0">
            <Node pos="l" depth="3" NCoef="0" IVar="9" Cut="3.1917780637741089e-01" cType="1" res="0.0000000000000000e+00" rms="0.0000000000000000e+00" purity="1.0059191286563873e-01" nType="0">
              <Node pos="l" depth="4" NCoef="0" IVar="6" Cut="1.9922279119491577e+00" cType="1" res="0.0000000000000000e+00" rms="0.0000000000000000e+00" purity="5.3525004535913467e-02" nType="0">
                <Node pos="l" depth="5" NCoef="0" IVar="-1" Cut="0.0000000000000000e+00" cType="1" res="-9.3756534159183502e-02" rms="1.7390461266040802e-01" purity="3.1217338517308235e-02" nType="-99"/>
                <Node pos="r" depth="5" NCoef="0" IVar="-1" Cut="0.0000000000000000e+00" cType="1" res="-8.3510480821132660e-02" rms="2.7504545450210571e-01" purity="8.2447610795497894e-02" nType="-99"/>
              </Node>
              <Node pos="r" depth="4" NCoef="0" IVar="6" Cut="1.9922276735305786e+00" cType="1" res="0.0000000000000000e+00" rms="0.0000000000000000e+00" purity="1.5913645923137665e-01" nType="0">
                <Node pos="l" depth="5" NCoef="0" IVar="-1" Cut="0.0000000000000000e+00" cType="1" res="-7.9647198319435120e-02" rms="3.0233770608901978e-01" purity="1.0176400095224380e-01" nType="-99"/>
                <Node pos="r" depth="5" NCoef="0" IVar="-1" Cut="0.0000000000000000e+00" cType="1" res="-5.0298959016799927e-02" rms="4.3214622139930725e-01" purity="2.4850519001483917e-01" nType="-99"/>
              </Node>
            </Node>
            <Node pos="r" depth="3" NCoef="0" IVar="7" Cut="6.8779700994491577e-01" cType="1" res="0.0000000000000000e+00" rms="0.0000000000000000e+00" purity="1.9012013450264931e-02" nType="0">
              <Node pos="l" depth="4" NCoef="0" IVar="-1" Cut="0.0000000000000000e+00" cType="1" res="-9.2931315302848816e-02" rms="1.8464633822441101e-01" purity="3.5343430936336517e-02" nType="-99"/>
              <Node pos="r" depth="4" NCoef="0" IVar="5" Cut="1.0998755645751953e+02" cType="1" res="0.0000000000000000e+00" rms="0.0000000000000000e+00" purity="1.1738677509129047e-02" nType="0">
                <Node pos="l" depth="5" NCoef="0" IVar="-1" Cut="0.0000000000000000e+00" cType="1" res="-9.6779935061931610e-02" rms="1.2586137652397156e-01" purity="1.6100307926535606e-02" nType="-99"/>
                <Node pos="r" depth="5" NCoef="0" IVar="-1" Cut="0.0000000000000000e+00" cType="1" res="-9.8777905106544495e-02" rms="7.7930390834808350e-02" purity="6.1104842461645603e-03" nType="-99"/>
              </Node>
            </Node>
          </Node>
          <Node pos="r" depth="2" NCoef="0" IVar="2" Cut="3.0487804412841797e+00" cType="1" res="0.0000000000000000e+00" rms="0.0000000000000000e+00" purity="3.5151037573814392e-01" nType="0">
            <Node pos="l" depth="3" NCoef="0" IVar="4" Cut="1.4035972595214844e+02" cType="1" res="0.0000000000000000e+00" rms="0.0000000000000000e+00" purity="4.3956962227821350e-01" nType="0">
              <Node pos="l" depth="4" NCoef="0" IVar="4" Cut="8.1529228210449219e+01" cType="1" res="0.0000000000000000e+00" rms="0.0000000000000000e+00" purity="5.3809601068496704e-01" nType="0">
                <Node pos="l" depth="5" NCoef="0" IVar="-1" Cut="0.0000000000000000e+00" cType="1" res="-3.2845985144376755e-02" rms="4.7225895524024963e-01" purity="3.3577007055282593e-01" nType="-99"/>
                <Node pos="r" depth="5" NCoef="0" IVar="-1" Cut="0.0000000000000000e+00" cType="1" res="2.2900151088833809e-02" rms="4.8671302199363708e-01" purity="6.1450076103210449e-01" nType="-99"/>
              </Node>
              <Node pos="r" depth="4" NCoef="0" IVar="-1" Cut="0.0000000000000000e+00" cType="1" res="-7.1238495409488678e-02" rms="3.5089448094367981e-01" purity="1.4380753040313721e-01" nType="-99"/>
            </Node>
            <Node pos="r" depth="3" NCoef="0" IVar="-1" Cut="0.0000000000000000e+00" cType="1" res="-8.4366135299205780e-02" rms="2.6843786239624023e-01" purity="7.8169345855712891e-02" nType="-99"/>
          </Node>
        </Node>
        <Node pos="r" depth="1" NCoef="0" IVar="1" Cut="1.0975610017776489e+00" cType="1" res="1.5864039957523346e-01" rms="4.7416582703590393e-01" purity="6.5864038467407227e-01" nType="0">
          <Node pos="l" depth="2" NCoef="0" IVar="2" Cut="3.0487804412841797e+00" cType="1" res="-9.7493588924407959e-02" rms="4.9040290713310242e-01" purity="4.0250641107559204e-01" nType="0">
            <Node pos="l" depth="3" NCoef="0" IVar="9" Cut="2.0658068358898163e-01" cType="1" res="-1.2097999453544617e-02" rms="4.9985361099243164e-01" purity="4.8790195584297180e-01" nType="0">
              <Node pos="l" depth="4" NCoef="0" IVar="5" Cut="9.1846473693847656e+01" cType="1" res="-2.7426624298095703e-01" rms="4.1806462407112122e-01" purity="2.2573374211788177e-01" nType="0">
                <Node pos="l" depth="5" NCoef="0" IVar="-1" Cut="0.0000000000000000e+00" cType="1" res="-3.6800894886255264e-02" rms="4.6491113305091858e-01" purity="3.1599551439285278e-01" nType="-99"/>
                <Node pos="r" depth="5" NCoef="0" IVar="-1" Cut="0.0000000000000000e+00" cType="1" res="-7.2808064520359039e-02" rms="3.4274572134017944e-01" purity="1.3595966994762421e-01" nType="-99"/>
              </Node>
              <Node pos="r" depth="4" NCoef="0" IVar="8" Cut="2.3917940258979797e-01" cType="1" res="6.7102961242198944e-02" rms="4.9547672271728516e-01" purity="5.6710296869277954e-01" nType="0">
                <Node pos="l" depth="5" NCoef="0" IVar="-1" Cut="0.0000000000000000e+00" cType="1" res="-2.6433266699314117e-02" rms="4.8221579194068909e-01" purity="3.6783367395401001e-01" nType="-99"/>
                <Node pos="r" depth="5" NCoef="0" IVar="-1" Cut="0.0000000000000000e+00" cType="1" res="2.7281114831566811e-02" rms="4.8103380203247070e-01" purity="6.3640558719635010e-01" nType="-99"/>
              </Node>
            </Node>
            <Node pos="r" depth="3" NCoef="0" IVar="8" Cut="3.3572432398796082e-01" cType="1" res="-3.8471177220344543e-01" rms="3.1936946511268616e-01" purity="1.1528823524713516e-01" nType="0">
              <Node pos="l" depth="4" NCoef="0" IVar="-1" Cut="0.0000000000000000e+00" cType="1" res="-8.6436696350574493e-02" rms="2.5143080949783325e-01" purity="6.7816533148288727e-02" nType="-99"/>
              <Node pos="r" depth="4" NCoef="0" IVar="-1" Cut="0.0000000000000000e+00" cType="1" res="-6.5124697983264923e-02" rms="3.7943291664123535e-01" purity="1.7437650263309479e-01" nType="-99"/>
            </Node>
          </Node>
          <Node pos="r" depth="2" NCoef="0" IVar="4" Cut="1.5238746643066406e+02" cType="1" res="3.1844660639762878e-01" rms="3.8547602295875549e-01" purity="8.1844663619995117e-01" nType="0">
            <Node pos="l" depth="3" NCoef="0" IVar="2" Cut="3.0487804412841797e+00" cType="1" res="3.6065515875816345e-01" rms="3.4630602598190308e-01" purity="8.6065518856048584e-01" nType="0">
              <Node pos="l" depth="4" NCoef="0" IVar="9" Cut="2.2408062219619751e-01" cType="1" res="3.8951727747917175e-01" rms="3.1349048018455505e-01" purity="8.8951730728149414e-01" nType="0">
                <Node pos="l" depth="5" NCoef="0" IVar="-1" Cut="0.0000000000000000e+00" cType="1" res="4.8310495913028717e-02" rms="4.3778121471405029e-01" purity="7.4155247211456299e-01" nType="-99"/>
                <Node pos="r" depth="5" NCoef="0" IVar="-1" Cut="0.0000000000000000e+00" cType="1" res="8.3759397268295288e-02" rms="2.7314665913581848e-01" purity="9.1879695653915405e-01" nType="-99"/>
              </Node>
              <Node pos="r" depth="4" NCoef="0" IVar="-1" Cut="0.0000000000000000e+00" cType="1" res="-5.6699756532907486e-03" rms="4.9919563531875610e-01" purity="4.7165012359619141e-01" nType="-99"/>
            </Node>
            <Node pos="r" depth="3" NCoef="0" IVar="-1" Cut="0.0000000000000000e+00" cType="1" res="-1.8378144130110741e-02" rms="4.9148356914520264e-01" purity="4.0810927748680115e-01" nType="-99"/>
          </Node>
        </Node>
      </Node>
    </BinaryTree>
    <BinaryTree type="DecisionTree" boostWeight="1.0000000000000000e+00" itree="1">
      <Node pos="s" depth="0" NCoef="0" IVar="0" Cut="1.0975610017776489e+00" cType="1" res="1.0503453668206930e-03" rms="4.7700870037078857e-01" purity="5.0115215778350830e-01" nType="0">
        <Node pos="l" depth="1" NCoef="0" IVar="1" Cut="2.0731706619262695e+00" cType="1" res="0.0000000000000000e+00" rms="0.0000000000000000e+00" purity="1.8128398060798645e-01" nType="0">
          <Node pos="l" depth="2" NCoef="0" IVar="2" Cut="4.0243902206420898e+00" cType="1" res="0.0000000000000000e+00" rms="0.0000000000000000e+00" purity="7.0253238081932068e-02" nType="0">
            <Node pos="l" depth="3" NCoef="0" IVar="9" Cut="2.3096463084220886e-01" cType="1" res="0.0000000000000000e+00" rms="0.0000000000000000e+00" purity="9.8101206123828888e-02" nType="0">
              <Node pos="l" depth="4" NCoef="0" IVar="9" Cut="1.4091058075428009e-01" cType="1" res="0.0000000000000000e+00" rms="0.0000000000000000e+00" purity="3.6755044013261795e-02" nType="0">
                <Node pos="l" depth="5" NCoef="0" IVar="-1" Cut="0.0000000000000000e+00" cType="1" res="-8.8687509298324585e-02" rms="1.2227847427129745e-01" purity="1.5195593237876892e-02" nType="-99"/>
                <Node pos="r" depth="5" NCoef="0" IVar="-1" Cut="0.0000000000000000e+00" cType="1" res="-8.0545298755168915e-02" rms="2.2904397547245026e-01" purity="5.5732611566781998e-02" nType="-99"/>
              </Node>
              <Node pos="r" depth="4" NCoef="0" IVar="6" Cut="2.4519689083099365e+00" cType="1" res="0.0000000000000000e+00" rms="0.0000000000000000e+00" purity="1.3403385877609253e-01" nType="0">
                <Node pos="l" depth="5" NCoef="0" IVar="-1" Cut="0.0000000000000000e+00" cType="1" res="-7.2959870100021362e-02" rms="2.9584348201751709e-01" purity="9.7442388534545898e-02" nType="-99"/>
                <Node pos="r" depth="5" NCoef="0" IVar="-1" Cut="0.0000000000000000e+00" cType="1" res="-4.6890567988157272e-02" rms="4.2237788438796997e-01" purity="2.3413264751434326e-01" nType="-99"/>
              </Node>
            </Node>
            <Node pos="r" depth="3" NCoef="0" IVar="8" Cut="2.3283159732818604e-01" cType="1" res="0.0000000000000000e+00" rms="0.0000000000000000e+00" purity="1.5161916613578796e-02" nType="0">
              <Node pos="l" depth="4" NCoef="0" IVar="-1" Cut="0.0000000000000000e+00" cType="1" res="-9.0279906988143921e-02" rms="6.7067734897136688e-02" purity="4.5178714208304882e-03" nType="-99"/>
              <Node pos="r" depth="4" NCoef="0" IVar="6" Cut="1.8389772176742554e+00" cType="1" res="0.0000000000000000e+00" rms="0.0000000000000000e+00" purity="2.1784305572509766e-02" nType="0">
                <Node pos="l" depth="5" NCoef="0" IVar="-1" Cut="0.0000000000000000e+00" cType="1" res="-8.5494585335254669e-02" rms="1.6686350107192993e-01" purity="2.8704315423965454e-02" nType="-99"/>
                <Node pos="r" depth="5" NCoef="0" IVar="-1" Cut="0.0000000000000000e+00" cType="1" res="-8.8224120438098907e-02" rms="1.2210705131292343e-01" purity="1.5145602636039257e-02" nType="-99"/>
              </Node>
            </Node>
          </Node>
          <Node pos="r" depth="2" NCoef="0" IVar="2" Cut="3.0487804412841797e+00" cType="1" res="0.0000000000000000e+00" rms="0.0000000000000000e+00" purity="3.4599658846855164e-01" nType="0">
            <Node pos="l" depth="3" NCoef="0" IVar="4" Cut="1.3974046325683594e+02" cType="1" res="0.0000000000000000e+00" rms="0.0000000000000000e+00" purity="4.3381521105766296e-01" nType="0">
              <Node pos="l" depth="4" NCoef="0" IVar="5" Cut="9.8829666137695312e+01" cType="1" res="0.0000000000000000e+00" rms="0.0000000000000000e+00" purity="5.3226280212402344e-01" nType="0">
                <Node pos="l" depth="5" NCoef="0" IVar="-1" Cut="0.0000000000000000e+00" cType="1" res="2.2899391129612923e-02" rms="4.8280084133148193e-01" purity="6.1866289377212524e-01" nType="-99"/>
                <Node pos="r" depth="5" NCoef="0" IVar="-1" Cut="0.0000000000000000e+00" cType="1" res="-3.1421691179275513e-02" rms="4.7262933850288391e-01" purity="3.4562435746192932e-01" nType="-99"/>
              </Node>
              <Node pos="r" depth="4" NCoef="0" IVar="-1" Cut="0.0000000000000000e+00" cType="1" res="-6.3746862113475800e-02" rms="3.5484424233436584e-01" purity="1.4774957299232483e-01" nType="-99"/>
            </Node>
            <Node pos="r" depth="3" NCoef="0" IVar="-1" Cut="0.0000000000000000e+00" cType="1" res="-7.7287174761295319e-02" rms="2.6212590932846069e-01" purity="7.4218362569808960e-02" nType="-99"/>
          </Node>
        </Node>
        <Node pos="r" depth="1" NCoef="0" IVar="1" Cut="1.0975610017776489e+00" cType="1" res="1.4466285705566406e-01" rms="4.5727229118347168e-01" purity="6.6065251827239990e-01" nType="0">
          <Node pos="l" depth="2" NCoef="0" IVar="2" Cut="3.0487804412841797e+00" cType="1" res="-9.1349333524703979e-02" rms="4.7976294159889221e-01" purity="3.9884856343269348e-01" nType="0">
            <Node pos="l" depth="3" NCoef="0" IVar="9" Cut="3.0035823583602905e-01" cType="1" res="-1.5342555940151215e-02" rms="4.9334731698036194e-01" purity="4.8343101143836975e-01" nType="0">
              <Node pos="l" depth="4" NCoef="0" IVar="5" Cut="1.0254354095458984e+02" cType="1" res="-1.7397902905941010e-01" rms="4.5896720886230469e-01" purity="3.1400996446609497e-01" nType="0">
                <Node pos="l" depth="5" NCoef="0" IVar="-1" Cut="0.0000000000000000e+00" cType="1" res="-1.9387515261769295e-02" rms="4.8545312881469727e-01" purity="3.9552059769630432e-01" nType="-99"/>
                <Node pos="r" depth="5" NCoef="0" IVar="-1" Cut="0.0000000000000000e+00" cType="1" res="-6.3180737197399139e-02" rms="3.6647668480873108e-01" purity="1.6527336835861206e-01" nType="-99"/>
              </Node>
              <Node pos="r" depth="4" NCoef="0" IVar="8" Cut="2.3902797698974609e-01" cType="1" res="1.0383840650320053e-01" rms="4.8464271426200867e-01" purity="6.1071431636810303e-01" nType="0">
                <Node pos="l" depth="5" NCoef="0" IVar="-1" Cut="0.0000000000000000e+00" cType="1" res="-1.9547924399375916e-02" rms="4.8754954338073730e-01" purity="3.8911509513854980e-01" nType="-99"/>
                <Node pos="r" depth="5" NCoef="0" IVar="-1" Cut="0.0000000000000000e+00" cType="1" res="3.4346945583820343e-02" rms="4.6441316604614258e-01" purity="6.8523901700973511e-01" nType="-99"/>
              </Node>
            </Node>
            <Node pos="r" depth="3" NCoef="0" IVar="8" Cut="3.0957663059234619e-01" cType="1" res="-3.4443655610084534e-01" rms="3.2072740793228149e-01" purity="1.1720599234104156e-01" nType="0">
              <Node pos="l" depth="4" NCoef="0" IVar="-1" Cut="0.0000000000000000e+00" cType="1" res="-7.9899743199348450e-02" rms="2.3815301060676575e-01" purity="6.0360208153724670e-02" nType="-99"/>
              <Node pos="r" depth="4" NCoef="0" IVar="-1" Cut="0.0000000000000000e+00" cType="1" res="-5.8745808899402618e-02" rms="3.7888646125793457e-01" purity="1.7400220036506653e-01" nType="-99"/>
            </Node>
          </Node>
          <Node pos="r" depth="2" NCoef="0" IVar="2" Cut="4.0243902206420898e+00" cType="1" res="2.8889429569244385e-01" rms="3.7599977850914001e-01" purity="8.2064580917358398e-01" nType="0">
            <Node pos="l" depth="3" NCoef="0" IVar="4" Cut="1.5812934875488281e+02" cType="1" res="3.1789657473564148e-01" rms="3.4989321231842041e-01" purity="8.5178440809249878e-01" nType="0">
              <Node pos="l" depth="4" NCoef="0" IVar="4" Cut="8.1103950500488281e+01" cType="1" res="3.4742504358291626e-01" rms="3.1741625070571899e-01" purity="8.8474154472351074e-01" nType="0">
                <Node pos="l" depth="5" NCoef="0" IVar="-1" Cut="0.0000000000000000e+00" cType="1" res="2.5756871327757835e-02" rms="4.6972504258155823e-01" purity="6.6568088531494141e-01" nType="-99"/>
                <Node pos="r" depth="5" NCoef="0" IVar="-1" Cut="0.0000000000000000e+00" cType="1" res="7.3996074497699738e-02" rms="2.9113999009132385e-01" purity="9.0504854917526245e-01" nType="-99"/>
              </Node>
              <Node pos="r" depth="4" NCoef="0" IVar="-1" Cut="0.0000000000000000e+00" cType="1" res="-1.0619435459375381e-02" rms="4.9610763788223267e-01" purity="4.3773269653320312e-01" nType="-99"/>
            </Node>
            <Node pos="r" depth="3" NCoef="0" IVar="-1" Cut="0.0000000000000000e+00" cType="1" res="-4.0120787918567657e-02" rms="4.5543846487998962e-01" purity="2.9511398077011108e-01" nType="-99"/>
          </Node>
        </Node>
      </Node>
    </BinaryTree>
    <BinaryTree type="DecisionTree" boostWeight="1.0000000000000000e+00" itree="2">
      <Node pos="s" depth="0" NCoef="0" IVar="0" Cut="1.0975610017776489e+00" cType="1" res="5.1183567848056555e-04" rms="4.5748046040534973e-01" purity="5.0022929906845093e-01" nType="0">
        <Node pos="l" depth="1" NCoef="0" IVar="1" Cut="2.0731706619262695e+00" cType="1" res="0.0000000000000000e+00" rms="0.0000000000000000e+00" purity="1.8732346594333649e-01" nType="0">
          <Node pos="l" depth="2" NCoef="0" IVar="2" Cut="3.0487804412841797e+00" cType="1" res="0.0000000000000000e+00" rms="0.0000000000000000e+00" purity="7.3082409799098969e-02" nType="0">
            <Node pos="l" depth="3" NCoef="0" IVar="9" Cut="3.3835980296134949e-01" cType="1" res="0.0000000000000000e+00" rms="0.0000000000000000e+00" purity="1.0831081867218018e-01" nType="0">
              <Node pos="l" depth="4" NCoef="0" IVar="6" Cut="2.2221026420593262e+00" cType="1" res="0.0000000000000000e+00" rms="0.0000000000000000e+00" purity="5.8459341526031494e-02" nType="0">
                <Node pos="l" depth="5" NCoef="0" IVar="-1" Cut="0.0000000000000000e+00" cType="1" res="-7.8610733151435852e-02" rms="1.7901106178760529e-01" purity="3.3223014324903488e-02" nType="-99"/>
                <Node pos="r" depth="5" NCoef="0" IVar="-1" Cut="0.0000000000000000e+00" cType="1" res="-6.5674990415573120e-02" rms="3.0262881517410278e-01" purity="1.0329586267471313e-01" nType="-99"/>
              </Node>
              <Node pos="r" depth="4" NCoef="0" IVar="8" Cut="3.1639295816421509e-01" cType="1" res="0.0000000000000000e+00" rms="0.0000000000000000e+00" purity="1.7854437232017517e-01" nType="0">
                <Node pos="l" depth="5" NCoef="0" IVar="-1" Cut="0.0000000000000000e+00" cType="1" res="-6.3853055238723755e-02" rms="3.2424208521842957e-01" purity="1.2077799439430237e-01" nType="-99"/>
                <Node pos="r" depth="5" NCoef="0" IVar="-1" Cut="0.0000000000000000e+00" cType="1" res="-3.6490179598331451e-02" rms="4.3131992220878601e-01" purity="2.5216016173362732e-01" nType="-99"/>
              </Node>
            </Node>
            <Node pos="r" depth="3" NCoef="0" IVar="3" Cut="1.0975610017776489e+00" cType="1" res="0.0000000000000000e+00" rms="0.0000000000000000e+00" purity="1.8792031332850456e-02" nType="0">
              <Node pos="l" depth="4" NCoef="0" IVar="9" Cut="3.1815516948699951e-01" cType="1" res="0.0000000000000000e+00" rms="0.0000000000000000e+00" purity="2.5030549615621567e-02" nType="0">
                <Node pos="l" depth="5" NCoef="0" IVar="-1" Cut="0.0000000000000000e+00" cType="1" res="-8.1524580717086792e-02" rms="1.2206427007913589e-01" purity="1.5208213590085506e-02" nType="-99"/>
                <Node pos="r" depth="5" NCoef="0" IVar="-1" Cut="0.0000000000000000e+00" cType="1" res="-7.7032953500747681e-02" rms="1.9032137095928192e-01" purity="3.7956286221742630e-02" nType="-99"/>
              </Node>
              <Node pos="r" depth="4" NCoef="0" IVar="-1" Cut="0.0000000000000000e+00" cType="1" res="-8.2962214946746826e-02" rms="9.2777103185653687e-02" purity="8.6875390261411667e-03" nType="-99"/>
            </Node>
          </Node>
          <Node pos="r" depth="2" NCoef="0" IVar="2" Cut="3.0487804412841797e+00" cType="1" res="0.0000000000000000e+00" rms="0.0000000000000000e+00" purity="3.5471460223197937e-01" nType="0">
            <Node pos="l" depth="3" NCoef="0" IVar="4" Cut="1.5143374633789062e+02" cType="1" res="0.0000000000000000e+00" rms="0.0000000000000000e+00" purity="4.4226559996604919e-01" nType="0">
              <Node pos="l" depth="4" NCoef="0" IVar="6" Cut="2.3753497600555420e+00" cType="1" res="0.0000000000000000e+00" rms="0.0000000000000000e+00" purity="5.2708017826080322e-01" nType="0">
                <Node pos="l" depth="5" NCoef="0" IVar="-1" Cut="0.0000000000000000e+00" cType="1" res="-1.6316851601004601e-02" rms="4.8626026511192322e-01" purity="4.1945421695709229e-01" nType="-99"/>
                <Node pos="r" depth="5" NCoef="0" IVar="-1" Cut="0.0000000000000000e+00" cType="1" res="3.4647181630134583e-02" rms="4.6172848343849182e-01" purity="6.7651659250259399e-01" nType="-99"/>
              </Node>
              <Node pos="r" depth="4" NCoef="0" IVar="-1" Cut="0.0000000000000000e+00" cType="1" res="-6.5024204552173615e-02" rms="3.1738093495368958e-01" purity="1.1364609748125076e-01" nType="-99"/>
            </Node>
            <Node pos="r" depth="3" NCoef="0" IVar="-1" Cut="0.0000000000000000e+00" cType="1" res="-6.9178909063339233e-02" rms="2.7566930651664734e-01" purity="8.2859225571155548e-02" nType="-99"/>
          </Node>
        </Node>
        <Node pos="r" depth="1" NCoef="0" IVar="1" Cut="1.0975610017776489e+00" cType="1" res="1.2863942980766296e-01" rms="4.4377836585044861e-01" purity="6.5856957435607910e-01" nType="0">
          <Node pos="l" depth="2" NCoef="0" IVar="2" Cut="3.0487804412841797e+00" cType="1" res="-8.3067581057548523e-02" rms="4.7090417146682739e-01" purity="3.9794781804084778e-01" nType="0">
            <Node pos="l" depth="3" NCoef="0" IVar="9" Cut="2.8868922591209412e-01" cType="1" res="-1.2824237346649170e-02" rms="4.8762428760528564e-01" purity="4.8410582542419434e-01" nType="0">
              <Node pos="l" depth="4" NCoef="0" IVar="6" Cut="1.6857359409332275e+00" cType="1" res="-1.5562620759010315e-01" rms="4.5727521181106567e-01" purity="3.1348457932472229e-01" nType="0">
                <Node pos="l" depth="5" NCoef="0" IVar="-1" Cut="0.0000000000000000e+00" cType="1" res="-5.5915497243404388e-02" rms="3.8605043292045593e-01" purity="1.8852350115776062e-01" nType="-99"/>
                <Node pos="r" depth="5" NCoef="0" IVar="-1" Cut="0.0000000000000000e+00" cType="1" res="-1.6962781548500061e-02" rms="4.8002576828002930e-01" purity="3.8652238249778748e-01" nType="-99"/>
              </Node>
              <Node pos="r" depth="4" NCoef="0" IVar="8" Cut="2.2968733310699463e-01" cType="1" res="8.6226828396320343e-02" rms="4.8343834280967712e-01" purity="6.0245311260223389e-01" nType="0">
                <Node pos="l" depth="5" NCoef="0" IVar="-1" Cut="0.0000000000000000e+00" cType="1" res="-2.1328611299395561e-02" rms="4.8272857069969177e-01" purity="3.7026211619377136e-01" nType="-99"/>
                <Node pos="r" depth="5" NCoef="0" IVar="-1" Cut="0.0000000000000000e+00" cType="1" res="2.9103666543960571e-02" rms="4.6813285350799561e-01" purity="6.7328512668609619e-01" nType="-99"/>
              </Node>
            </Node>
            <Node pos="r" depth="3" NCoef="0" IVar="9" Cut="3.0990022420883179e-01" cType="1" res="-3.2000544667243958e-01" rms="3.0807161331176758e-01" purity="1.0732807219028473e-01" nType="0">
              <Node pos="l" depth="4" NCoef="0" IVar="-1" Cut="0.0000000000000000e+00" cType="1" res="-7.3468357324600220e-02" rms="2.5106754899024963e-01" purity="6.8263150751590729e-02" nType="-99"/>
              <Node pos="r" depth="4" NCoef="0" IVar="-1" Cut="0.0000000000000000e+00" cType="1" res="-5.6529406458139420e-02" rms="3.5551828145980835e-01" purity="1.5034779906272888e-01" nType="-99"/>
            </Node>
          </Node>
          <Node pos="r" depth="2" NCoef="0" IVar="2" Cut="4.0243902206420898e+00" cType="1" res="2.5903853774070740e-01" rms="3.7019789218902588e-01" purity="8.1909734010696411e-01" nType="0">
            <Node pos="l" depth="3" NCoef="0" IVar="4" Cut="1.5772364807128906e+02" cType="1" res="2.8533351421356201e-01" rms="3.4724855422973633e-01" purity="8.5044950246810913e-01" nType="0">
              <Node pos="l" depth="4" NCoef="0" IVar="9" Cut="2.3081967234611511e-01" cType="1" res="3.1181418895721436e-01" rms="3.1761068105697632e-01" purity="8.8352668285369873e-01" nType="0">
                <Node pos="l" depth="5" NCoef="0" IVar="-1" Cut="0.0000000000000000e+00" cType="1" res="3.7077762186527252e-02" rms="4.3555009365081787e-01" purity="7.4151515960693359e-01" nType="-99"/>
                <Node pos="r" depth="5" NCoef="0" IVar="-1" Cut="0.0000000000000000e+00" cType="1" res="6.9690339267253876e-02" rms="2.7672258019447327e-01" purity="9.1513228416442871e-01" nType="-99"/>
              </Node>
              <Node pos="r" depth="4" NCoef="0" IVar="-1" Cut="0.0000000000000000e+00" cType="1" res="-6.4566899091005325e-03" rms="4.9763029813766479e-01" purity="4.5374783873558044e-01" nType="-99"/>
            </Node>
            <Node pos="r" depth="3" NCoef="0" IVar="-1" Cut="0.0000000000000000e+00" cType="1" res="-3.6022413522005081e-02" rms="4.5579075813293457e-01" purity="2.9600110650062561e-01" nType="-99"/>
          </Node>
        </Node>
      </Node>
    </BinaryTree>
    <BinaryTree type="DecisionTree" boostWeight="1.0000000000000000e+00" itree="3">
      <Node pos="s" depth="0" NCoef="0" IVar="0" Cut="1.0975610017776489e+00" cType="1" res="8.7254709796980023e-04" rms="4.4076588749885559e-01" purity="5.0080734491348267e-01" nType="0">
        <Node pos="l" depth="1" NCoef="0" IVar="1" Cut="2.0731706619262695e+00" cType="1" res="0.0000000000000000e+00" rms="0.0000000000000000e+00" purity="1.8559037148952484e-01" nType="0">
          <Node pos="l" depth="2" NCoef="0" IVar="2" Cut="3.0487804412841797e+00" cType="1" res="0.0000000000000000e+00" rms="0.0000000000000000e+00" purity="7.1343645453453064e-02" nType="0">
            <Node pos="l" depth="3" NCoef="0" IVar="9" Cut="3.2364037632942200e-01" cType="1" res="0.0000000000000000e+00" rms="0.0000000000000000e+00" purity="1.0545621067285538e-01" nType="0">
              <Node pos="l" depth="4" NCoef="0" IVar="5" Cut="1.0272335815429688e+02" cType="1" res="0.0000000000000000e+00" rms="0.0000000000000000e+00" purity="5.7543415576219559e-02" nType="0">
                <Node pos="l" depth="5" NCoef="0" IVar="-1" Cut="0.0000000000000000e+00" cType="1" res="-6.4525365829467773e-02" rms="2.6601141691207886e-01" purity="7.7525660395622253e-02" nType="-99"/>
                <Node pos="r" depth="5" NCoef="0" IVar="-1" Cut="0.0000000000000000e+00" cType="1" res="-7.4303075671195984e-02" rms="1.7205955088138580e-01" purity="3.0928134918212891e-02" nType="-99"/>
              </Node>
              <Node pos="r" depth="4" NCoef="0" IVar="6" Cut="1.9155987501144409e+00" cType="1" res="0.0000000000000000e+00" rms="0.0000000000000000e+00" purity="1.6648660600185394e-01" nType="0">
                <Node pos="l" depth="5" NCoef="0" IVar="-1" Cut="0.0000000000000000e+00" cType="1" res="-6.0632605105638504e-02" rms="3.1026324629783630e-01" purity="1.0841884464025497e-01" nType="-99"/>
                <Node pos="r" depth="5" NCoef="0" IVar="-1" Cut="0.0000000000000000e+00" cType="1" res="-3.4755628556013107e-02" rms="4.3041908740997314e-01" purity="2.4939329922199249e-01" nType="-99"/>
              </Node>
            </Node>
            <Node pos="r" depth="3" NCoef="0" IVar="7" Cut="7.1394181251525879e-01" cType="1" res="0.0000000000000000e+00" rms="0.0000000000000000e+00" purity="1.8820334225893021e-02" nType="0">
              <Node pos="l" depth="4" NCoef="0" IVar="-1" Cut="0.0000000000000000e+00" cType="1" res="-7.2154663503170013e-02" rms="1.8562304973602295e-01" purity="3.5912454128265381e-02" nType="-99"/>
              <Node pos="r" depth="4" NCoef="0" IVar="9" Cut="2.5910365581512451e-01" cType="1" res="0.0000000000000000e+00" rms="0.0000000000000000e+00" purity="1.0830571874976158e-02" nType="0">
                <Node pos="l" depth="5" NCoef="0" IVar="-1" Cut="0.0000000000000000e+00" cType="1" res="-7.7985428273677826e-02" rms="7.8185223042964935e-02" purity="6.2141334637999535e-03" nType="-99"/>
                <Node pos="r" depth="5" NCoef="0" IVar="-1" Cut="0.0000000000000000e+00" cType="1" res="-7.6335236430168152e-02" rms="1.2143003940582275e-01" purity="1.5079891309142113e-02" nType="-99"/>
              </Node>
            </Node>
          </Node>
          <Node pos="r" depth="2" NCoef="0" IVar="4" Cut="1.4611041259765625e+02" cType="1" res="0.0000000000000000e+00" rms="0.0000000000000000e+00" purity="3.5308125615119934e-01" nType="0">
            <Node pos="l" depth="3" NCoef="0" IVar="2" Cut="3.0487804412841797e+00" cType="1" res="0.0000000000000000e+00" rms="0.0000000000000000e+00" purity="4.3897643685340881e-01" nType="0">
              <Node pos="l" depth="4" NCoef="0" IVar="9" Cut="2.9505968093872070e-01" cType="1" res="0.0000000000000000e+00" rms="0.0000000000000000e+00" purity="5.3277063369750977e-01" nType="0">
                <Node pos="l" depth="5" NCoef="0" IVar="-1" Cut="0.0000000000000000e+00" cType="1" res="-2.1948810666799545e-02" rms="4.7873312234878540e-01" purity="3.9537569880485535e-01" nType="-99"/>
                <Node pos="r" depth="5" NCoef="0" IVar="-1" Cut="0.0000000000000000e+00" cType="1" res="2.2272314876317978e-02" rms="4.7744989395141602e-01" purity="6.1814135313034058e-01" nType="-99"/>
              </Node>
              <Node pos="r" depth="4" NCoef="0" IVar="-1" Cut="0.0000000000000000e+00" cType="1" res="-5.9321396052837372e-02" rms="3.0686682462692261e-01" purity="1.0524342209100723e-01" nType="-99"/>
            </Node>
            <Node pos="r" depth="3" NCoef="0" IVar="-1" Cut="0.0000000000000000e+00" cType="1" res="-6.3833080232143402e-02" rms="2.8789249062538147e-01" purity="9.2736929655075073e-02" nType="-99"/>
          </Node>
        </Node>
        <Node pos="r" depth="1" NCoef="0" IVar="1" Cut="1.0975610017776489e+00" cType="1" res="1.1677927523851395e-01" rms="4.3169289827346802e-01" purity="6.5943348407745361e-01" nType="0">
          <Node pos="l" depth="2" NCoef="0" IVar="2" Cut="4.0243902206420898e+00" cType="1" res="-7.1131862699985504e-02" rms="4.6442675590515137e-01" purity="4.0181809663772583e-01" nType="0">
            <Node pos="l" depth="3" NCoef="0" IVar="9" Cut="2.2499388456344604e-01" cType="1" res="-1.4775537885725498e-02" rms="4.8137766122817993e-01" purity="4.7603899240493774e-01" nType="0">
              <Node pos="l" depth="4" NCoef="0" IVar="5" Cut="9.5433479309082031e+01" cType="1" res="-2.0170146226882935e-01" rms="4.1923317313194275e-01" purity="2.3864510655403137e-01" nType="0">
                <Node pos="l" depth="5" NCoef="0" IVar="-1" Cut="0.0000000000000000e+00" cType="1" res="-2.5151347741484642e-02" rms="4.6700301766395569e-01" purity="3.3130449056625366e-01" nType="-99"/>
                <Node pos="r" depth="5" NCoef="0" IVar="-1" Cut="0.0000000000000000e+00" cType="1" res="-6.0351427644491196e-02" rms="3.3095619082450867e-01" purity="1.2787298858165741e-01" nType="-99"/>
              </Node>
              <Node pos="r" depth="4" NCoef="0" IVar="8" Cut="3.5831987857818604e-01" cType="1" res="5.4769147187471390e-02" rms="4.8446968197822571e-01" purity="5.6436002254486084e-01" nType="0">
                <Node pos="l" depth="5" NCoef="0" IVar="-1" Cut="0.0000000000000000e+00" cType="1" res="-7.3094689287245274e-03" rms="4.8868525028228760e-01" purity="4.5622462034225464e-01" nType="-99"/>
                <Node pos="r" depth="5" NCoef="0" IVar="-1" Cut="0.0000000000000000e+00" cType="1" res="3.0385727062821388e-02" rms="4.6091800928115845e-01" purity="6.7836856842041016e-01" nType="-99"/>
              </Node>
            </Node>
            <Node pos="r" depth="3" NCoef="0" IVar="9" Cut="3.1570771336555481e-01" cType="1" res="-3.1530976295471191e-01" rms="2.6989758014678955e-01" purity="8.0237515270709991e-02" nType="0">
              <Node pos="l" depth="4" NCoef="0" IVar="-1" Cut="0.0000000000000000e+00" cType="1" res="-7.2199344635009766e-02" rms="2.1337684988975525e-01" purity="4.8196546733379364e-02" nType="-99"/>
              <Node pos="r" depth="4" NCoef="0" IVar="-1" Cut="0.0000000000000000e+00" cType="1" res="-5.8694221079349518e-02" rms="3.2066464424133301e-01" purity="1.1789234727621078e-01" nType="-99"/>
            </Node>
          </Node>
          <Node pos="r" depth="2" NCoef="0" IVar="2" Cut="4.0243902206420898e+00" cType="1" res="2.3332697153091431e-01" rms="3.6425453424453735e-01" purity="8.1921368837356567e-01" nType="0">
            <Node pos="l" depth="3" NCoef="0" IVar="4" Cut="1.5238746643066406e+02" cType="1" res="2.5722876191139221e-01" rms="3.4389904141426086e-01" purity="8.5064101219177246e-01" nType="0">
              <Node pos="l" depth="4" NCoef="0" IVar="4" Cut="8.1803894042968750e+01" cType="1" res="2.8298807144165039e-01" rms="3.1360682845115662e-01" purity="8.8616800308227539e-01" nType="0">
                <Node pos="l" depth="5" NCoef="0" IVar="-1" Cut="0.0000000000000000e+00" cType="1" res="1.7947956919670105e-02" rms="4.6650767326354980e-01" purity="6.7019820213317871e-01" nType="-99"/>
                <Node pos="r" depth="5" NCoef="0" IVar="-1" Cut="0.0000000000000000e+00" cType="1" res="6.3303582370281219e-02" rms="2.8713694214820862e-01" purity="9.0744662284851074e-01" nType="-99"/>
              </Node>
              <Node pos="r" depth="4" NCoef="0" IVar="-1" Cut="0.0000000000000000e+00" cType="1" res="-2.6257187128067017e-03" rms="4.9723702669143677e-01" purity="4.7781488299369812e-01" nType="-99"/>
            </Node>
            <Node pos="r" depth="3" NCoef="0" IVar="-1" Cut="0.0000000000000000e+00" cType="1" res="-3.5015180706977844e-02" rms="4.5025098323822021e-01" purity="2.8387847542762756e-01" nType="-99"/>
          </Node>
        </Node>
      </Node>
    </BinaryTree>
    <BinaryTree type="DecisionTree" boostWeight="1.0000000000000000e+00" itree="4">
      <Node pos="s" depth="0" NCoef="0" IVar="0" Cut="1.0975610017776489e+00" cType="1" res="-1.6506373649463058e-03" rms="4.2637377977371216e-01" purity="4.9814221262931824e-01" nType="0">
        <Node pos="l" depth="1" NCoef="0" IVar="1" Cut="2.0731706619262695e+00" cType="1" res="0.0000000000000000e+00" rms="0.0000000000000000e+00" purity="1.8221202492713928e-01" nType="0">
          <Node pos="l" depth="2" NCoef="0" IVar="5" Cut="9.8663955688476562e+01" cType="1" res="0.0000000000000000e+00" rms="0.0000000000000000e+00" purity="6.7132823169231415e-02" nType="0">
            <Node pos="l" depth="3" NCoef="0" IVar="5" Cut="6.9096023559570312e+01" cType="1" res="0.0000000000000000e+00" rms="0.0000000000000000e+00" purity="9.6195399761199951e-02" nType="0">
              <Node pos="l" depth="4" NCoef="0" IVar="7" Cut="1.2727812528610229e+00" cType="1" res="0.0000000000000000e+00" rms="0.0000000000000000e+00" purity="5.2504230290651321e-02" nType="0">
                <Node pos="l" depth="5" NCoef="0" IVar="-1" Cut="0.0000000000000000e+00" cType="1" res="-6.1883576214313507e-02" rms="2.6156055927276611e-01" purity="7.6302997767925262e-02" nType="-99"/>
                <Node pos="r" depth="5" NCoef="0" IVar="-1" Cut="0.0000000000000000e+00" cType="1" res="-7.2066955268383026e-02" rms="1.4953035116195679e-01" purity="2.3458851501345634e-02" nType="-99"/>
              </Node>
              <Node pos="r" depth="4" NCoef="0" IVar="2" Cut="3.0487804412841797e+00" cType="1" res="0.0000000000000000e+00" rms="0.0000000000000000e+00" purity="1.3087701797485352e-01" nType="0">
                <Node pos="l" depth="5" NCoef="0" IVar="-1" Cut="0.0000000000000000e+00" cType="1" res="-3.9010282605886459e-02" rms="3.8292780518531799e-01" purity="1.8558901548385620e-01" nType="-99"/>
                <Node pos="r" depth="5" NCoef="0" IVar="-1" Cut="0.0000000000000000e+00" cType="1" res="-6.8548649549484253e-02" rms="1.7231227457523346e-01" purity="3.0896620824933052e-02" nType="-99"/>
              </Node>
            </Node>
            <Node pos="r" depth="3" NCoef="0" IVar="8" Cut="2.3321399092674255e-01" cType="1" res="0.0000000000000000e+00" rms="0.0000000000000000e+00" purity="3.6264464259147644e-02" nType="0">
              <Node pos="l" depth="4" NCoef="0" IVar="4" Cut="1.1122817993164062e+02" cType="1" res="0.0000000000000000e+00" rms="0.0000000000000000e+00" purity="1.6362149268388748e-02" nType="0">
                <Node pos="l" depth="5" NCoef="0" IVar="-1" Cut="0.0000000000000000e+00" cType="1" res="-7.2475448250770569e-02" rms="1.4419232308864594e-01" purity="2.1597519516944885e-02" nType="-99"/>
                <Node pos="r" depth="5" NCoef="0" IVar="-1" Cut="0.0000000000000000e+00" cType="1" res="-7.4380561709403992e-02" rms="1.0556560754776001e-01" purity="1.1249244213104248e-02" nType="-99"/>
              </Node>
              <Node pos="r" depth="4" NCoef="0" IVar="9" Cut="2.3888038098812103e-01" cType="1" res="0.0000000000000000e+00" rms="0.0000000000000000e+00" purity="5.0857301801443100e-02" nType="0">
                <Node pos="l" depth="5" NCoef="0" IVar="-1" Cut="0.0000000000000000e+00" cType="1" res="-7.1491345763206482e-02" rms="1.3833419978618622e-01" purity="1.9715301692485809e-02" nType="-99"/>
                <Node pos="r" depth="5" NCoef="0" IVar="-1" Cut="0.0000000000000000e+00" cType="1" res="-6.1807155609130859e-02" rms="2.5743457674980164e-01" purity="7.4985049664974213e-02" nType="-99"/>
              </Node>
            </Node>
          </Node>
          <Node pos="r" depth="2" NCoef="0" IVar="4" Cut="1.4033935546875000e+02" cType="1" res="0.0000000000000000e+00" rms="0.0000000000000000e+00" purity="3.5095611214637756e-01" nType="0">
            <Node pos="l" depth="3" NCoef="0" IVar="5" Cut="1.0261363983154297e+02" cType="1" res="0.0000000000000000e+00" rms="0.0000000000000000e+00" purity="4.4422653317451477e-01" nType="0">
              <Node pos="l" depth="4" NCoef="0" IVar="5" Cut="6.7622276306152344e+01" cType="1" res="0.0000000000000000e+00" rms="0.0000000000000000e+00" purity="5.3631609678268433e-01" nType="0">
                <Node pos="l" depth="5" NCoef="0" IVar="-1" Cut="0.0000000000000000e+00" cType="1" res="-2.4744817987084389e-02" rms="4.6293810009956360e-01" purity="3.6205267906188965e-01" nType="-99"/>
                <Node pos="r" depth="5" NCoef="0" IVar="-1" Cut="0.0000000000000000e+00" cType="1" res="2.3946832865476608e-02" rms="4.6155044436454773e-01" purity="6.1241424083709717e-01" nType="-99"/>
              </Node>
              <Node pos="r" depth="4" NCoef="0" IVar="-1" Cut="0.0000000000000000e+00" cType="1" res="-4.0743526071310043e-02" rms="4.1116166114807129e-01" purity="2.5178402662277222e-01" nType="-99"/>
            </Node>
            <Node pos="r" depth="3" NCoef="0" IVar="-1" Cut="0.0000000000000000e+00" cType="1" res="-5.7985067367553711e-02" rms="2.9733669757843018e-01" purity="1.0205825418233871e-01" nType="-99"/>
          </Node>
        </Node>
        <Node pos="r" depth="1" NCoef="0" IVar="1" Cut="1.0975610017776489e+00" cType="1" res="1.0346569120883942e-01" rms="4.2218887805938721e-01" purity="6.5744358301162720e-01" nType="0">
          <Node pos="l" depth="2" NCoef="0" IVar="2" Cut="3.0487804412841797e+00" cType="1" res="-6.5935671329498291e-02" rms="4.5798191428184509e-01" purity="3.9974787831306458e-01" nType="0">
            <Node pos="l" depth="3" NCoef="0" IVar="9" Cut="3.0364227294921875e-01" cType="1" res="-1.0982347652316093e-02" rms="4.7833481431007385e-01" purity="4.8351371288299561e-01" nType="0">
              <Node pos="l" depth="4" NCoef="0" IVar="6" Cut="2.0688536167144775e+00" cType="1" res="-1.2922514975070953e-01" rms="4.5274037122726440e-01" purity="3.1777614355087280e-01" nType="0">
                <Node pos="l" depth="5" NCoef="0" IVar="-1" Cut="0.0000000000000000e+00" cType="1" res="-4.7459330409765244e-02" rms="3.9402210712432861e-01" purity="2.0387588441371918e-01" nType="-99"/>
                <Node pos="r" depth="5" NCoef="0" IVar="-1" Cut="0.0000000000000000e+00" cType="1" res="-6.8718669936060905e-03" rms="4.8208180069923401e-01" purity="4.2379876971244812e-01" nType="-99"/>
              </Node>
              <Node pos="r" depth="4" NCoef="0" IVar="8" Cut="3.1627523899078369e-01" cType="1" res="8.0696739256381989e-02" rms="4.7753065824508667e-01" purity="6.1201769113540649e-01" nType="0">
                <Node pos="l" depth="5" NCoef="0" IVar="-1" Cut="0.0000000000000000e+00" cType="1" res="-6.0154809616506100e-03" rms="4.9251297116279602e-01" purity="4.6539366245269775e-01" nType="-99"/>
                <Node pos="r" depth="5" NCoef="0" IVar="-1" Cut="0.0000000000000000e+00" cType="1" res="3.2436907291412354e-02" rms="4.5004585385322571e-01" purity="7.1719795465469360e-01" nType="-99"/>
              </Node>
            </Node>
            <Node pos="r" depth="3" NCoef="0" IVar="8" Cut="3.3582174777984619e-01" cType="1" res="-2.4885714054107666e-01" rms="3.2062652707099915e-01" purity="1.2091906368732452e-01" nType="0">
              <Node pos="l" depth="4" NCoef="0" IVar="-1" Cut="0.0000000000000000e+00" cType="1" res="-6.5699189901351929e-02" rms="2.3119919002056122e-01" purity="5.7484831660985947e-02" nType="-99"/>
              <Node pos="r" depth="4" NCoef="0" IVar="-1" Cut="0.0000000000000000e+00" cType="1" res="-3.9139054715633392e-02" rms="3.9287018775939941e-01" purity="1.9695945084095001e-01" nType="-99"/>
            </Node>
          </Node>
          <Node pos="r" depth="2" NCoef="0" IVar="9" Cut="2.0581573247909546e-01" cType="1" res="2.0894062519073486e-01" rms="3.6004927754402161e-01" purity="8.1789350509643555e-01" nType="0">
            <Node pos="l" depth="3" NCoef="0" IVar="5" Cut="9.9027038574218750e+01" cType="1" res="-4.5729395933449268e-03" rms="4.6752560138702393e-01" purity="5.6485247611999512e-01" nType="0">
              <Node pos="l" depth="4" NCoef="0" IVar="-1" Cut="0.0000000000000000e+00" cType="1" res="1.9683632999658585e-02" rms="4.4274502992630005e-01" purity="6.7227268218994141e-01" nType="-99"/>
              <Node pos="r" depth="4" NCoef="0" IVar="-1" Cut="0.0000000000000000e+00" cType="1" res="-4.2740494012832642e-02" rms="4.5101222395896912e-01" purity="3.4576380252838135e-01" nType="-99"/>
            </Node>
            <Node pos="r" depth="3" NCoef="0" IVar="2" Cut="3.0487804412841797e+00" cType="1" res="2.4775770306587219e-01" rms="3.2197895646095276e-01" purity="8.6389678716659546e-01" nType="0">
              <Node pos="l" depth="4" NCoef="0" IVar="4" Cut="1.4090272521972656e+02" cType="1" res="2.6734021306037903e-01" rms="2.9816412925720215e-01" purity="8.9347636699676514e-01" nType="0">
                <Node pos="l" depth="5" NCoef="0" IVar="-1" Cut="0.0000000000000000e+00" cType="1" res="6.1123665422201157e-02" rms="2.7035343647003174e-01" purity="9.1870826482772827e-01" nType="-99"/>
                <Node pos="r" depth="5" NCoef="0" IVar="-1" Cut="0.0000000000000000e+00" cType="1" res="2.9237251728773117e-02" rms="4.4692811369895935e-01" purity="6.8829452991485596e-01" nType="-99"/>
              </Node>
              <Node pos="r" depth="4" NCoef="0" IVar="-1" Cut="0.0000000000000000e+00" cType="1" res="-2.9857435729354620e-03" rms="4.7704648971557617e-01" purity="4.6753782033920288e-01" nType="-99"/>
            </Node>
          </Node>
        </Node>
      </Node>
    </BinaryTree>
    <BinaryTree type="DecisionTree" boostWeight="1.0000000000000000e+00" itree="5">
      <Node pos="s" depth="0" NCoef="0" IVar="0" Cut="1.0975610017776489e+00" cType="1" res="1.8140424508601427e-03" rms="4.1460865736007690e-01" purity="5.0178694725036621e-01" nType="0">
        <Node pos="l" depth="1" NCoef="0" IVar="1" Cut="1.0975610017776489e+00" cType="1" res="0.0000000000000000e+00" rms="0.0000000000000000e+00" purity="1.8618415296077728e-01" nType="0">
          <Node pos="l" depth="2" NCoef="0" IVar="5" Cut="9.8663955688476562e+01" cType="1" res="0.0000000000000000e+00" rms="0.0000000000000000e+00" purity="6.4217381179332733e-02" nType="0">
            <Node pos="l" depth="3" NCoef="0" IVar="9" Cut="4.6654370427131653e-01" cType="1" res="0.0000000000000000e+00" rms="0.0000000000000000e+00" purity="9.1917440295219421e-02" nType="0">
              <Node pos="l" depth="4" NCoef="0" IVar="6" Cut="2.4519698619842529e+00" cType="1" res="0.0000000000000000e+00" rms="0.0000000000000000e+00" purity="6.8905606865882874e-02" nType="0">
                <Node pos="l" depth="5" NCoef="0" IVar="-1" Cut="0.0000000000000000e+00" cType="1" res="-6.3490211963653564e-02" rms="2.0718638598918915e-01" purity="4.6233080327510834e-02" nType="-99"/>
                <Node pos="r" depth="5" NCoef="0" IVar="-1" Cut="0.0000000000000000e+00" cType="1" res="-4.7719687223434448e-02" rms="3.2049310207366943e-01" purity="1.2346367537975311e-01" nType="-99"/>
              </Node>
              <Node pos="r" depth="4" NCoef="0" IVar="-1" Cut="0.0000000000000000e+00" cType="1" res="-3.8996245712041855e-02" rms="3.6591652035713196e-01" purity="1.6753992438316345e-01" nType="-99"/>
            </Node>
            <Node pos="r" depth="3" NCoef="0" IVar="9" Cut="4.3297994136810303e-01" cType="1" res="0.0000000000000000e+00" rms="0.0000000000000000e+00" purity="3.4902721643447876e-02" nType="0">
              <Node pos="l" depth="4" NCoef="0" IVar="6" Cut="2.2987253665924072e+00" cType="1" res="0.0000000000000000e+00" rms="0.0000000000000000e+00" purity="2.4453137069940567e-02" nType="0">
                <Node pos="l" depth="5" NCoef="0" IVar="-1" Cut="0.0000000000000000e+00" cType="1" res="-6.8984530866146088e-02" rms="1.2677176296710968e-01" purity="1.6351094469428062e-02" nType="-99"/>
                <Node pos="r" depth="5" NCoef="0" IVar="-1" Cut="0.0000000000000000e+00" cType="1" res="-6.4724996685981750e-02" rms="1.9113115966320038e-01" purity="3.9283867925405502e-02" nType="-99"/>
              </Node>
              <Node pos="r" depth="4" NCoef="0" IVar="-1" Cut="0.0000000000000000e+00" cType="1" res="-6.0453537851572037e-02" rms="2.4033051729202271e-01" purity="6.3662059605121613e-02" nType="-99"/>
            </Node>
          </Node>
          <Node pos="r" depth="2" NCoef="0" IVar="2" Cut="4.0243902206420898e+00" cType="1" res="0.0000000000000000e+00" rms="0.0000000000000000e+00" purity="3.3517938852310181e-01" nType="0">
            <Node pos="l" depth="3" NCoef="0" IVar="9" Cut="3.0985486507415771e-01" cType="1" res="0.0000000000000000e+00" rms="0.0000000000000000e+00" purity="4.1310596466064453e-01" nType="0">
              <Node pos="l" depth="4" NCoef="0" IVar="6" Cut="1.9922242164611816e+00" cType="1" res="0.0000000000000000e+00" rms="0.0000000000000000e+00" purity="2.7251940965652466e-01" nType="0">
                <Node pos="l" depth="5" NCoef="0" IVar="-1" Cut="0.0000000000000000e+00" cType="1" res="-5.5769611150026321e-02" rms="3.3564937114715576e-01" purity="1.4771541953086853e-01" nType="-99"/>
                <Node pos="r" depth="5" NCoef="0" IVar="-1" Cut="0.0000000000000000e+00" cType="1" res="-1.2009439058601856e-02" rms="4.5285487174987793e-01" purity="3.8545683026313782e-01" nType="-99"/>
              </Node>
              <Node pos="r" depth="4" NCoef="0" IVar="8" Cut="3.3266785740852356e-01" cType="1" res="0.0000000000000000e+00" rms="0.0000000000000000e+00" purity="5.4032683372497559e-01" nType="0">
                <Node pos="l" depth="5" NCoef="0" IVar="-1" Cut="0.0000000000000000e+00" cType="1" res="-1.2110838666558266e-02" rms="4.6153125166893005e-01" purity="4.0693399310112000e-01" nType="-99"/>
                <Node pos="r" depth="5" NCoef="0" IVar="-1" Cut="0.0000000000000000e+00" cType="1" res="3.6886606365442276e-02" rms="4.4895204901695251e-01" purity="6.6545861959457397e-01" nType="-99"/>
              </Node>
            </Node>
            <Node pos="r" depth="3" NCoef="0" IVar="-1" Cut="0.0000000000000000e+00" cType="1" res="-6.6787943243980408e-02" rms="1.9428187608718872e-01" purity="3.9953112602233887e-02" nType="-99"/>
          </Node>
        </Node>
        <Node pos="r" depth="1" NCoef="0" IVar="1" Cut="1.0975610017776489e+00" cType="1" res="9.6099622547626495e-02" rms="4.1295456886291504e-01" purity="6.6030448675155640e-01" nType="0">
          <Node pos="l" depth="2" NCoef="0" IVar="2" Cut="4.0243902206420898e+00" cType="1" res="-5.4505705833435059e-02" rms="4.5330044627189636e-01" purity="4.0526667237281799e-01" nType="0">
            <Node pos="l" depth="3" NCoef="0" IVar="9" Cut="2.0689560472965240e-01" cType="1" res="-7.0872530341148376e-03" rms="4.7355726361274719e-01" purity="4.8009788990020752e-01" nType="0">
              <Node pos="l" depth="4" NCoef="0" IVar="9" Cut="1.4141702651977539e-01" cType="1" res="-1.7916966974735260e-01" rms="4.0788683295249939e-01" purity="2.2188323736190796e-01" nType="0">
                <Node pos="l" depth="5" NCoef="0" IVar="-1" Cut="0.0000000000000000e+00" cType="1" res="-5.4055348038673401e-02" rms="3.4181120991706848e-01" purity="1.3986755907535553e-01" nType="-99"/>
                <Node pos="r" depth="5" NCoef="0" IVar="-1" Cut="0.0000000000000000e+00" cType="1" res="-2.0968528464436531e-02" rms="4.5125329494476318e-01" purity="3.0403092503547668e-01" nType="-99"/>
              </Node>
              <Node pos="r" depth="4" NCoef="0" IVar="6" Cut="2.1454756259918213e+00" cType="1" res="4.5182198286056519e-02" rms="4.7969996929168701e-01" purity="5.5852979421615601e-01" nType="0">
                <Node pos="l" depth="5" NCoef="0" IVar="-1" Cut="0.0000000000000000e+00" cType="1" res="-9.6552278846502304e-03" rms="4.8215407133102417e-01" purity="4.6302837133407593e-01" nType="-99"/>
                <Node pos="r" depth="5" NCoef="0" IVar="-1" Cut="0.0000000000000000e+00" cType="1" res="2.7434604242444038e-02" rms="4.5973679423332214e-01" purity="6.5144234895706177e-01" nType="-99"/>
              </Node>
            </Node>
            <Node pos="r" depth="3" NCoef="0" IVar="8" Cut="3.2777172327041626e-01" cType="1" res="-2.6173534989356995e-01" rms="2.6581716537475586e-01" purity="7.8236721456050873e-02" nType="0">
              <Node pos="l" depth="4" NCoef="0" IVar="-1" Cut="0.0000000000000000e+00" cType="1" res="-6.5537944436073303e-02" rms="1.9197842478752136e-01" purity="3.8457844406366348e-02" nType="-99"/>
              <Node pos="r" depth="4" NCoef="0" IVar="-1" Cut="0.0000000000000000e+00" cType="1" res="-5.0203323364257812e-02" rms="3.3038398623466492e-01" purity="1.2570568919181824e-01" nType="-99"/>
            </Node>
          </Node>
          <Node pos="r" depth="2" NCoef="0" IVar="4" Cut="1.5772390747070312e+02" cType="1" res="1.8997319042682648e-01" rms="3.5467848181724548e-01" purity="8.1927168369293213e-01" nType="0">
            <Node pos="l" depth="3" NCoef="0" IVar="4" Cut="7.3325332641601562e+01" cType="1" res="2.1598958969116211e-01" rms="3.2930225133895874e-01" purity="8.5846513509750366e-01" nType="0">
              <Node pos="l" depth="4" NCoef="0" IVar="-1" Cut="0.0000000000000000e+00" cType="1" res="-1.2011390179395676e-02" rms="4.7768607735633850e-01" purity="5.3555095195770264e-01" nType="-99"/>
              <Node pos="r" depth="4" NCoef="0" IVar="9" Cut="1.5751878917217255e-01" cType="1" res="2.3303654789924622e-01" rms="3.0986902117729187e-01" purity="8.7862569093704224e-01" nType="0">
                <Node pos="l" depth="5" NCoef="0" IVar="-1" Cut="0.0000000000000000e+00" cType="1" res="1.9864595960825682e-03" rms="4.7337877750396729e-01" purity="5.9861171245574951e-01" nType="-99"/>
                <Node pos="r" depth="5" NCoef="0" IVar="-1" Cut="0.0000000000000000e+00" cType="1" res="5.5617384612560272e-02" rms="2.8604349493980408e-01" purity="9.0047734975814819e-01" nType="-99"/>
              </Node>
            </Node>
            <Node pos="r" depth="3" NCoef="0" IVar="-1" Cut="0.0000000000000000e+00" cType="1" res="-2.0473670214414597e-02" rms="4.7722348570823669e-01" purity="3.7942621111869812e-01" nType="-99"/>
          </Node>
        </Node>
      </Node>
    </BinaryTree>
    <BinaryTree type="DecisionTree" boostWeight="1.0000000000000000e+00" itree="6">
      <Node pos="s" depth="0" NCoef="0" IVar="0" Cut="1.0975610017776489e+00" cType="1" res="-6.8257411476224661e-04" rms="4.0418386459350586e-01" purity="4.9881049990653992e-01" nType="0">
        <Node pos="l" depth="1" NCoef="0" IVar="1" Cut="1.0975610017776489e+00" cType="1" res="0.0000000000000000e+00" rms="0.0000000000000000e+00" purity="1.8368580937385559e-01" nType="0">
          <Node pos="l" depth="2" NCoef="0" IVar="2" Cut="3.0487804412841797e+00" cType="1" res="0.0000000000000000e+00" rms="0.0000000000000000e+00" purity="6.3278175890445709e-02" nType="0">
            <Node pos="l" depth="3" NCoef="0" IVar="9" Cut="2.2140797972679138e-01" cType="1" res="0.0000000000000000e+00" rms="0.0000000000000000e+00" purity="9.2638351023197174e-02" nType="0">
              <Node pos="l" depth="4" NCoef="0" IVar="-1" Cut="0.0000000000000000e+00" cType="1" res="-6.3586115837097168e-02" rms="1.6842691600322723e-01" purity="2.9397435486316681e-02" nType="-99"/>
              <Node pos="r" depth="4" NCoef="0" IVar="6" Cut="2.2987217903137207e+00" cType="1" res="0.0000000000000000e+00" rms="0.0000000000000000e+00" purity="1.2685988843441010e-01" nType="0">
                <Node pos="l" depth="5" NCoef="0" IVar="-1" Cut="0.0000000000000000e+00" cType="1" res="-5.2363380789756775e-02" rms="2.8091651201248169e-01" purity="8.8604785501956940e-02" nType="-99"/>
                <Node pos="r" depth="5" NCoef="0" IVar="-1" Cut="0.0000000000000000e+00" cType="1" res="-2.8682531788945198e-02" rms="4.0324410796165466e-01" purity="2.1145489811897278e-01" nType="-99"/>
              </Node>
            </Node>
            <Node pos="r" depth="3" NCoef="0" IVar="8" Cut="3.4789159893989563e-01" cType="1" res="0.0000000000000000e+00" rms="0.0000000000000000e+00" purity="1.8802996724843979e-02" nType="0">
              <Node pos="l" depth="4" NCoef="0" IVar="7" Cut="1.5922372341156006e+00" cType="1" res="0.0000000000000000e+00" rms="0.0000000000000000e+00" purity="1.1311823502182961e-02" nType="0">
                <Node pos="l" depth="5" NCoef="0" IVar="-1" Cut="0.0000000000000000e+00" cType="1" res="-6.5786324441432953e-02" rms="1.2635053694248199e-01" purity="1.6317714005708694e-02" nType="-99"/>
                <Node pos="r" depth="5" NCoef="0" IVar="-1" Cut="0.0000000000000000e+00" cType="1" res="-6.7828238010406494e-02" rms="7.6135218143463135e-02" purity="5.8905621990561485e-03" nType="-99"/>
              </Node>
              <Node pos="r" depth="4" NCoef="0" IVar="-1" Cut="0.0000000000000000e+00" cType="1" res="-6.2075585126876831e-02" rms="1.7405261099338531e-01" purity="3.1552914530038834e-02" nType="-99"/>
            </Node>
          </Node>
          <Node pos="r" depth="2" NCoef="0" IVar="9" Cut="2.3824092745780945e-01" cType="1" res="0.0000000000000000e+00" rms="0.0000000000000000e+00" purity="3.3119139075279236e-01" nType="0">
            <Node pos="l" depth="3" NCoef="0" IVar="5" Cut="9.5454086303710938e+01" cType="1" res="0.0000000000000000e+00" rms="0.0000000000000000e+00" purity="1.5556828677654266e-01" nType="0">
              <Node pos="l" depth="4" NCoef="0" IVar="-1" Cut="0.0000000000000000e+00" cType="1" res="-3.5326380282640457e-02" rms="3.8682970404624939e-01" purity="2.3501929640769958e-01" nType="-99"/>
              <Node pos="r" depth="4" NCoef="0" IVar="-1" Cut="0.0000000000000000e+00" cType="1" res="-6.2985368072986603e-02" rms="2.5243523716926575e-01" purity="7.5166553258895874e-02" nType="-99"/>
            </Node>
            <Node pos="r" depth="3" NCoef="0" IVar="2" Cut="4.0243902206420898e+00" cType="1" res="0.0000000000000000e+00" rms="0.0000000000000000e+00" purity="4.1782456636428833e-01" nType="0">
              <Node pos="l" depth="4" NCoef="0" IVar="6" Cut="2.3753502368927002e+00" cType="1" res="0.0000000000000000e+00" rms="0.0000000000000000e+00" purity="5.0352233648300171e-01" nType="0">
                <Node pos="l" depth="5" NCoef="0" IVar="-1" Cut="0.0000000000000000e+00" cType="1" res="-1.2596046552062035e-02" rms="4.5692741870880127e-01" purity="3.9519706368446350e-01" nType="-99"/>
                <Node pos="r" depth="5" NCoef="0" IVar="-1" Cut="0.0000000000000000e+00" cType="1" res="3.4707751125097275e-02" rms="4.4492369890213013e-01" purity="6.6042780876159668e-01" nType="-99"/>
              </Node>
              <Node pos="r" depth="4" NCoef="0" IVar="-1" Cut="0.0000000000000000e+00" cType="1" res="-5.5713966488838196e-02" rms="2.5738540291786194e-01" purity="7.2426959872245789e-02" nType="-99"/>
            </Node>
          </Node>
        </Node>
        <Node pos="r" depth="1" NCoef="0" IVar="1" Cut="2.0731706619262695e+00" cType="1" res="8.4562391042709351e-02" rms="4.0643513202667236e-01" purity="6.5768975019454956e-01" nType="0">
          <Node pos="l" depth="2" NCoef="0" IVar="5" Cut="9.8664047241210938e+01" cType="1" res="-3.9998818188905716e-02" rms="4.4611579179763794e-01" purity="4.3433308601379395e-01" nType="0">
            <Node pos="l" depth="3" NCoef="0" IVar="5" Cut="6.9096176147460938e+01" cType="1" res="3.0065761879086494e-02" rms="4.5593264698982239e-01" purity="5.2566140890121460e-01" nType="0">
              <Node pos="l" depth="4" NCoef="0" IVar="4" Cut="1.3459489440917969e+02" cType="1" res="-1.0387147963047028e-01" rms="4.5161804556846619e-01" purity="3.7995368242263794e-01" nType="0">
                <Node pos="l" depth="5" NCoef="0" IVar="-1" Cut="0.0000000000000000e+00" cType="1" res="-1.0964827612042427e-02" rms="4.6536710858345032e-01" purity="4.4825577735900879e-01" nType="-99"/>
                <Node pos="r" depth="5" NCoef="0" IVar="-1" Cut="0.0000000000000000e+00" cType="1" res="-4.4233653694391251e-02" rms="4.0071776509284973e-01" purity="2.3763100802898407e-01" nType="-99"/>
              </Node>
              <Node pos="r" depth="4" NCoef="0" IVar="2" Cut="2.0731706619262695e+00" cType="1" res="1.0494498908519745e-01" rms="4.4093957543373108e-01" purity="6.0712110996246338e-01" nType="0">
                <Node pos="l" depth="5" NCoef="0" IVar="-1" Cut="0.0000000000000000e+00" cType="1" res="3.2085422426462173e-02" rms="4.3534666299819946e-01" purity="6.8550211191177368e-01" nType="-99"/>
                <Node pos="r" depth="5" NCoef="0" IVar="-1" Cut="0.0000000000000000e+00" cType="1" res="-2.3692740127444267e-02" rms="3.9972022175788879e-01" purity="2.7472153306007385e-01" nType="-99"/>
              </Node>
            </Node>
            <Node pos="r" depth="3" NCoef="0" IVar="6" Cut="2.5285937786102295e+00" cType="1" res="-1.5875703096389771e-01" rms="4.0197694301605225e-01" purity="2.7953320741653442e-01" nType="0">
              <Node pos="l" depth="4" NCoef="0" IVar="8" Cut="2.4528087675571442e-01" cType="1" res="-2.3323151469230652e-01" rms="3.5873919725418091e-01" purity="1.8701615929603577e-01" nType="0">
                <Node pos="l" depth="5" NCoef="0" IVar="-1" Cut="0.0000000000000000e+00" cType="1" res="-6.4177125692367554e-02" rms="2.7872088551521301e-01" purity="9.3511655926704407e-02" nType="-99"/>
                <Node pos="r" depth="5" NCoef="0" IVar="-1" Cut="0.0000000000000000e+00" cType="1" res="-4.1649878025054932e-02" rms="3.9566123485565186e-01" purity="2.4520063400268555e-01" nType="-99"/>
              </Node>
              <Node pos="r" depth="4" NCoef="0" IVar="-1" Cut="0.0000000000000000e+00" cType="1" res="-3.9648506790399551e-03" rms="4.3976944684982300e-01" purity="4.5355215668678284e-01" nType="-99"/>
            </Node>
          </Node>
          <Node pos="r" depth="2" NCoef="0" IVar="4" Cut="1.4664558410644531e+02" cType="1" res="1.8044403195381165e-01" rms="3.4352940320968628e-01" purity="8.2961982488632202e-01" nType="0">
            <Node pos="l" depth="3" NCoef="0" IVar="4" Cut="7.9003219604492188e+01" cType="1" res="2.0629042387008667e-01" rms="3.1390288472175598e-01" purity="8.7236589193344116e-01" nType="0">
              <Node pos="l" depth="4" NCoef="0" IVar="-1" Cut="0.0000000000000000e+00" cType="1" res="1.6204996500164270e-03" rms="4.6474820375442505e-01" purity="6.0832190513610840e-01" nType="-99"/>
              <Node pos="r" depth="4" NCoef="0" IVar="5" Cut="1.0261384582519531e+02" cType="1" res="2.2338163852691650e-01" rms="2.9110422730445862e-01" purity="8.9508515596389771e-01" nType="0">
                <Node pos="l" depth="5" NCoef="0" IVar="-1" Cut="0.0000000000000000e+00" cType="1" res="5.6842379271984100e-02" rms="2.5668999552726746e-01" purity="9.2248576879501343e-01" nType="-99"/>
                <Node pos="r" depth="5" NCoef="0" IVar="-1" Cut="0.0000000000000000e+00" cType="1" res="2.9851166531443596e-02" rms="3.8353860378265381e-01" purity="7.8907102346420288e-01" nType="-99"/>
              </Node>
            </Node>
            <Node pos="r" depth="3" NCoef="0" IVar="-1" Cut="0.0000000000000000e+00" cType="1" res="-7.1657672524452209e-03" rms="4.7790285944938660e-01" purity="4.7326219081878662e-01" nType="-99"/>
          </Node>
        </Node>
      </Node>
    </BinaryTree>
    <BinaryTree type="DecisionTree" boostWeight="1.0000000000000000e+00" itree="7">
      <Node pos="s" depth="0" NCoef="0" IVar="0" Cut="1.0975610017776489e+00" cType="1" res="1.6056653112173080e-03" rms="3.9409306645393372e-01" purity="5.0274473428726196e-01" nType="0">
        <Node pos="l" depth="1" NCoef="0" IVar="1" Cut="2.0731706619262695e+00" cType="1" res="0.0000000000000000e+00" rms="0.0000000000000000e+00" purity="1.8616029620170593e-01" nType="0">
          <Node pos="l" depth="2" NCoef="0" IVar="9" Cut="3.5836377739906311e-01" cType="1" res="0.0000000000000000e+00" rms="0.0000000000000000e+00" purity="6.6759273409843445e-02" nType="0">
            <Node pos="l" depth="3" NCoef="0" IVar="5" Cut="9.1846473693847656e+01" cType="1" res="0.0000000000000000e+00" rms="0.0000000000000000e+00" purity="3.7815846502780914e-02" nType="0">
              <Node pos="l" depth="4" NCoef="0" IVar="6" Cut="1.9922257661819458e+00" cType="1" res="0.0000000000000000e+00" rms="0.0000000000000000e+00" purity="6.1739567667245865e-02" nType="0">
                <Node pos="l" depth="5" NCoef="0" IVar="-1" Cut="0.0000000000000000e+00" cType="1" res="-6.1891827732324600e-02" rms="1.5684804320335388e-01" purity="2.5777898728847504e-02" nType="-99"/>
                <Node pos="r" depth="5" NCoef="0" IVar="-1" Cut="0.0000000000000000e+00" cType="1" res="-4.4909320771694183e-02" rms="2.9473364353179932e-01" purity="1.0284915566444397e-01" nType="-99"/>
              </Node>
              <Node pos="r" depth="4" NCoef="0" IVar="5" Cut="1.1678070068359375e+02" cType="1" res="0.0000000000000000e+00" rms="0.0000000000000000e+00" purity="1.9146077334880829e-02" nType="0">
                <Node pos="l" depth="5" NCoef="0" IVar="-1" Cut="0.0000000000000000e+00" cType="1" res="-6.1429932713508606e-02" rms="1.5741841495037079e-01" purity="2.6792109012603760e-02" nType="-99"/>
                <Node pos="r" depth="5" NCoef="0" IVar="-1" Cut="0.0000000000000000e+00" cType="1" res="-6.4323224127292633e-02" rms="1.1462721973657608e-01" purity="1.3516410253942013e-02" nType="-99"/>
              </Node>
            </Node>
            <Node pos="r" depth="3" NCoef="0" IVar="8" Cut="2.9867449402809143e-01" cType="1" res="0.0000000000000000e+00" rms="0.0000000000000000e+00" purity="1.1359895020723343e-01" nType="0">
              <Node pos="l" depth="4" NCoef="0" IVar="5" Cut="1.0260742187500000e+02" cType="1" res="0.0000000000000000e+00" rms="0.0000000000000000e+00" purity="6.9633901119232178e-02" nType="0">
                <Node pos="l" depth="5" NCoef="0" IVar="-1" Cut="0.0000000000000000e+00" cType="1" res="-4.6971101313829422e-02" rms="2.9649165272712708e-01" purity="1.0223206877708435e-01" nType="-99"/>
                <Node pos="r" depth="5" NCoef="0" IVar="-1" Cut="0.0000000000000000e+00" cType="1" res="-6.0310713946819305e-02" rms="1.8879291415214539e-01" purity="3.8023766130208969e-02" nType="-99"/>
              </Node>
              <Node pos="r" depth="4" NCoef="0" IVar="-1" Cut="0.0000000000000000e+00" cType="1" res="-3.1832709908485413e-02" rms="3.6046275496482849e-01" purity="1.6838236153125763e-01" nType="-99"/>
            </Node>
          </Node>
          <Node pos="r" depth="2" NCoef="0" IVar="4" Cut="1.4554241943359375e+02" cType="1" res="0.0000000000000000e+00" rms="0.0000000000000000e+00" purity="3.5904133319854736e-01" nType="0">
            <Node pos="l" depth="3" NCoef="0" IVar="4" Cut="8.3690467834472656e+01" cType="1" res="0.0000000000000000e+00" rms="0.0000000000000000e+00" purity="4.4775274395942688e-01" nType="0">
              <Node pos="l" depth="4" NCoef="0" IVar="-1" Cut="0.0000000000000000e+00" cType="1" res="-3.4563690423965454e-02" rms="4.1167166829109192e-01" purity="2.6886829733848572e-01" nType="-99"/>
              <Node pos="r" depth="4" NCoef="0" IVar="6" Cut="2.2221019268035889e+00" cType="1" res="0.0000000000000000e+00" rms="0.0000000000000000e+00" purity="5.2612227201461792e-01" nType="0">
                <Node pos="l" depth="5" NCoef="0" IVar="-1" Cut="0.0000000000000000e+00" cType="1" res="-1.0697529651224613e-02" rms="4.5158472657203674e-01" purity="3.9279848337173462e-01" nType="-99"/>
                <Node pos="r" depth="5" NCoef="0" IVar="-1" Cut="0.0000000000000000e+00" cType="1" res="3.3959940075874329e-02" rms="4.3044513463973999e-01" purity="6.5997874736785889e-01" nType="-99"/>
              </Node>
            </Node>
            <Node pos="r" depth="3" NCoef="0" IVar="-1" Cut="0.0000000000000000e+00" cType="1" res="-5.2531469613313675e-02" rms="2.7472546696662903e-01" purity="8.8966101408004761e-02" nType="-99"/>
          </Node>
        </Node>
        <Node pos="r" depth="1" NCoef="0" IVar="1" Cut="1.0975610017776489e+00" cType="1" res="7.8342191874980927e-02" rms="3.9813461899757385e-01" purity="6.6127318143844604e-01" nType="0">
          <Node pos="l" depth="2" NCoef="0" IVar="2" Cut="3.0487804412841797e+00" cType="1" res="-4.8388145864009857e-02" rms="4.4251787662506104e-01" purity="4.0142959356307983e-01" nType="0">
            <Node pos="l" depth="3" NCoef="0" IVar="6" Cut="2.3753483295440674e+00" cType="1" res="-2.2485041990876198e-03" rms="4.6689695119857788e-01" purity="4.8842567205429077e-01" nType="0">
              <Node pos="l" depth="4" NCoef="0" IVar="5" Cut="1.0960383605957031e+02" cType="1" res="-7.3158077895641327e-02" rms="4.5878869295120239e-01" purity="4.0188419818878174e-01" nType="0">
                <Node pos="l" depth="5" NCoef="0" IVar="-1" Cut="0.0000000000000000e+00" cType="1" res="-3.6754612810909748e-03" rms="4.7316321730613708e-01" purity="4.7630164027214050e-01" nType="-99"/>
                <Node pos="r" depth="5" NCoef="0" IVar="-1" Cut="0.0000000000000000e+00" cType="1" res="-4.9812443554401398e-02" rms="3.6908960342407227e-01" purity="1.8409049510955811e-01" nType="-99"/>
              </Node>
              <Node pos="r" depth="4" NCoef="0" IVar="9" Cut="2.4652434885501862e-01" cType="1" res="9.8234549164772034e-02" rms="4.5978987216949463e-01" purity="6.1105996370315552e-01" nType="0">
                <Node pos="l" depth="5" NCoef="0" IVar="-1" Cut="0.0000000000000000e+00" cType="1" res="-6.6944956779479980e-03" rms="4.7550758719444275e-01" purity="3.9827287197113037e-01" nType="-99"/>
                <Node pos="r" depth="5" NCoef="0" IVar="-1" Cut="0.0000000000000000e+00" cType="1" res="3.1014649197459221e-02" rms="4.4201207160949707e-01" purity="6.9887769222259521e-01" nType="-99"/>
              </Node>
            </Node>
            <Node pos="r" depth="3" NCoef="0" IVar="8" Cut="3.3130475878715515e-01" cType="1" res="-2.0592859387397766e-01" rms="2.9670515656471252e-01" purity="1.0438770800828934e-01" nType="0">
              <Node pos="l" depth="4" NCoef="0" IVar="-1" Cut="0.0000000000000000e+00" cType="1" res="-5.8423630893230438e-02" rms="2.1614687144756317e-01" purity="5.1249623298645020e-02" nType="-99"/>
              <Node pos="r" depth="4" NCoef="0" IVar="-1" Cut="0.0000000000000000e+00" cType="1" res="-3.7115402519702911e-02" rms="3.6604362726211548e-01" purity="1.6764926910400391e-01" nType="-99"/>
            </Node>
          </Node>
          <Node pos="r" depth="2" NCoef="0" IVar="2" Cut="4.0243902206420898e+00" cType="1" res="1.5620715916156769e-01" rms="3.4591332077980042e-01" purity="8.2092481851577759e-01" nType="0">
            <Node pos="l" depth="3" NCoef="0" IVar="9" Cut="2.3067565262317657e-01" cType="1" res="1.7516680061817169e-01" rms="3.2960969209671021e-01" purity="8.5201817750930786e-01" nType="0">
              <Node pos="l" depth="4" NCoef="0" IVar="5" Cut="9.9020011901855469e+01" cType="1" res="4.4890943914651871e-02" rms="4.3767955899238586e-01" purity="6.6548204421997070e-01" nType="0">
                <Node pos="l" depth="5" NCoef="0" IVar="-1" Cut="0.0000000000000000e+00" cType="1" res="2.5547899305820465e-02" rms="4.0384483337402344e-01" purity="7.5208789110183716e-01" nType="-99"/>
                <Node pos="r" depth="5" NCoef="0" IVar="-1" Cut="0.0000000000000000e+00" cType="1" res="-2.7477977797389030e-02" rms="4.6733543276786804e-01" purity="4.5225381851196289e-01" nType="-99"/>
              </Node>
              <Node pos="r" depth="4" NCoef="0" IVar="8" Cut="2.3855420947074890e-01" cType="1" res="2.0674377679824829e-01" rms="2.8884756565093994e-01" purity="8.9723175764083862e-01" nType="0">
                <Node pos="l" depth="5" NCoef="0" IVar="-1" Cut="0.0000000000000000e+00" cType="1" res="2.7958156540989876e-02" rms="3.7325462698936462e-01" purity="8.0239266157150269e-01" nType="-99"/>
                <Node pos="r" depth="5" NCoef="0" IVar="-1" Cut="0.0000000000000000e+00" cType="1" res="5.3993660956621170e-02" rms="2.6183277368545532e-01" purity="9.1878300905227661e-01" nType="-99"/>
              </Node>
            </Node>
            <Node pos="r" depth="3" NCoef="0" IVar="-1" Cut="0.0000000000000000e+00" cType="1" res="-3.3286694437265396e-02" rms="4.4385790824890137e-01" purity="2.9479798674583435e-01" nType="-99"/>
          </Node>
        </Node>
      </Node>
    </BinaryTree>
    <BinaryTree type="DecisionTree" boostWeight="1.0000000000000000e+00" itree="8">
      <Node pos="s" depth="0" NCoef="0" IVar="0" Cut="2.0731706619262695e+00" cType="1" res="-6.1954028205946088e-04" rms="3.8689529895782471e-01" purity="4.9911773204803467e-01" nType="0">
        <Node pos="l" depth="1" NCoef="0" IVar="1" Cut="2.0731706619262695e+00" cType="1" res="-1.2364098429679871e-01" rms="3.4576314687728882e-01" purity="2.3137377202510834e-01" nType="0">
          <Node pos="l" depth="2" NCoef="0" IVar="2" Cut="4.0243902206420898e+00" cType="1" res="-1.8520689010620117e-01" rms="2.6537737250328064e-01" purity="9.0828746557235718e-02" nType="0">
            <Node pos="l" depth="3" NCoef="0" IVar="6" Cut="2.6818418502807617e+00" cType="1" res="-1.6666679084300995e-01" rms="3.0930325388908386e-01" purity="1.2688545882701874e-01" nType="0">
              <Node pos="l" depth="4" NCoef="0" IVar="5" Cut="9.8804725646972656e+01" cType="1" res="-1.8604105710983276e-01" rms="2.8385993838310242e-01" purity="9.8824448883533478e-02" nType="0">
                <Node pos="l" depth="5" NCoef="0" IVar="-1" Cut="0.0000000000000000e+00" cType="1" res="-3.9294984191656113e-02" rms="3.2907158136367798e-01" purity="1.3902290165424347e-01" nType="-99"/>
                <Node pos="r" depth="5" NCoef="0" IVar="-1" Cut="0.0000000000000000e+00" cType="1" res="-5.7027719914913177e-02" rms="2.0922011137008667e-01" purity="4.8413336277008057e-02" nType="-99"/>
              </Node>
              <Node pos="r" depth="4" NCoef="0" IVar="-1" Cut="0.0000000000000000e+00" cType="1" res="-2.0660525187849998e-02" rms="3.8715547323226929e-01" purity="2.4239952862262726e-01" nType="-99"/>
            </Node>
            <Node pos="r" depth="3" NCoef="0" IVar="7" Cut="7.6367568969726562e-01" cType="1" res="-2.2329591214656830e-01" rms="1.2809361517429352e-01" purity="1.6753403469920158e-02" nType="0">
              <Node pos="l" depth="4" NCoef="0" IVar="-1" Cut="0.0000000000000000e+00" cType="1" res="-5.7646121829748154e-02" rms="1.7724274098873138e-01" purity="3.2750800251960754e-02" nType="-99"/>
              <Node pos="r" depth="4" NCoef="0" IVar="5" Cut="9.9211532592773438e+01" cType="1" res="-2.2838819026947021e-01" rms="9.2550411820411682e-02" purity="8.4745129570364952e-03" nType="0">
                <Node pos="l" depth="5" NCoef="0" IVar="-1" Cut="0.0000000000000000e+00" cType="1" res="-6.4064636826515198e-02" rms="8.6131595075130463e-02" purity="7.4115372262895107e-03" nType="-99"/>
                <Node pos="r" depth="5" NCoef="0" IVar="-1" Cut="0.0000000000000000e+00" cType="1" res="-6.2668852508068085e-02" rms="9.7192458808422089e-02" purity="9.3414178118109703e-03" nType="-99"/>
              </Node>
            </Node>
          </Node>
          <Node pos="r" depth="2" NCoef="0" IVar="2" Cut="3.0487804412841797e+00" cType="1" res="-4.0933214128017426e-02" rms="4.1667360067367554e-01" purity="4.2018216848373413e-01" nType="0">
            <Node pos="l" depth="3" NCoef="0" IVar="9" Cut="2.2404342889785767e-01" cType="1" res="7.7065485529601574e-03" rms="4.3685314059257507e-01" purity="5.1169985532760620e-01" nType="0">
              <Node pos="l" depth="4" NCoef="0" IVar="-1" Cut="0.0000000000000000e+00" cType="1" res="-3.4613095223903656e-02" rms="3.8747406005859375e-01" purity="2.6547116041183472e-01" nType="-99"/>
              <Node pos="r" depth="4" NCoef="0" IVar="8" Cut="2.2827850282192230e-01" cType="1" res="6.8782031536102295e-02" rms="4.3801820278167725e-01" purity="6.0197585821151733e-01" nType="0">
                <Node pos="l" depth="5" NCoef="0" IVar="-1" Cut="0.0000000000000000e+00" cType="1" res="-2.1594999358057976e-02" rms="4.3995791673660278e-01" purity="3.8809773325920105e-01" nType="-99"/>
                <Node pos="r" depth="5" NCoef="0" IVar="-1" Cut="0.0000000000000000e+00" cType="1" res="2.6544228196144104e-02" rms="4.2313736677169800e-01" purity="6.7058151960372925e-01" nType="-99"/>
              </Node>
            </Node>
            <Node pos="r" depth="3" NCoef="0" IVar="-1" Cut="0.0000000000000000e+00" cType="1" res="-5.1070824265480042e-02" rms="2.7326911687850952e-01" purity="9.6345514059066772e-02" nType="-99"/>
          </Node>
        </Node>
        <Node pos="r" depth="1" NCoef="0" IVar="1" Cut="1.0975610017776489e+00" cType="1" res="7.7274315059185028e-02" rms="3.9130437374114990e-01" purity="6.6864597797393799e-01" nType="0">
          <Node pos="l" depth="2" NCoef="0" IVar="5" Cut="1.0240443420410156e+02" cType="1" res="-3.5255528986454010e-02" rms="4.4193559885025024e-01" purity="4.1080498695373535e-01" nType="0">
            <Node pos="l" depth="3" NCoef="0" IVar="5" Cut="6.5090278625488281e+01" cType="1" res="2.0381622016429901e-02" rms="4.5767301321029663e-01" purity="4.9393877387046814e-01" nType="0">
              <Node pos="l" depth="4" NCoef="0" IVar="7" Cut="1.0182427167892456e+00" cType="1" res="-1.1114119738340378e-01" rms="4.4653013348579407e-01" purity="3.4455257654190063e-01" nType="0">
                <Node pos="l" depth="5" NCoef="0" IVar="-1" Cut="0.0000000000000000e+00" cType="1" res="-1.1142287403345108e-02" rms="4.6720817685127258e-01" purity="4.2917242646217346e-01" nType="-99"/>
                <Node pos="r" depth="5" NCoef="0" IVar="-1" Cut="0.0000000000000000e+00" cType="1" res="-3.8408640772104263e-02" rms="4.0952184796333313e-01" purity="2.4259428679943085e-01" nType="-99"/>
              </Node>
              <Node pos="r" depth="4" NCoef="0" IVar="9" Cut="1.9139465689659119e-01" cType="1" res="7.5394593179225922e-02" rms="4.5101776719093323e-01" purity="5.5642366409301758e-01" nType="0">
                <Node pos="l" depth="5" NCoef="0" IVar="-1" Cut="0.0000000000000000e+00" cType="1" res="-2.4711843580007553e-02" rms="4.2422184348106384e-01" purity="2.6766702532768250e-01" nType="-99"/>
                <Node pos="r" depth="5" NCoef="0" IVar="-1" Cut="0.0000000000000000e+00" cType="1" res="2.5575196370482445e-02" rms="4.4502872228622437e-01" purity="6.2774664163589478e-01" nType="-99"/>
              </Node>
            </Node>
            <Node pos="r" depth="3" NCoef="0" IVar="6" Cut="2.6052222251892090e+00" cType="1" res="-1.4127436280250549e-01" rms="3.8883253931999207e-01" purity="2.5239023566246033e-01" nType="0">
              <Node pos="l" depth="4" NCoef="0" IVar="8" Cut="3.3643320202827454e-01" cType="1" res="-1.9034652411937714e-01" rms="3.5562074184417725e-01" purity="1.7583367228507996e-01" nType="0">
                <Node pos="l" depth="5" NCoef="0" IVar="-1" Cut="0.0000000000000000e+00" cType="1" res="-5.2262842655181885e-02" rms="3.0398529767990112e-01" purity="1.1775689572095871e-01" nType="-99"/>
                <Node pos="r" depth="5" NCoef="0" IVar="-1" Cut="0.0000000000000000e+00" cType="1" res="-2.9580621048808098e-02" rms="4.1294497251510620e-01" purity="2.5978904962539673e-01" nType="-99"/>
              </Node>
              <Node pos="r" depth="4" NCoef="0" IVar="-1" Cut="0.0000000000000000e+00" cType="1" res="-6.1722286045551300e-03" rms="4.3551594018936157e-01" purity="4.2775011062622070e-01" nType="-99"/>
            </Node>
          </Node>
          <Node pos="r" depth="2" NCoef="0" IVar="4" Cut="1.6399887084960938e+02" cType="1" res="1.4650975167751312e-01" rms="3.3849346637725830e-01" purity="8.2728594541549683e-01" nType="0">
            <Node pos="l" depth="3" NCoef="0" IVar="2" Cut="3.0487804412841797e+00" cType="1" res="1.6511884331703186e-01" rms="3.1875291466712952e-01" purity="8.6131745576858521e-01" nType="0">
              <Node pos="l" depth="4" NCoef="0" IVar="5" Cut="1.0621138763427734e+02" cType="1" res="1.7936703562736511e-01" rms="3.0045855045318604e-01" purity="8.8894295692443848e-01" nType="0">
                <Node pos="l" depth="5" NCoef="0" IVar="-1" Cut="0.0000000000000000e+00" cType="1" res="4.9384564161300659e-02" rms="2.7085804939270020e-01" purity="9.1420286893844604e-01" nType="-99"/>
                <Node pos="r" depth="5" NCoef="0" IVar="-1" Cut="0.0000000000000000e+00" cType="1" res="1.8941814079880714e-02" rms="3.9975300431251526e-01" purity="7.6729547977447510e-01" nType="-99"/>
              </Node>
              <Node pos="r" depth="4" NCoef="0" IVar="-1" Cut="0.0000000000000000e+00" cType="1" res="-6.6635394468903542e-03" rms="4.6553006768226624e-01" purity="4.7883209586143494e-01" nType="-99"/>
            </Node>
            <Node pos="r" depth="3" NCoef="0" IVar="-1" Cut="0.0000000000000000e+00" cType="1" res="-1.9840126857161522e-02" rms="4.6988013386726379e-01" purity="3.7945505976676941e-01" nType="-99"/>
          </Node>
        </Node>
      </Node>
    </BinaryTree>
    <BinaryTree type="DecisionTree" boostWeight="1.0000000000000000e+00" itree="9">
      <Node pos="s" depth="0" NCoef="0" IVar="0" Cut="1.0975610017776489e+00" cType="1" res="-3.6306414403952658e-04" rms="3.7987110018730164e-01" purity="4.9976545572280884e-01" nType="0">
        <Node pos="l" depth="1" NCoef="0" IVar="1" Cut="1.0975610017776489e+00" cType="1" res="0.0000000000000000e+00" rms="0.0000000000000000e+00" purity="1.8062265217304230e-01" nType="0">
          <Node pos="l" depth="2" NCoef="0" IVar="9" Cut="4.4300785660743713e-01" cType="1" res="0.0000000000000000e+00" rms="0.0000000000000000e+00" purity="6.0154955834150314e-02" nType="0">
            <Node pos="l" depth="3" NCoef="0" IVar="5" Cut="6.6192169189453125e+01" cType="1" res="0.0000000000000000e+00" rms="0.0000000000000000e+00" purity="4.1834581643342972e-02" nType="0">
              <Node pos="l" depth="4" NCoef="0" IVar="-1" Cut="0.0000000000000000e+00" cType="1" res="-5.9445783495903015e-02" rms="1.5108275413513184e-01" purity="2.3974891752004623e-02" nType="-99"/>
              <Node pos="r" depth="4" NCoef="0" IVar="5" Cut="9.1360031127929688e+01" cType="1" res="0.0000000000000000e+00" rms="0.0000000000000000e+00" purity="4.6418495476245880e-02" nType="0">
                <Node pos="l" depth="5" NCoef="0" IVar="-1" Cut="0.0000000000000000e+00" cType="1" res="-4.1856728494167328e-02" rms="2.7764654159545898e-01" purity="9.0201124548912048e-02" nType="-99"/>
                <Node pos="r" depth="5" NCoef="0" IVar="-1" Cut="0.0000000000000000e+00" cType="1" res="-5.6577485054731369e-02" rms="1.6143788397312164e-01" purity="2.7956327423453331e-02" nType="-99"/>
              </Node>
            </Node>
            <Node pos="r" depth="3" NCoef="0" IVar="8" Cut="2.8718745708465576e-01" cType="1" res="0.0000000000000000e+00" rms="0.0000000000000000e+00" purity="1.1246997117996216e-01" nType="0">
              <Node pos="l" depth="4" NCoef="0" IVar="-1" Cut="0.0000000000000000e+00" cType="1" res="-4.8578131943941116e-02" rms="2.4455450475215912e-01" purity="6.7953959107398987e-02" nType="-99"/>
              <Node pos="r" depth="4" NCoef="0" IVar="-1" Cut="0.0000000000000000e+00" cType="1" res="-2.5008989498019218e-02" rms="3.6503252387046814e-01" purity="1.6791786253452301e-01" nType="-99"/>
            </Node>
          </Node>
          <Node pos="r" depth="2" NCoef="0" IVar="5" Cut="9.8664031982421875e+01" cType="1" res="0.0000000000000000e+00" rms="0.0000000000000000e+00" purity="3.2860755920410156e-01" nType="0">
            <Node pos="l" depth="3" NCoef="0" IVar="5" Cut="6.4872108459472656e+01" cType="1" res="0.0000000000000000e+00" rms="0.0000000000000000e+00" purity="4.1900867223739624e-01" nType="0">
              <Node pos="l" depth="4" NCoef="0" IVar="-1" Cut="0.0000000000000000e+00" cType="1" res="-3.2873433083295822e-02" rms="3.9336922764778137e-01" purity="2.4470688402652740e-01" nType="-99"/>
              <Node pos="r" depth="4" NCoef="0" IVar="9" Cut="2.9893001914024353e-01" cType="1" res="0.0000000000000000e+00" rms="0.0000000000000000e+00" purity="4.9782612919807434e-01" nType="0">
                <Node pos="l" depth="5" NCoef="0" IVar="-1" Cut="0.0000000000000000e+00" cType="1" res="-8.9775016531348228e-03" rms="4.2031580209732056e-01" purity="3.4663435816764832e-01" nType="-99"/>
                <Node pos="r" depth="5" NCoef="0" IVar="-1" Cut="0.0000000000000000e+00" cType="1" res="2.8462432324886322e-02" rms="4.3169188499450684e-01" purity="6.1542183160781860e-01" nType="-99"/>
              </Node>
            </Node>
            <Node pos="r" depth="3" NCoef="0" IVar="6" Cut="2.4519727230072021e+00" cType="1" res="0.0000000000000000e+00" rms="0.0000000000000000e+00" purity="1.9087769091129303e-01" nType="0">
              <Node pos="l" depth="4" NCoef="0" IVar="-1" Cut="0.0000000000000000e+00" cType="1" res="-5.0786927342414856e-02" rms="2.9405602812767029e-01" purity="1.1350742727518082e-01" nType="-99"/>
              <Node pos="r" depth="4" NCoef="0" IVar="-1" Cut="0.0000000000000000e+00" cType="1" res="-1.1374267749488354e-02" rms="4.1241472959518433e-01" purity="3.3748728036880493e-01" nType="-99"/>
            </Node>
          </Node>
        </Node>
        <Node pos="r" depth="1" NCoef="0" IVar="1" Cut="2.0731706619262695e+00" cType="1" res="6.3524484634399414e-02" rms="3.8808903098106384e-01" purity="6.5941148996353149e-01" nType="0">
          <Node pos="l" depth="2" NCoef="0" IVar="2" Cut="4.0243902206420898e+00" cType="1" res="-3.2243654131889343e-02" rms="4.3232673406600952e-01" purity="4.3201261758804321e-01" nType="0">
            <Node pos="l" depth="3" NCoef="0" IVar="9" Cut="2.2494640946388245e-01" cType="1" res="2.7089447248727083e-03" rms="4.5137321949005127e-01" purity="5.0677341222763062e-01" nType="0">
              <Node pos="l" depth="4" NCoef="0" IVar="9" Cut="1.2087689340114594e-01" cType="1" res="-1.2361116707324982e-01" rms="4.1394323110580444e-01" purity="2.6939696073532104e-01" nType="0">
                <Node pos="l" depth="5" NCoef="0" IVar="-1" Cut="0.0000000000000000e+00" cType="1" res="-5.1170650869607925e-02" rms="3.2506993412971497e-01" purity="1.3475964963436127e-01" nType="-99"/>
                <Node pos="r" depth="5" NCoef="0" IVar="-1" Cut="0.0000000000000000e+00" cType="1" res="-1.5881629660725594e-02" rms="4.4116634130477905e-01" purity="3.3319237828254700e-01" nType="-99"/>
              </Node>
              <Node pos="r" depth="4" NCoef="0" IVar="3" Cut="4.0243902206420898e+00" cType="1" res="4.8548381775617599e-02" rms="4.5563080906867981e-01" purity="5.9291332960128784e-01" nType="0">
                <Node pos="l" depth="5" NCoef="0" IVar="-1" Cut="0.0000000000000000e+00" cType="1" res="1.7175862565636635e-02" rms="4.4720041751861572e-01" purity="6.3096141815185547e-01" nType="-99"/>
                <Node pos="r" depth="5" NCoef="0" IVar="-1" Cut="0.0000000000000000e+00" cType="1" res="-3.2540701329708099e-02" rms="4.5404171943664551e-01" purity="3.5650759935379028e-01" nType="-99"/>
              </Node>
            </Node>
            <Node pos="r" depth="3" NCoef="0" IVar="9" Cut="2.9677191376686096e-01" cType="1" res="-1.9252018630504608e-01" rms="2.8006199002265930e-01" purity="8.9194081723690033e-02" nType="0">
              <Node pos="l" depth="4" NCoef="0" IVar="-1" Cut="0.0000000000000000e+00" cType="1" res="-5.4246503859758377e-02" rms="2.3676708340644836e-01" purity="6.0871232300996780e-02" nType="-99"/>
              <Node pos="r" depth="4" NCoef="0" IVar="-1" Cut="0.0000000000000000e+00" cType="1" res="-4.1955139487981796e-02" rms="3.1653010845184326e-01" purity="1.1795517802238464e-01" nType="-99"/>
            </Node>
          </Node>
          <Node pos="r" depth="2" NCoef="0" IVar="9" Cut="2.0584662258625031e-01" cType="1" res="1.3623669743537903e-01" rms="3.3287641406059265e-01" purity="8.3206468820571899e-01" nType="0">
            <Node pos="l" depth="3" NCoef="0" IVar="5" Cut="9.5635856628417969e+01" cType="1" res="-5.3667565807700157e-03" rms="4.4046518206596375e-01" purity="6.0375022888183594e-01" nType="0">
              <Node pos="l" depth="4" NCoef="0" IVar="-1" Cut="0.0000000000000000e+00" cType="1" res="1.5522633679211140e-02" rms="4.1622114181518555e-01" purity="7.1014070510864258e-01" nType="-99"/>
              <Node pos="r" depth="4" NCoef="0" IVar="-1" Cut="0.0000000000000000e+00" cType="1" res="-2.9567170888185501e-02" rms="4.5092508196830750e-01" purity="4.1015759110450745e-01" nType="-99"/>
            </Node>
            <Node pos="r" depth="3" NCoef="0" IVar="2" Cut="3.0487804412841797e+00" cType="1" res="1.6265523433685303e-01" rms="3.0140489339828491e-01" purity="8.7466067075729370e-01" nType="0">
              <Node pos="l" depth="4" NCoef="0" IVar="6" Cut="2.4519622325897217e+00" cType="1" res="1.7483322322368622e-01" rms="2.8306487202644348e-01" purity="9.0111410617828369e-01" nType="0">
                <Node pos="l" depth="5" NCoef="0" IVar="-1" Cut="0.0000000000000000e+00" cType="1" res="3.5924173891544342e-02" rms="3.2018753886222839e-01" purity="8.6654907464981079e-01" nType="-99"/>
                <Node pos="r" depth="5" NCoef="0" IVar="-1" Cut="0.0000000000000000e+00" cType="1" res="5.3944669663906097e-02" rms="2.3415052890777588e-01" purity="9.3629550933837891e-01" nType="-99"/>
              </Node>
              <Node pos="r" depth="4" NCoef="0" IVar="-1" Cut="0.0000000000000000e+00" cType="1" res="-2.2681148257106543e-03" rms="4.5975512266159058e-01" purity="4.9765923619270325e-01" nType="-99"/>
            </Node>
          </Node>
        </Node>
      </Node>
    </BinaryTree>
    <BinaryTree type="DecisionTree" boostWeight="1.0000000000000000e+00" itree="10">
      <Node pos="s" depth="0" NCoef="0" IVar="0" Cut="2.0731706619262695e+00" cType="1" res="-1.2150786642450839e-04" rms="3.7472212314605713e-01" purity="4.9933144450187683e-01" nType="0">
        <Node pos="l" depth="1" NCoef="0" IVar="1" Cut="2.0731706619262695e+00" cType="1" res="-1.0137682408094406e-01" rms="3.3792531490325928e-01" purity="2.3118607699871063e-01" nType="0">
          <Node pos="l" depth="2" NCoef="0" IVar="2" Cut="3.0487804412841797e+00" cType="1" res="-1.5363363921642303e-01" rms="2.6083713769912720e-01" purity="8.8404096662998199e-02" nType="0">
            <Node pos="l" depth="3" NCoef="0" IVar="6" Cut="2.0688498020172119e+00" cType="1" res="-1.3574120402336121e-01" rms="3.0995005369186401e-01" purity="1.2937384843826294e-01" nType="0">
              <Node pos="l" depth="4" NCoef="0" IVar="9" Cut="4.7769534587860107e-01" cType="1" res="-1.6517639160156250e-01" rms="2.6305025815963745e-01" purity="8.2289583981037140e-02" nType="0">
                <Node pos="l" depth="5" NCoef="0" IVar="-1" Cut="0.0000000000000000e+00" cType="1" res="-5.1014915108680725e-02" rms="2.2460219264030457e-01" purity="5.7248443365097046e-02" nType="-99"/>
                <Node pos="r" depth="5" NCoef="0" IVar="-1" Cut="0.0000000000000000e+00" cType="1" res="-3.1392943114042282e-02" rms="3.5132780671119690e-01" purity="1.5799529850482941e-01" nType="-99"/>
              </Node>
              <Node pos="r" depth="4" NCoef="0" IVar="9" Cut="2.8899243474006653e-01" cType="1" res="-9.1774344444274902e-02" rms="3.6466750502586365e-01" purity="1.9970284402370453e-01" nType="0">
                <Node pos="l" depth="5" NCoef="0" IVar="-1" Cut="0.0000000000000000e+00" cType="1" res="-4.1283506900072098e-02" rms="2.8302025794982910e-01" purity="1.0382007807493210e-01" nType="-99"/>
                <Node pos="r" depth="5" NCoef="0" IVar="-1" Cut="0.0000000000000000e+00" cType="1" res="-7.2577190585434437e-03" rms="4.2382445931434631e-01" purity="2.9788580536842346e-01" nType="-99"/>
              </Node>
            </Node>
            <Node pos="r" depth="3" NCoef="0" IVar="3" Cut="1.0975610017776489e+00" cType="1" res="-1.8191042542457581e-01" rms="1.4975900948047638e-01" purity="2.3656459525227547e-02" nType="0">
              <Node pos="l" depth="4" NCoef="0" IVar="9" Cut="2.3198340833187103e-01" cType="1" res="-1.7684049904346466e-01" rms="1.6609133780002594e-01" purity="2.9664766043424606e-02" nType="0">
                <Node pos="l" depth="5" NCoef="0" IVar="-1" Cut="0.0000000000000000e+00" cType="1" res="-5.7898376137018204e-02" rms="1.2053909152746201e-01" purity="1.5113108791410923e-02" nType="-99"/>
                <Node pos="r" depth="5" NCoef="0" IVar="-1" Cut="0.0000000000000000e+00" cType="1" res="-5.2044432610273361e-02" rms="1.8834117054939270e-01" purity="3.8514215499162674e-02" nType="-99"/>
              </Node>
              <Node pos="r" depth="4" NCoef="0" IVar="-1" Cut="0.0000000000000000e+00" cType="1" res="-5.8769676834344864e-02" rms="1.1776508390903473e-01" purity="1.3816758058965206e-02" nType="-99"/>
            </Node>
          </Node>
          <Node pos="r" depth="2" NCoef="0" IVar="2" Cut="4.0243902206420898e+00" cType="1" res="-3.1643472611904144e-02" rms="4.0899997949600220e-01" purity="4.2171937227249146e-01" nType="0">
            <Node pos="l" depth="3" NCoef="0" IVar="4" Cut="1.4611085510253906e+02" cType="1" res="8.0413119867444038e-03" rms="4.2960152029991150e-01" purity="5.0178700685501099e-01" nType="0">
              <Node pos="l" depth="4" NCoef="0" IVar="4" Cut="7.8119155883789062e+01" cType="1" res="5.3955402225255966e-02" rms="4.4017010927200317e-01" purity="5.9342151880264282e-01" nType="0">
                <Node pos="l" depth="5" NCoef="0" IVar="-1" Cut="0.0000000000000000e+00" cType="1" res="-2.7875520288944244e-02" rms="4.4481128454208374e-01" purity="3.3415448665618896e-01" nType="-99"/>
                <Node pos="r" depth="5" NCoef="0" IVar="-1" Cut="0.0000000000000000e+00" cType="1" res="2.2256577387452126e-02" rms="4.2574766278266907e-01" purity="6.6046744585037231e-01" nType="-99"/>
              </Node>
              <Node pos="r" depth="4" NCoef="0" IVar="-1" Cut="0.0000000000000000e+00" cType="1" res="-4.0692705661058426e-02" rms="3.3051168918609619e-01" purity="1.4711414277553558e-01" nType="-99"/>
            </Node>
            <Node pos="r" depth="3" NCoef="0" IVar="-1" Cut="0.0000000000000000e+00" cType="1" res="-5.5533837527036667e-02" rms="2.1686919033527374e-01" purity="5.2909221500158310e-02" nType="-99"/>
          </Node>
        </Node>
        <Node pos="r" depth="1" NCoef="0" IVar="4" Cut="1.4612385559082031e+02" cType="1" res="6.3926197588443756e-02" rms="3.8264408707618713e-01" purity="6.6894328594207764e-01" nType="0">
          <Node pos="l" depth="2" NCoef="0" IVar="4" Cut="7.4902359008789062e+01" cType="1" res="9.7644150257110596e-02" rms="3.6444881558418274e-01" purity="7.3455727100372314e-01" nType="0">
            <Node pos="l" depth="3" NCoef="0" IVar="5" Cut="1.0260719299316406e+02" cType="1" res="-9.3952804803848267e-02" rms="4.3985819816589355e-01" purity="4.1696587204933167e-01" nType="0">
              <Node pos="l" depth="4" NCoef="0" IVar="5" Cut="7.4173080444335938e+01" cType="1" res="-3.6434646695852280e-02" rms="4.5536601543426514e-01" purity="5.1027482748031616e-01" nType="0">
                <Node pos="l" depth="5" NCoef="0" IVar="-1" Cut="0.0000000000000000e+00" cType="1" res="-2.0579950883984566e-02" rms="4.6045139431953430e-01" purity="4.4295758008956909e-01" nType="-99"/>
                <Node pos="r" depth="5" NCoef="0" IVar="-1" Cut="0.0000000000000000e+00" cType="1" res="2.6820041239261627e-03" rms="4.4526436924934387e-01" purity="5.6621074676513672e-01" nType="-99"/>
              </Node>
              <Node pos="r" depth="4" NCoef="0" IVar="-1" Cut="0.0000000000000000e+00" cType="1" res="-4.8731692135334015e-02" rms="3.7596818804740906e-01" purity="2.1674074232578278e-01" nType="-99"/>
            </Node>
            <Node pos="r" depth="3" NCoef="0" IVar="2" Cut="4.0243902206420898e+00" cType="1" res="1.2585340440273285e-01" rms="3.4306326508522034e-01" purity="7.8131705522537231e-01" nType="0">
              <Node pos="l" depth="4" NCoef="0" IVar="3" Cut="4.0243902206420898e+00" cType="1" res="1.4339280128479004e-01" rms="3.3206206560134888e-01" purity="8.2474762201309204e-01" nType="0">
                <Node pos="l" depth="5" NCoef="0" IVar="-1" Cut="0.0000000000000000e+00" cType="1" res="3.9691582322120667e-02" rms="3.1745389103889465e-01" purity="8.4630548954010010e-01" nType="-99"/>
                <Node pos="r" depth="5" NCoef="0" IVar="-1" Cut="0.0000000000000000e+00" cType="1" res="-7.8672626987099648e-03" rms="4.3482211232185364e-01" purity="5.6857919692993164e-01" nType="-99"/>
              </Node>
              <Node pos="r" depth="4" NCoef="0" IVar="-1" Cut="0.0000000000000000e+00" cType="1" res="-2.1542871370911598e-02" rms="3.9834243059158325e-01" purity="2.4305596947669983e-01" nType="-99"/>
            </Node>
          </Node>
          <Node pos="r" depth="2" NCoef="0" IVar="9" Cut="2.8104349970817566e-01" cType="1" res="-9.4778880476951599e-02" rms="4.2409995198249817e-01" purity="3.6010831594467163e-01" nType="0">
            <Node pos="l" depth="3" NCoef="0" IVar="6" Cut="1.9922277927398682e+00" cType="1" res="-1.8326462805271149e-01" rms="3.7956485152244568e-01" purity="2.1928046643733978e-01" nType="0">
              <Node pos="l" depth="4" NCoef="0" IVar="-1" Cut="0.0000000000000000e+00" cType="1" res="-5.5310908704996109e-02" rms="3.1873467564582825e-01" purity="1.2985084950923920e-01" nType="-99"/>
              <Node pos="r" depth="4" NCoef="0" IVar="-1" Cut="0.0000000000000000e+00" cType="1" res="-2.7361020445823669e-02" rms="4.1915908455848694e-01" purity="3.0005648732185364e-01" nType="-99"/>
            </Node>
            <Node pos="r" depth="3" NCoef="0" IVar="8" Cut="3.0390915274620056e-01" cType="1" res="3.5135147627443075e-03" rms="4.4861990213394165e-01" purity="5.1654374599456787e-01" nType="0">
              <Node pos="l" depth="4" NCoef="0" IVar="-1" Cut="0.0000000000000000e+00" cType="1" res="-3.5463821142911911e-02" rms="4.1862735152244568e-01" purity="2.9965957999229431e-01" nType="-99"/>
              <Node pos="r" depth="4" NCoef="0" IVar="-1" Cut="0.0000000000000000e+00" cType="1" res="2.5625580921769142e-02" rms="4.3130728602409363e-01" purity="6.6681677103042603e-01" nType="-99"/>
            </Node>
          </Node>
        </Node>
      </Node>
    </BinaryTree>
    <BinaryTree type="DecisionTree" boostWeight="1.0000000000000000e+00" itree="11">
      <Node pos="s" depth="0" NCoef="0" IVar="1" Cut="1.0975610017776489e+00" cType="1" res="-1.2411581119522452e-03" rms="3.6863976716995239e-01" purity="4.9819400906562805e-01" nType="0">
        <Node pos="l" depth="1" NCoef="0" IVar="0" Cut="2.0731706619262695e+00" cType="1" res="-8.4675289690494537e-02" rms="3.6094489693641663e-01" purity="2.5429430603981018e-01" nType="0">
          <Node pos="l" depth="2" NCoef="0" IVar="9" Cut="2.2793221473693848e-01" cType="1" res="-1.4039181172847748e-01" rms="2.5496539473533630e-01" purity="8.2250989973545074e-02" nType="0">
            <Node pos="l" depth="3" NCoef="0" IVar="4" Cut="1.5742088317871094e+02" cType="1" res="-1.6777807474136353e-01" rms="1.6477808356285095e-01" purity="3.0326874926686287e-02" nType="0">
              <Node pos="l" depth="4" NCoef="0" IVar="5" Cut="9.5440711975097656e+01" cType="1" res="-1.5928828716278076e-01" rms="1.8462884426116943e-01" purity="3.8557335734367371e-02" nType="0">
                <Node pos="l" depth="5" NCoef="0" IVar="-1" Cut="0.0000000000000000e+00" cType="1" res="-4.4954396784305573e-02" rms="2.3331226408481598e-01" purity="6.3947193324565887e-02" nType="-99"/>
                <Node pos="r" depth="5" NCoef="0" IVar="-1" Cut="0.0000000000000000e+00" cType="1" res="-5.5632095783948898e-02" rms="1.3412082195281982e-01" purity="1.8692862242460251e-02" nType="-99"/>
              </Node>
              <Node pos="r" depth="4" NCoef="0" IVar="-1" Cut="0.0000000000000000e+00" cType="1" res="-5.8203510940074921e-02" rms="1.1863829940557480e-01" purity="1.5253109857439995e-02" nType="-99"/>
            </Node>
            <Node pos="r" depth="3" NCoef="0" IVar="2" Cut="4.0243902206420898e+00" cType="1" res="-1.2539368867874146e-01" rms="2.9172471165657043e-01" purity="1.1068731546401978e-01" nType="0">
              <Node pos="l" depth="4" NCoef="0" IVar="6" Cut="2.5285947322845459e+00" cType="1" res="-1.0528799146413803e-01" rms="3.4082922339439392e-01" purity="1.5544894337654114e-01" nType="0">
                <Node pos="l" depth="5" NCoef="0" IVar="-1" Cut="0.0000000000000000e+00" cType="1" res="-3.5526081919670105e-02" rms="3.1030872464179993e-01" purity="1.1870244890451431e-01" nType="-99"/>
                <Node pos="r" depth="5" NCoef="0" IVar="-1" Cut="0.0000000000000000e+00" cType="1" res="-9.2778196558356285e-03" rms="4.1310656070709229e-01" purity="2.6751640439033508e-01" nType="-99"/>
              </Node>
              <Node pos="r" depth="4" NCoef="0" IVar="6" Cut="1.7623585462570190e+00" cType="1" res="-1.6529680788516998e-01" rms="1.4512947201728821e-01" purity="2.1850382909178734e-02" nType="0">
                <Node pos="l" depth="5" NCoef="0" IVar="-1" Cut="0.0000000000000000e+00" cType="1" res="-5.2727870643138885e-02" rms="1.6202130913734436e-01" purity="2.7394207194447517e-02" nType="-99"/>
                <Node pos="r" depth="5" NCoef="0" IVar="-1" Cut="0.0000000000000000e+00" cType="1" res="-5.5973626673221588e-02" rms="1.2771590054035187e-01" purity="1.6810433939099312e-02" nType="-99"/>
              </Node>
            </Node>
          </Node>
          <Node pos="r" depth="2" NCoef="0" IVar="9" Cut="3.3706483244895935e-01" cType="1" res="-3.5187873989343643e-02" rms="4.2784485220909119e-01" purity="4.0710315108299255e-01" nType="0">
            <Node pos="l" depth="3" NCoef="0" IVar="5" Cut="9.8751289367675781e+01" cType="1" res="-9.8024927079677582e-02" rms="4.0633115172386169e-01" purity="2.8634458780288696e-01" nType="0">
              <Node pos="l" depth="4" NCoef="0" IVar="6" Cut="2.1454818248748779e+00" cType="1" res="-5.0155669450759888e-02" rms="4.4131973385810852e-01" purity="3.7588331103324890e-01" nType="0">
                <Node pos="l" depth="5" NCoef="0" IVar="-1" Cut="0.0000000000000000e+00" cType="1" res="-2.7826063334941864e-02" rms="4.1354161500930786e-01" purity="2.6543310284614563e-01" nType="-99"/>
                <Node pos="r" depth="5" NCoef="0" IVar="-1" Cut="0.0000000000000000e+00" cType="1" res="4.9138707108795643e-03" rms="4.5444232225418091e-01" purity="4.8152279853820801e-01" nType="-99"/>
              </Node>
              <Node pos="r" depth="4" NCoef="0" IVar="8" Cut="3.2612046599388123e-01" cType="1" res="-1.6726031899452209e-01" rms="3.3778896927833557e-01" purity="1.5684089064598083e-01" nType="0">
                <Node pos="l" depth="5" NCoef="0" IVar="-1" Cut="0.0000000000000000e+00" cType="1" res="-4.7026220709085464e-02" rms="2.9930424690246582e-01" purity="1.1457257717847824e-01" nType="-99"/>
                <Node pos="r" depth="5" NCoef="0" IVar="-1" Cut="0.0000000000000000e+00" cType="1" res="-3.1802859157323837e-02" rms="3.7840896844863892e-01" purity="2.0983250439167023e-01" nType="-99"/>
              </Node>
            </Node>
            <Node pos="r" depth="3" NCoef="0" IVar="8" Cut="2.4040208756923676e-01" cType="1" res="3.3517681062221527e-02" rms="4.4004061818122864e-01" purity="5.3913968801498413e-01" nType="0">
              <Node pos="l" depth="4" NCoef="0" IVar="-1" Cut="0.0000000000000000e+00" cType="1" res="-2.2789077833294868e-02" rms="4.2238947749137878e-01" purity="3.0728280544281006e-01" nType="-99"/>
              <Node pos="r" depth="4" NCoef="0" IVar="6" Cut="2.1454880237579346e+00" cType="1" res="8.5229702293872833e-02" rms="4.3531659245491028e-01" purity="6.2582474946975708e-01" nType="0">
                <Node pos="l" depth="5" NCoef="0" IVar="-1" Cut="0.0000000000000000e+00" cType="1" res="3.1706709414720535e-03" rms="4.5664480328559875e-01" purity="5.2913296222686768e-01" nType="-99"/>
                <Node pos="r" depth="5" NCoef="0" IVar="-1" Cut="0.0000000000000000e+00" cType="1" res="3.5498246550559998e-02" rms="3.9492735266685486e-01" purity="7.3546570539474487e-01" nType="-99"/>
              </Node>
            </Node>
          </Node>
        </Node>
        <Node pos="r" depth="1" NCoef="0" IVar="4" Cut="1.5134687805175781e+02" cType="1" res="6.3743107020854950e-02" rms="3.6141806840896606e-01" purity="6.8815994262695312e-01" nType="0">
          <Node pos="l" depth="2" NCoef="0" IVar="4" Cut="7.6613876342773438e+01" cType="1" res="9.2304319143295288e-02" rms="3.5041245818138123e-01" purity="7.5373691320419312e-01" nType="0">
            <Node pos="l" depth="3" NCoef="0" IVar="5" Cut="9.5440628051757812e+01" cType="1" res="-9.3098193407058716e-02" rms="4.2643377184867859e-01" purity="4.0140739083290100e-01" nType="0">
              <Node pos="l" depth="4" NCoef="0" IVar="-1" Cut="0.0000000000000000e+00" cType="1" res="-6.1334972269833088e-03" rms="4.4234320521354675e-01" purity="5.1051694154739380e-01" nType="-99"/>
              <Node pos="r" depth="4" NCoef="0" IVar="-1" Cut="0.0000000000000000e+00" cType="1" res="-4.5484803617000580e-02" rms="3.7653115391731262e-01" purity="2.2655151784420013e-01" nType="-99"/>
            </Node>
            <Node pos="r" depth="3" NCoef="0" IVar="2" Cut="4.0243902206420898e+00" cType="1" res="1.1645200848579407e-01" rms="3.3171811699867249e-01" purity="7.9962587356567383e-01" nType="0">
              <Node pos="l" depth="4" NCoef="0" IVar="9" Cut="1.9146877527236938e-01" cType="1" res="1.3194051384925842e-01" rms="3.2081314921379089e-01" purity="8.4139961004257202e-01" nType="0">
                <Node pos="l" depth="5" NCoef="0" IVar="-1" Cut="0.0000000000000000e+00" cType="1" res="-3.5948463482782245e-04" rms="4.3843507766723633e-01" purity="5.9899967908859253e-01" nType="-99"/>
                <Node pos="r" depth="5" NCoef="0" IVar="-1" Cut="0.0000000000000000e+00" cType="1" res="4.0268279612064362e-02" rms="2.9573038220405579e-01" purity="8.7558698654174805e-01" nType="-99"/>
              </Node>
              <Node pos="r" depth="4" NCoef="0" IVar="-1" Cut="0.0000000000000000e+00" cType="1" res="-2.0443568006157875e-02" rms="3.9870071411132812e-01" purity="2.5103959441184998e-01" nType="-99"/>
            </Node>
          </Node>
          <Node pos="r" depth="2" NCoef="0" IVar="9" Cut="2.4516826868057251e-01" cType="1" res="-1.2572319805622101e-01" rms="3.7587663531303406e-01" purity="2.5314250588417053e-01" nType="0">
            <Node pos="l" depth="3" NCoef="0" IVar="-1" Cut="0.0000000000000000e+00" cType="1" res="-5.2277494221925735e-02" rms="2.9330119490623474e-01" purity="1.1476432532072067e-01" nType="-99"/>
            <Node pos="r" depth="3" NCoef="0" IVar="-1" Cut="0.0000000000000000e+00" cType="1" res="-9.6254311501979828e-03" rms="4.2005595564842224e-01" purity="3.7741842865943909e-01" nType="-99"/>
          </Node>
        </Node>
      </Node>
    </BinaryTree>
    <BinaryTree type="DecisionTree" boostWeight="1.0000000000000000e+00" itree="12">
      <Node pos="s" depth="0" NCoef="0" IVar="2" Cut="3.0487804412841797e+00" cType="1" res="-1.0159941157326102e-03" rms="3.6456730961799622e-01" purity="4.9732711911201477e-01" nType="0">
        <Node pos="l" depth="1" NCoef="0" IVar="3" Cut="3.0487804412841797e+00" cType="1" res="3.3794119954109192e-02" rms="3.7669801712036133e-01" purity="5.9474843740463257e-01" nType="0">
          <Node pos="l" depth="2" NCoef="0" IVar="6" Cut="1.9922294616699219e+00" cType="1" res="6.1922017484903336e-02" rms="3.6916303634643555e-01" purity="6.4588409662246704e-01" nType="0">
            <Node pos="l" depth="3" NCoef="0" IVar="5" Cut="1.0600413513183594e+02" cType="1" res="-1.3148716650903225e-02" rms="3.8328155875205994e-01" purity="5.1266258955001831e-01" nType="0">
              <Node pos="l" depth="4" NCoef="0" IVar="9" Cut="4.1536849737167358e-01" cType="1" res="3.1070709228515625e-02" rms="3.8299965858459473e-01" purity="5.9641671180725098e-01" nType="0">
                <Node pos="l" depth="5" NCoef="0" IVar="-1" Cut="0.0000000000000000e+00" cType="1" res="-9.4282720237970352e-03" rms="3.9120644330978394e-01" purity="4.7397747635841370e-01" nType="-99"/>
                <Node pos="r" depth="5" NCoef="0" IVar="-1" Cut="0.0000000000000000e+00" cType="1" res="2.9441567137837410e-02" rms="3.5436010360717773e-01" purity="7.4866908788681030e-01" nType="-99"/>
              </Node>
              <Node pos="r" depth="4" NCoef="0" IVar="8" Cut="3.9545771479606628e-01" cType="1" res="-1.6237540543079376e-01" rms="3.4462505578994751e-01" purity="2.3001852631568909e-01" nType="0">
                <Node pos="l" depth="5" NCoef="0" IVar="-1" Cut="0.0000000000000000e+00" cType="1" res="-4.9047823995351791e-02" rms="3.2034417986869812e-01" purity="1.7991250753402710e-01" nType="-99"/>
                <Node pos="r" depth="5" NCoef="0" IVar="-1" Cut="0.0000000000000000e+00" cType="1" res="-2.7371309697628021e-02" rms="3.8060092926025391e-01" purity="3.2412567734718323e-01" nType="-99"/>
              </Node>
            </Node>
            <Node pos="r" depth="3" NCoef="0" IVar="9" Cut="1.3052430748939514e-01" cType="1" res="1.1594826728105545e-01" rms="3.4879985451698303e-01" purity="7.4175977706909180e-01" nType="0">
              <Node pos="l" depth="4" NCoef="0" IVar="-1" Cut="0.0000000000000000e+00" cType="1" res="-3.0160199850797653e-02" rms="3.7099319696426392e-01" purity="2.8446784615516663e-01" nType="-99"/>
              <Node pos="r" depth="4" NCoef="0" IVar="8" Cut="1.6486349701881409e-01" cType="1" res="1.3219913840293884e-01" rms="3.4116882085800171e-01" purity="7.7251482009887695e-01" nType="0">
                <Node pos="l" depth="5" NCoef="0" IVar="-1" Cut="0.0000000000000000e+00" cType="1" res="-7.8299138695001602e-03" rms="4.1269019246101379e-01" purity="4.9211490154266357e-01" nType="-99"/>
                <Node pos="r" depth="5" NCoef="0" IVar="-1" Cut="0.0000000000000000e+00" cType="1" res="3.8119964301586151e-02" rms="3.2758840918540955e-01" purity="8.0281305313110352e-01" nType="-99"/>
              </Node>
            </Node>
          </Node>
          <Node pos="r" depth="2" NCoef="0" IVar="6" Cut="2.6818430423736572e+00" cType="1" res="-1.1127667129039764e-01" rms="3.8178658485412598e-01" purity="3.3101412653923035e-01" nType="0">
            <Node pos="l" depth="3" NCoef="0" IVar="8" Cut="3.5771885514259338e-01" cType="1" res="-1.4760506153106689e-01" rms="3.6778640747070312e-01" purity="2.6186957955360413e-01" nType="0">
              <Node pos="l" depth="4" NCoef="0" IVar="8" Cut="1.8335437774658203e-01" cType="1" res="-1.8647943437099457e-01" rms="3.3414635062217712e-01" purity="1.9531737267971039e-01" nType="0">
                <Node pos="l" depth="5" NCoef="0" IVar="-1" Cut="0.0000000000000000e+00" cType="1" res="-5.9502117335796356e-02" rms="2.8173130750656128e-01" purity="1.0955344885587692e-01" nType="-99"/>
                <Node pos="r" depth="5" NCoef="0" IVar="-1" Cut="0.0000000000000000e+00" cType="1" res="-3.9322379976511002e-02" rms="3.5929068922996521e-01" purity="2.4724750220775604e-01" nType="-99"/>
              </Node>
              <Node pos="r" depth="4" NCoef="0" IVar="-1" Cut="0.0000000000000000e+00" cType="1" res="-2.3288283497095108e-02" rms="4.0284630656242371e-01" purity="3.5147505998611450e-01" nType="-99"/>
            </Node>
            <Node pos="r" depth="3" NCoef="0" IVar="-1" Cut="0.0000000000000000e+00" cType="1" res="-3.0420459806919098e-03" rms="4.0116703510284424e-01" purity="5.1852428913116455e-01" nType="-99"/>
          </Node>
        </Node>
        <Node pos="r" depth="1" NCoef="0" IVar="6" Cut="2.4519731998443604e+00" cType="1" res="-1.3800704479217529e-01" rms="2.7200520038604736e-01" purity="1.1393704265356064e-01" nType="0">
          <Node pos="l" depth="2" NCoef="0" IVar="9" Cut="3.3094331622123718e-01" cType="1" res="-1.5859520435333252e-01" rms="2.4399912357330322e-01" purity="8.2737825810909271e-02" nType="0">
            <Node pos="l" depth="3" NCoef="0" IVar="1" Cut="1.0975610017776489e+00" cType="1" res="-1.7897337675094604e-01" rms="2.0106744766235352e-01" purity="5.0134424120187759e-02" nType="0">
              <Node pos="l" depth="4" NCoef="0" IVar="0" Cut="1.0975610017776489e+00" cType="1" res="-1.6459532082080841e-01" rms="1.5613621473312378e-01" purity="2.5413563475012779e-02" nType="0">
                <Node pos="l" depth="5" NCoef="0" IVar="-1" Cut="0.0000000000000000e+00" cType="1" res="-5.5782854557037354e-02" rms="1.0051911324262619e-01" purity="1.0275764390826225e-02" nType="-99"/>
                <Node pos="r" depth="5" NCoef="0" IVar="-1" Cut="0.0000000000000000e+00" cType="1" res="-5.2464481443166733e-02" rms="2.0521476864814758e-01" purity="4.4843319803476334e-02" nType="-99"/>
              </Node>
              <Node pos="r" depth="4" NCoef="0" IVar="-1" Cut="0.0000000000000000e+00" cType="1" res="-5.3018108010292053e-02" rms="2.6661103963851929e-01" purity="9.9237889051437378e-02" nType="-99"/>
            </Node>
            <Node pos="r" depth="3" NCoef="0" IVar="8" Cut="3.3587473630905151e-01" cType="1" res="-1.3339163362979889e-01" rms="2.8638905286788940e-01" purity="1.2306147813796997e-01" nType="0">
              <Node pos="l" depth="4" NCoef="0" IVar="-1" Cut="0.0000000000000000e+00" cType="1" res="-5.0087872892618179e-02" rms="2.1606706082820892e-01" purity="6.6461414098739624e-02" nType="-99"/>
              <Node pos="r" depth="4" NCoef="0" IVar="-1" Cut="0.0000000000000000e+00" cType="1" res="-2.2343261167407036e-02" rms="3.5562381148338318e-01" purity="2.0092855393886566e-01" nType="-99"/>
            </Node>
          </Node>
          <Node pos="r" depth="2" NCoef="0" IVar="8" Cut="2.9049268364906311e-01" cType="1" res="-9.4891585409641266e-02" rms="3.1859672069549561e-01" purity="1.7927406728267670e-01" nType="0">
            <Node pos="l" depth="3" NCoef="0" IVar="-1" Cut="0.0000000000000000e+00" cType="1" res="-4.3826945126056671e-02" rms="2.4636474251747131e-01" purity="9.6316739916801453e-02" nType="-99"/>
            <Node pos="r" depth="3" NCoef="0" IVar="-1" Cut="0.0000000000000000e+00" cType="1" res="-1.1870022863149643e-02" rms="3.6357885599136353e-01" purity="2.5248295068740845e-01" nType="-99"/>
          </Node>
        </Node>
      </Node>
    </BinaryTree>
    <BinaryTree type="DecisionTree" boostWeight="1.0000000000000000e+00" itree="13">
      <Node pos="s" depth="0" NCoef="0" IVar="0" Cut="1.0975610017776489e+00" cType="1" res="-7.2311254916712642e-04" rms="3.5894820094108582e-01" purity="4.9920856952667236e-01" nType="0">
        <Node pos="l" depth="1" NCoef="0" IVar="6" Cut="2.4519746303558350e+00" cType="1" res="0.0000000000000000e+00" rms="0.0000000000000000e+00" purity="1.8169167637825012e-01" nType="0">
          <Node pos="l" depth="2" NCoef="0" IVar="9" Cut="3.5822525620460510e-01" cType="1" res="0.0000000000000000e+00" rms="0.0000000000000000e+00" purity="1.3095431029796600e-01" nType="0">
            <Node pos="l" depth="3" NCoef="0" IVar="8" Cut="5.7130146026611328e-01" cType="1" res="0.0000000000000000e+00" rms="0.0000000000000000e+00" purity="7.7431738376617432e-02" nType="0">
              <Node pos="l" depth="4" NCoef="0" IVar="6" Cut="1.4951058626174927e+00" cType="1" res="0.0000000000000000e+00" rms="0.0000000000000000e+00" purity="6.5728448331356049e-02" nType="0">
                <Node pos="l" depth="5" NCoef="0" IVar="-1" Cut="0.0000000000000000e+00" cType="1" res="-5.4587081074714661e-02" rms="1.8532170355319977e-01" purity="3.7852343171834946e-02" nType="-99"/>
                <Node pos="r" depth="5" NCoef="0" IVar="-1" Cut="0.0000000000000000e+00" cType="1" res="-4.1725501418113708e-02" rms="2.5143697857856750e-01" purity="9.5794536173343658e-02" nType="-99"/>
              </Node>
              <Node pos="r" depth="4" NCoef="0" IVar="-1" Cut="0.0000000000000000e+00" cType="1" res="-3.1095629557967186e-02" rms="2.9563221335411072e-01" purity="1.3222251832485199e-01" nType="-99"/>
            </Node>
            <Node pos="r" depth="3" NCoef="0" IVar="5" Cut="1.0227193450927734e+02" cType="1" res="0.0000000000000000e+00" rms="0.0000000000000000e+00" purity="2.0973865687847137e-01" nType="0">
              <Node pos="l" depth="4" NCoef="0" IVar="1" Cut="1.0975610017776489e+00" cType="1" res="0.0000000000000000e+00" rms="0.0000000000000000e+00" purity="2.8328451514244080e-01" nType="0">
                <Node pos="l" depth="5" NCoef="0" IVar="-1" Cut="0.0000000000000000e+00" cType="1" res="-3.0921261757612228e-02" rms="3.0597814917564392e-01" purity="1.1057882755994797e-01" nType="-99"/>
                <Node pos="r" depth="5" NCoef="0" IVar="-1" Cut="0.0000000000000000e+00" cType="1" res="3.4119158517569304e-03" rms="4.4123458862304688e-01" purity="4.6909531950950623e-01" nType="-99"/>
              </Node>
              <Node pos="r" depth="4" NCoef="0" IVar="-1" Cut="0.0000000000000000e+00" cType="1" res="-4.1871562600135803e-02" rms="2.6306322216987610e-01" purity="9.0018361806869507e-02" nType="-99"/>
            </Node>
          </Node>
          <Node pos="r" depth="2" NCoef="0" IVar="2" Cut="2.0731706619262695e+00" cType="1" res="0.0000000000000000e+00" rms="0.0000000000000000e+00" purity="2.9396712779998779e-01" nType="0">
            <Node pos="l" depth="3" NCoef="0" IVar="1" Cut="1.0975610017776489e+00" cType="1" res="0.0000000000000000e+00" rms="0.0000000000000000e+00" purity="4.2375853657722473e-01" nType="0">
              <Node pos="l" depth="4" NCoef="0" IVar="-1" Cut="0.0000000000000000e+00" cType="1" res="-2.0827820524573326e-02" rms="3.5883432626724243e-01" purity="1.6750328242778778e-01" nType="-99"/>
              <Node pos="r" depth="4" NCoef="0" IVar="-1" Cut="0.0000000000000000e+00" cType="1" res="1.9840152934193611e-02" rms="4.2856898903846741e-01" purity="5.9898775815963745e-01" nType="-99"/>
            </Node>
            <Node pos="r" depth="3" NCoef="0" IVar="-1" Cut="0.0000000000000000e+00" cType="1" res="-4.1644860059022903e-02" rms="2.3491425812244415e-01" purity="7.7678225934505463e-02" nType="-99"/>
          </Node>
        </Node>
        <Node pos="r" depth="1" NCoef="0" IVar="1" Cut="2.0731706619262695e+00" cType="1" res="4.5858502388000488e-02" rms="3.7052193284034729e-01" purity="6.5869694948196411e-01" nType="0">
          <Node pos="l" depth="2" NCoef="0" IVar="9" Cut="3.3706483244895935e-01" cType="1" res="-2.5527684018015862e-02" rms="4.1581851243972778e-01" purity="4.3292310833930969e-01" nType="0">
            <Node pos="l" depth="3" NCoef="0" IVar="6" Cut="2.1454761028289795e+00" cType="1" res="-8.3820201456546783e-02" rms="3.9786869287490845e-01" purity="3.0929177999496460e-01" nType="0">
              <Node pos="l" depth="4" NCoef="0" IVar="8" Cut="5.0350135564804077e-01" cType="1" res="-1.4169169962406158e-01" rms="3.5860094428062439e-01" purity="1.9945715367794037e-01" nType="0">
                <Node pos="l" depth="5" NCoef="0" IVar="-1" Cut="0.0000000000000000e+00" cType="1" res="-4.1063167154788971e-02" rms="3.3068016171455383e-01" purity="1.6203142702579498e-01" nType="-99"/>
                <Node pos="r" depth="5" NCoef="0" IVar="-1" Cut="0.0000000000000000e+00" cType="1" res="-1.8529992550611496e-02" rms="4.1476631164550781e-01" purity="2.9440525174140930e-01" nType="-99"/>
              </Node>
              <Node pos="r" depth="4" NCoef="0" IVar="5" Cut="1.0260764312744141e+02" cType="1" res="-2.5687124580144882e-02" rms="4.2590481042861938e-01" purity="4.1962286829948425e-01" nType="0">
                <Node pos="l" depth="5" NCoef="0" IVar="-1" Cut="0.0000000000000000e+00" cType="1" res="5.6702918373048306e-03" rms="4.3856236338615417e-01" purity="5.1379042863845825e-01" nType="-99"/>
                <Node pos="r" depth="5" NCoef="0" IVar="-1" Cut="0.0000000000000000e+00" cType="1" res="-3.0210958793759346e-02" rms="3.7949913740158081e-01" purity="2.3270688951015472e-01" nType="-99"/>
              </Node>
            </Node>
            <Node pos="r" depth="3" NCoef="0" IVar="8" Cut="3.0739721655845642e-01" cType="1" res="3.7082388997077942e-02" rms="4.2546758055686951e-01" purity="5.6571143865585327e-01" nType="0">
              <Node pos="l" depth="4" NCoef="0" IVar="5" Cut="1.0262550354003906e+02" cType="1" res="-5.3980778902769089e-02" rms="4.2523482441902161e-01" purity="4.0454879403114319e-01" nType="0">
                <Node pos="l" depth="5" NCoef="0" IVar="-1" Cut="0.0000000000000000e+00" cType="1" res="1.9877157174050808e-03" rms="4.4239383935928345e-01" purity="5.1572543382644653e-01" nType="-99"/>
                <Node pos="r" depth="5" NCoef="0" IVar="-1" Cut="0.0000000000000000e+00" cType="1" res="-3.9026644080877304e-02" rms="3.6715003848075867e-01" purity="2.0695300400257111e-01" nType="-99"/>
              </Node>
              <Node pos="r" depth="4" NCoef="0" IVar="4" Cut="7.6927673339843750e+01" cType="1" res="1.0164031386375427e-01" rms="4.1366222500801086e-01" purity="6.7996543645858765e-01" nType="0">
                <Node pos="l" depth="5" NCoef="0" IVar="-1" Cut="0.0000000000000000e+00" cType="1" res="-5.6443084031343460e-03" rms="4.5695549249649048e-01" purity="5.0152879953384399e-01" nType="-99"/>
                <Node pos="r" depth="5" NCoef="0" IVar="-1" Cut="0.0000000000000000e+00" cType="1" res="3.2521907240152359e-02" rms="3.8916108012199402e-01" purity="7.3904472589492798e-01" nType="-99"/>
              </Node>
            </Node>
          </Node>
          <Node pos="r" depth="2" NCoef="0" IVar="9" Cut="1.9263134896755219e-01" cType="1" res="1.0032728314399719e-01" rms="3.2133132219314575e-01" purity="8.3096593618392944e-01" nType="0">
            <Node pos="l" depth="3" NCoef="0" IVar="6" Cut="1.9922277927398682e+00" cType="1" res="-3.1699243932962418e-02" rms="4.3061947822570801e-01" purity="5.6638121604919434e-01" nType="0">
              <Node pos="l" depth="4" NCoef="0" IVar="-1" Cut="0.0000000000000000e+00" cType="1" res="-3.0366733670234680e-02" rms="4.3047797679901123e-01" purity="4.3324467539787292e-01" nType="-99"/>
              <Node pos="r" depth="4" NCoef="0" IVar="-1" Cut="0.0000000000000000e+00" cType="1" res="9.2088067904114723e-03" rms="4.1557520627975464e-01" purity="6.5784353017807007e-01" nType="-99"/>
            </Node>
            <Node pos="r" depth="3" NCoef="0" IVar="8" Cut="2.3872931301593781e-01" cType="1" res="1.2032224982976913e-01" rms="2.9625728726387024e-01" purity="8.7103641033172607e-01" nType="0">
              <Node pos="l" depth="4" NCoef="0" IVar="-1" Cut="0.0000000000000000e+00" cType="1" res="1.2431928887963295e-02" rms="3.6572319269180298e-01" purity="7.6690161228179932e-01" nType="-99"/>
              <Node pos="r" depth="4" NCoef="0" IVar="6" Cut="2.2987241744995117e+00" cType="1" res="1.3786663115024567e-01" rms="2.7439665794372559e-01" purity="8.9563870429992676e-01" nType="0">
                <Node pos="l" depth="5" NCoef="0" IVar="-1" Cut="0.0000000000000000e+00" cType="1" res="2.9137939214706421e-02" rms="3.1318780779838562e-01" purity="8.5163557529449463e-01" nType="-99"/>
                <Node pos="r" depth="5" NCoef="0" IVar="-1" Cut="0.0000000000000000e+00" cType="1" res="4.8559553921222687e-02" rms="2.3579899966716766e-01" purity="9.3037641048431396e-01" nType="-99"/>
              </Node>
            </Node>
          </Node>
        </Node>
      </Node>
    </BinaryTree>
    <BinaryTree type="DecisionTree" boostWeight="1.0000000000000000e+00" itree="14">
      <Node pos="s" depth="0" NCoef="0" IVar="2" Cut="3.0487804412841797e+00" cType="1" res="2.3101860278984532e-05" rms="3.5630938410758972e-01" purity="4.9853408336639404e-01" nType="0">
        <Node pos="l" depth="1" NCoef="0" IVar="3" Cut="3.0487804412841797e+00" cType="1" res="2.9465481638908386e-02" rms="3.6889088153839111e-01" purity="5.9560817480087280e-01" nType="0">
          <Node pos="l" depth="2" NCoef="0" IVar="5" Cut="1.0242798614501953e+02" cType="1" res="5.4089780896902084e-02" rms="3.6212334036827087e-01" purity="6.4694398641586304e-01" nType="0">
            <Node pos="l" depth="3" NCoef="0" IVar="5" Cut="6.2935150146484375e+01" cType="1" res="8.6172439157962799e-02" rms="3.5280764102935791e-01" purity="7.1528005599975586e-01" nType="0">
              <Node pos="l" depth="4" NCoef="0" IVar="4" Cut="1.4569229125976562e+02" cType="1" res="-5.1361616700887680e-02" rms="3.9642363786697388e-01" purity="5.0642430782318115e-01" nType="0">
                <Node pos="l" depth="5" NCoef="0" IVar="-1" Cut="0.0000000000000000e+00" cType="1" res="-4.8300526104867458e-03" rms="4.0092474222183228e-01" purity="5.8844220638275146e-01" nType="-99"/>
                <Node pos="r" depth="5" NCoef="0" IVar="-1" Cut="0.0000000000000000e+00" cType="1" res="-4.3022010475397110e-02" rms="3.5104739665985107e-01" purity="1.8952350318431854e-01" nType="-99"/>
              </Node>
              <Node pos="r" depth="4" NCoef="0" IVar="9" Cut="1.9956824183464050e-01" cType="1" res="1.2338813394308090e-01" rms="3.3034414052963257e-01" purity="7.7179485559463501e-01" nType="0">
                <Node pos="l" depth="5" NCoef="0" IVar="-1" Cut="0.0000000000000000e+00" cType="1" res="3.9745206013321877e-03" rms="3.9851140975952148e-01" purity="4.9103236198425293e-01" nType="-99"/>
                <Node pos="r" depth="5" NCoef="0" IVar="-1" Cut="0.0000000000000000e+00" cType="1" res="3.8795918226242065e-02" rms="3.1114336848258972e-01" purity="8.2640612125396729e-01" nType="-99"/>
              </Node>
            </Node>
            <Node pos="r" depth="3" NCoef="0" IVar="6" Cut="2.6052129268646240e+00" cType="1" res="-4.4294405728578568e-02" rms="3.7245285511016846e-01" purity="4.3738564848899841e-01" nType="0">
              <Node pos="l" depth="4" NCoef="0" IVar="4" Cut="1.4013885498046875e+02" cType="1" res="-1.0750466585159302e-01" rms="3.6007371544837952e-01" purity="3.0659186840057373e-01" nType="0">
                <Node pos="l" depth="5" NCoef="0" IVar="-1" Cut="0.0000000000000000e+00" cType="1" res="-2.0405262708663940e-02" rms="3.8293933868408203e-01" purity="3.8153836131095886e-01" nType="-99"/>
                <Node pos="r" depth="5" NCoef="0" IVar="-1" Cut="0.0000000000000000e+00" cType="1" res="-4.7436870634555817e-02" rms="2.8725433349609375e-01" purity="1.2718784809112549e-01" nType="-99"/>
              </Node>
              <Node pos="r" depth="4" NCoef="0" IVar="-1" Cut="0.0000000000000000e+00" cType="1" res="1.7107978463172913e-02" rms="3.6767494678497314e-01" purity="6.6884762048721313e-01" nType="-99"/>
            </Node>
          </Node>
          <Node pos="r" depth="2" NCoef="0" IVar="9" Cut="3.1125655770301819e-01" cType="1" res="-9.8164938390254974e-02" rms="3.7721329927444458e-01" purity="3.2952937483787537e-01" nType="0">
            <Node pos="l" depth="3" NCoef="0" IVar="4" Cut="1.4618705749511719e+02" cType="1" res="-1.5349532663822174e-01" rms="3.3545082807540894e-01" purity="2.0054121315479279e-01" nType="0">
              <Node pos="l" depth="4" NCoef="0" IVar="4" Cut="1.0412738800048828e+02" cType="1" res="-1.3300138711929321e-01" rms="3.6745727062225342e-01" purity="2.6291051506996155e-01" nType="0">
                <Node pos="l" depth="5" NCoef="0" IVar="-1" Cut="0.0000000000000000e+00" cType="1" res="-4.5053288340568542e-02" rms="3.3766663074493408e-01" purity="1.6346490383148193e-01" nType="-99"/>
                <Node pos="r" depth="5" NCoef="0" IVar="-1" Cut="0.0000000000000000e+00" cType="1" res="-2.3826994001865387e-02" rms="3.9204403758049011e-01" purity="3.6587843298912048e-01" nType="-99"/>
              </Node>
              <Node pos="r" depth="4" NCoef="0" IVar="-1" Cut="0.0000000000000000e+00" cType="1" res="-5.2835643291473389e-02" rms="2.5692966580390930e-01" purity="7.8342057764530182e-02" nType="-99"/>
            </Node>
            <Node pos="r" depth="3" NCoef="0" IVar="8" Cut="2.9694873094558716e-01" cType="1" res="-4.6943712979555130e-02" rms="4.0544348955154419e-01" purity="4.4893807172775269e-01" nType="0">
              <Node pos="l" depth="4" NCoef="0" IVar="-1" Cut="0.0000000000000000e+00" cType="1" res="-3.5238556563854218e-02" rms="3.7404790520668030e-01" purity="2.7512288093566895e-01" nType="-99"/>
              <Node pos="r" depth="4" NCoef="0" IVar="-1" Cut="0.0000000000000000e+00" cType="1" res="5.6060212664306164e-03" rms="4.1324299573898315e-01" purity="5.7652693986892700e-01" nType="-99"/>
            </Node>
          </Node>
        </Node>
        <Node pos="r" depth="1" NCoef="0" IVar="2" Cut="4.0243902206420898e+00" cType="1" res="-1.1575099080801010e-01" rms="2.7251791954040527e-01" purity="1.1681681871414185e-01" nType="0">
          <Node pos="l" depth="2" NCoef="0" IVar="-1" Cut="0.0000000000000000e+00" cType="1" res="-1.3752453960478306e-02" rms="3.5725584626197815e-01" purity="2.8047159314155579e-01" nType="-99"/>
          <Node pos="r" depth="2" NCoef="0" IVar="8" Cut="2.4048472940921783e-01" cType="1" res="-1.3023698329925537e-01" rms="2.4741697311401367e-01" purity="8.0323614180088043e-02" nType="0">
            <Node pos="l" depth="3" NCoef="0" IVar="0" Cut="1.0975610017776489e+00" cType="1" res="-1.5685808658599854e-01" rms="1.6476567089557648e-01" purity="2.9870342463254929e-02" nType="0">
              <Node pos="l" depth="4" NCoef="0" IVar="-1" Cut="0.0000000000000000e+00" cType="1" res="-5.4736137390136719e-02" rms="1.1126273125410080e-01" purity="1.2342594563961029e-02" nType="-99"/>
              <Node pos="r" depth="4" NCoef="0" IVar="-1" Cut="0.0000000000000000e+00" cType="1" res="-5.2153512835502625e-02" rms="2.2305952012538910e-01" purity="5.7825397700071335e-02" nType="-99"/>
            </Node>
            <Node pos="r" depth="3" NCoef="0" IVar="4" Cut="8.7512908935546875e+01" cType="1" res="-1.1463645100593567e-01" rms="2.8376170992851257e-01" purity="1.0989030450582504e-01" nType="0">
              <Node pos="l" depth="4" NCoef="0" IVar="-1" Cut="0.0000000000000000e+00" cType="1" res="-4.8129010945558548e-02" rms="2.1788735687732697e-01" purity="5.5051568895578384e-02" nType="-99"/>
              <Node pos="r" depth="4" NCoef="0" IVar="4" Cut="1.4299629211425781e+02" cType="1" res="-9.5084130764007568e-02" rms="3.1028106808662415e-01" purity="1.3790914416313171e-01" nType="0">
                <Node pos="l" depth="5" NCoef="0" IVar="-1" Cut="0.0000000000000000e+00" cType="1" res="-1.3030195608735085e-02" rms="3.6345207691192627e-01" purity="2.0907829701900482e-01" nType="-99"/>
                <Node pos="r" depth="5" NCoef="0" IVar="-1" Cut="0.0000000000000000e+00" cType="1" res="-4.9488842487335205e-02" rms="2.1240653097629547e-01" purity="4.9438592046499252e-02" nType="-99"/>
              </Node>
            </Node>
          </Node>
        </Node>
      </Node>
    </BinaryTree>
    <BinaryTree type="DecisionTree" boostWeight="1.0000000000000000e+00" itree="15">
      <Node pos="s" depth="0" NCoef="0" IVar="0" Cut="2.0731706619262695e+00" cType="1" res="4.0196781628765166e-04" rms="3.5310238599777222e-01" purity="4.9844959378242493e-01" nType="0">
        <Node pos="l" depth="1" NCoef="0" IVar="1" Cut="4.0243902206420898e+00" cType="1" res="-7.0779241621494293e-02" rms="3.2072412967681885e-01" purity="2.3269811272621155e-01" nType="0">
          <Node pos="l" depth="2" NCoef="0" IVar="8" Cut="2.4025471508502960e-01" cType="1" res="-9.7007311880588531e-02" rms="2.8136497735977173e-01" purity="1.3456000387668610e-01" nType="0">
            <Node pos="l" depth="3" NCoef="0" IVar="5" Cut="9.5056068420410156e+01" cType="1" res="-1.2655289471149445e-01" rms="2.3459607362747192e-01" purity="7.7278211712837219e-02" nType="0">
              <Node pos="l" depth="4" NCoef="0" IVar="5" Cut="7.2792114257812500e+01" cType="1" res="-1.0407947003841400e-01" rms="2.9612600803375244e-01" purity="1.3391162455081940e-01" nType="0">
                <Node pos="l" depth="5" NCoef="0" IVar="-1" Cut="0.0000000000000000e+00" cType="1" res="-4.5555301010608673e-02" rms="2.4207566678524017e-01" purity="7.4905931949615479e-02" nType="-99"/>
                <Node pos="r" depth="5" NCoef="0" IVar="-1" Cut="0.0000000000000000e+00" cType="1" res="-2.0070457831025124e-02" rms="3.3559384942054749e-01" purity="1.9005312025547028e-01" nType="-99"/>
              </Node>
              <Node pos="r" depth="4" NCoef="0" IVar="2" Cut="4.0243902206420898e+00" cType="1" res="-1.4331819117069244e-01" rms="1.7325262725353241e-01" purity="3.5029415041208267e-02" nType="0">
                <Node pos="l" depth="5" NCoef="0" IVar="-1" Cut="0.0000000000000000e+00" cType="1" res="-4.9906771630048752e-02" rms="2.1283477544784546e-01" purity="5.3922563791275024e-02" nType="-99"/>
                <Node pos="r" depth="5" NCoef="0" IVar="-1" Cut="0.0000000000000000e+00" cType="1" res="-5.6248329579830170e-02" rms="6.3623264431953430e-02" purity="3.4649085719138384e-03" nType="-99"/>
              </Node>
            </Node>
            <Node pos="r" depth="3" NCoef="0" IVar="9" Cut="2.3889662325382233e-01" cType="1" res="-7.9664707183837891e-02" rms="3.0416673421859741e-01" purity="1.6818314790725708e-01" nType="0">
              <Node pos="l" depth="4" NCoef="0" IVar="9" Cut="1.7486082017421722e-01" cType="1" res="-1.2262617051601410e-01" rms="2.2060742974281311e-01" purity="6.8280614912509918e-02" nType="0">
                <Node pos="l" depth="5" NCoef="0" IVar="-1" Cut="0.0000000000000000e+00" cType="1" res="-4.9020528793334961e-02" rms="1.8320944905281067e-01" purity="4.3105870485305786e-02" nType="-99"/>
                <Node pos="r" depth="5" NCoef="0" IVar="-1" Cut="0.0000000000000000e+00" cType="1" res="-3.2549954950809479e-02" rms="2.6889744400978088e-01" purity="1.0948885232210159e-01" nType="-99"/>
              </Node>
              <Node pos="r" depth="4" NCoef="0" IVar="6" Cut="2.6818463802337646e+00" cType="1" res="-5.3539089858531952e-02" rms="3.4260511398315430e-01" purity="2.2893564403057098e-01" nType="0">
                <Node pos="l" depth="5" NCoef="0" IVar="-1" Cut="0.0000000000000000e+00" cType="1" res="-2.3277079686522484e-02" rms="3.2561817765235901e-01" purity="1.8193687498569489e-01" nType="-99"/>
                <Node pos="r" depth="5" NCoef="0" IVar="-1" Cut="0.0000000000000000e+00" cType="1" res="9.4914818182587624e-03" rms="3.8560697436332703e-01" purity="4.0044504404067993e-01" nType="-99"/>
              </Node>
            </Node>
          </Node>
          <Node pos="r" depth="2" NCoef="0" IVar="4" Cut="1.4619427490234375e+02" cType="1" res="-1.5307084657251835e-02" rms="3.8529515266418457e-01" purity="4.4025939702987671e-01" nType="0">
            <Node pos="l" depth="3" NCoef="0" IVar="4" Cut="8.7963081359863281e+01" cType="1" res="2.0920872688293457e-02" rms="4.0452244877815247e-01" purity="5.3632754087448120e-01" nType="0">
              <Node pos="l" depth="4" NCoef="0" IVar="-1" Cut="0.0000000000000000e+00" cType="1" res="-2.2687925025820732e-02" rms="4.0202134847640991e-01" purity="3.2201260328292847e-01" nType="-99"/>
              <Node pos="r" depth="4" NCoef="0" IVar="6" Cut="1.7623515129089355e+00" cType="1" res="6.9092378020286560e-02" rms="3.9553996920585632e-01" purity="6.2374621629714966e-01" nType="0">
                <Node pos="l" depth="5" NCoef="0" IVar="-1" Cut="0.0000000000000000e+00" cType="1" res="-8.0125285312533379e-03" rms="4.1588926315307617e-01" purity="4.4783413410186768e-01" nType="-99"/>
                <Node pos="r" depth="5" NCoef="0" IVar="-1" Cut="0.0000000000000000e+00" cType="1" res="2.8783179819583893e-02" rms="3.7449049949645996e-01" purity="7.1137195825576782e-01" nType="-99"/>
              </Node>
            </Node>
            <Node pos="r" depth="3" NCoef="0" IVar="-1" Cut="0.0000000000000000e+00" cType="1" res="-3.9613593369722366e-02" rms="2.7682861685752869e-01" purity="1.1154706031084061e-01" nType="-99"/>
          </Node>
        </Node>
        <Node pos="r" depth="1" NCoef="0" IVar="1" Cut="2.0731706619262695e+00" cType="1" res="4.5759804546833038e-02" rms="3.6509954929351807e-01" purity="6.6779083013534546e-01" nType="0">
          <Node pos="l" depth="2" NCoef="0" IVar="5" Cut="9.5056190490722656e+01" cType="1" res="-1.2617755681276321e-02" rms="4.1443365812301636e-01" purity="4.4802072644233704e-01" nType="0">
            <Node pos="l" depth="3" NCoef="0" IVar="5" Cut="6.4696281433105469e+01" cType="1" res="2.7921453118324280e-02" rms="4.2675355076789856e-01" purity="5.4482996463775635e-01" nType="0">
              <Node pos="l" depth="4" NCoef="0" IVar="7" Cut="9.3080127239227295e-01" cType="1" res="-8.0636948347091675e-02" rms="4.3859452009201050e-01" purity="3.7590110301971436e-01" nType="0">
                <Node pos="l" depth="5" NCoef="0" IVar="-1" Cut="0.0000000000000000e+00" cType="1" res="-6.9214398972690105e-03" rms="4.5975330471992493e-01" purity="4.6689200401306152e-01" nType="-99"/>
                <Node pos="r" depth="5" NCoef="0" IVar="-1" Cut="0.0000000000000000e+00" cType="1" res="-3.0404422432184219e-02" rms="4.0819558501243591e-01" purity="2.7847176790237427e-01" nType="-99"/>
              </Node>
              <Node pos="r" depth="4" NCoef="0" IVar="9" Cut="1.9275407493114471e-01" cType="1" res="7.7273070812225342e-02" rms="4.1190689802169800e-01" purity="6.2162655591964722e-01" nType="0">
                <Node pos="l" depth="5" NCoef="0" IVar="-1" Cut="0.0000000000000000e+00" cType="1" res="-1.0257364250719547e-02" rms="4.2529395222663879e-01" purity="3.2095649838447571e-01" nType="-99"/>
                <Node pos="r" depth="5" NCoef="0" IVar="-1" Cut="0.0000000000000000e+00" cType="1" res="2.3831561207771301e-02" rms="4.0387085080146790e-01" purity="6.8864381313323975e-01" nType="-99"/>
              </Node>
            </Node>
            <Node pos="r" depth="3" NCoef="0" IVar="6" Cut="2.6818480491638184e+00" cType="1" res="-7.3997780680656433e-02" rms="3.8705095648765564e-01" purity="3.0144274234771729e-01" nType="0">
              <Node pos="l" depth="4" NCoef="0" IVar="8" Cut="4.0753155946731567e-01" cType="1" res="-1.1161528527736664e-01" rms="3.6951580643653870e-01" purity="2.2256892919540405e-01" nType="0">
                <Node pos="l" depth="5" NCoef="0" IVar="-1" Cut="0.0000000000000000e+00" cType="1" res="-3.5265918821096420e-02" rms="3.4190344810485840e-01" purity="1.7833867669105530e-01" nType="-99"/>
                <Node pos="r" depth="5" NCoef="0" IVar="-1" Cut="0.0000000000000000e+00" cType="1" res="-1.2917817570269108e-02" rms="4.2190155386924744e-01" purity="3.2659932971000671e-01" nType="-99"/>
              </Node>
              <Node pos="r" depth="4" NCoef="0" IVar="-1" Cut="0.0000000000000000e+00" cType="1" res="5.0062057562172413e-03" rms="4.1328155994415283e-01" purity="5.0212270021438599e-01" nType="-99"/>
            </Node>
          </Node>
          <Node pos="r" depth="2" NCoef="0" IVar="4" Cut="1.6961312866210938e+02" cType="1" res="9.0881295502185822e-02" rms="3.1448820233345032e-01" purity="8.3765661716461182e-01" nType="0">
            <Node pos="l" depth="3" NCoef="0" IVar="4" Cut="8.2644432067871094e+01" cType="1" res="1.0170271992683411e-01" rms="3.0125948786735535e-01" purity="8.6706066131591797e-01" nType="0">
              <Node pos="l" depth="4" NCoef="0" IVar="-1" Cut="0.0000000000000000e+00" cType="1" res="-3.9193755947053432e-03" rms="4.2732027173042297e-01" purity="6.5738695859909058e-01" nType="-99"/>
              <Node pos="r" depth="4" NCoef="0" IVar="9" Cut="3.1576153635978699e-01" cType="1" res="1.1337974667549133e-01" rms="2.8308203816413879e-01" purity="8.8786005973815918e-01" nType="0">
                <Node pos="l" depth="5" NCoef="0" IVar="-1" Cut="0.0000000000000000e+00" cType="1" res="2.0795227959752083e-02" rms="3.5126379132270813e-01" purity="8.0923616886138916e-01" nType="-99"/>
                <Node pos="r" depth="5" NCoef="0" IVar="-1" Cut="0.0000000000000000e+00" cType="1" res="4.4247206300497055e-02" rms="2.2874774038791656e-01" purity="9.3583798408508301e-01" nType="-99"/>
              </Node>
            </Node>
            <Node pos="r" depth="3" NCoef="0" IVar="-1" Cut="0.0000000000000000e+00" cType="1" res="-1.6138544306159019e-02" rms="4.4201937317848206e-01" purity="3.8074702024459839e-01" nType="-99"/>
          </Node>
        </Node>
      </Node>
    </BinaryTree>
    <BinaryTree type="DecisionTree" boostWeight="1.0000000000000000e+00" itree="16">
      <Node pos="s" depth="0" NCoef="0" IVar="0" Cut="2.0731706619262695e+00" cType="1" res="1.0018778266385198e-04" rms="3.4873908758163452e-01" purity="5.0032043457031250e-01" nType="0">
        <Node pos="l" depth="1" NCoef="0" IVar="1" Cut="3.0487804412841797e+00" cType="1" res="-6.4814366400241852e-02" rms="3.1957536935806274e-01" purity="2.3017881810665131e-01" nType="0">
          <Node pos="l" depth="2" NCoef="0" IVar="5" Cut="6.2584236145019531e+01" cType="1" res="-9.4570957124233246e-02" rms="2.6651123166084290e-01" purity="1.0645607113838196e-01" nType="0">
            <Node pos="l" depth="3" NCoef="0" IVar="5" Cut="4.7800102233886719e+01" cType="1" res="-1.2962470948696136e-01" rms="2.5037041306495667e-01" purity="7.5121521949768066e-02" nType="0">
              <Node pos="l" depth="4" NCoef="0" IVar="-1" Cut="0.0000000000000000e+00" cType="1" res="-4.5689620077610016e-02" rms="2.3746524751186371e-01" purity="6.8926341831684113e-02" nType="-99"/>
              <Node pos="r" depth="4" NCoef="0" IVar="-1" Cut="0.0000000000000000e+00" cType="1" res="-3.9682511240243912e-02" rms="2.6222726702690125e-01" purity="8.1325501203536987e-02" nType="-99"/>
            </Node>
            <Node pos="r" depth="3" NCoef="0" IVar="5" Cut="9.3472099304199219e+01" cType="1" res="-8.7009154260158539e-02" rms="2.6926884055137634e-01" purity="1.1321557313203812e-01" nType="0">
              <Node pos="l" depth="4" NCoef="0" IVar="2" Cut="2.0731706619262695e+00" cType="1" res="-4.7283336520195007e-02" rms="3.3808079361915588e-01" purity="1.9550809264183044e-01" nType="0">
                <Node pos="l" depth="5" NCoef="0" IVar="-1" Cut="0.0000000000000000e+00" cType="1" res="-5.4355603642761707e-03" rms="3.8434967398643494e-01" purity="2.6894113421440125e-01" nType="-99"/>
                <Node pos="r" depth="5" NCoef="0" IVar="-1" Cut="0.0000000000000000e+00" cType="1" res="-3.6237996071577072e-02" rms="2.2999021410942078e-01" purity="6.8554550409317017e-02" nType="-99"/>
              </Node>
              <Node pos="r" depth="4" NCoef="0" IVar="6" Cut="2.7584683895111084e+00" cType="1" res="-1.0970367491245270e-01" rms="2.1728716790676117e-01" purity="6.6203594207763672e-02" nType="0">
                <Node pos="l" depth="5" NCoef="0" IVar="-1" Cut="0.0000000000000000e+00" cType="1" res="-4.4225040823221207e-02" rms="1.9936034083366394e-01" purity="4.8963416367769241e-02" nType="-99"/>
                <Node pos="r" depth="5" NCoef="0" IVar="-1" Cut="0.0000000000000000e+00" cType="1" res="-2.6771586388349533e-02" rms="2.8562802076339722e-01" purity="1.4746291935443878e-01" nType="-99"/>
              </Node>
            </Node>
          </Node>
          <Node pos="r" depth="2" NCoef="0" IVar="8" Cut="2.3072883486747742e-01" cType="1" res="-1.6525816172361374e-02" rms="3.8578316569328308e-01" purity="4.3095418810844421e-01" nType="0">
            <Node pos="l" depth="3" NCoef="0" IVar="8" Cut="1.5204907953739166e-01" cType="1" res="-1.1757606267929077e-01" rms="3.5146501660346985e-01" purity="2.5290286540985107e-01" nType="0">
              <Node pos="l" depth="4" NCoef="0" IVar="-1" Cut="0.0000000000000000e+00" cType="1" res="-4.4559970498085022e-02" rms="3.2144731283187866e-01" purity="1.6776470839977264e-01" nType="-99"/>
              <Node pos="r" depth="4" NCoef="0" IVar="-1" Cut="0.0000000000000000e+00" cType="1" res="-1.6613466665148735e-02" rms="3.6996072530746460e-01" purity="3.3224961161613464e-01" nType="-99"/>
            </Node>
            <Node pos="r" depth="3" NCoef="0" IVar="9" Cut="2.3851759731769562e-01" cType="1" res="2.3136334493756294e-02" rms="3.9138001203536987e-01" purity="5.0083917379379272e-01" nType="0">
              <Node pos="l" depth="4" NCoef="0" IVar="-1" Cut="0.0000000000000000e+00" cType="1" res="-2.4692527949810028e-02" rms="3.5642296075820923e-01" purity="2.4926748871803284e-01" nType="-99"/>
              <Node pos="r" depth="4" NCoef="0" IVar="6" Cut="1.5324953794479370e+00" cType="1" res="7.2046078741550446e-02" rms="3.9452782273292542e-01" purity="6.0387653112411499e-01" nType="0">
                <Node pos="l" depth="5" NCoef="0" IVar="-1" Cut="0.0000000000000000e+00" cType="1" res="-4.6586110256612301e-03" rms="4.1690361499786377e-01" purity="4.4136717915534973e-01" nType="-99"/>
                <Node pos="r" depth="5" NCoef="0" IVar="-1" Cut="0.0000000000000000e+00" cType="1" res="2.7903378009796143e-02" rms="3.7640807032585144e-01" purity="6.7854797840118408e-01" nType="-99"/>
              </Node>
            </Node>
          </Node>
        </Node>
        <Node pos="r" depth="1" NCoef="0" IVar="2" Cut="4.0243902206420898e+00" cType="1" res="4.0931090712547302e-02" rms="3.5994541645050049e-01" purity="6.7023801803588867e-01" nType="0">
          <Node pos="l" depth="2" NCoef="0" IVar="9" Cut="1.1643108725547791e-01" cType="1" res="5.8004394173622131e-02" rms="3.5897204279899597e-01" purity="7.2833895683288574e-01" nType="0">
            <Node pos="l" depth="3" NCoef="0" IVar="-1" Cut="0.0000000000000000e+00" cType="1" res="-3.8330692797899246e-02" rms="3.7359076738357544e-01" purity="2.5520586967468262e-01" nType="-99"/>
            <Node pos="r" depth="3" NCoef="0" IVar="8" Cut="1.2477032840251923e-01" cType="1" res="7.0104703307151794e-02" rms="3.5422611236572266e-01" purity="7.5452274084091187e-01" nType="0">
              <Node pos="l" depth="4" NCoef="0" IVar="-1" Cut="0.0000000000000000e+00" cType="1" res="-2.8035927563905716e-02" rms="4.0730813145637512e-01" purity="4.3521171808242798e-01" nType="-99"/>
              <Node pos="r" depth="4" NCoef="0" IVar="4" Cut="5.9583259582519531e+01" cType="1" res="8.0422937870025635e-02" rms="3.4814691543579102e-01" purity="7.7232706546783447e-01" nType="0">
                <Node pos="l" depth="5" NCoef="0" IVar="-1" Cut="0.0000000000000000e+00" cType="1" res="-2.6354564353823662e-02" rms="4.5644459128379822e-01" purity="4.3394455313682556e-01" nType="-99"/>
                <Node pos="r" depth="5" NCoef="0" IVar="-1" Cut="0.0000000000000000e+00" cType="1" res="2.4941718205809593e-02" rms="3.3846759796142578e-01" purity="7.8973013162612915e-01" nType="-99"/>
              </Node>
            </Node>
          </Node>
          <Node pos="r" depth="2" NCoef="0" IVar="8" Cut="3.1383553147315979e-01" cType="1" res="-1.1037416011095047e-01" rms="3.3209294080734253e-01" purity="1.5534222126007080e-01" nType="0">
            <Node pos="l" depth="3" NCoef="0" IVar="-1" Cut="0.0000000000000000e+00" cType="1" res="-4.3467618525028229e-02" rms="2.5602632761001587e-01" purity="8.6281023919582367e-02" nType="-99"/>
            <Node pos="r" depth="3" NCoef="0" IVar="-1" Cut="0.0000000000000000e+00" cType="1" res="-1.8852498382329941e-02" rms="3.8839778304100037e-01" purity="2.2183710336685181e-01" nType="-99"/>
          </Node>
        </Node>
      </Node>
    </BinaryTree>
    <BinaryTree type="DecisionTree" boostWeight="1.0000000000000000e+00" itree="17">
      <Node pos="s" depth="0" NCoef="0" IVar="4" Cut="1.4013926696777344e+02" cType="1" res="1.2444531312212348e-03" rms="3.4636196494102478e-01" purity="5.0161135196685791e-01" nType="0">
        <Node pos="l" depth="1" NCoef="0" IVar="4" Cut="9.0497383117675781e+01" cType="1" res="2.8164269402623177e-02" rms="3.4583768248558044e-01" purity="5.7975035905838013e-01" nType="0">
          <Node pos="l" depth="2" NCoef="0" IVar="5" Cut="1.0227202606201172e+02" cType="1" res="-6.3103750348091125e-02" rms="3.6334556341171265e-01" purity="3.4033665060997009e-01" nType="0">
            <Node pos="l" depth="3" NCoef="0" IVar="3" Cut="3.0487804412841797e+00" cType="1" res="-3.1665597110986710e-02" rms="3.8614341616630554e-01" purity="4.3587580323219299e-01" nType="0">
              <Node pos="l" depth="4" NCoef="0" IVar="5" Cut="6.3070167541503906e+01" cType="1" res="-8.1560555845499039e-03" rms="3.8960158824920654e-01" purity="4.8378425836563110e-01" nType="0">
                <Node pos="l" depth="5" NCoef="0" IVar="-1" Cut="0.0000000000000000e+00" cType="1" res="-2.7000492438673973e-02" rms="3.8722023367881775e-01" purity="3.1886911392211914e-01" nType="-99"/>
                <Node pos="r" depth="5" NCoef="0" IVar="-1" Cut="0.0000000000000000e+00" cType="1" res="7.3807784356176853e-03" rms="3.8430908322334290e-01" purity="5.4676133394241333e-01" nType="-99"/>
              </Node>
              <Node pos="r" depth="4" NCoef="0" IVar="-1" Cut="0.0000000000000000e+00" cType="1" res="-3.9870332926511765e-02" rms="3.4576919674873352e-01" purity="1.9876876473426819e-01" nType="-99"/>
            </Node>
            <Node pos="r" depth="3" NCoef="0" IVar="9" Cut="4.7794833779335022e-01" cType="1" res="-1.2064172327518463e-01" rms="3.0923843383789062e-01" purity="1.6548122465610504e-01" nType="0">
              <Node pos="l" depth="4" NCoef="0" IVar="1" Cut="1.0975610017776489e+00" cType="1" res="-1.3578680157661438e-01" rms="2.9468607902526855e-01" purity="1.3940274715423584e-01" nType="0">
                <Node pos="l" depth="5" NCoef="0" IVar="-1" Cut="0.0000000000000000e+00" cType="1" res="-4.0276464074850082e-02" rms="2.5506064295768738e-01" purity="8.5469625890254974e-02" nType="-99"/>
                <Node pos="r" depth="5" NCoef="0" IVar="-1" Cut="0.0000000000000000e+00" cType="1" res="-4.3299105018377304e-02" rms="3.5654166340827942e-01" purity="2.4329409003257751e-01" nType="-99"/>
              </Node>
              <Node pos="r" depth="4" NCoef="0" IVar="-1" Cut="0.0000000000000000e+00" cType="1" res="-2.3417511954903603e-02" rms="3.4126707911491394e-01" purity="2.3375125229358673e-01" nType="-99"/>
            </Node>
          </Node>
          <Node pos="r" depth="2" NCoef="0" IVar="8" Cut="1.2041153013706207e-01" cType="1" res="7.2216488420963287e-02" rms="3.2809996604919434e-01" purity="6.9530791044235229e-01" nType="0">
            <Node pos="l" depth="3" NCoef="0" IVar="-1" Cut="0.0000000000000000e+00" cType="1" res="-3.5897724330425262e-02" rms="3.2691636681556702e-01" purity="2.7438187599182129e-01" nType="-99"/>
            <Node pos="r" depth="3" NCoef="0" IVar="2" Cut="4.0243902206420898e+00" cType="1" res="8.4352992475032806e-02" rms="3.2427218556404114e-01" purity="7.2116863727569580e-01" nType="0">
              <Node pos="l" depth="4" NCoef="0" IVar="3" Cut="4.0243902206420898e+00" cType="1" res="1.0002372413873672e-01" rms="3.2003968954086304e-01" purity="7.8239941596984863e-01" nType="0">
                <Node pos="l" depth="5" NCoef="0" IVar="-1" Cut="0.0000000000000000e+00" cType="1" res="3.3167067915201187e-02" rms="3.0847698450088501e-01" purity="8.1252795457839966e-01" nType="-99"/>
                <Node pos="r" depth="5" NCoef="0" IVar="-1" Cut="0.0000000000000000e+00" cType="1" res="-9.1500049456954002e-03" rms="3.9634972810745239e-01" purity="4.7288554906845093e-01" nType="-99"/>
              </Node>
              <Node pos="r" depth="4" NCoef="0" IVar="9" Cut="3.1774494051933289e-01" cType="1" res="-5.7409066706895828e-02" rms="3.2787820696830750e-01" purity="1.6725622117519379e-01" nType="0">
                <Node pos="l" depth="5" NCoef="0" IVar="-1" Cut="0.0000000000000000e+00" cType="1" res="-3.0078193172812462e-02" rms="2.8997716307640076e-01" purity="1.1825119704008102e-01" nType="-99"/>
                <Node pos="r" depth="5" NCoef="0" IVar="-1" Cut="0.0000000000000000e+00" cType="1" res="-4.6428828500211239e-03" rms="3.6296787858009338e-01" purity="2.2476322948932648e-01" nType="-99"/>
              </Node>
            </Node>
          </Node>
        </Node>
        <Node pos="r" depth="1" NCoef="0" IVar="6" Cut="2.5285983085632324e+00" cType="1" res="-8.4843464195728302e-02" rms="3.3376428484916687e-01" purity="2.5172770023345947e-01" nType="0">
          <Node pos="l" depth="2" NCoef="0" IVar="8" Cut="3.7382549047470093e-01" cType="1" res="-1.1829799413681030e-01" rms="3.0670163035392761e-01" purity="1.7654719948768616e-01" nType="0">
            <Node pos="l" depth="3" NCoef="0" IVar="0" Cut="1.0975610017776489e+00" cType="1" res="-1.3959510624408722e-01" rms="2.7954226732254028e-01" purity="1.2770818173885345e-01" nType="0">
              <Node pos="l" depth="4" NCoef="0" IVar="1" Cut="1.0975610017776489e+00" cType="1" res="0.0000000000000000e+00" rms="0.0000000000000000e+00" purity="3.2693430781364441e-02" nType="0">
                <Node pos="l" depth="5" NCoef="0" IVar="-1" Cut="0.0000000000000000e+00" cType="1" res="-4.8545390367507935e-02" rms="1.4454764127731323e-01" purity="2.1832726895809174e-02" nType="-99"/>
                <Node pos="r" depth="5" NCoef="0" IVar="-1" Cut="0.0000000000000000e+00" cType="1" res="-4.7691948711872101e-02" rms="2.0380057394504547e-01" purity="4.8026259988546371e-02" nType="-99"/>
              </Node>
              <Node pos="r" depth="4" NCoef="0" IVar="5" Cut="9.2047431945800781e+01" cType="1" res="-1.5518783032894135e-01" rms="3.5418784618377686e-01" purity="2.2149434685707092e-01" nType="0">
                <Node pos="l" depth="5" NCoef="0" IVar="-1" Cut="0.0000000000000000e+00" cType="1" res="-2.8774695470929146e-02" rms="4.0026313066482544e-01" purity="3.2289433479309082e-01" nType="-99"/>
                <Node pos="r" depth="5" NCoef="0" IVar="-1" Cut="0.0000000000000000e+00" cType="1" res="-5.0962779670953751e-02" rms="2.9599690437316895e-01" purity="1.1760218441486359e-01" nType="-99"/>
              </Node>
            </Node>
            <Node pos="r" depth="3" NCoef="0" IVar="9" Cut="1.8971943855285645e-01" cType="1" res="-8.5189506411552429e-02" rms="3.4207740426063538e-01" purity="2.5247231125831604e-01" nType="0">
              <Node pos="l" depth="4" NCoef="0" IVar="-1" Cut="0.0000000000000000e+00" cType="1" res="-4.6776164323091507e-02" rms="2.3893040418624878e-01" purity="7.8844912350177765e-02" nType="-99"/>
              <Node pos="r" depth="4" NCoef="0" IVar="4" Cut="1.7229306030273438e+02" cType="1" res="-4.9596115946769714e-02" rms="3.8269448280334473e-01" purity="3.4809571504592896e-01" nType="0">
                <Node pos="l" depth="5" NCoef="0" IVar="-1" Cut="0.0000000000000000e+00" cType="1" res="-1.5543856425210834e-03" rms="3.8939067721366882e-01" purity="4.5910927653312683e-01" nType="-99"/>
                <Node pos="r" depth="5" NCoef="0" IVar="-1" Cut="0.0000000000000000e+00" cType="1" res="-2.4096962064504623e-02" rms="3.7124714255332947e-01" purity="2.4078892171382904e-01" nType="-99"/>
              </Node>
            </Node>
          </Node>
          <Node pos="r" depth="2" NCoef="0" IVar="8" Cut="3.4858512878417969e-01" cType="1" res="-1.5424130484461784e-02" rms="3.7446382641792297e-01" purity="4.0772983431816101e-01" nType="0">
            <Node pos="l" depth="3" NCoef="0" IVar="7" Cut="1.6173458099365234e+00" cType="1" res="-8.9601978659629822e-02" rms="3.5919946432113647e-01" purity="2.8480368852615356e-01" nType="0">
              <Node pos="l" depth="4" NCoef="0" IVar="-1" Cut="0.0000000000000000e+00" cType="1" res="-3.9610646665096283e-02" rms="3.4149700403213501e-01" purity="2.2814048826694489e-01" nType="-99"/>
              <Node pos="r" depth="4" NCoef="0" IVar="-1" Cut="0.0000000000000000e+00" cType="1" res="-8.1255584955215454e-03" rms="3.6569646000862122e-01" purity="3.3871874213218689e-01" nType="-99"/>
            </Node>
            <Node pos="r" depth="3" NCoef="0" IVar="-1" Cut="0.0000000000000000e+00" cType="1" res="1.8314525485038757e-02" rms="3.7320378422737122e-01" purity="5.5282503366470337e-01" nType="-99"/>
          </Node>
        </Node>
      </Node>
    </BinaryTree>
    <BinaryTree type="DecisionTree" boostWeight="1.0000000000000000e+00" itree="18">
      <Node pos="s" depth="0" NCoef="0" IVar="1" Cut="1.0975610017776489e+00" cType="1" res="3.1481697806157172e-04" rms="3.4385502338409424e-01" purity="4.9932664632797241e-01" nType="0">
        <Node pos="l" depth="1" NCoef="0" IVar="0" Cut="3.0487804412841797e+00" cType="1" res="-5.0547443330287933e-02" rms="3.4425970911979675e-01" purity="2.5837448239326477e-01" nType="0">
          <Node pos="l" depth="2" NCoef="0" IVar="9" Cut="4.4734644889831543e-01" cType="1" res="-8.1859327852725983e-02" rms="2.6622265577316284e-01" purity="1.0929828882217407e-01" nType="0">
            <Node pos="l" depth="3" NCoef="0" IVar="5" Cut="6.9800209045410156e+01" cType="1" res="-9.2923410236835480e-02" rms="2.3985111713409424e-01" purity="8.6005523800849915e-02" nType="0">
              <Node pos="l" depth="4" NCoef="0" IVar="-1" Cut="0.0000000000000000e+00" cType="1" res="-4.1790101677179337e-02" rms="2.3475694656372070e-01" purity="7.0690870285034180e-02" nType="-99"/>
              <Node pos="r" depth="4" NCoef="0" IVar="5" Cut="9.1800231933593750e+01" cType="1" res="-8.5481539368629456e-02" rms="2.4089926481246948e-01" purity="9.0694010257720947e-02" nType="0">
                <Node pos="l" depth="5" NCoef="0" IVar="-1" Cut="0.0000000000000000e+00" cType="1" res="-1.5702441334724426e-02" rms="3.2086163759231567e-01" purity="1.8274377286434174e-01" nType="-99"/>
                <Node pos="r" depth="5" NCoef="0" IVar="-1" Cut="0.0000000000000000e+00" cType="1" res="-4.1641712188720703e-02" rms="1.9651560485363007e-01" purity="5.2543725818395615e-02" nType="-99"/>
              </Node>
            </Node>
            <Node pos="r" depth="3" NCoef="0" IVar="2" Cut="2.0731706619262695e+00" cType="1" res="-4.9479339271783829e-02" rms="3.2943254709243774e-01" purity="1.7746657133102417e-01" nType="0">
              <Node pos="l" depth="4" NCoef="0" IVar="-1" Cut="0.0000000000000000e+00" cType="1" res="-5.9931166470050812e-03" rms="3.8720217347145081e-01" purity="2.6266273856163025e-01" nType="-99"/>
              <Node pos="r" depth="4" NCoef="0" IVar="-1" Cut="0.0000000000000000e+00" cType="1" res="-3.6089494824409485e-02" rms="2.2217574715614319e-01" purity="6.0953777283430099e-02" nType="-99"/>
            </Node>
          </Node>
          <Node pos="r" depth="2" NCoef="0" IVar="9" Cut="3.9627146720886230e-01" cType="1" res="-1.6783541068434715e-02" rms="4.0949782729148865e-01" purity="4.1912475228309631e-01" nType="0">
            <Node pos="l" depth="3" NCoef="0" IVar="6" Cut="1.6091068983078003e+00" cType="1" res="-5.1907964050769806e-02" rms="4.0113386511802673e-01" purity="3.3387655019760132e-01" nType="0">
              <Node pos="l" depth="4" NCoef="0" IVar="8" Cut="3.6039802432060242e-01" cType="1" res="-1.2282410264015198e-01" rms="3.5231691598892212e-01" purity="1.8772825598716736e-01" nType="0">
                <Node pos="l" depth="5" NCoef="0" IVar="-1" Cut="0.0000000000000000e+00" cType="1" res="-4.4077895581722260e-02" rms="2.9016062617301941e-01" purity="1.0761729627847672e-01" nType="-99"/>
                <Node pos="r" depth="5" NCoef="0" IVar="-1" Cut="0.0000000000000000e+00" cType="1" res="-2.0788801833987236e-02" rms="4.0520930290222168e-01" purity="2.7343076467514038e-01" nType="-99"/>
              </Node>
              <Node pos="r" depth="4" NCoef="0" IVar="2" Cut="2.0731706619262695e+00" cType="1" res="-1.7470216378569603e-02" rms="4.1849926114082336e-01" purity="4.0484797954559326e-01" nType="0">
                <Node pos="l" depth="5" NCoef="0" IVar="-1" Cut="0.0000000000000000e+00" cType="1" res="1.8404804868623614e-03" rms="4.4426366686820984e-01" purity="4.9103537201881409e-01" nType="-99"/>
                <Node pos="r" depth="5" NCoef="0" IVar="-1" Cut="0.0000000000000000e+00" cType="1" res="-2.6762144640088081e-02" rms="3.2260307669639587e-01" purity="1.5786668658256531e-01" nType="-99"/>
              </Node>
            </Node>
            <Node pos="r" depth="3" NCoef="0" IVar="8" Cut="3.1814712285995483e-01" cType="1" res="4.4124193489551544e-02" rms="4.1664907336235046e-01" purity="5.6694996356964111e-01" nType="0">
              <Node pos="l" depth="4" NCoef="0" IVar="-1" Cut="0.0000000000000000e+00" cType="1" res="-5.5091236717998981e-03" rms="4.2410907149314880e-01" purity="4.1298255324363708e-01" nType="-99"/>
              <Node pos="r" depth="4" NCoef="0" IVar="-1" Cut="0.0000000000000000e+00" cType="1" res="2.2726528346538544e-02" rms="4.0201038122177124e-01" purity="6.9286257028579712e-01" nType="-99"/>
            </Node>
          </Node>
        </Node>
        <Node pos="r" depth="1" NCoef="0" IVar="9" Cut="1.1640829592943192e-01" cType="1" res="4.0129467844963074e-02" rms="3.3824256062507629e-01" purity="6.8794244527816772e-01" nType="0">
          <Node pos="l" depth="2" NCoef="0" IVar="-1" Cut="0.0000000000000000e+00" cType="1" res="-3.9180941879749298e-02" rms="3.4947359561920166e-01" purity="2.3631301522254944e-01" nType="-99"/>
          <Node pos="r" depth="2" NCoef="0" IVar="6" Cut="2.2987229824066162e+00" cType="1" res="5.2009522914886475e-02" rms="3.3388084173202515e-01" purity="7.1540808677673340e-01" nType="0">
            <Node pos="l" depth="3" NCoef="0" IVar="5" Cut="1.0587991333007812e+02" cType="1" res="6.6715856082737446e-03" rms="3.5747665166854858e-01" purity="6.2033510208129883e-01" nType="0">
              <Node pos="l" depth="4" NCoef="0" IVar="5" Cut="6.0120155334472656e+01" cType="1" res="4.0725938975811005e-02" rms="3.4566947817802429e-01" purity="7.0378381013870239e-01" nType="0">
                <Node pos="l" depth="5" NCoef="0" IVar="-1" Cut="0.0000000000000000e+00" cType="1" res="-1.8836550414562225e-02" rms="3.9528754353523254e-01" purity="5.1472884416580200e-01" nType="-99"/>
                <Node pos="r" depth="5" NCoef="0" IVar="-1" Cut="0.0000000000000000e+00" cType="1" res="2.0143106579780579e-02" rms="3.2612904906272888e-01" purity="7.5177729129791260e-01" nType="-99"/>
              </Node>
              <Node pos="r" depth="4" NCoef="0" IVar="8" Cut="3.0940470099449158e-01" cType="1" res="-1.1553991585969925e-01" rms="3.7213739752769470e-01" purity="3.2086142897605896e-01" nType="0">
                <Node pos="l" depth="5" NCoef="0" IVar="-1" Cut="0.0000000000000000e+00" cType="1" res="-4.2151175439357758e-02" rms="3.4126996994018555e-01" purity="2.3823331296443939e-01" nType="-99"/>
                <Node pos="r" depth="5" NCoef="0" IVar="-1" Cut="0.0000000000000000e+00" cType="1" res="-1.9584061577916145e-02" rms="3.9941075444221497e-01" purity="4.1195842623710632e-01" nType="-99"/>
              </Node>
            </Node>
            <Node pos="r" depth="3" NCoef="0" IVar="8" Cut="1.9751688838005066e-01" cType="1" res="9.4805054366588593e-02" rms="3.0381959676742554e-01" purity="8.0514955520629883e-01" nType="0">
              <Node pos="l" depth="4" NCoef="0" IVar="-1" Cut="0.0000000000000000e+00" cType="1" res="5.3795648273080587e-04" rms="3.6764577031135559e-01" purity="6.0104238986968994e-01" nType="-99"/>
              <Node pos="r" depth="4" NCoef="0" IVar="4" Cut="8.2749282836914062e+01" cType="1" res="1.0924655944108963e-01" rms="2.8998067975044250e-01" purity="8.3690911531448364e-01" nType="0">
                <Node pos="l" depth="5" NCoef="0" IVar="-1" Cut="0.0000000000000000e+00" cType="1" res="9.6141803078353405e-04" rms="4.0285149216651917e-01" purity="5.7974570989608765e-01" nType="-99"/>
                <Node pos="r" depth="5" NCoef="0" IVar="-1" Cut="0.0000000000000000e+00" cType="1" res="3.8086138665676117e-02" rms="2.7161675691604614e-01" purity="8.6619341373443604e-01" nType="-99"/>
              </Node>
            </Node>
          </Node>
        </Node>
      </Node>
    </BinaryTree>
    <BinaryTree type="DecisionTree" boostWeight="1.0000000000000000e+00" itree="19">
      <Node pos="s" depth="0" NCoef="0" IVar="2" Cut="2.0731706619262695e+00" cType="1" res="1.3204615097492933e-03" rms="3.4122219681739807e-01" purity="5.0111097097396851e-01" nType="0">
        <Node pos="l" depth="1" NCoef="0" IVar="6" Cut="1.6091077327728271e+00" cType="1" res="2.5811200961470604e-02" rms="3.5343769192695618e-01" purity="6.0600173473358154e-01" nType="0">
          <Node pos="l" depth="2" NCoef="0" IVar="9" Cut="4.6510380506515503e-01" cType="1" res="-3.8253750652074814e-02" rms="3.6099192500114441e-01" purity="4.4685497879981995e-01" nType="0">
            <Node pos="l" depth="3" NCoef="0" IVar="8" Cut="3.7387660145759583e-01" cType="1" res="-8.4525592625141144e-02" rms="3.5307002067565918e-01" purity="3.3460360765457153e-01" nType="0">
              <Node pos="l" depth="4" NCoef="0" IVar="7" Cut="1.0182286500930786e+00" cType="1" res="-1.1821570247411728e-01" rms="3.2639151811599731e-01" purity="2.4620127677917480e-01" nType="0">
                <Node pos="l" depth="5" NCoef="0" IVar="-1" Cut="0.0000000000000000e+00" cType="1" res="-4.9446258693933487e-02" rms="3.2239428162574768e-01" purity="1.7895284295082092e-01" nType="-99"/>
                <Node pos="r" depth="5" NCoef="0" IVar="-1" Cut="0.0000000000000000e+00" cType="1" res="-2.9767286032438278e-02" rms="3.2577624917030334e-01" purity="2.6841738820075989e-01" nType="-99"/>
              </Node>
              <Node pos="r" depth="4" NCoef="0" IVar="9" Cut="1.8171788752079010e-01" cType="1" res="-4.9175027757883072e-02" rms="3.7581676244735718e-01" purity="4.2736294865608215e-01" nType="0">
                <Node pos="l" depth="5" NCoef="0" IVar="-1" Cut="0.0000000000000000e+00" cType="1" res="-3.5729862749576569e-02" rms="3.2212939858436584e-01" purity="1.8392014503479004e-01" nType="-99"/>
                <Node pos="r" depth="5" NCoef="0" IVar="-1" Cut="0.0000000000000000e+00" cType="1" res="-6.0567813925445080e-03" rms="3.8996374607086182e-01" purity="5.1549202203750610e-01" nType="-99"/>
              </Node>
            </Node>
            <Node pos="r" depth="3" NCoef="0" IVar="5" Cut="9.8952392578125000e+01" cType="1" res="4.5106492936611176e-02" rms="3.6013862490653992e-01" purity="6.4907968044281006e-01" nType="0">
              <Node pos="l" depth="4" NCoef="0" IVar="-1" Cut="0.0000000000000000e+00" cType="1" res="2.0159920677542686e-02" rms="3.4811359643936157e-01" purity="7.3128896951675415e-01" nType="-99"/>
              <Node pos="r" depth="4" NCoef="0" IVar="-1" Cut="0.0000000000000000e+00" cType="1" res="-1.0552363470196724e-02" rms="3.8375496864318848e-01" purity="3.8924133777618408e-01" nType="-99"/>
            </Node>
          </Node>
          <Node pos="r" depth="2" NCoef="0" IVar="3" Cut="4.0243902206420898e+00" cType="1" res="5.6248545646667480e-02" rms="3.4565544128417969e-01" purity="6.8161255121231079e-01" nType="0">
            <Node pos="l" depth="3" NCoef="0" IVar="5" Cut="1.0254374694824219e+02" cType="1" res="7.2521291673183441e-02" rms="3.3734932541847229e-01" purity="7.2254294157028198e-01" nType="0">
              <Node pos="l" depth="4" NCoef="0" IVar="5" Cut="6.5319969177246094e+01" cType="1" res="9.5376774668693542e-02" rms="3.2631900906562805e-01" purity="7.7865862846374512e-01" nType="0">
                <Node pos="l" depth="5" NCoef="0" IVar="-1" Cut="0.0000000000000000e+00" cType="1" res="-3.4595842007547617e-03" rms="3.8834479451179504e-01" purity="5.8107817173004150e-01" nType="-99"/>
                <Node pos="r" depth="5" NCoef="0" IVar="-1" Cut="0.0000000000000000e+00" cType="1" res="3.6534588783979416e-02" rms="3.0131888389587402e-01" purity="8.3109468221664429e-01" nType="-99"/>
              </Node>
              <Node pos="r" depth="4" NCoef="0" IVar="9" Cut="3.4169387817382812e-01" cType="1" res="-1.8283259123563766e-03" rms="3.6109715700149536e-01" purity="5.3999668359756470e-01" nType="0">
                <Node pos="l" depth="5" NCoef="0" IVar="-1" Cut="0.0000000000000000e+00" cType="1" res="-2.1017637103796005e-02" rms="3.6576828360557556e-01" purity="3.6736541986465454e-01" nType="-99"/>
                <Node pos="r" depth="5" NCoef="0" IVar="-1" Cut="0.0000000000000000e+00" cType="1" res="2.2080911323428154e-02" rms="3.3765104413032532e-01" purity="7.2521471977233887e-01" nType="-99"/>
              </Node>
            </Node>
            <Node pos="r" depth="3" NCoef="0" IVar="9" Cut="3.8301953673362732e-01" cType="1" res="-6.9323576986789703e-02" rms="3.8137084245681763e-01" purity="3.6576494574546814e-01" nType="0">
              <Node pos="l" depth="4" NCoef="0" IVar="-1" Cut="0.0000000000000000e+00" cType="1" res="-2.8887378051877022e-02" rms="3.6884254217147827e-01" purity="2.7768632769584656e-01" nType="-99"/>
              <Node pos="r" depth="4" NCoef="0" IVar="-1" Cut="0.0000000000000000e+00" cType="1" res="-2.8200953966006637e-04" rms="3.9379778504371643e-01" purity="5.2393323183059692e-01" nType="-99"/>
            </Node>
          </Node>
        </Node>
        <Node pos="r" depth="1" NCoef="0" IVar="3" Cut="2.0731706619262695e+00" cType="1" res="-7.6465286314487457e-02" rms="2.8552681207656860e-01" purity="1.6796433925628662e-01" nType="0">
          <Node pos="l" depth="2" NCoef="0" IVar="9" Cut="3.1814712285995483e-01" cType="1" res="-5.9609428048133850e-02" rms="3.0692917108535767e-01" purity="2.0585919916629791e-01" nType="0">
            <Node pos="l" depth="3" NCoef="0" IVar="4" Cut="1.3443144226074219e+02" cType="1" res="-9.4827063381671906e-02" rms="2.6401296257972717e-01" purity="1.2712733447551727e-01" nType="0">
              <Node pos="l" depth="4" NCoef="0" IVar="4" Cut="9.5955566406250000e+01" cType="1" res="-7.6705902814865112e-02" rms="2.9572445154190063e-01" purity="1.7571195960044861e-01" nType="0">
                <Node pos="l" depth="5" NCoef="0" IVar="-1" Cut="0.0000000000000000e+00" cType="1" res="-4.1848618537187576e-02" rms="2.3472180962562561e-01" purity="8.0089353024959564e-02" nType="-99"/>
                <Node pos="r" depth="5" NCoef="0" IVar="-1" Cut="0.0000000000000000e+00" cType="1" res="-1.2361852452158928e-02" rms="3.4070813655853271e-01" purity="2.6841670274734497e-01" nType="-99"/>
              </Node>
              <Node pos="r" depth="4" NCoef="0" IVar="7" Cut="1.4149930477142334e+00" cType="1" res="-1.1946769803762436e-01" rms="2.1098126471042633e-01" purity="6.1063341796398163e-02" nType="0">
                <Node pos="l" depth="5" NCoef="0" IVar="-1" Cut="0.0000000000000000e+00" cType="1" res="-4.5984711498022079e-02" rms="2.2169454395771027e-01" purity="6.1321329325437546e-02" nType="-99"/>
                <Node pos="r" depth="5" NCoef="0" IVar="-1" Cut="0.0000000000000000e+00" cType="1" res="-4.3390065431594849e-02" rms="1.9970721006393433e-01" purity="6.0813385993242264e-02" nType="-99"/>
              </Node>
            </Node>
            <Node pos="r" depth="3" NCoef="0" IVar="2" Cut="4.0243902206420898e+00" cType="1" res="-1.9407639279961586e-02" rms="3.4517228603363037e-01" purity="2.9573351144790649e-01" nType="0">
              <Node pos="l" depth="4" NCoef="0" IVar="-1" Cut="0.0000000000000000e+00" cType="1" res="1.2517040595412254e-02" rms="3.8259857892990112e-01" purity="5.5280172824859619e-01" nType="-99"/>
              <Node pos="r" depth="4" NCoef="0" IVar="8" Cut="2.9702585935592651e-01" cType="1" res="-5.8177966624498367e-02" rms="3.1466224789619446e-01" purity="1.4394603669643402e-01" nType="0">
                <Node pos="l" depth="5" NCoef="0" IVar="-1" Cut="0.0000000000000000e+00" cType="1" res="-3.5382259637117386e-02" rms="2.4086713790893555e-01" purity="7.4663333594799042e-02" nType="-99"/>
                <Node pos="r" depth="5" NCoef="0" IVar="-1" Cut="0.0000000000000000e+00" cType="1" res="-6.9525521248579025e-03" rms="3.7034508585929871e-01" purity="2.1254804730415344e-01" nType="-99"/>
              </Node>
            </Node>
          </Node>
          <Node pos="r" depth="2" NCoef="0" IVar="0" Cut="1.0975610017776489e+00" cType="1" res="-1.2773916125297546e-01" rms="1.9864811003208160e-01" purity="5.2691854536533356e-02" nType="0">
            <Node pos="l" depth="3" NCoef="0" IVar="-1" Cut="0.0000000000000000e+00" cType="1" res="-5.0993453711271286e-02" rms="1.3454565405845642e-01" purity="1.9182935357093811e-02" nType="-99"/>
            <Node pos="r" depth="3" NCoef="0" IVar="-1" Cut="0.0000000000000000e+00" cType="1" res="-4.5480471104383469e-02" rms="2.7882874011993408e-01" purity="1.1452827602624893e-01" nType="-99"/>
          </Node>
        </Node>
      </Node>
    </BinaryTree>
    <BinaryTree type="DecisionTree" boostWeight="1.0000000000000000e+00" itree="20">
      <Node pos="s" depth="0" NCoef="0" IVar="0" Cut="1.0975610017776489e+00" cType="1" res="1.2424770975485444e-03" rms="3.3857634663581848e-01" purity="5.0080263614654541e-01" nType="0">
        <Node pos="l" depth="1" NCoef="0" IVar="9" Cut="3.4184625744819641e-01" cType="1" res="0.0000000000000000e+00" rms="0.0000000000000000e+00" purity="1.8451179563999176e-01" nType="0">
          <Node pos="l" depth="2" NCoef="0" IVar="9" Cut="1.3349975645542145e-01" cType="1" res="0.0000000000000000e+00" rms="0.0000000000000000e+00" purity="1.2196722626686096e-01" nType="0">
            <Node pos="l" depth="3" NCoef="0" IVar="9" Cut="8.4716185927391052e-02" cType="1" res="0.0000000000000000e+00" rms="0.0000000000000000e+00" purity="4.0264934301376343e-02" nType="0">
              <Node pos="l" depth="4" NCoef="0" IVar="-1" Cut="0.0000000000000000e+00" cType="1" res="-5.3806543350219727e-02" rms="1.4521130919456482e-01" purity="2.0612144842743874e-02" nType="-99"/>
              <Node pos="r" depth="4" NCoef="0" IVar="-1" Cut="0.0000000000000000e+00" cType="1" res="-4.1203998029232025e-02" rms="2.0756119489669800e-01" purity="5.6396391242742538e-02" nType="-99"/>
            </Node>
            <Node pos="r" depth="3" NCoef="0" IVar="7" Cut="1.8787508010864258e+00" cType="1" res="0.0000000000000000e+00" rms="0.0000000000000000e+00" purity="1.4811971783638000e-01" nType="0">
              <Node pos="l" depth="4" NCoef="0" IVar="8" Cut="3.6138927936553955e-01" cType="1" res="0.0000000000000000e+00" rms="0.0000000000000000e+00" purity="1.2196774035692215e-01" nType="0">
                <Node pos="l" depth="5" NCoef="0" IVar="-1" Cut="0.0000000000000000e+00" cType="1" res="-4.8496004194021225e-02" rms="2.1312735974788666e-01" purity="5.4752945899963379e-02" nType="-99"/>
                <Node pos="r" depth="5" NCoef="0" IVar="-1" Cut="0.0000000000000000e+00" cType="1" res="-2.1289402619004250e-02" rms="3.0344727635383606e-01" purity="1.7585052549839020e-01" nType="-99"/>
              </Node>
              <Node pos="r" depth="4" NCoef="0" IVar="6" Cut="2.1454799175262451e+00" cType="1" res="0.0000000000000000e+00" rms="0.0000000000000000e+00" purity="1.9439285993576050e-01" nType="0">
                <Node pos="l" depth="5" NCoef="0" IVar="-1" Cut="0.0000000000000000e+00" cType="1" res="-3.4705165773630142e-02" rms="2.2709487378597260e-01" purity="7.5714029371738434e-02" nType="-99"/>
                <Node pos="r" depth="5" NCoef="0" IVar="-1" Cut="0.0000000000000000e+00" cType="1" res="1.0675368830561638e-02" rms="3.4947276115417480e-01" purity="3.2599726319313049e-01" nType="-99"/>
              </Node>
            </Node>
          </Node>
          <Node pos="r" depth="2" NCoef="0" IVar="8" Cut="3.1476208567619324e-01" cType="1" res="0.0000000000000000e+00" rms="0.0000000000000000e+00" purity="2.6944282650947571e-01" nType="0">
            <Node pos="l" depth="3" NCoef="0" IVar="8" Cut="1.9975247979164124e-01" cType="1" res="0.0000000000000000e+00" rms="0.0000000000000000e+00" purity="1.7589093744754791e-01" nType="0">
              <Node pos="l" depth="4" NCoef="0" IVar="-1" Cut="0.0000000000000000e+00" cType="1" res="-3.6361310631036758e-02" rms="2.6817482709884644e-01" purity="1.1138405650854111e-01" nType="-99"/>
              <Node pos="r" depth="4" NCoef="0" IVar="-1" Cut="0.0000000000000000e+00" cType="1" res="-1.2701037339866161e-02" rms="3.3292037248611450e-01" purity="2.4565806984901428e-01" nType="-99"/>
            </Node>
            <Node pos="r" depth="3" NCoef="0" IVar="4" Cut="8.1948814392089844e+01" cType="1" res="0.0000000000000000e+00" rms="0.0000000000000000e+00" purity="3.7892434000968933e-01" nType="0">
              <Node pos="l" depth="4" NCoef="0" IVar="-1" Cut="0.0000000000000000e+00" cType="1" res="-1.2893752194941044e-02" rms="3.6906203627586365e-01" purity="2.2583895921707153e-01" nType="-99"/>
              <Node pos="r" depth="4" NCoef="0" IVar="7" Cut="5.6672888994216919e-01" cType="1" res="0.0000000000000000e+00" rms="0.0000000000000000e+00" purity="4.7363850474357605e-01" nType="0">
                <Node pos="l" depth="5" NCoef="0" IVar="-1" Cut="0.0000000000000000e+00" cType="1" res="1.8456064164638519e-02" rms="3.8368675112724304e-01" purity="4.5906040072441101e-01" nType="-99"/>
                <Node pos="r" depth="5" NCoef="0" IVar="-1" Cut="0.0000000000000000e+00" cType="1" res="2.4018252268433571e-02" rms="3.7578153610229492e-01" purity="4.8850822448730469e-01" nType="-99"/>
              </Node>
            </Node>
          </Node>
        </Node>
        <Node pos="r" depth="1" NCoef="0" IVar="4" Cut="1.4612367248535156e+02" cType="1" res="3.0568219721317291e-02" rms="3.5233795642852783e-01" purity="6.5964341163635254e-01" nType="0">
          <Node pos="l" depth="2" NCoef="0" IVar="4" Cut="7.8139678955078125e+01" cType="1" res="5.0624016672372818e-02" rms="3.4086948633193970e-01" purity="7.2596395015716553e-01" nType="0">
            <Node pos="l" depth="3" NCoef="0" IVar="9" Cut="4.6109730005264282e-01" cType="1" res="-6.3423782587051392e-02" rms="4.1667607426643372e-01" purity="4.2093959450721741e-01" nType="0">
              <Node pos="l" depth="4" NCoef="0" IVar="4" Cut="5.7619297027587891e+01" cType="1" res="-9.7232572734355927e-02" rms="4.0912166237831116e-01" purity="3.4779912233352661e-01" nType="0">
                <Node pos="l" depth="5" NCoef="0" IVar="-1" Cut="0.0000000000000000e+00" cType="1" res="-3.5403840243816376e-02" rms="3.9491152763366699e-01" purity="2.6828894019126892e-01" nType="-99"/>
                <Node pos="r" depth="5" NCoef="0" IVar="-1" Cut="0.0000000000000000e+00" cType="1" res="-1.5741651877760887e-02" rms="4.1541773080825806e-01" purity="4.0259110927581787e-01" nType="-99"/>
              </Node>
              <Node pos="r" depth="4" NCoef="0" IVar="-1" Cut="0.0000000000000000e+00" cType="1" res="-1.8385488074272871e-03" rms="4.2297583818435669e-01" purity="5.4129958152770996e-01" nType="-99"/>
            </Node>
            <Node pos="r" depth="3" NCoef="0" IVar="6" Cut="1.7623561620712280e+00" cType="1" res="7.0582881569862366e-02" rms="3.2166352868080139e-01" purity="7.7934455871582031e-01" nType="0">
              <Node pos="l" depth="4" NCoef="0" IVar="5" Cut="1.0622160339355469e+02" cType="1" res="2.2769896313548088e-02" rms="3.6062225699424744e-01" purity="6.7085313796997070e-01" nType="0">
                <Node pos="l" depth="5" NCoef="0" IVar="-1" Cut="0.0000000000000000e+00" cType="1" res="1.5337350778281689e-02" rms="3.4468060731887817e-01" purity="7.5057858228683472e-01" nType="-99"/>
                <Node pos="r" depth="5" NCoef="0" IVar="-1" Cut="0.0000000000000000e+00" cType="1" res="-2.4299779906868935e-02" rms="3.9721781015396118e-01" purity="3.5714644193649292e-01" nType="-99"/>
              </Node>
              <Node pos="r" depth="4" NCoef="0" IVar="3" Cut="4.0243902206420898e+00" cType="1" res="9.2012844979763031e-02" rms="3.0011638998985291e-01" purity="8.2797080278396606e-01" nType="0">
                <Node pos="l" depth="5" NCoef="0" IVar="-1" Cut="0.0000000000000000e+00" cType="1" res="3.1978223472833633e-02" rms="2.8880631923675537e-01" purity="8.4864580631256104e-01" nType="-99"/>
                <Node pos="r" depth="5" NCoef="0" IVar="-1" Cut="0.0000000000000000e+00" cType="1" res="2.1167311351746321e-03" rms="4.0084233880043030e-01" purity="5.8513021469116211e-01" nType="-99"/>
              </Node>
            </Node>
          </Node>
          <Node pos="r" depth="2" NCoef="0" IVar="9" Cut="2.5478193163871765e-01" cType="1" res="-6.1051674187183380e-02" rms="3.8759258389472961e-01" purity="3.5667467117309570e-01" nType="0">
            <Node pos="l" depth="3" NCoef="0" IVar="9" Cut="1.4922110736370087e-01" cType="1" res="-1.2960185110569000e-01" rms="3.3861586451530457e-01" purity="1.8110343813896179e-01" nType="0">
              <Node pos="l" depth="4" NCoef="0" IVar="-1" Cut="0.0000000000000000e+00" cType="1" res="-4.6122867614030838e-02" rms="2.7067872881889343e-01" purity="9.0539447963237762e-02" nType="-99"/>
              <Node pos="r" depth="4" NCoef="0" IVar="-1" Cut="0.0000000000000000e+00" cType="1" res="-2.6171203702688217e-02" rms="3.7798017263412476e-01" purity="2.4590484797954559e-01" nType="-99"/>
            </Node>
            <Node pos="r" depth="3" NCoef="0" IVar="6" Cut="2.3753452301025391e+00" cType="1" res="-3.8684722967445850e-03" rms="4.1558116674423218e-01" purity="5.0313276052474976e-01" nType="0">
              <Node pos="l" depth="4" NCoef="0" IVar="-1" Cut="0.0000000000000000e+00" cType="1" res="-1.7170634120702744e-02" rms="4.1724509000778198e-01" purity="3.6946964263916016e-01" nType="-99"/>
              <Node pos="r" depth="4" NCoef="0" IVar="-1" Cut="0.0000000000000000e+00" cType="1" res="1.6986705362796783e-02" rms="3.9995893836021423e-01" purity="6.5180176496505737e-01" nType="-99"/>
            </Node>
          </Node>
        </Node>
      </Node>
    </BinaryTree>
    <BinaryTree type="DecisionTree" boostWeight="1.0000000000000000e+00" itree="21">
      <Node pos="s" depth="0" NCoef="0" IVar="1" Cut="1.0975610017776489e+00" cType="1" res="1.1686527868732810e-03" rms="3.3579644560813904e-01" purity="5.0182723999023438e-01" nType="0">
        <Node pos="l" depth="1" NCoef="0" IVar="8" Cut="3.5742709040641785e-01" cType="1" res="-4.2572986334562302e-02" rms="3.3869054913520813e-01" purity="2.5867572426795959e-01" nType="0">
          <Node pos="l" depth="2" NCoef="0" IVar="5" Cut="9.1868225097656250e+01" cType="1" res="-6.5711170434951782e-02" rms="3.1704410910606384e-01" purity="1.9533176720142365e-01" nType="0">
            <Node pos="l" depth="3" NCoef="0" IVar="5" Cut="7.2626899719238281e+01" cType="1" res="-3.6675192415714264e-02" rms="3.6773052811622620e-01" purity="2.9334193468093872e-01" nType="0">
              <Node pos="l" depth="4" NCoef="0" IVar="5" Cut="6.0988269805908203e+01" cType="1" res="-9.5449879765510559e-02" rms="3.3034932613372803e-01" purity="1.8255987763404846e-01" nType="0">
                <Node pos="l" depth="5" NCoef="0" IVar="-1" Cut="0.0000000000000000e+00" cType="1" res="-3.6301407963037491e-02" rms="3.1163772940635681e-01" purity="1.3518062233924866e-01" nType="-99"/>
                <Node pos="r" depth="5" NCoef="0" IVar="-1" Cut="0.0000000000000000e+00" cType="1" res="-1.7471848055720329e-02" rms="3.5476130247116089e-01" purity="2.5607797503471375e-01" nType="-99"/>
              </Node>
              <Node pos="r" depth="4" NCoef="0" IVar="6" Cut="2.4519696235656738e+00" cType="1" res="1.9631162285804749e-02" rms="3.9210340380668640e-01" purity="3.9947155117988586e-01" nType="0">
                <Node pos="l" depth="5" NCoef="0" IVar="-1" Cut="0.0000000000000000e+00" cType="1" res="-5.8236368931829929e-03" rms="3.7390610575675964e-01" purity="3.1151860952377319e-01" nType="-99"/>
                <Node pos="r" depth="5" NCoef="0" IVar="-1" Cut="0.0000000000000000e+00" cType="1" res="2.0667295902967453e-02" rms="4.1106617450714111e-01" purity="5.3707730770111084e-01" nType="-99"/>
              </Node>
            </Node>
            <Node pos="r" depth="3" NCoef="0" IVar="8" Cut="2.7901780605316162e-01" cType="1" res="-8.9789904654026031e-02" rms="2.6543360948562622e-01" purity="1.1405462771654129e-01" nType="0">
              <Node pos="l" depth="4" NCoef="0" IVar="7" Cut="2.3216269016265869e+00" cType="1" res="-1.0025881975889206e-01" rms="2.4384863674640656e-01" purity="8.4883958101272583e-02" nType="0">
                <Node pos="l" depth="5" NCoef="0" IVar="-1" Cut="0.0000000000000000e+00" cType="1" res="-4.1287876665592194e-02" rms="2.4636006355285645e-01" purity="8.1843666732311249e-02" nType="-99"/>
                <Node pos="r" depth="5" NCoef="0" IVar="-1" Cut="0.0000000000000000e+00" cType="1" res="-3.0272020027041435e-02" rms="2.3666493594646454e-01" purity="9.1058835387229919e-02" nType="-99"/>
              </Node>
              <Node pos="r" depth="4" NCoef="0" IVar="-1" Cut="0.0000000000000000e+00" cType="1" res="-1.9363166764378548e-02" rms="3.1768295168876648e-01" purity="1.9815933704376221e-01" nType="-99"/>
            </Node>
          </Node>
          <Node pos="r" depth="2" NCoef="0" IVar="9" Cut="3.0783963203430176e-01" cType="1" res="-1.1414933018386364e-02" rms="3.6350199580192566e-01" purity="3.4397515654563904e-01" nType="0">
            <Node pos="l" depth="3" NCoef="0" IVar="9" Cut="1.5022926032543182e-01" cType="1" res="-5.8523602783679962e-02" rms="3.2893136143684387e-01" purity="1.8994021415710449e-01" nType="0">
              <Node pos="l" depth="4" NCoef="0" IVar="-1" Cut="0.0000000000000000e+00" cType="1" res="-3.6250375211238861e-02" rms="2.4968665838241577e-01" purity="7.8990593552589417e-02" nType="-99"/>
              <Node pos="r" depth="4" NCoef="0" IVar="0" Cut="2.0731706619262695e+00" cType="1" res="-3.8324169814586639e-02" rms="3.6029765009880066e-01" purity="2.4521970748901367e-01" nType="0">
                <Node pos="l" depth="5" NCoef="0" IVar="-1" Cut="0.0000000000000000e+00" cType="1" res="-3.1478662043809891e-02" rms="2.3774768412113190e-01" purity="6.9861628115177155e-02" nType="-99"/>
                <Node pos="r" depth="5" NCoef="0" IVar="-1" Cut="0.0000000000000000e+00" cType="1" res="-2.0922825206071138e-03" rms="4.3437775969505310e-01" purity="3.9064446091651917e-01" nType="-99"/>
              </Node>
            </Node>
            <Node pos="r" depth="3" NCoef="0" IVar="6" Cut="2.2221014499664307e+00" cType="1" res="3.5376567393541336e-02" rms="3.8925144076347351e-01" purity="4.9697309732437134e-01" nType="0">
              <Node pos="l" depth="4" NCoef="0" IVar="0" Cut="2.0731706619262695e+00" cType="1" res="-1.3391911983489990e-02" rms="3.9648938179016113e-01" purity="3.9069584012031555e-01" nType="0">
                <Node pos="l" depth="5" NCoef="0" IVar="-1" Cut="0.0000000000000000e+00" cType="1" res="-2.4294856935739517e-02" rms="3.1056523323059082e-01" purity="1.1886692792177200e-01" nType="-99"/>
                <Node pos="r" depth="5" NCoef="0" IVar="-1" Cut="0.0000000000000000e+00" cType="1" res="5.8135166764259338e-03" rms="4.4184166193008423e-01" purity="5.7769584655761719e-01" nType="-99"/>
              </Node>
              <Node pos="r" depth="4" NCoef="0" IVar="-1" Cut="0.0000000000000000e+00" cType="1" res="3.1439188867807388e-02" rms="3.5998660326004028e-01" purity="6.8636560440063477e-01" nType="-99"/>
            </Node>
          </Node>
        </Node>
        <Node pos="r" depth="1" NCoef="0" IVar="5" Cut="9.8664039611816406e+01" cType="1" res="3.5159058868885040e-02" rms="3.2954549789428711e-01" purity="6.9077354669570923e-01" nType="0">
          <Node pos="l" depth="2" NCoef="0" IVar="5" Cut="6.6984191894531250e+01" cType="1" res="6.1628781259059906e-02" rms="3.1507340073585510e-01" purity="7.6849240064620972e-01" nType="0">
            <Node pos="l" depth="3" NCoef="0" IVar="0" Cut="3.0487804412841797e+00" cType="1" res="-1.8343150615692139e-02" rms="3.7435245513916016e-01" purity="6.0749912261962891e-01" nType="0">
              <Node pos="l" depth="4" NCoef="0" IVar="5" Cut="5.2251651763916016e+01" cType="1" res="-7.2161838412284851e-02" rms="3.8469275832176208e-01" purity="3.7058952450752258e-01" nType="0">
                <Node pos="l" depth="5" NCoef="0" IVar="-1" Cut="0.0000000000000000e+00" cType="1" res="-2.7567714452743530e-02" rms="3.8498273491859436e-01" purity="3.1667953729629517e-01" nType="-99"/>
                <Node pos="r" depth="5" NCoef="0" IVar="-1" Cut="0.0000000000000000e+00" cType="1" res="-1.0387863032519817e-02" rms="3.8155588507652283e-01" purity="4.2499721050262451e-01" nType="-99"/>
              </Node>
              <Node pos="r" depth="4" NCoef="0" IVar="-1" Cut="0.0000000000000000e+00" cType="1" res="5.8433641679584980e-03" rms="3.6233368515968323e-01" purity="7.7194434404373169e-01" nType="-99"/>
            </Node>
            <Node pos="r" depth="3" NCoef="0" IVar="3" Cut="3.0487804412841797e+00" cType="1" res="8.9411810040473938e-02" rms="2.8649494051933289e-01" purity="8.2442301511764526e-01" nType="0">
              <Node pos="l" depth="4" NCoef="0" IVar="9" Cut="1.6955471038818359e-01" cType="1" res="1.0085584223270416e-01" rms="2.7473860979080200e-01" purity="8.4954428672790527e-01" nType="0">
                <Node pos="l" depth="5" NCoef="0" IVar="-1" Cut="0.0000000000000000e+00" cType="1" res="1.9964855164289474e-03" rms="3.7891519069671631e-01" purity="5.4812562465667725e-01" nType="-99"/>
                <Node pos="r" depth="5" NCoef="0" IVar="-1" Cut="0.0000000000000000e+00" cType="1" res="3.7717431783676147e-02" rms="2.5900086760520935e-01" purity="8.8213783502578735e-01" nType="-99"/>
              </Node>
              <Node pos="r" depth="4" NCoef="0" IVar="-1" Cut="0.0000000000000000e+00" cType="1" res="-1.7401643097400665e-02" rms="3.8138738274574280e-01" purity="4.8580083250999451e-01" nType="-99"/>
            </Node>
          </Node>
          <Node pos="r" depth="2" NCoef="0" IVar="6" Cut="2.6052212715148926e+00" cType="1" res="-3.0536042526364326e-02" rms="3.5454064607620239e-01" purity="4.9788352847099304e-01" nType="0">
            <Node pos="l" depth="3" NCoef="0" IVar="9" Cut="3.6024108529090881e-01" cType="1" res="-8.3725273609161377e-02" rms="3.5882517695426941e-01" purity="3.6049944162368774e-01" nType="0">
              <Node pos="l" depth="4" NCoef="0" IVar="6" Cut="1.9062577486038208e+00" cType="1" res="-1.1636444181203842e-01" rms="3.4757602214813232e-01" purity="2.7434259653091431e-01" nType="0">
                <Node pos="l" depth="5" NCoef="0" IVar="-1" Cut="0.0000000000000000e+00" cType="1" res="-4.1764151304960251e-02" rms="3.2616284489631653e-01" purity="1.9673730432987213e-01" nType="-99"/>
                <Node pos="r" depth="5" NCoef="0" IVar="-1" Cut="0.0000000000000000e+00" cType="1" res="-2.0787466317415237e-02" rms="3.7286370992660522e-01" purity="3.8762003183364868e-01" nType="-99"/>
              </Node>
              <Node pos="r" depth="4" NCoef="0" IVar="-1" Cut="0.0000000000000000e+00" cType="1" res="-8.6849899962544441e-03" rms="3.7025523185729980e-01" purity="4.9961787462234497e-01" nType="-99"/>
            </Node>
            <Node pos="r" depth="3" NCoef="0" IVar="-1" Cut="0.0000000000000000e+00" cType="1" res="1.4765936881303787e-02" rms="3.3215323090553284e-01" purity="7.0567119121551514e-01" nType="-99"/>
          </Node>
        </Node>
      </Node>
    </BinaryTree>
    <BinaryTree type="DecisionTree" boostWeight="1.0000000000000000e+00" itree="22">
      <Node pos="s" depth="0" NCoef="0" IVar="2" Cut="2.0731706619262695e+00" cType="1" res="-6.4489158103242517e-04" rms="3.3388960361480713e-01" purity="4.9890139698982239e-01" nType="0">
        <Node pos="l" depth="1" NCoef="0" IVar="9" Cut="3.4943231940269470e-01" cType="1" res="2.0446673035621643e-02" rms="3.4705141186714172e-01" purity="6.0420274734497070e-01" nType="0">
          <Node pos="l" depth="2" NCoef="0" IVar="6" Cut="1.5324831008911133e+00" cType="1" res="-1.6368944197893143e-02" rms="3.5505074262619019e-01" purity="4.8699691891670227e-01" nType="0">
            <Node pos="l" depth="3" NCoef="0" IVar="6" Cut="5.6066548824310303e-01" cType="1" res="-8.5510067641735077e-02" rms="3.3546492457389832e-01" purity="2.6531755924224854e-01" nType="0">
              <Node pos="l" depth="4" NCoef="0" IVar="-1" Cut="0.0000000000000000e+00" cType="1" res="-3.9000675082206726e-02" rms="3.1069841980934143e-01" purity="1.9391061365604401e-01" nType="-99"/>
              <Node pos="r" depth="4" NCoef="0" IVar="5" Cut="9.5361640930175781e+01" cType="1" res="-6.7546598613262177e-02" rms="3.4469854831695557e-01" purity="2.9793295264244080e-01" nType="0">
                <Node pos="l" depth="5" NCoef="0" IVar="-1" Cut="0.0000000000000000e+00" cType="1" res="-1.3260934501886368e-02" rms="3.6906239390373230e-01" purity="3.9397519826889038e-01" nType="-99"/>
                <Node pos="r" depth="5" NCoef="0" IVar="-1" Cut="0.0000000000000000e+00" cType="1" res="-3.2464608550071716e-02" rms="3.0517163872718811e-01" purity="1.6401641070842743e-01" nType="-99"/>
              </Node>
            </Node>
            <Node pos="r" depth="3" NCoef="0" IVar="9" Cut="1.0244090855121613e-01" cType="1" res="1.0655214078724384e-02" rms="3.5881513357162476e-01" purity="5.7364141941070557e-01" nType="0">
              <Node pos="l" depth="4" NCoef="0" IVar="-1" Cut="0.0000000000000000e+00" cType="1" res="-3.9332665503025055e-02" rms="3.0942356586456299e-01" purity="1.6652172803878784e-01" nType="-99"/>
              <Node pos="r" depth="4" NCoef="0" IVar="7" Cut="2.0701782703399658e+00" cType="1" res="2.4175275117158890e-02" rms="3.6002159118652344e-01" purity="6.1109966039657593e-01" nType="0">
                <Node pos="l" depth="5" NCoef="0" IVar="-1" Cut="0.0000000000000000e+00" cType="1" res="-3.6075199022889137e-03" rms="3.6909231543540955e-01" purity="5.7408821582794189e-01" nType="-99"/>
                <Node pos="r" depth="5" NCoef="0" IVar="-1" Cut="0.0000000000000000e+00" cType="1" res="2.6717301458120346e-02" rms="3.3125752210617065e-01" purity="6.8127292394638062e-01" nType="-99"/>
              </Node>
            </Node>
          </Node>
          <Node pos="r" depth="2" NCoef="0" IVar="8" Cut="1.1932145804166794e-01" cType="1" res="5.9264894574880600e-02" rms="3.3404615521430969e-01" purity="7.2778397798538208e-01" nType="0">
            <Node pos="l" depth="3" NCoef="0" IVar="-1" Cut="0.0000000000000000e+00" cType="1" res="-3.2077856361865997e-02" rms="3.6710861325263977e-01" purity="3.1455045938491821e-01" nType="-99"/>
            <Node pos="r" depth="3" NCoef="0" IVar="4" Cut="6.4612205505371094e+01" cType="1" res="6.9904036819934845e-02" rms="3.2893428206443787e-01" purity="7.5265663862228394e-01" nType="0">
              <Node pos="l" depth="4" NCoef="0" IVar="-1" Cut="0.0000000000000000e+00" cType="1" res="-1.2339058332145214e-02" rms="4.3000578880310059e-01" purity="4.1040024161338806e-01" nType="-99"/>
              <Node pos="r" depth="4" NCoef="0" IVar="6" Cut="8.4286665916442871e-01" cType="1" res="8.3790890872478485e-02" rms="3.1230118870735168e-01" purity="7.9187625646591187e-01" nType="0">
                <Node pos="l" depth="5" NCoef="0" IVar="-1" Cut="0.0000000000000000e+00" cType="1" res="2.2223864216357470e-03" rms="3.7574240565299988e-01" purity="6.0510742664337158e-01" nType="-99"/>
                <Node pos="r" depth="5" NCoef="0" IVar="-1" Cut="0.0000000000000000e+00" cType="1" res="3.0825994908809662e-02" rms="2.9781001806259155e-01" purity="8.2461678981781006e-01" nType="-99"/>
              </Node>
            </Node>
          </Node>
        </Node>
        <Node pos="r" depth="1" NCoef="0" IVar="2" Cut="4.0243902206420898e+00" cType="1" res="-6.7481510341167450e-02" rms="2.7785721421241760e-01" purity="1.6521428525447845e-01" nType="0">
          <Node pos="l" depth="2" NCoef="0" IVar="6" Cut="2.1454811096191406e+00" cType="1" res="-3.1781449913978577e-02" rms="3.4889301657676697e-01" purity="3.6097386479377747e-01" nType="0">
            <Node pos="l" depth="3" NCoef="0" IVar="-1" Cut="0.0000000000000000e+00" cType="1" res="-2.2316962480545044e-02" rms="3.3074554800987244e-01" purity="2.5267851352691650e-01" nType="-99"/>
            <Node pos="r" depth="3" NCoef="0" IVar="-1" Cut="0.0000000000000000e+00" cType="1" res="2.4103708565235138e-03" rms="3.6206158995628357e-01" purity="4.7126662731170654e-01" nType="-99"/>
          </Node>
          <Node pos="r" depth="2" NCoef="0" IVar="4" Cut="1.3393737792968750e+02" cType="1" res="-8.3705060184001923e-02" rms="2.3691719770431519e-01" purity="7.6253183186054230e-02" nType="0">
            <Node pos="l" depth="3" NCoef="0" IVar="4" Cut="1.0718652343750000e+02" cType="1" res="-7.4457161128520966e-02" rms="2.6006054878234863e-01" purity="9.6943534910678864e-02" nType="0">
              <Node pos="l" depth="4" NCoef="0" IVar="1" Cut="1.0975610017776489e+00" cType="1" res="-9.2476569116115570e-02" rms="2.2410653531551361e-01" purity="6.3109748065471649e-02" nType="0">
                <Node pos="l" depth="5" NCoef="0" IVar="-1" Cut="0.0000000000000000e+00" cType="1" res="-4.0915649384260178e-02" rms="1.8375174701213837e-01" purity="3.7711657583713531e-02" nType="-99"/>
                <Node pos="r" depth="5" NCoef="0" IVar="-1" Cut="0.0000000000000000e+00" cType="1" res="-3.2616320997476578e-02" rms="2.9823794960975647e-01" purity="1.2330570816993713e-01" nType="-99"/>
              </Node>
              <Node pos="r" depth="4" NCoef="0" IVar="-1" Cut="0.0000000000000000e+00" cType="1" res="-9.9778342992067337e-03" rms="3.2883602380752563e-01" purity="1.8114165961742401e-01" nType="-99"/>
            </Node>
            <Node pos="r" depth="3" NCoef="0" IVar="6" Cut="2.0688500404357910e+00" cType="1" res="-9.9976688623428345e-02" rms="1.8835420906543732e-01" purity="3.9848618209362030e-02" nType="0">
              <Node pos="l" depth="4" NCoef="0" IVar="-1" Cut="0.0000000000000000e+00" cType="1" res="-4.0829356759786606e-02" rms="1.9806839525699615e-01" purity="4.2774863541126251e-02" nType="-99"/>
              <Node pos="r" depth="4" NCoef="0" IVar="-1" Cut="0.0000000000000000e+00" cType="1" res="-4.7439277172088623e-02" rms="1.7403508722782135e-01" purity="3.6088410764932632e-02" nType="-99"/>
            </Node>
          </Node>
        </Node>
      </Node>
    </BinaryTree>
    <BinaryTree type="DecisionTree" boostWeight="1.0000000000000000e+00" itree="23">
      <Node pos="s" depth="0" NCoef="0" IVar="0" Cut="1.0975610017776489e+00" cType="1" res="1.6016326844692230e-03" rms="3.3193686604499817e-01" purity="5.0265097618103027e-01" nType="0">
        <Node pos="l" depth="1" NCoef="0" IVar="8" Cut="3.4593829512596130e-01" cType="1" res="0.0000000000000000e+00" rms="0.0000000000000000e+00" purity="1.8616855144500732e-01" nType="0">
          <Node pos="l" depth="2" NCoef="0" IVar="8" Cut="1.6890902817249298e-01" cType="1" res="0.0000000000000000e+00" rms="0.0000000000000000e+00" purity="1.4138361811637878e-01" nType="0">
            <Node pos="l" depth="3" NCoef="0" IVar="1" Cut="1.0975610017776489e+00" cType="1" res="0.0000000000000000e+00" rms="0.0000000000000000e+00" purity="7.6952397823333740e-02" nType="0">
              <Node pos="l" depth="4" NCoef="0" IVar="4" Cut="1.1123781585693359e+02" cType="1" res="0.0000000000000000e+00" rms="0.0000000000000000e+00" purity="3.2830372452735901e-02" nType="0">
                <Node pos="l" depth="5" NCoef="0" IVar="-1" Cut="0.0000000000000000e+00" cType="1" res="-4.1516799479722977e-02" rms="1.7083545029163361e-01" purity="3.2568685710430145e-02" nType="-99"/>
                <Node pos="r" depth="5" NCoef="0" IVar="-1" Cut="0.0000000000000000e+00" cType="1" res="-3.9604932069778442e-02" rms="1.6912610828876495e-01" purity="3.3069510012865067e-02" nType="-99"/>
              </Node>
              <Node pos="r" depth="4" NCoef="0" IVar="-1" Cut="0.0000000000000000e+00" cType="1" res="-3.4827038645744324e-02" rms="3.0054712295532227e-01" purity="1.4319062232971191e-01" nType="-99"/>
            </Node>
            <Node pos="r" depth="3" NCoef="0" IVar="7" Cut="2.3101148605346680e+00" cType="1" res="0.0000000000000000e+00" rms="0.0000000000000000e+00" purity="1.7716628313064575e-01" nType="0">
              <Node pos="l" depth="4" NCoef="0" IVar="9" Cut="4.2623308300971985e-01" cType="1" res="0.0000000000000000e+00" rms="0.0000000000000000e+00" purity="1.6583839058876038e-01" nType="0">
                <Node pos="l" depth="5" NCoef="0" IVar="-1" Cut="0.0000000000000000e+00" cType="1" res="-3.4956976771354675e-02" rms="2.4695299565792084e-01" purity="1.0963289439678192e-01" nType="-99"/>
                <Node pos="r" depth="5" NCoef="0" IVar="-1" Cut="0.0000000000000000e+00" cType="1" res="-7.9166339710354805e-03" rms="3.4483486413955688e-01" purity="2.5696587562561035e-01" nType="-99"/>
              </Node>
              <Node pos="r" depth="4" NCoef="0" IVar="-1" Cut="0.0000000000000000e+00" cType="1" res="4.4843123760074377e-04" rms="2.9948621988296509e-01" purity="2.1766674518585205e-01" nType="-99"/>
            </Node>
          </Node>
          <Node pos="r" depth="2" NCoef="0" IVar="9" Cut="3.1804040074348450e-01" cType="1" res="0.0000000000000000e+00" rms="0.0000000000000000e+00" purity="2.4863079190254211e-01" nType="0">
            <Node pos="l" depth="3" NCoef="0" IVar="9" Cut="2.4051633477210999e-01" cType="1" res="0.0000000000000000e+00" rms="0.0000000000000000e+00" purity="1.3763166964054108e-01" nType="0">
              <Node pos="l" depth="4" NCoef="0" IVar="9" Cut="1.5845468640327454e-01" cType="1" res="0.0000000000000000e+00" rms="0.0000000000000000e+00" purity="8.9926928281784058e-02" nType="0">
                <Node pos="l" depth="5" NCoef="0" IVar="-1" Cut="0.0000000000000000e+00" cType="1" res="-4.0010932832956314e-02" rms="2.0663562417030334e-01" purity="5.1745489239692688e-02" nType="-99"/>
                <Node pos="r" depth="5" NCoef="0" IVar="-1" Cut="0.0000000000000000e+00" cType="1" res="-2.1887637674808502e-02" rms="2.7954998612403870e-01" purity="1.3232158124446869e-01" nType="-99"/>
              </Node>
              <Node pos="r" depth="4" NCoef="0" IVar="-1" Cut="0.0000000000000000e+00" cType="1" res="-5.8705639094114304e-03" rms="3.3678662776947021e-01" purity="2.4164636433124542e-01" nType="-99"/>
            </Node>
            <Node pos="r" depth="3" NCoef="0" IVar="1" Cut="1.0975610017776489e+00" cType="1" res="0.0000000000000000e+00" rms="0.0000000000000000e+00" purity="3.8313826918601990e-01" nType="0">
              <Node pos="l" depth="4" NCoef="0" IVar="-1" Cut="0.0000000000000000e+00" cType="1" res="-1.4605981297791004e-02" rms="3.1898003816604614e-01" purity="1.3647809624671936e-01" nType="-99"/>
              <Node pos="r" depth="4" NCoef="0" IVar="-1" Cut="0.0000000000000000e+00" cType="1" res="2.0121745765209198e-02" rms="3.9716964960098267e-01" purity="5.9497839212417603e-01" nType="-99"/>
            </Node>
          </Node>
        </Node>
        <Node pos="r" depth="1" NCoef="0" IVar="8" Cut="1.2464582920074463e-01" cType="1" res="2.5763470679521561e-02" rms="3.4562087059020996e-01" purity="6.6133010387420654e-01" nType="0">
          <Node pos="l" depth="2" NCoef="0" IVar="-1" Cut="0.0000000000000000e+00" cType="1" res="-3.1863242387771606e-02" rms="3.5268038511276245e-01" purity="3.0876255035400391e-01" nType="-99"/>
          <Node pos="r" depth="2" NCoef="0" IVar="9" Cut="1.1540764570236206e-01" cType="1" res="3.4652408212423325e-02" rms="3.4322747588157654e-01" purity="6.8342667818069458e-01" nType="0">
            <Node pos="l" depth="3" NCoef="0" IVar="-1" Cut="0.0000000000000000e+00" cType="1" res="-2.9007656499743462e-02" rms="3.4598115086555481e-01" purity="2.2365672886371613e-01" nType="-99"/>
            <Node pos="r" depth="3" NCoef="0" IVar="4" Cut="7.1102272033691406e+01" cType="1" res="4.3010544031858444e-02" rms="3.4124955534934998e-01" purity="7.1086168289184570e-01" nType="0">
              <Node pos="l" depth="4" NCoef="0" IVar="4" Cut="4.9989212036132812e+01" cType="1" res="-6.4104773104190826e-02" rms="4.2061746120452881e-01" purity="4.1369441151618958e-01" nType="0">
                <Node pos="l" depth="5" NCoef="0" IVar="-1" Cut="0.0000000000000000e+00" cType="1" res="-3.1924519687891006e-02" rms="4.0647166967391968e-01" purity="3.1205159425735474e-01" nType="-99"/>
                <Node pos="r" depth="5" NCoef="0" IVar="-1" Cut="0.0000000000000000e+00" cType="1" res="-5.9046871028840542e-03" rms="4.2353340983390808e-01" purity="4.7239577770233154e-01" nType="-99"/>
              </Node>
              <Node pos="r" depth="4" NCoef="0" IVar="4" Cut="1.4091598510742188e+02" cType="1" res="5.3903471678495407e-02" rms="3.3017665147781372e-01" purity="7.4108165502548218e-01" nType="0">
                <Node pos="l" depth="5" NCoef="0" IVar="-1" Cut="0.0000000000000000e+00" cType="1" res="2.3765986785292625e-02" rms="3.0737191438674927e-01" purity="8.1282120943069458e-01" nType="-99"/>
                <Node pos="r" depth="5" NCoef="0" IVar="-1" Cut="0.0000000000000000e+00" cType="1" res="-4.1965357959270477e-03" rms="3.9890223741531372e-01" purity="4.6300625801086426e-01" nType="-99"/>
              </Node>
            </Node>
          </Node>
        </Node>
      </Node>
    </BinaryTree>
    <BinaryTree type="DecisionTree" boostWeight="1.0000000000000000e+00" itree="24">
      <Node pos="s" depth="0" NCoef="0" IVar="4" Cut="1.3974087524414062e+02" cType="1" res="1.8402781570330262e-03" rms="3.3171617984771729e-01" purity="5.0165116786956787e-01" nType="0">
        <Node pos="l" depth="1" NCoef="0" IVar="4" Cut="9.6146774291992188e+01" cType="1" res="2.0201265811920166e-02" rms="3.3199578523635864e-01" purity="5.7963907718658447e-01" nType="0">
          <Node pos="l" depth="2" NCoef="0" IVar="9" Cut="4.7636827826499939e-01" cType="1" res="-3.6523077636957169e-02" rms="3.5262009501457214e-01" purity="3.7711414694786072e-01" nType="0">
            <Node pos="l" depth="3" NCoef="0" IVar="6" Cut="1.5324845314025879e+00" cType="1" res="-5.6776784360408783e-02" rms="3.4412005543708801e-01" purity="3.2700365781784058e-01" nType="0">
              <Node pos="l" depth="4" NCoef="0" IVar="8" Cut="3.9840179681777954e-01" cType="1" res="-1.0160042345523834e-01" rms="3.0916470289230347e-01" purity="1.7734949290752411e-01" nType="0">
                <Node pos="l" depth="5" NCoef="0" IVar="-1" Cut="0.0000000000000000e+00" cType="1" res="-4.2829230427742004e-02" rms="2.6585376262664795e-01" purity="1.2248413264751434e-01" nType="-99"/>
                <Node pos="r" depth="5" NCoef="0" IVar="-1" Cut="0.0000000000000000e+00" cType="1" res="-2.4635149165987968e-02" rms="3.5729017853736877e-01" purity="2.4981436133384705e-01" nType="-99"/>
              </Node>
              <Node pos="r" depth="4" NCoef="0" IVar="4" Cut="6.7438491821289062e+01" cType="1" res="-3.6999400705099106e-02" rms="3.5667455196380615e-01" purity="3.9303508400917053e-01" nType="0">
                <Node pos="l" depth="5" NCoef="0" IVar="-1" Cut="0.0000000000000000e+00" cType="1" res="-2.3399200290441513e-02" rms="3.5444879531860352e-01" purity="2.3837307095527649e-01" nType="-99"/>
                <Node pos="r" depth="5" NCoef="0" IVar="-1" Cut="0.0000000000000000e+00" cType="1" res="-4.2831604368984699e-03" rms="3.5572806000709534e-01" purity="4.7623303532600403e-01" nType="-99"/>
              </Node>
            </Node>
            <Node pos="r" depth="3" NCoef="0" IVar="2" Cut="2.0731706619262695e+00" cType="1" res="5.6234956718981266e-03" rms="3.6610776185989380e-01" purity="4.8139056563377380e-01" nType="0">
              <Node pos="l" depth="4" NCoef="0" IVar="8" Cut="2.6065650582313538e-01" cType="1" res="3.1299304217100143e-02" rms="3.8844385743141174e-01" purity="6.0203737020492554e-01" nType="0">
                <Node pos="l" depth="5" NCoef="0" IVar="-1" Cut="0.0000000000000000e+00" cType="1" res="-9.1465311124920845e-03" rms="3.8921871781349182e-01" purity="4.5930242538452148e-01" nType="-99"/>
                <Node pos="r" depth="5" NCoef="0" IVar="-1" Cut="0.0000000000000000e+00" cType="1" res="1.6769014298915863e-02" rms="3.8415652513504028e-01" purity="6.7136114835739136e-01" nType="-99"/>
              </Node>
              <Node pos="r" depth="4" NCoef="0" IVar="-1" Cut="0.0000000000000000e+00" cType="1" res="-2.4418603628873825e-02" rms="2.8333184123039246e-01" purity="1.4612412452697754e-01" nType="-99"/>
            </Node>
          </Node>
          <Node pos="r" depth="2" NCoef="0" IVar="3" Cut="4.0243902206420898e+00" cType="1" res="5.6097153574228287e-02" rms="3.1298780441284180e-01" purity="7.0779955387115479e-01" nType="0">
            <Node pos="l" depth="3" NCoef="0" IVar="5" Cut="9.9083992004394531e+01" cType="1" res="6.6638141870498657e-02" rms="3.0578380823135376e-01" purity="7.4352836608886719e-01" nType="0">
              <Node pos="l" depth="4" NCoef="0" IVar="5" Cut="5.9230930328369141e+01" cType="1" res="8.4993876516819000e-02" rms="2.9119098186492920e-01" purity="8.0991965532302856e-01" nType="0">
                <Node pos="l" depth="5" NCoef="0" IVar="-1" Cut="0.0000000000000000e+00" cType="1" res="9.2392176156863570e-04" rms="3.7461459636688232e-01" purity="6.1453866958618164e-01" nType="-99"/>
                <Node pos="r" depth="5" NCoef="0" IVar="-1" Cut="0.0000000000000000e+00" cType="1" res="3.5583324730396271e-02" rms="2.6910883188247681e-01" purity="8.4795165061950684e-01" nType="-99"/>
              </Node>
              <Node pos="r" depth="4" NCoef="0" IVar="6" Cut="2.6052210330963135e+00" cType="1" res="1.3782041147351265e-02" rms="3.3885839581489563e-01" purity="5.5235195159912109e-01" nType="0">
                <Node pos="l" depth="5" NCoef="0" IVar="-1" Cut="0.0000000000000000e+00" cType="1" res="-9.2793209478259087e-03" rms="3.5422000288963318e-01" purity="4.0406522154808044e-01" nType="-99"/>
                <Node pos="r" depth="5" NCoef="0" IVar="-1" Cut="0.0000000000000000e+00" cType="1" res="2.4863364174962044e-02" rms="3.0554577708244324e-01" purity="7.6020830869674683e-01" nType="-99"/>
              </Node>
            </Node>
            <Node pos="r" depth="3" NCoef="0" IVar="8" Cut="2.9426017403602600e-01" cType="1" res="-3.9656043052673340e-02" rms="3.5815641283988953e-01" purity="3.8324198126792908e-01" nType="0">
              <Node pos="l" depth="4" NCoef="0" IVar="-1" Cut="0.0000000000000000e+00" cType="1" res="-2.5943702086806297e-02" rms="3.2847231626510620e-01" purity="2.4745431542396545e-01" nType="-99"/>
              <Node pos="r" depth="4" NCoef="0" IVar="-1" Cut="0.0000000000000000e+00" cType="1" res="-1.1330535635352135e-03" rms="3.7800756096839905e-01" purity="4.9900457262992859e-01" nType="-99"/>
            </Node>
          </Node>
        </Node>
        <Node pos="r" depth="1" NCoef="0" IVar="6" Cut="2.6818470954895020e+00" cType="1" res="-5.6086622178554535e-02" rms="3.2408490777015686e-01" purity="2.5560766458511353e-01" nType="0">
          <Node pos="l" depth="2" NCoef="0" IVar="4" Cut="1.8276884460449219e+02" cType="1" res="-7.6479703187942505e-02" rms="3.0678284168243408e-01" purity="1.9270035624504089e-01" nType="0">
            <Node pos="l" depth="3" NCoef="0" IVar="8" Cut="4.8004263639450073e-01" cType="1" res="-5.5328708142042160e-02" rms="3.3048838376998901e-01" purity="2.5999051332473755e-01" nType="0">
              <Node pos="l" depth="4" NCoef="0" IVar="9" Cut="3.8222864270210266e-01" cType="1" res="-7.5060918927192688e-02" rms="3.1307178735733032e-01" purity="2.1858838200569153e-01" nType="0">
                <Node pos="l" depth="5" NCoef="0" IVar="-1" Cut="0.0000000000000000e+00" cType="1" res="-3.1959518790245056e-02" rms="2.9128041863441467e-01" purity="1.6008087992668152e-01" nType="-99"/>
                <Node pos="r" depth="5" NCoef="0" IVar="-1" Cut="0.0000000000000000e+00" cType="1" res="-1.0730388574302197e-02" rms="3.5721418261528015e-01" purity="3.5971614718437195e-01" nType="-99"/>
              </Node>
              <Node pos="r" depth="4" NCoef="0" IVar="-1" Cut="0.0000000000000000e+00" cType="1" res="9.9120521917939186e-04" rms="3.7141296267509460e-01" purity="3.8308283686637878e-01" nType="-99"/>
            </Node>
            <Node pos="r" depth="3" NCoef="0" IVar="0" Cut="1.0975610017776489e+00" cType="1" res="-1.0188344120979309e-01" rms="2.7347522974014282e-01" purity="1.1188039183616638e-01" nType="0">
              <Node pos="l" depth="4" NCoef="0" IVar="6" Cut="1.4390364885330200e+00" cType="1" res="0.0000000000000000e+00" rms="0.0000000000000000e+00" purity="3.9761561900377274e-02" nType="0">
                <Node pos="l" depth="5" NCoef="0" IVar="-1" Cut="0.0000000000000000e+00" cType="1" res="-3.7459470331668854e-02" rms="1.9084982573986053e-01" purity="3.9630956947803497e-02" nType="-99"/>
                <Node pos="r" depth="5" NCoef="0" IVar="-1" Cut="0.0000000000000000e+00" cType="1" res="-4.0243580937385559e-02" rms="1.8614204227924347e-01" purity="3.9890673011541367e-02" nType="-99"/>
              </Node>
              <Node pos="r" depth="4" NCoef="0" IVar="6" Cut="1.5698633193969727e+00" cType="1" res="-1.2571719288825989e-01" rms="3.3552777767181396e-01" purity="1.8346284329891205e-01" nType="0">
                <Node pos="l" depth="5" NCoef="0" IVar="-1" Cut="0.0000000000000000e+00" cType="1" res="-4.0869288146495819e-02" rms="3.0765438079833984e-01" purity="1.3013553619384766e-01" nType="-99"/>
                <Node pos="r" depth="5" NCoef="0" IVar="-1" Cut="0.0000000000000000e+00" cType="1" res="-2.7946785092353821e-02" rms="3.5960817337036133e-01" purity="2.3506607115268707e-01" nType="-99"/>
              </Node>
            </Node>
          </Node>
          <Node pos="r" depth="2" NCoef="0" IVar="8" Cut="3.2208183407783508e-01" cType="1" res="1.7868641298264265e-03" rms="3.6259898543357849e-01" purity="4.3413218855857849e-01" nType="0">
            <Node pos="l" depth="3" NCoef="0" IVar="-1" Cut="0.0000000000000000e+00" cType="1" res="-1.7871294170618057e-02" rms="3.6088466644287109e-01" purity="2.8631973266601562e-01" nType="-99"/>
            <Node pos="r" depth="3" NCoef="0" IVar="-1" Cut="0.0000000000000000e+00" cType="1" res="1.6696203500032425e-02" rms="3.5384011268615723e-01" purity="5.6823575496673584e-01" nType="-99"/>
          </Node>
        </Node>
      </Node>
    </BinaryTree>
    <BinaryTree type="DecisionTree" boostWeight="1.0000000000000000e+00" itree="25">
      <Node pos="s" depth="0" NCoef="0" IVar="0" Cut="2.0731706619262695e+00" cType="1" res="8.7653973605483770e-04" rms="3.2983046770095825e-01" purity="5.0042200088500977e-01" nType="0">
        <Node pos="l" depth="1" NCoef="0" IVar="8" Cut="2.3328053951263428e-01" cType="1" res="-3.7024542689323425e-02" rms="3.0191484093666077e-01" purity="2.3263224959373474e-01" nType="0">
          <Node pos="l" depth="2" NCoef="0" IVar="8" Cut="1.0254485160112381e-01" cType="1" res="-7.3303855955600739e-02" rms="2.5707226991653442e-01" purity="1.2436641752719879e-01" nType="0">
            <Node pos="l" depth="3" NCoef="0" IVar="-1" Cut="0.0000000000000000e+00" cType="1" res="-4.9555532634258270e-02" rms="1.9264966249465942e-01" purity="4.2743403464555740e-02" nType="-99"/>
            <Node pos="r" depth="3" NCoef="0" IVar="7" Cut="2.8301632404327393e+00" cType="1" res="-5.9955876320600510e-02" rms="2.7380523085594177e-01" purity="1.5140967071056366e-01" nType="0">
              <Node pos="l" depth="4" NCoef="0" IVar="9" Cut="4.8082399368286133e-01" cType="1" res="-7.7916048467159271e-02" rms="2.6468977332115173e-01" purity="1.3213615119457245e-01" nType="0">
                <Node pos="l" depth="5" NCoef="0" IVar="-1" Cut="0.0000000000000000e+00" cType="1" res="-3.7721894681453705e-02" rms="2.3749440908432007e-01" purity="9.7070507705211639e-02" nType="-99"/>
                <Node pos="r" depth="5" NCoef="0" IVar="-1" Cut="0.0000000000000000e+00" cType="1" res="-1.6003394499421120e-02" rms="3.1369906663894653e-01" purity="2.0859803259372711e-01" nType="-99"/>
              </Node>
              <Node pos="r" depth="4" NCoef="0" IVar="-1" Cut="0.0000000000000000e+00" cType="1" res="1.5918283024802804e-03" rms="2.9533410072326660e-01" purity="2.2014698386192322e-01" nType="-99"/>
            </Node>
          </Node>
          <Node pos="r" depth="2" NCoef="0" IVar="9" Cut="3.4623783826828003e-01" cType="1" res="-1.9140794873237610e-02" rms="3.2021918892860413e-01" purity="2.8600144386291504e-01" nType="0">
            <Node pos="l" depth="3" NCoef="0" IVar="9" Cut="1.8588727712631226e-01" cType="1" res="-4.7039661556482315e-02" rms="2.8484851121902466e-01" purity="1.9348138570785522e-01" nType="0">
              <Node pos="l" depth="4" NCoef="0" IVar="9" Cut="1.4513048529624939e-01" cType="1" res="-7.6735913753509521e-02" rms="2.2840180993080139e-01" purity="8.8224723935127258e-02" nType="0">
                <Node pos="l" depth="5" NCoef="0" IVar="-1" Cut="0.0000000000000000e+00" cType="1" res="-3.8459245115518570e-02" rms="2.0520853996276855e-01" purity="6.4301207661628723e-02" nType="-99"/>
                <Node pos="r" depth="5" NCoef="0" IVar="-1" Cut="0.0000000000000000e+00" cType="1" res="-2.3054383695125580e-02" rms="2.6708859205245972e-01" purity="1.3505111634731293e-01" nType="-99"/>
              </Node>
              <Node pos="r" depth="4" NCoef="0" IVar="7" Cut="1.7713100910186768e+00" cType="1" res="-2.7158785611391068e-02" rms="3.1551319360733032e-01" purity="2.6394802331924438e-01" nType="0">
                <Node pos="l" depth="5" NCoef="0" IVar="-1" Cut="0.0000000000000000e+00" cType="1" res="-1.8983034417033195e-02" rms="3.0938732624053955e-01" purity="2.1235422790050507e-01" nType="-99"/>
                <Node pos="r" depth="5" NCoef="0" IVar="-1" Cut="0.0000000000000000e+00" cType="1" res="1.9987681880593300e-02" rms="3.1932890415191650e-01" purity="4.3057030439376831e-01" nType="-99"/>
              </Node>
            </Node>
            <Node pos="r" depth="3" NCoef="0" IVar="4" Cut="6.4611434936523438e+01" cType="1" res="1.9674934446811676e-02" rms="3.6017617583274841e-01" purity="4.1472470760345459e-01" nType="0">
              <Node pos="l" depth="4" NCoef="0" IVar="-1" Cut="0.0000000000000000e+00" cType="1" res="-2.1143196150660515e-02" rms="3.4705126285552979e-01" purity="1.8107697367668152e-01" nType="-99"/>
              <Node pos="r" depth="4" NCoef="0" IVar="6" Cut="2.2987260818481445e+00" cType="1" res="4.4378150254487991e-02" rms="3.5997015237808228e-01" purity="4.8072755336761475e-01" nType="0">
                <Node pos="l" depth="5" NCoef="0" IVar="-1" Cut="0.0000000000000000e+00" cType="1" res="1.3523588422685862e-03" rms="3.6655804514884949e-01" purity="3.6511242389678955e-01" nType="-99"/>
                <Node pos="r" depth="5" NCoef="0" IVar="-1" Cut="0.0000000000000000e+00" cType="1" res="3.1004613265395164e-02" rms="3.3992919325828552e-01" purity="6.6340398788452148e-01" nType="-99"/>
              </Node>
            </Node>
          </Node>
        </Node>
        <Node pos="r" depth="1" NCoef="0" IVar="4" Cut="1.4036607360839844e+02" cType="1" res="2.4849565699696541e-02" rms="3.4417960047721863e-01" purity="6.6980314254760742e-01" nType="0">
          <Node pos="l" depth="2" NCoef="0" IVar="4" Cut="8.4634338378906250e+01" cType="1" res="4.0289137512445450e-02" rms="3.3141750097274780e-01" purity="7.3881900310516357e-01" nType="0">
            <Node pos="l" depth="3" NCoef="0" IVar="5" Cut="9.5204795837402344e+01" cType="1" res="-3.5738348960876465e-02" rms="4.0302497148513794e-01" purity="4.7715437412261963e-01" nType="0">
              <Node pos="l" depth="4" NCoef="0" IVar="5" Cut="6.8953330993652344e+01" cType="1" res="-7.7799409627914429e-03" rms="4.1295579075813293e-01" purity="5.8255672454833984e-01" nType="0">
                <Node pos="l" depth="5" NCoef="0" IVar="-1" Cut="0.0000000000000000e+00" cType="1" res="-1.7666466534137726e-02" rms="4.3516775965690613e-01" purity="4.5433756709098816e-01" nType="-99"/>
                <Node pos="r" depth="5" NCoef="0" IVar="-1" Cut="0.0000000000000000e+00" cType="1" res="8.4110675379633904e-03" rms="3.9338627457618713e-01" purity="6.6060763597488403e-01" nType="-99"/>
              </Node>
              <Node pos="r" depth="4" NCoef="0" IVar="-1" Cut="0.0000000000000000e+00" cType="1" res="-2.2389417514204979e-02" rms="3.8071924448013306e-01" purity="2.9688951373100281e-01" nType="-99"/>
            </Node>
            <Node pos="r" depth="3" NCoef="0" IVar="5" Cut="5.2401340484619141e+01" cType="1" res="5.8823175728321075e-02" rms="3.0864891409873962e-01" purity="8.0260783433914185e-01" nType="0">
              <Node pos="l" depth="4" NCoef="0" IVar="-1" Cut="0.0000000000000000e+00" cType="1" res="-6.1069498769938946e-03" rms="3.9041784405708313e-01" purity="6.8531680107116699e-01" nType="-99"/>
              <Node pos="r" depth="4" NCoef="0" IVar="5" Cut="1.0226393890380859e+02" cType="1" res="6.5916843712329865e-02" rms="2.9922723770141602e-01" purity="8.1310230493545532e-01" nType="0">
                <Node pos="l" depth="5" NCoef="0" IVar="-1" Cut="0.0000000000000000e+00" cType="1" res="3.0107006430625916e-02" rms="2.7118003368377686e-01" purity="8.7390232086181641e-01" nType="-99"/>
                <Node pos="r" depth="5" NCoef="0" IVar="-1" Cut="0.0000000000000000e+00" cType="1" res="5.1749316044151783e-03" rms="3.6726543307304382e-01" purity="6.2893956899642944e-01" nType="-99"/>
              </Node>
            </Node>
          </Node>
          <Node pos="r" depth="2" NCoef="0" IVar="9" Cut="3.0671593546867371e-01" cType="1" res="-3.6163017153739929e-02" rms="3.8453444838523865e-01" purity="3.9707300066947937e-01" nType="0">
            <Node pos="l" depth="3" NCoef="0" IVar="7" Cut="2.1422390937805176e+00" cType="1" res="-7.4970453977584839e-02" rms="3.7012630701065063e-01" purity="2.6016369462013245e-01" nType="0">
              <Node pos="l" depth="4" NCoef="0" IVar="8" Cut="3.5751774907112122e-01" cType="1" res="-9.7287014126777649e-02" rms="3.7144094705581665e-01" purity="2.4732281267642975e-01" nType="0">
                <Node pos="l" depth="5" NCoef="0" IVar="-1" Cut="0.0000000000000000e+00" cType="1" res="-4.2091522365808487e-02" rms="3.3188131451606750e-01" purity="1.4477996528148651e-01" nType="-99"/>
                <Node pos="r" depth="5" NCoef="0" IVar="-1" Cut="0.0000000000000000e+00" cType="1" res="-1.4867003075778484e-02" rms="3.9488598704338074e-01" purity="3.2693180441856384e-01" nType="-99"/>
              </Node>
              <Node pos="r" depth="4" NCoef="0" IVar="-1" Cut="0.0000000000000000e+00" cType="1" res="-7.6691075228154659e-03" rms="3.6269044876098633e-01" purity="2.8770115971565247e-01" nType="-99"/>
            </Node>
            <Node pos="r" depth="3" NCoef="0" IVar="6" Cut="1.9922307729721069e+00" cType="1" res="1.4052876271307468e-02" rms="3.9681997895240784e-01" purity="5.7423037290573120e-01" nType="0">
              <Node pos="l" depth="4" NCoef="0" IVar="-1" Cut="0.0000000000000000e+00" cType="1" res="-1.0306497104465961e-02" rms="4.1555297374725342e-01" purity="4.3508541584014893e-01" nType="-99"/>
              <Node pos="r" depth="4" NCoef="0" IVar="-1" Cut="0.0000000000000000e+00" cType="1" res="1.4012840576469898e-02" rms="3.7739571928977966e-01" purity="6.7583864927291870e-01" nType="-99"/>
            </Node>
          </Node>
        </Node>
      </Node>
    </BinaryTree>
    <BinaryTree type="DecisionTree" boostWeight="1.0000000000000000e+00" itree="26">
      <Node pos="s" depth="0" NCoef="0" IVar="2" Cut="2.0731706619262695e+00" cType="1" res="-3.9625068893656135e-04" rms="3.2795941829681396e-01" purity="4.9860361218452454e-01" nType="0">
        <Node pos="l" depth="1" NCoef="0" IVar="3" Cut="3.0487804412841797e+00" cType="1" res="1.6884470358490944e-02" rms="3.4117302298545837e-01" purity="6.0355830192565918e-01" nType="0">
          <Node pos="l" depth="2" NCoef="0" IVar="5" Cut="5.2008563995361328e+01" cType="1" res="3.0610872432589531e-02" rms="3.3558246493339539e-01" purity="6.5457987785339355e-01" nType="0">
            <Node pos="l" depth="3" NCoef="0" IVar="1" Cut="1.0975610017776489e+00" cType="1" res="-6.9204397499561310e-02" rms="3.8668996095657349e-01" purity="4.5808014273643494e-01" nType="0">
              <Node pos="l" depth="4" NCoef="0" IVar="-1" Cut="0.0000000000000000e+00" cType="1" res="-2.9820218682289124e-02" rms="3.7234425544738770e-01" purity="2.3654809594154358e-01" nType="-99"/>
              <Node pos="r" depth="4" NCoef="0" IVar="-1" Cut="0.0000000000000000e+00" cType="1" res="-1.1168141849339008e-02" rms="3.9429193735122681e-01" purity="6.2503516674041748e-01" nType="-99"/>
            </Node>
            <Node pos="r" depth="3" NCoef="0" IVar="5" Cut="9.6785385131835938e+01" cType="1" res="4.0748633444309235e-02" rms="3.2825568318367004e-01" purity="6.7453742027282715e-01" nType="0">
              <Node pos="l" depth="4" NCoef="0" IVar="6" Cut="9.1949003934860229e-01" cType="1" res="6.7493818700313568e-02" rms="3.1556943058967590e-01" purity="7.6800483465194702e-01" nType="0">
                <Node pos="l" depth="5" NCoef="0" IVar="-1" Cut="0.0000000000000000e+00" cType="1" res="9.7312335856258869e-04" rms="3.5383492708206177e-01" purity="5.9393453598022461e-01" nType="-99"/>
                <Node pos="r" depth="5" NCoef="0" IVar="-1" Cut="0.0000000000000000e+00" cType="1" res="2.5948168709874153e-02" rms="3.0735874176025391e-01" purity="7.9725134372711182e-01" nType="-99"/>
              </Node>
              <Node pos="r" depth="4" NCoef="0" IVar="9" Cut="3.0812686681747437e-01" cType="1" res="-1.7521385103464127e-02" rms="3.4726509451866150e-01" purity="4.7089895606040955e-01" nType="0">
                <Node pos="l" depth="5" NCoef="0" IVar="-1" Cut="0.0000000000000000e+00" cType="1" res="-2.0445352420210838e-02" rms="3.4059616923332214e-01" purity="2.9229024052619934e-01" nType="-99"/>
                <Node pos="r" depth="5" NCoef="0" IVar="-1" Cut="0.0000000000000000e+00" cType="1" res="7.3673040606081486e-03" rms="3.4773281216621399e-01" purity="6.2905430793762207e-01" nType="-99"/>
              </Node>
            </Node>
          </Node>
          <Node pos="r" depth="2" NCoef="0" IVar="8" Cut="2.3308758437633514e-01" cType="1" res="-5.4370891302824020e-02" rms="3.6053276062011719e-01" purity="3.3869916200637817e-01" nType="0">
            <Node pos="l" depth="3" NCoef="0" IVar="-1" Cut="0.0000000000000000e+00" cType="1" res="-3.4781452268362045e-02" rms="3.0501449108123779e-01" purity="1.7493040859699249e-01" nType="-99"/>
            <Node pos="r" depth="3" NCoef="0" IVar="6" Cut="1.7623553276062012e+00" cType="1" res="-3.1983900815248489e-02" rms="3.7928894162178040e-01" purity="4.0769478678703308e-01" nType="0">
              <Node pos="l" depth="4" NCoef="0" IVar="-1" Cut="0.0000000000000000e+00" cType="1" res="-2.2568359971046448e-02" rms="3.6805123090744019e-01" purity="2.6695170998573303e-01" nType="-99"/>
              <Node pos="r" depth="4" NCoef="0" IVar="5" Cut="1.0595636749267578e+02" cType="1" res="-3.1904040370136499e-03" rms="3.8387152552604675e-01" purity="5.0112593173980713e-01" nType="0">
                <Node pos="l" depth="5" NCoef="0" IVar="-1" Cut="0.0000000000000000e+00" cType="1" res="-8.0426409840583801e-03" rms="3.9369723200798035e-01" purity="4.8775425553321838e-01" nType="-99"/>
                <Node pos="r" depth="5" NCoef="0" IVar="-1" Cut="0.0000000000000000e+00" cType="1" res="9.6427435055375099e-03" rms="3.6622390151023865e-01" purity="5.2014505863189697e-01" nType="-99"/>
              </Node>
            </Node>
          </Node>
        </Node>
        <Node pos="r" depth="1" NCoef="0" IVar="3" Cut="1.0975610017776489e+00" cType="1" res="-5.4989401251077652e-02" rms="2.7513822913169861e-01" purity="1.6703158617019653e-01" nType="0">
          <Node pos="l" depth="2" NCoef="0" IVar="9" Cut="3.3224719762802124e-01" cType="1" res="-4.1807737201452255e-02" rms="2.9629909992218018e-01" purity="2.0638348162174225e-01" nType="0">
            <Node pos="l" depth="3" NCoef="0" IVar="5" Cut="9.5590164184570312e+01" cType="1" res="-6.5003849565982819e-02" rms="2.6267272233963013e-01" purity="1.3477946817874908e-01" nType="0">
              <Node pos="l" depth="4" NCoef="0" IVar="9" Cut="2.1886168420314789e-01" cType="1" res="-4.6776652336120605e-02" rms="3.0190518498420715e-01" purity="1.9906263053417206e-01" nType="0">
                <Node pos="l" depth="5" NCoef="0" IVar="-1" Cut="0.0000000000000000e+00" cType="1" res="-2.5698201730847359e-02" rms="2.7328541874885559e-01" purity="1.4031413197517395e-01" nType="-99"/>
                <Node pos="r" depth="5" NCoef="0" IVar="-1" Cut="0.0000000000000000e+00" cType="1" res="-9.0103168040513992e-03" rms="3.2796320319175720e-01" purity="2.6051825284957886e-01" nType="-99"/>
              </Node>
              <Node pos="r" depth="4" NCoef="0" IVar="0" Cut="1.0975610017776489e+00" cType="1" res="-8.2428269088268280e-02" rms="2.1725907921791077e-01" purity="7.3327533900737762e-02" nType="0">
                <Node pos="l" depth="5" NCoef="0" IVar="-1" Cut="0.0000000000000000e+00" cType="1" res="-4.4859323650598526e-02" rms="1.3307687640190125e-01" purity="1.9403526559472084e-02" nType="-99"/>
                <Node pos="r" depth="5" NCoef="0" IVar="-1" Cut="0.0000000000000000e+00" cType="1" res="-3.3189773559570312e-02" rms="2.8438130021095276e-01" purity="1.3549332320690155e-01" nType="-99"/>
              </Node>
            </Node>
            <Node pos="r" depth="3" NCoef="0" IVar="8" Cut="3.2109418511390686e-01" cType="1" res="-1.1573594994843006e-02" rms="3.3268147706985474e-01" purity="2.9971316456794739e-01" nType="0">
              <Node pos="l" depth="4" NCoef="0" IVar="-1" Cut="0.0000000000000000e+00" cType="1" res="-1.9551781937479973e-02" rms="2.9110157489776611e-01" purity="1.8773278594017029e-01" nType="-99"/>
              <Node pos="r" depth="4" NCoef="0" IVar="-1" Cut="0.0000000000000000e+00" cType="1" res="9.0831657871603966e-03" rms="3.6680984497070312e-01" purity="4.1776385903358459e-01" nType="-99"/>
            </Node>
          </Node>
          <Node pos="r" depth="2" NCoef="0" IVar="0" Cut="1.0975610017776489e+00" cType="1" res="-8.6245439946651459e-02" rms="2.1363426744937897e-01" purity="7.3721356689929962e-02" nType="0">
            <Node pos="l" depth="3" NCoef="0" IVar="6" Cut="1.8389832973480225e+00" cType="1" res="0.0000000000000000e+00" rms="0.0000000000000000e+00" purity="2.5274449959397316e-02" nType="0">
              <Node pos="l" depth="4" NCoef="0" IVar="-1" Cut="0.0000000000000000e+00" cType="1" res="-3.9734076708555222e-02" rms="1.6133490204811096e-01" purity="2.6891130954027176e-02" nType="-99"/>
              <Node pos="r" depth="4" NCoef="0" IVar="-1" Cut="0.0000000000000000e+00" cType="1" res="-4.6362821012735367e-02" rms="1.4252090454101562e-01" purity="2.3908931761980057e-02" nType="-99"/>
            </Node>
            <Node pos="r" depth="3" NCoef="0" IVar="-1" Cut="0.0000000000000000e+00" cType="1" res="-3.3998694270849228e-02" rms="2.8862139582633972e-01" purity="1.5567946434020996e-01" nType="-99"/>
          </Node>
        </Node>
      </Node>
    </BinaryTree>
    <BinaryTree type="DecisionTree" boostWeight="1.0000000000000000e+00" itree="27">
      <Node pos="s" depth="0" NCoef="0" IVar="1" Cut="3.0487804412841797e+00" cType="1" res="-1.1046765139326453e-03" rms="3.2510504126548767e-01" purity="5.0036180019378662e-01" nType="0">
        <Node pos="l" depth="1" NCoef="0" IVar="8" Cut="2.4926756322383881e-01" cType="1" res="-2.8315104544162750e-02" rms="3.3219709992408752e-01" purity="3.1806850433349609e-01" nType="0">
          <Node pos="l" depth="2" NCoef="0" IVar="7" Cut="2.6596229076385498e+00" cType="1" res="-6.2613405287265778e-02" rms="2.9671624302864075e-01" purity="1.9041115045547485e-01" nType="0">
            <Node pos="l" depth="3" NCoef="0" IVar="8" Cut="1.8272431194782257e-01" cType="1" res="-8.1780672073364258e-02" rms="2.9338511824607849e-01" purity="1.7637726664543152e-01" nType="0">
              <Node pos="l" depth="4" NCoef="0" IVar="0" Cut="1.0975610017776489e+00" cType="1" res="-1.0381934791803360e-01" rms="2.6605790853500366e-01" purity="1.2077426165342331e-01" nType="0">
                <Node pos="l" depth="5" NCoef="0" IVar="-1" Cut="0.0000000000000000e+00" cType="1" res="-4.0265135467052460e-02" rms="1.7568038403987885e-01" purity="3.4561045467853546e-02" nType="-99"/>
                <Node pos="r" depth="5" NCoef="0" IVar="-1" Cut="0.0000000000000000e+00" cType="1" res="-3.9118479937314987e-02" rms="3.3072856068611145e-01" purity="2.0855009555816650e-01" nType="-99"/>
              </Node>
              <Node pos="r" depth="4" NCoef="0" IVar="9" Cut="4.1928341984748840e-01" cType="1" res="-5.6891497224569321e-02" rms="3.1964385509490967e-01" purity="2.3917201161384583e-01" nType="0">
                <Node pos="l" depth="5" NCoef="0" IVar="-1" Cut="0.0000000000000000e+00" cType="1" res="-2.9307533055543900e-02" rms="2.9366657137870789e-01" purity="1.7196670174598694e-01" nType="-99"/>
                <Node pos="r" depth="5" NCoef="0" IVar="-1" Cut="0.0000000000000000e+00" cType="1" res="-6.8932878784835339e-03" rms="3.5286548733711243e-01" purity="3.4195041656494141e-01" nType="-99"/>
              </Node>
            </Node>
            <Node pos="r" depth="3" NCoef="0" IVar="8" Cut="1.0956293344497681e-01" cType="1" res="-1.7322611063718796e-02" rms="2.9960969090461731e-01" purity="2.2357207536697388e-01" nType="0">
              <Node pos="l" depth="4" NCoef="0" IVar="-1" Cut="0.0000000000000000e+00" cType="1" res="-3.6254443228244781e-02" rms="2.4603536725044250e-01" purity="9.1758996248245239e-02" nType="-99"/>
              <Node pos="r" depth="4" NCoef="0" IVar="-1" Cut="0.0000000000000000e+00" cType="1" res="8.7160961702466011e-03" rms="3.2034438848495483e-01" purity="3.0253344774246216e-01" nType="-99"/>
            </Node>
          </Node>
          <Node pos="r" depth="2" NCoef="0" IVar="9" Cut="2.3880738019943237e-01" cType="1" res="-1.0711772367358208e-02" rms="3.4769806265830994e-01" purity="3.8358765840530396e-01" nType="0">
            <Node pos="l" depth="3" NCoef="0" IVar="9" Cut="8.7447397410869598e-02" cType="1" res="-5.6647069752216339e-02" rms="3.0345493555068970e-01" purity="1.6992430388927460e-01" nType="0">
              <Node pos="l" depth="4" NCoef="0" IVar="-1" Cut="0.0000000000000000e+00" cType="1" res="-4.2390558868646622e-02" rms="2.0870567858219147e-01" purity="5.5895738303661346e-02" nType="-99"/>
              <Node pos="r" depth="4" NCoef="0" IVar="7" Cut="2.1344623565673828e+00" cType="1" res="-4.7759983688592911e-02" rms="3.1964161992073059e-01" purity="1.9466505944728851e-01" nType="0">
                <Node pos="l" depth="5" NCoef="0" IVar="-1" Cut="0.0000000000000000e+00" cType="1" res="-2.1899171173572540e-02" rms="3.1861749291419983e-01" purity="1.7293098568916321e-01" nType="-99"/>
                <Node pos="r" depth="5" NCoef="0" IVar="-1" Cut="0.0000000000000000e+00" cType="1" res="-8.1864628009498119e-04" rms="3.1886389851570129e-01" purity="2.6727706193923950e-01" nType="-99"/>
              </Node>
            </Node>
            <Node pos="r" depth="3" NCoef="0" IVar="6" Cut="1.5324834585189819e+00" cType="1" res="1.0737854987382889e-02" rms="3.6455595493316650e-01" purity="4.8335844278335571e-01" nType="0">
              <Node pos="l" depth="4" NCoef="0" IVar="9" Cut="5.7936841249465942e-01" cType="1" res="-3.5893991589546204e-02" rms="3.6892232298851013e-01" purity="3.4339115023612976e-01" nType="0">
                <Node pos="l" depth="5" NCoef="0" IVar="-1" Cut="0.0000000000000000e+00" cType="1" res="-1.7460074275732040e-02" rms="3.6181578040122986e-01" purity="2.9459273815155029e-01" nType="-99"/>
                <Node pos="r" depth="5" NCoef="0" IVar="-1" Cut="0.0000000000000000e+00" cType="1" res="2.9176799580454826e-03" rms="3.8010823726654053e-01" purity="4.5113140344619751e-01" nType="-99"/>
              </Node>
              <Node pos="r" depth="4" NCoef="0" IVar="4" Cut="8.8099197387695312e+01" cType="1" res="3.7866946309804916e-02" rms="3.5921689867973328e-01" purity="5.6478744745254517e-01" nType="0">
                <Node pos="l" depth="5" NCoef="0" IVar="-1" Cut="0.0000000000000000e+00" cType="1" res="-6.8950345739722252e-03" rms="3.7838417291641235e-01" purity="3.7077164649963379e-01" nType="-99"/>
                <Node pos="r" depth="5" NCoef="0" IVar="-1" Cut="0.0000000000000000e+00" cType="1" res="1.9520500674843788e-02" rms="3.4670329093933105e-01" purity="6.5174669027328491e-01" nType="-99"/>
              </Node>
            </Node>
          </Node>
        </Node>
        <Node pos="r" depth="1" NCoef="0" IVar="4" Cut="1.6295307922363281e+02" cType="1" res="3.0635219067335129e-02" rms="3.1366318464279175e-01" purity="7.1299982070922852e-01" nType="0">
          <Node pos="l" depth="2" NCoef="0" IVar="4" Cut="7.0952590942382812e+01" cType="1" res="4.1689131408929825e-02" rms="3.0987703800201416e-01" purity="7.6668453216552734e-01" nType="0">
            <Node pos="l" depth="3" NCoef="0" IVar="-1" Cut="0.0000000000000000e+00" cType="1" res="-2.2928023710846901e-02" rms="3.9192786812782288e-01" purity="3.4963169693946838e-01" nType="-99"/>
            <Node pos="r" depth="3" NCoef="0" IVar="3" Cut="4.0243902206420898e+00" cType="1" res="5.2278950810432434e-02" rms="2.9983711242675781e-01" purity="8.0005759000778198e-01" nType="0">
              <Node pos="l" depth="4" NCoef="0" IVar="5" Cut="1.0979755401611328e+02" cType="1" res="5.9387028217315674e-02" rms="2.9095038771629333e-01" purity="8.2190114259719849e-01" nType="0">
                <Node pos="l" depth="5" NCoef="0" IVar="-1" Cut="0.0000000000000000e+00" cType="1" res="2.6344122365117073e-02" rms="2.7542367577552795e-01" purity="8.5993427038192749e-01" nType="-99"/>
                <Node pos="r" depth="5" NCoef="0" IVar="-1" Cut="0.0000000000000000e+00" cType="1" res="2.8191350866109133e-03" rms="3.5417476296424866e-01" purity="6.3244897127151489e-01" nType="-99"/>
              </Node>
              <Node pos="r" depth="4" NCoef="0" IVar="-1" Cut="0.0000000000000000e+00" cType="1" res="-9.5318136736750603e-03" rms="3.8208252191543579e-01" purity="5.3263211250305176e-01" nType="-99"/>
            </Node>
          </Node>
          <Node pos="r" depth="2" NCoef="0" IVar="8" Cut="2.9324138164520264e-01" cType="1" res="-7.0602066814899445e-02" rms="3.2960295677185059e-01" purity="2.2132834792137146e-01" nType="0">
            <Node pos="l" depth="3" NCoef="0" IVar="-1" Cut="0.0000000000000000e+00" cType="1" res="-3.7764515727758408e-02" rms="2.8292107582092285e-01" purity="1.2214677035808563e-01" nType="-99"/>
            <Node pos="r" depth="3" NCoef="0" IVar="-1" Cut="0.0000000000000000e+00" cType="1" res="-7.4316402897238731e-03" rms="3.6125022172927856e-01" purity="3.1088641285896301e-01" nType="-99"/>
          </Node>
        </Node>
      </Node>
    </BinaryTree>
    <BinaryTree type="DecisionTree" boostWeight="1.0000000000000000e+00" itree="28">
      <Node pos="s" depth="0" NCoef="0" IVar="9" Cut="2.3889553546905518e-01" cType="1" res="9.7636092687025666e-04" rms="3.2580772042274475e-01" purity="5.0067049264907837e-01" nType="0">
        <Node pos="l" depth="1" NCoef="0" IVar="7" Cut="2.5455589294433594e+00" cType="1" res="-4.1232593357563019e-02" rms="3.1529560685157776e-01" purity="2.8510037064552307e-01" nType="0">
          <Node pos="l" depth="2" NCoef="0" IVar="8" Cut="3.5740613937377930e-01" cType="1" res="-6.5341554582118988e-02" rms="3.1786620616912842e-01" purity="2.4679245054721832e-01" nType="0">
            <Node pos="l" depth="3" NCoef="0" IVar="0" Cut="1.0975610017776489e+00" cType="1" res="-1.0464198142290115e-01" rms="2.6804426312446594e-01" purity="1.3945531845092773e-01" nType="0">
              <Node pos="l" depth="4" NCoef="0" IVar="-1" Cut="0.0000000000000000e+00" cType="1" res="-4.3937213718891144e-02" rms="1.7301061749458313e-01" purity="3.7083487957715988e-02" nType="-99"/>
              <Node pos="r" depth="4" NCoef="0" IVar="-1" Cut="0.0000000000000000e+00" cType="1" res="-3.8625806570053101e-02" rms="3.3034816384315491e-01" purity="2.3262736201286316e-01" nType="-99"/>
            </Node>
            <Node pos="r" depth="3" NCoef="0" IVar="9" Cut="1.7511595785617828e-01" cType="1" res="-3.9507508277893066e-02" rms="3.4430363774299622e-01" purity="3.1735026836395264e-01" nType="0">
              <Node pos="l" depth="4" NCoef="0" IVar="4" Cut="1.5215731811523438e+02" cType="1" res="-6.2798552215099335e-02" rms="3.2849064469337463e-01" purity="2.2260496020317078e-01" nType="0">
                <Node pos="l" depth="5" NCoef="0" IVar="-1" Cut="0.0000000000000000e+00" cType="1" res="-1.4891897328197956e-02" rms="3.6625248193740845e-01" purity="3.0303984880447388e-01" nType="-99"/>
                <Node pos="r" depth="5" NCoef="0" IVar="-1" Cut="0.0000000000000000e+00" cType="1" res="-3.8361128419637680e-02" rms="2.3340278863906860e-01" purity="6.2813170254230499e-02" nType="-99"/>
              </Node>
              <Node pos="r" depth="4" NCoef="0" IVar="0" Cut="4.0243902206420898e+00" cType="1" res="-1.3400118798017502e-02" rms="3.5941714048385620e-01" purity="4.2355212569236755e-01" nType="0">
                <Node pos="l" depth="5" NCoef="0" IVar="-1" Cut="0.0000000000000000e+00" cType="1" res="-1.1706502176821232e-02" rms="3.2587555050849915e-01" purity="2.7503958344459534e-01" nType="-99"/>
                <Node pos="r" depth="5" NCoef="0" IVar="-1" Cut="0.0000000000000000e+00" cType="1" res="2.7031651698052883e-03" rms="3.9317616820335388e-01" purity="5.9408539533615112e-01" nType="-99"/>
              </Node>
            </Node>
          </Node>
          <Node pos="r" depth="2" NCoef="0" IVar="9" Cut="1.0500276833772659e-01" cType="1" res="5.9388573281466961e-03" rms="3.0473655462265015e-01" purity="3.6005339026451111e-01" nType="0">
            <Node pos="l" depth="3" NCoef="0" IVar="-1" Cut="0.0000000000000000e+00" cType="1" res="-3.7945289164781570e-02" rms="2.4552315473556519e-01" purity="1.0852806270122528e-01" nType="-99"/>
            <Node pos="r" depth="3" NCoef="0" IVar="6" Cut="1.9922274351119995e+00" cType="1" res="5.2957858890295029e-02" rms="3.1697478890419006e-01" purity="4.7364512085914612e-01" nType="0">
              <Node pos="l" depth="4" NCoef="0" IVar="-1" Cut="0.0000000000000000e+00" cType="1" res="-9.1739837080240250e-03" rms="2.9503321647644043e-01" purity="2.3941567540168762e-01" nType="-99"/>
              <Node pos="r" depth="4" NCoef="0" IVar="-1" Cut="0.0000000000000000e+00" cType="1" res="3.0713900923728943e-02" rms="3.2061064243316650e-01" purity="6.1825722455978394e-01" nType="-99"/>
            </Node>
          </Node>
        </Node>
        <Node pos="r" depth="1" NCoef="0" IVar="8" Cut="2.3828829824924469e-01" cType="1" res="1.8215790390968323e-02" rms="3.2844844460487366e-01" purity="5.8871591091156006e-01" nType="0">
          <Node pos="l" depth="2" NCoef="0" IVar="8" Cut="9.3130700290203094e-02" cType="1" res="-3.8553804159164429e-02" rms="3.2597488164901733e-01" purity="3.7422034144401550e-01" nType="0">
            <Node pos="l" depth="3" NCoef="0" IVar="-1" Cut="0.0000000000000000e+00" cType="1" res="-4.1800964623689651e-02" rms="2.8208699822425842e-01" purity="1.4971578121185303e-01" nType="-99"/>
            <Node pos="r" depth="3" NCoef="0" IVar="7" Cut="2.4152631759643555e+00" cType="1" res="-2.3849116638302803e-02" rms="3.3171257376670837e-01" purity="4.1727158427238464e-01" nType="0">
              <Node pos="l" depth="4" NCoef="0" IVar="9" Cut="4.4976088404655457e-01" cType="1" res="-4.1861545294523239e-02" rms="3.3126789331436157e-01" purity="3.8637790083885193e-01" nType="0">
                <Node pos="l" depth="5" NCoef="0" IVar="-1" Cut="0.0000000000000000e+00" cType="1" res="-2.9338181018829346e-02" rms="3.1991413235664368e-01" purity="2.8828060626983643e-01" nType="-99"/>
                <Node pos="r" depth="5" NCoef="0" IVar="-1" Cut="0.0000000000000000e+00" cType="1" res="-1.3634680071845651e-03" rms="3.3639788627624512e-01" purity="4.7233319282531738e-01" nType="-99"/>
              </Node>
              <Node pos="r" depth="4" NCoef="0" IVar="-1" Cut="0.0000000000000000e+00" cType="1" res="1.8586998805403709e-02" rms="3.2163003087043762e-01" purity="5.5507183074951172e-01" nType="-99"/>
            </Node>
          </Node>
          <Node pos="r" depth="2" NCoef="0" IVar="4" Cut="5.8497310638427734e+01" cType="1" res="3.8116894662380219e-02" rms="3.2698628306388855e-01" purity="6.6390937566757202e-01" nType="0">
            <Node pos="l" depth="3" NCoef="0" IVar="9" Cut="4.6555793285369873e-01" cType="1" res="-6.4483091235160828e-02" rms="3.7570771574974060e-01" purity="2.7933883666992188e-01" nType="0">
              <Node pos="l" depth="4" NCoef="0" IVar="-1" Cut="0.0000000000000000e+00" cType="1" res="-2.8820404782891273e-02" rms="3.4954601526260376e-01" purity="2.1463198959827423e-01" nType="-99"/>
              <Node pos="r" depth="4" NCoef="0" IVar="-1" Cut="0.0000000000000000e+00" cType="1" res="-7.6000252738595009e-03" rms="3.9834493398666382e-01" purity="3.4778484702110291e-01" nType="-99"/>
            </Node>
            <Node pos="r" depth="3" NCoef="0" IVar="6" Cut="9.9611449241638184e-01" cType="1" res="4.8265013843774796e-02" rms="3.1998366117477417e-01" purity="7.0194703340530396e-01" nType="0">
              <Node pos="l" depth="4" NCoef="0" IVar="9" Cut="5.7944899797439575e-01" cType="1" res="-1.6199586912989616e-02" rms="3.6416459083557129e-01" purity="4.9299311637878418e-01" nType="0">
                <Node pos="l" depth="5" NCoef="0" IVar="-1" Cut="0.0000000000000000e+00" cType="1" res="-1.5687914565205574e-02" rms="3.6919167637825012e-01" purity="4.0831020474433899e-01" nType="-99"/>
                <Node pos="r" depth="5" NCoef="0" IVar="-1" Cut="0.0000000000000000e+00" cType="1" res="1.4328072778880596e-02" rms="3.4635630249977112e-01" purity="6.4557045698165894e-01" nType="-99"/>
              </Node>
              <Node pos="r" depth="4" NCoef="0" IVar="5" Cut="5.5976352691650391e+01" cType="1" res="6.2102217227220535e-02" rms="3.0792540311813354e-01" purity="7.4679857492446899e-01" nType="0">
                <Node pos="l" depth="5" NCoef="0" IVar="-1" Cut="0.0000000000000000e+00" cType="1" res="-2.6234297547489405e-03" rms="3.8238498568534851e-01" purity="5.5709069967269897e-01" nType="-99"/>
                <Node pos="r" depth="5" NCoef="0" IVar="-1" Cut="0.0000000000000000e+00" cType="1" res="2.5416839867830276e-02" rms="2.9491373896598816e-01" purity="7.7285081148147583e-01" nType="-99"/>
              </Node>
            </Node>
          </Node>
        </Node>
      </Node>
    </BinaryTree>
    <BinaryTree type="DecisionTree" boostWeight="1.0000000000000000e+00" itree="29">
      <Node pos="s" depth="0" NCoef="0" IVar="2" Cut="4.0243902206420898e+00" cType="1" res="9.8735283245332539e-05" rms="3.2328847050666809e-01" purity="5.0001490116119385e-01" nType="0">
        <Node pos="l" depth="1" NCoef="0" IVar="3" Cut="4.0243902206420898e+00" cType="1" res="1.1716993525624275e-02" rms="3.3647620677947998e-01" purity="5.8306676149368286e-01" nType="0">
          <Node pos="l" depth="2" NCoef="0" IVar="5" Cut="5.8976264953613281e+01" cType="1" res="2.2027039900422096e-02" rms="3.3326280117034912e-01" purity="6.2695229053497314e-01" nType="0">
            <Node pos="l" depth="3" NCoef="0" IVar="5" Cut="3.8384368896484375e+01" cType="1" res="-5.0520468503236771e-02" rms="3.7914329767227173e-01" purity="4.6528929471969604e-01" nType="0">
              <Node pos="l" depth="4" NCoef="0" IVar="-1" Cut="0.0000000000000000e+00" cType="1" res="-3.0120631679892540e-02" rms="3.7535837292671204e-01" purity="3.8020139932632446e-01" nType="-99"/>
              <Node pos="r" depth="4" NCoef="0" IVar="0" Cut="4.0243902206420898e+00" cType="1" res="-2.9600497335195541e-02" rms="3.7858229875564575e-01" purity="4.9878680706024170e-01" nType="0">
                <Node pos="l" depth="5" NCoef="0" IVar="-1" Cut="0.0000000000000000e+00" cType="1" res="-1.8419127911329269e-02" rms="3.5888072848320007e-01" purity="3.2364612817764282e-01" nType="-99"/>
                <Node pos="r" depth="5" NCoef="0" IVar="-1" Cut="0.0000000000000000e+00" cType="1" res="-1.5304418047890067e-04" rms="3.9410671591758728e-01" purity="6.6433650255203247e-01" nType="-99"/>
              </Node>
            </Node>
            <Node pos="r" depth="3" NCoef="0" IVar="5" Cut="1.0086405181884766e+02" cType="1" res="3.3037625253200531e-02" rms="3.2431983947753906e-01" purity="6.5148794651031494e-01" nType="0">
              <Node pos="l" depth="4" NCoef="0" IVar="9" Cut="1.7302389442920685e-01" cType="1" res="5.8181975036859512e-02" rms="3.1518113613128662e-01" purity="7.5361484289169312e-01" nType="0">
                <Node pos="l" depth="5" NCoef="0" IVar="-1" Cut="0.0000000000000000e+00" cType="1" res="-2.5409003719687462e-03" rms="3.6713251471519470e-01" purity="4.1166281700134277e-01" nType="-99"/>
                <Node pos="r" depth="5" NCoef="0" IVar="-1" Cut="0.0000000000000000e+00" cType="1" res="2.3607846349477768e-02" rms="3.0594715476036072e-01" purity="8.0195254087448120e-01" nType="-99"/>
              </Node>
              <Node pos="r" depth="4" NCoef="0" IVar="6" Cut="2.6818466186523438e+00" cType="1" res="-2.3837195709347725e-02" rms="3.3725032210350037e-01" purity="4.2048388719558716e-01" nType="0">
                <Node pos="l" depth="5" NCoef="0" IVar="-1" Cut="0.0000000000000000e+00" cType="1" res="-1.6694439575076103e-02" rms="3.3824253082275391e-01" purity="3.0123528838157654e-01" nType="-99"/>
                <Node pos="r" depth="5" NCoef="0" IVar="-1" Cut="0.0000000000000000e+00" cType="1" res="1.0348669253289700e-02" rms="3.2786658406257629e-01" purity="6.6836428642272949e-01" nType="-99"/>
              </Node>
            </Node>
          </Node>
          <Node pos="r" depth="2" NCoef="0" IVar="5" Cut="1.0235369110107422e+02" cType="1" res="-5.8100543916225433e-02" rms="3.4956514835357666e-01" purity="2.8588303923606873e-01" nType="0">
            <Node pos="l" depth="3" NCoef="0" IVar="7" Cut="1.0088969469070435e+00" cType="1" res="-8.8872000575065613e-02" rms="3.6223340034484863e-01" purity="2.8221246600151062e-01" nType="0">
              <Node pos="l" depth="4" NCoef="0" IVar="-1" Cut="0.0000000000000000e+00" cType="1" res="-1.7912652343511581e-02" rms="3.9802983403205872e-01" purity="3.6500501632690430e-01" nType="-99"/>
              <Node pos="r" depth="4" NCoef="0" IVar="-1" Cut="0.0000000000000000e+00" cType="1" res="-3.5334497690200806e-02" rms="3.1977537274360657e-01" purity="1.9762329757213593e-01" nType="-99"/>
            </Node>
            <Node pos="r" depth="3" NCoef="0" IVar="6" Cut="2.3753483295440674e+00" cType="1" res="-2.7175815775990486e-02" rms="3.3350518345832825e-01" purity="2.8957197070121765e-01" nType="0">
              <Node pos="l" depth="4" NCoef="0" IVar="-1" Cut="0.0000000000000000e+00" cType="1" res="-2.3517826572060585e-02" rms="3.0763500928878784e-01" purity="1.5714876353740692e-01" nType="-99"/>
              <Node pos="r" depth="4" NCoef="0" IVar="-1" Cut="0.0000000000000000e+00" cType="1" res="6.0911676846444607e-03" rms="3.5984548926353455e-01" purity="4.6761059761047363e-01" nType="-99"/>
            </Node>
          </Node>
        </Node>
        <Node pos="r" depth="1" NCoef="0" IVar="3" Cut="1.0975610017776489e+00" cType="1" res="-5.8419562876224518e-02" rms="2.3788098990917206e-01" purity="8.1703111529350281e-02" nType="0">
          <Node pos="l" depth="2" NCoef="0" IVar="6" Cut="2.5285968780517578e+00" cType="1" res="-5.1018923521041870e-02" rms="2.6155543327331543e-01" purity="1.0289282351732254e-01" nType="0">
            <Node pos="l" depth="3" NCoef="0" IVar="4" Cut="9.9560394287109375e+01" cType="1" res="-6.0772582888603210e-02" rms="2.4215036630630493e-01" purity="7.8778386116027832e-02" nType="0">
              <Node pos="l" depth="4" NCoef="0" IVar="-1" Cut="0.0000000000000000e+00" cType="1" res="-3.6693420261144638e-02" rms="2.1358084678649902e-01" purity="5.1722992211580276e-02" nType="-99"/>
              <Node pos="r" depth="4" NCoef="0" IVar="7" Cut="9.8254483938217163e-01" cType="1" res="-5.0521001219749451e-02" rms="2.5837492942810059e-01" purity="9.6210621297359467e-02" nType="0">
                <Node pos="l" depth="5" NCoef="0" IVar="-1" Cut="0.0000000000000000e+00" cType="1" res="-1.2752002105116844e-02" rms="3.1027501821517944e-01" purity="1.4175359904766083e-01" nType="-99"/>
                <Node pos="r" depth="5" NCoef="0" IVar="-1" Cut="0.0000000000000000e+00" cType="1" res="-3.3164802938699722e-02" rms="2.0577339828014374e-01" purity="5.9291802346706390e-02" nType="-99"/>
              </Node>
            </Node>
            <Node pos="r" depth="3" NCoef="0" IVar="-1" Cut="0.0000000000000000e+00" cType="1" res="-9.6643669530749321e-03" rms="3.0439883470535278e-01" purity="1.6486680507659912e-01" nType="-99"/>
          </Node>
          <Node pos="r" depth="2" NCoef="0" IVar="5" Cut="1.0325121307373047e+02" cType="1" res="-7.4852675199508667e-02" rms="1.7303407192230225e-01" purity="3.4651350229978561e-02" nType="0">
            <Node pos="l" depth="3" NCoef="0" IVar="-1" Cut="0.0000000000000000e+00" cType="1" res="-4.2454876005649567e-02" rms="1.8452760577201843e-01" purity="3.8555491715669632e-02" nType="-99"/>
            <Node pos="r" depth="3" NCoef="0" IVar="-1" Cut="0.0000000000000000e+00" cType="1" res="-3.9691243320703506e-02" rms="1.6291625797748566e-01" purity="3.1603556126356125e-02" nType="-99"/>
          </Node>
        </Node>
      </Node>
    </BinaryTree>
    <BinaryTree type="DecisionTree" boostWeight="1.0000000000000000e+00" itree="30">
      <Node pos="s" depth="0" NCoef="0" IVar="6" Cut="2.2221021652221680e+00" cType="1" res="-2.7798063820227981e-04" rms="3.2230198383331299e-01" purity="4.9884420633316040e-01" nType="0">
        <Node pos="l" depth="1" NCoef="0" IVar="9" Cut="4.5913746953010559e-01" cType="1" res="-2.3876737803220749e-02" rms="3.2558265328407288e-01" purity="3.8757210969924927e-01" nType="0">
          <Node pos="l" depth="2" NCoef="0" IVar="8" Cut="4.8042157292366028e-01" cType="1" res="-4.1232742369174957e-02" rms="3.2020822167396545e-01" purity="3.1190496683120728e-01" nType="0">
            <Node pos="l" depth="3" NCoef="0" IVar="6" Cut="1.0839526653289795e+00" cType="1" res="-5.6012611836194992e-02" rms="3.0281072854995728e-01" purity="2.6194697618484497e-01" nType="0">
              <Node pos="l" depth="4" NCoef="0" IVar="7" Cut="1.0638563632965088e+00" cType="1" res="-8.1008806824684143e-02" rms="2.7873781323432922e-01" purity="1.6269102692604065e-01" nType="0">
                <Node pos="l" depth="5" NCoef="0" IVar="-1" Cut="0.0000000000000000e+00" cType="1" res="-4.9757141619920731e-02" rms="2.7184367179870605e-01" purity="9.7039110958576202e-02" nType="-99"/>
                <Node pos="r" depth="5" NCoef="0" IVar="-1" Cut="0.0000000000000000e+00" cType="1" res="-2.5289554148912430e-02" rms="2.7946743369102478e-01" purity="1.8871276080608368e-01" nType="-99"/>
              </Node>
              <Node pos="r" depth="4" NCoef="0" IVar="5" Cut="6.3042926788330078e+01" cType="1" res="-4.1778989136219025e-02" rms="3.1481385231018066e-01" purity="3.1846645474433899e-01" nType="0">
                <Node pos="l" depth="5" NCoef="0" IVar="-1" Cut="0.0000000000000000e+00" cType="1" res="-2.9565902426838875e-02" rms="3.2149955630302429e-01" purity="2.6620671153068542e-01" nType="-99"/>
                <Node pos="r" depth="5" NCoef="0" IVar="-1" Cut="0.0000000000000000e+00" cType="1" res="-1.2040668167173862e-02" rms="3.1268113851547241e-01" purity="3.2866767048835754e-01" nType="-99"/>
              </Node>
            </Node>
            <Node pos="r" depth="3" NCoef="0" IVar="8" Cut="9.1367751359939575e-01" cType="1" res="-7.7136573381721973e-03" rms="3.5425403714179993e-01" purity="4.2520409822463989e-01" nType="0">
              <Node pos="l" depth="4" NCoef="0" IVar="6" Cut="8.1296551227569580e-01" cType="1" res="8.6755137890577316e-03" rms="3.5358244180679321e-01" purity="4.5790022611618042e-01" nType="0">
                <Node pos="l" depth="5" NCoef="0" IVar="-1" Cut="0.0000000000000000e+00" cType="1" res="-1.4010895043611526e-02" rms="3.5131704807281494e-01" purity="3.0865556001663208e-01" nType="-99"/>
                <Node pos="r" depth="5" NCoef="0" IVar="-1" Cut="0.0000000000000000e+00" cType="1" res="8.6000952869653702e-03" rms="3.5264340043067932e-01" purity="5.0990176200866699e-01" nType="-99"/>
              </Node>
              <Node pos="r" depth="4" NCoef="0" IVar="-1" Cut="0.0000000000000000e+00" cType="1" res="-2.5658089667558670e-02" rms="3.4861689805984497e-01" purity="2.8641381859779358e-01" nType="-99"/>
            </Node>
          </Node>
          <Node pos="r" depth="2" NCoef="0" IVar="5" Cut="9.9039955139160156e+01" cType="1" res="1.4554309658706188e-02" rms="3.3398407697677612e-01" purity="5.5512028932571411e-01" nType="0">
            <Node pos="l" depth="3" NCoef="0" IVar="4" Cut="7.0785400390625000e+01" cType="1" res="3.6920446902513504e-02" rms="3.3089792728424072e-01" purity="6.7120689153671265e-01" nType="0">
              <Node pos="l" depth="4" NCoef="0" IVar="-1" Cut="0.0000000000000000e+00" cType="1" res="-1.1752586811780930e-02" rms="3.9376521110534668e-01" purity="3.6147642135620117e-01" nType="-99"/>
              <Node pos="r" depth="4" NCoef="0" IVar="8" Cut="3.3048251271247864e-01" cType="1" res="5.4297011345624924e-02" rms="3.1303527951240540e-01" purity="7.3780798912048340e-01" nType="0">
                <Node pos="l" depth="5" NCoef="0" IVar="-1" Cut="0.0000000000000000e+00" cType="1" res="1.0508691892027855e-02" rms="3.3012193441390991e-01" purity="6.5464180707931519e-01" nType="-99"/>
                <Node pos="r" depth="5" NCoef="0" IVar="-1" Cut="0.0000000000000000e+00" cType="1" res="2.5815254077315331e-02" rms="2.9715600609779358e-01" purity="8.0499845743179321e-01" nType="-99"/>
              </Node>
            </Node>
            <Node pos="r" depth="3" NCoef="0" IVar="7" Cut="6.9435095787048340e-01" cType="1" res="-4.2617671191692352e-02" rms="3.3502697944641113e-01" purity="2.5838136672973633e-01" nType="0">
              <Node pos="l" depth="4" NCoef="0" IVar="-1" Cut="0.0000000000000000e+00" cType="1" res="-5.1666558720171452e-03" rms="3.7289476394653320e-01" purity="3.2710480690002441e-01" nType="-99"/>
              <Node pos="r" depth="4" NCoef="0" IVar="-1" Cut="0.0000000000000000e+00" cType="1" res="-2.5247896090149879e-02" rms="2.9092290997505188e-01" purity="1.9101005792617798e-01" nType="-99"/>
            </Node>
          </Node>
        </Node>
        <Node pos="r" depth="1" NCoef="0" IVar="2" Cut="4.0243902206420898e+00" cType="1" res="2.5272462517023087e-02" rms="3.1673571467399597e-01" purity="6.1931890249252319e-01" nType="0">
          <Node pos="l" depth="2" NCoef="0" IVar="8" Cut="1.5340261161327362e-01" cType="1" res="3.6834493279457092e-02" rms="3.2363155484199524e-01" purity="7.0083332061767578e-01" nType="0">
            <Node pos="l" depth="3" NCoef="0" IVar="-1" Cut="0.0000000000000000e+00" cType="1" res="-1.6317090019583702e-02" rms="3.5844832658767700e-01" purity="3.8483524322509766e-01" nType="-99"/>
            <Node pos="r" depth="3" NCoef="0" IVar="4" Cut="6.4565292358398438e+01" cType="1" res="4.6035934239625931e-02" rms="3.1850615143775940e-01" purity="7.3212355375289917e-01" nType="0">
              <Node pos="l" depth="4" NCoef="0" IVar="-1" Cut="0.0000000000000000e+00" cType="1" res="-1.3861369341611862e-02" rms="4.0735551714897156e-01" purity="3.6406877636909485e-01" nType="-99"/>
              <Node pos="r" depth="4" NCoef="0" IVar="9" Cut="1.6274818778038025e-01" cType="1" res="5.3327206522226334e-02" rms="3.0983522534370422e-01" purity="7.5871384143829346e-01" nType="0">
                <Node pos="l" depth="5" NCoef="0" IVar="-1" Cut="0.0000000000000000e+00" cType="1" res="-7.8584300354123116e-03" rms="3.6080360412597656e-01" purity="3.7731987237930298e-01" nType="-99"/>
                <Node pos="r" depth="5" NCoef="0" IVar="-1" Cut="0.0000000000000000e+00" cType="1" res="2.2191666066646576e-02" rms="3.0193942785263062e-01" purity="8.0319792032241821e-01" nType="-99"/>
              </Node>
            </Node>
          </Node>
          <Node pos="r" depth="2" NCoef="0" IVar="0" Cut="3.0487804412841797e+00" cType="1" res="-4.6960562467575073e-02" rms="2.5822633504867554e-01" purity="1.1006316542625427e-01" nType="0">
            <Node pos="l" depth="3" NCoef="0" IVar="6" Cut="2.6930608749389648e+00" cType="1" res="-7.0975407958030701e-02" rms="1.6843473911285400e-01" purity="3.6783322691917419e-02" nType="0">
              <Node pos="l" depth="4" NCoef="0" IVar="-1" Cut="0.0000000000000000e+00" cType="1" res="-3.6531768739223480e-02" rms="1.7446942627429962e-01" purity="3.8526836782693863e-02" nType="-99"/>
              <Node pos="r" depth="4" NCoef="0" IVar="-1" Cut="0.0000000000000000e+00" cType="1" res="-4.1825488209724426e-02" rms="1.6230410337448120e-01" purity="3.5190779715776443e-02" nType="-99"/>
            </Node>
            <Node pos="r" depth="3" NCoef="0" IVar="-1" Cut="0.0000000000000000e+00" cType="1" res="-1.0832301340997219e-03" rms="3.6466544866561890e-01" purity="2.4247583746910095e-01" nType="-99"/>
          </Node>
        </Node>
      </Node>
    </BinaryTree>
    <BinaryTree type="DecisionTree" boostWeight="1.0000000000000000e+00" itree="31">
      <Node pos="s" depth="0" NCoef="0" IVar="1" Cut="3.0487804412841797e+00" cType="1" res="-1.2795445509254932e-03" rms="3.2089456915855408e-01" purity="4.9784705042839050e-01" nType="0">
        <Node pos="l" depth="1" NCoef="0" IVar="9" Cut="3.5996311902999878e-01" cType="1" res="-2.4382906034588814e-02" rms="3.2751768827438354e-01" purity="3.1664061546325684e-01" nType="0">
          <Node pos="l" depth="2" NCoef="0" IVar="7" Cut="2.5661380290985107e+00" cType="1" res="-4.1072033345699310e-02" rms="3.0789768695831299e-01" purity="2.3061586916446686e-01" nType="0">
            <Node pos="l" depth="3" NCoef="0" IVar="8" Cut="3.6058071255683899e-01" cType="1" res="-5.1271781325340271e-02" rms="3.1172770261764526e-01" purity="2.3062719404697418e-01" nType="0">
              <Node pos="l" depth="4" NCoef="0" IVar="7" Cut="2.0028343200683594e+00" cType="1" res="-7.8133642673492432e-02" rms="2.7226588129997253e-01" purity="1.5925487875938416e-01" nType="0">
                <Node pos="l" depth="5" NCoef="0" IVar="-1" Cut="0.0000000000000000e+00" cType="1" res="-3.8551732897758484e-02" rms="2.6692512631416321e-01" purity="1.2363271415233612e-01" nType="-99"/>
                <Node pos="r" depth="5" NCoef="0" IVar="-1" Cut="0.0000000000000000e+00" cType="1" res="-1.3110747560858727e-02" rms="2.8215315937995911e-01" purity="2.5966838002204895e-01" nType="-99"/>
              </Node>
              <Node pos="r" depth="4" NCoef="0" IVar="9" Cut="1.5877348184585571e-01" cType="1" res="-2.7588514611124992e-02" rms="3.4102135896682739e-01" purity="2.9355397820472717e-01" nType="0">
                <Node pos="l" depth="5" NCoef="0" IVar="-1" Cut="0.0000000000000000e+00" cType="1" res="-2.7501702308654785e-02" rms="2.6638761162757874e-01" purity="1.0107549279928207e-01" nType="-99"/>
                <Node pos="r" depth="5" NCoef="0" IVar="-1" Cut="0.0000000000000000e+00" cType="1" res="-5.0371252000331879e-03" rms="3.6107340455055237e-01" purity="3.5573127865791321e-01" nType="-99"/>
              </Node>
            </Node>
            <Node pos="r" depth="3" NCoef="0" IVar="9" Cut="1.0544219613075256e-01" cType="1" res="-6.3191661611199379e-03" rms="2.9180958867073059e-01" purity="2.3057726025581360e-01" nType="0">
              <Node pos="l" depth="4" NCoef="0" IVar="-1" Cut="0.0000000000000000e+00" cType="1" res="-3.8036800920963287e-02" rms="1.9456125795841217e-01" purity="5.3213756531476974e-02" nType="-99"/>
              <Node pos="r" depth="4" NCoef="0" IVar="8" Cut="1.5149375796318054e-01" cType="1" res="2.2203635424375534e-02" rms="3.1908375024795532e-01" purity="3.0352407693862915e-01" nType="0">
                <Node pos="l" depth="5" NCoef="0" IVar="-1" Cut="0.0000000000000000e+00" cType="1" res="-1.1335138231515884e-02" rms="2.9238933324813843e-01" purity="1.8312996625900269e-01" nType="-99"/>
                <Node pos="r" depth="5" NCoef="0" IVar="-1" Cut="0.0000000000000000e+00" cType="1" res="2.1114649251103401e-02" rms="3.3355426788330078e-01" purity="4.0006422996520996e-01" nType="-99"/>
              </Node>
            </Node>
          </Node>
          <Node pos="r" depth="2" NCoef="0" IVar="8" Cut="3.3610528707504272e-01" cType="1" res="-1.0989767033606768e-03" rms="3.5175320506095886e-01" purity="4.3665862083435059e-01" nType="0">
            <Node pos="l" depth="3" NCoef="0" IVar="8" Cut="1.7233371734619141e-01" cType="1" res="-3.1380437314510345e-02" rms="3.4180799126625061e-01" purity="3.1809625029563904e-01" nType="0">
              <Node pos="l" depth="4" NCoef="0" IVar="6" Cut="1.9156007766723633e+00" cType="1" res="-6.3940405845642090e-02" rms="3.0037006735801697e-01" purity="1.7297337949275970e-01" nType="0">
                <Node pos="l" depth="5" NCoef="0" IVar="-1" Cut="0.0000000000000000e+00" cType="1" res="-3.2549560070037842e-02" rms="2.5891232490539551e-01" purity="1.2161778658628464e-01" nType="-99"/>
                <Node pos="r" depth="5" NCoef="0" IVar="-1" Cut="0.0000000000000000e+00" cType="1" res="-1.7473759129643440e-02" rms="3.3550810813903809e-01" purity="2.2322663664817810e-01" nType="-99"/>
              </Node>
              <Node pos="r" depth="4" NCoef="0" IVar="4" Cut="8.2201034545898438e+01" cType="1" res="-1.4629581943154335e-02" rms="3.6013442277908325e-01" purity="3.9275637269020081e-01" nType="0">
                <Node pos="l" depth="5" NCoef="0" IVar="-1" Cut="0.0000000000000000e+00" cType="1" res="-1.7556242644786835e-02" rms="3.4208139777183533e-01" purity="2.3636195063591003e-01" nType="-99"/>
                <Node pos="r" depth="5" NCoef="0" IVar="-1" Cut="0.0000000000000000e+00" cType="1" res="1.0349652729928493e-03" rms="3.6666530370712280e-01" purity="4.6399968862533569e-01" nType="-99"/>
              </Node>
            </Node>
            <Node pos="r" depth="3" NCoef="0" IVar="6" Cut="9.1948848962783813e-01" cType="1" res="3.3638373017311096e-02" rms="3.5970032215118408e-01" purity="5.7266730070114136e-01" nType="0">
              <Node pos="l" depth="4" NCoef="0" IVar="-1" Cut="0.0000000000000000e+00" cType="1" res="-1.2303481809794903e-02" rms="3.7895748019218445e-01" purity="3.6483415961265564e-01" nType="-99"/>
              <Node pos="r" depth="4" NCoef="0" IVar="5" Cut="7.3530944824218750e+01" cType="1" res="6.2772281467914581e-02" rms="3.4769612550735474e-01" purity="6.5174329280853271e-01" nType="0">
                <Node pos="l" depth="5" NCoef="0" IVar="-1" Cut="0.0000000000000000e+00" cType="1" res="2.9084214475005865e-03" rms="3.9376065135002136e-01" purity="5.1280999183654785e-01" nType="-99"/>
                <Node pos="r" depth="5" NCoef="0" IVar="-1" Cut="0.0000000000000000e+00" cType="1" res="2.6625324040651321e-02" rms="3.2265296578407288e-01" purity="7.1293985843658447e-01" nType="-99"/>
              </Node>
            </Node>
          </Node>
        </Node>
        <Node pos="r" depth="1" NCoef="0" IVar="4" Cut="1.6921292114257812e+02" cType="1" res="2.5851100683212280e-02" rms="3.1075283885002136e-01" purity="7.1064054965972900e-01" nType="0">
          <Node pos="l" depth="2" NCoef="0" IVar="4" Cut="9.3211868286132812e+01" cType="1" res="3.4424740821123123e-02" rms="3.0830940604209900e-01" purity="7.5877988338470459e-01" nType="0">
            <Node pos="l" depth="3" NCoef="0" IVar="9" Cut="3.6082810163497925e-01" cType="1" res="-1.4428680762648582e-02" rms="3.6811050772666931e-01" purity="5.7164478302001953e-01" nType="0">
              <Node pos="l" depth="4" NCoef="0" IVar="-1" Cut="0.0000000000000000e+00" cType="1" res="-1.6601856797933578e-02" rms="3.7403088808059692e-01" purity="4.4766667485237122e-01" nType="-99"/>
              <Node pos="r" depth="4" NCoef="0" IVar="-1" Cut="0.0000000000000000e+00" cType="1" res="5.4758777841925621e-03" rms="3.6013749241828918e-01" purity="6.6629356145858765e-01" nType="-99"/>
            </Node>
            <Node pos="r" depth="3" NCoef="0" IVar="9" Cut="3.1796413660049438e-01" cType="1" res="4.7674097120761871e-02" rms="2.8855052590370178e-01" purity="8.0953204631805420e-01" nType="0">
              <Node pos="l" depth="4" NCoef="0" IVar="7" Cut="2.0177888870239258e+00" cType="1" res="2.1425897255539894e-02" rms="3.3583614230155945e-01" purity="7.0291560888290405e-01" nType="0">
                <Node pos="l" depth="5" NCoef="0" IVar="-1" Cut="0.0000000000000000e+00" cType="1" res="-3.2096777576953173e-03" rms="3.5418820381164551e-01" purity="6.6871464252471924e-01" nType="-99"/>
                <Node pos="r" depth="5" NCoef="0" IVar="-1" Cut="0.0000000000000000e+00" cType="1" res="2.1068181842565536e-02" rms="3.0359867215156555e-01" purity="7.5007933378219604e-01" nType="-99"/>
              </Node>
              <Node pos="r" depth="4" NCoef="0" IVar="8" Cut="2.3892143368721008e-01" cType="1" res="6.5938964486122131e-02" rms="2.4880450963973999e-01" purity="8.8372135162353516e-01" nType="0">
                <Node pos="l" depth="5" NCoef="0" IVar="-1" Cut="0.0000000000000000e+00" cType="1" res="5.9973406605422497e-03" rms="3.2438358664512634e-01" purity="7.2888940572738647e-01" nType="-99"/>
                <Node pos="r" depth="5" NCoef="0" IVar="-1" Cut="0.0000000000000000e+00" cType="1" res="3.4992959350347519e-02" rms="2.2577378153800964e-01" purity="9.2028576135635376e-01" nType="-99"/>
              </Node>
            </Node>
          </Node>
          <Node pos="r" depth="2" NCoef="0" IVar="0" Cut="1.0975610017776489e+00" cType="1" res="-6.2422502785921097e-02" rms="3.2185727357864380e-01" purity="2.1500228345394135e-01" nType="0">
            <Node pos="l" depth="3" NCoef="0" IVar="-1" Cut="0.0000000000000000e+00" cType="1" res="-3.4024838358163834e-02" rms="2.2895179688930511e-01" purity="6.5568134188652039e-02" nType="-99"/>
            <Node pos="r" depth="3" NCoef="0" IVar="-1" Cut="0.0000000000000000e+00" cType="1" res="-1.1588649824261665e-02" rms="3.9196929335594177e-01" purity="3.6235743761062622e-01" nType="-99"/>
          </Node>
        </Node>
      </Node>
    </BinaryTree>
    <BinaryTree type="DecisionTree" boostWeight="1.0000000000000000e+00" itree="32">
      <Node pos="s" depth="0" NCoef="0" IVar="2" Cut="2.0731706619262695e+00" cType="1" res="-8.5153308464214206e-04" rms="3.1929653882980347e-01" purity="4.9914994835853577e-01" nType="0">
        <Node pos="l" depth="1" NCoef="0" IVar="3" Cut="3.0487804412841797e+00" cType="1" res="1.2225090526044369e-02" rms="3.3283528685569763e-01" purity="6.0432434082031250e-01" nType="0">
          <Node pos="l" depth="2" NCoef="0" IVar="5" Cut="5.5860939025878906e+01" cType="1" res="2.2806189954280853e-02" rms="3.2774683833122253e-01" purity="6.5570324659347534e-01" nType="0">
            <Node pos="l" depth="3" NCoef="0" IVar="9" Cut="2.7065363526344299e-01" cType="1" res="-5.2996605634689331e-02" rms="3.7420687079429626e-01" purity="4.7315257787704468e-01" nType="0">
              <Node pos="l" depth="4" NCoef="0" IVar="-1" Cut="0.0000000000000000e+00" cType="1" res="-3.1550846993923187e-02" rms="3.4995645284652710e-01" purity="2.8713366389274597e-01" nType="-99"/>
              <Node pos="r" depth="4" NCoef="0" IVar="5" Cut="4.1146255493164062e+01" cType="1" res="-3.0931644141674042e-02" rms="3.8269257545471191e-01" purity="5.5769163370132446e-01" nType="0">
                <Node pos="l" depth="5" NCoef="0" IVar="-1" Cut="0.0000000000000000e+00" cType="1" res="-1.7618231475353241e-02" rms="3.8598129153251648e-01" purity="5.0360566377639771e-01" nType="-99"/>
                <Node pos="r" depth="5" NCoef="0" IVar="-1" Cut="0.0000000000000000e+00" cType="1" res="-2.6029399596154690e-03" rms="3.7877494096755981e-01" purity="5.9653455018997192e-01" nType="-99"/>
              </Node>
            </Node>
            <Node pos="r" depth="3" NCoef="0" IVar="5" Cut="1.0920050811767578e+02" cType="1" res="3.2373003661632538e-02" rms="3.2013329863548279e-01" purity="6.7874234914779663e-01" nType="0">
              <Node pos="l" depth="4" NCoef="0" IVar="9" Cut="1.1237373948097229e-01" cType="1" res="4.8531774431467056e-02" rms="3.1295138597488403e-01" purity="7.5214111804962158e-01" nType="0">
                <Node pos="l" depth="5" NCoef="0" IVar="-1" Cut="0.0000000000000000e+00" cType="1" res="-1.4591612853109837e-02" rms="3.5642245411872864e-01" purity="2.5963476300239563e-01" nType="-99"/>
                <Node pos="r" depth="5" NCoef="0" IVar="-1" Cut="0.0000000000000000e+00" cType="1" res="1.9220525398850441e-02" rms="3.0943644046783447e-01" purity="7.7985697984695435e-01" nType="-99"/>
              </Node>
              <Node pos="r" depth="4" NCoef="0" IVar="6" Cut="2.6052224636077881e+00" cType="1" res="-2.3600345477461815e-02" rms="3.3793136477470398e-01" purity="4.2449182271957397e-01" nType="0">
                <Node pos="l" depth="5" NCoef="0" IVar="-1" Cut="0.0000000000000000e+00" cType="1" res="-1.7316073179244995e-02" rms="3.3755460381507874e-01" purity="2.7730843424797058e-01" nType="-99"/>
                <Node pos="r" depth="5" NCoef="0" IVar="-1" Cut="0.0000000000000000e+00" cType="1" res="7.9456642270088196e-03" rms="3.3297404646873474e-01" purity="6.7390143871307373e-01" nType="-99"/>
              </Node>
            </Node>
          </Node>
          <Node pos="r" depth="2" NCoef="0" IVar="9" Cut="3.4190583229064941e-01" cType="1" res="-4.3202105909585953e-02" rms="3.5316911339759827e-01" purity="3.3518511056900024e-01" nType="0">
            <Node pos="l" depth="3" NCoef="0" IVar="5" Cut="1.0587974548339844e+02" cType="1" res="-6.7054606974124908e-02" rms="3.2566002011299133e-01" purity="2.2115421295166016e-01" nType="0">
              <Node pos="l" depth="4" NCoef="0" IVar="-1" Cut="0.0000000000000000e+00" cType="1" res="-2.7442511171102524e-02" rms="3.3302447199821472e-01" purity="2.3715457320213318e-01" nType="-99"/>
              <Node pos="r" depth="4" NCoef="0" IVar="-1" Cut="0.0000000000000000e+00" cType="1" res="-1.6449782997369766e-02" rms="3.1467258930206299e-01" purity="2.0105677843093872e-01" nType="-99"/>
            </Node>
            <Node pos="r" depth="3" NCoef="0" IVar="6" Cut="2.1454730033874512e+00" cType="1" res="-1.4726032502949238e-02" rms="3.8148659467697144e-01" purity="4.7131979465484619e-01" nType="0">
              <Node pos="l" depth="4" NCoef="0" IVar="-1" Cut="0.0000000000000000e+00" cType="1" res="-1.2667310424149036e-02" rms="3.8931056857109070e-01" purity="3.4590363502502441e-01" nType="-99"/>
              <Node pos="r" depth="4" NCoef="0" IVar="-1" Cut="0.0000000000000000e+00" cType="1" res="4.6248435974121094e-03" rms="3.7046369910240173e-01" purity="6.0511440038681030e-01" nType="-99"/>
            </Node>
          </Node>
        </Node>
        <Node pos="r" depth="1" NCoef="0" IVar="2" Cut="4.0243902206420898e+00" cType="1" res="-4.2271308600902557e-02" rms="2.6781964302062988e-01" purity="1.6601355373859406e-01" nType="0">
          <Node pos="l" depth="2" NCoef="0" IVar="5" Cut="9.9168464660644531e+01" cType="1" res="-1.8578980118036270e-02" rms="3.3590865135192871e-01" purity="3.6354348063468933e-01" nType="0">
            <Node pos="l" depth="3" NCoef="0" IVar="5" Cut="7.6127426147460938e+01" cType="1" res="1.1645898222923279e-02" rms="3.6064630746841431e-01" purity="4.6677225828170776e-01" nType="0">
              <Node pos="l" depth="4" NCoef="0" IVar="-1" Cut="0.0000000000000000e+00" cType="1" res="-5.1534553058445454e-03" rms="3.6998391151428223e-01" purity="3.9147162437438965e-01" nType="-99"/>
              <Node pos="r" depth="4" NCoef="0" IVar="-1" Cut="0.0000000000000000e+00" cType="1" res="1.2406789697706699e-02" rms="3.4919303655624390e-01" purity="5.3978031873703003e-01" nType="-99"/>
            </Node>
            <Node pos="r" depth="3" NCoef="0" IVar="-1" Cut="0.0000000000000000e+00" cType="1" res="-2.2421801462769508e-02" rms="2.9331985116004944e-01" purity="2.2099454700946808e-01" nType="-99"/>
          </Node>
          <Node pos="r" depth="2" NCoef="0" IVar="6" Cut="2.8350946903228760e+00" cType="1" res="-5.3058996796607971e-02" rms="2.2943030297756195e-01" purity="7.6073415577411652e-02" nType="0">
            <Node pos="l" depth="3" NCoef="0" IVar="1" Cut="1.0975610017776489e+00" cType="1" res="-5.7175796478986740e-02" rms="2.1991261839866638e-01" purity="6.5551452338695526e-02" nType="0">
              <Node pos="l" depth="4" NCoef="0" IVar="0" Cut="4.0243902206420898e+00" cType="1" res="-5.1461406052112579e-02" rms="1.8324947357177734e-01" purity="3.8674809038639069e-02" nType="0">
                <Node pos="l" depth="5" NCoef="0" IVar="-1" Cut="0.0000000000000000e+00" cType="1" res="-3.6615785211324692e-02" rms="1.4752033352851868e-01" purity="2.4396801367402077e-02" nType="-99"/>
                <Node pos="r" depth="5" NCoef="0" IVar="-1" Cut="0.0000000000000000e+00" cType="1" res="-2.7252497151494026e-02" rms="2.5001525878906250e-01" purity="7.3774717748165131e-02" nType="-99"/>
              </Node>
              <Node pos="r" depth="4" NCoef="0" IVar="6" Cut="1.7287135124206543e+00" cType="1" res="-6.9031305611133575e-02" rms="2.8074800968170166e-01" purity="1.2131182104349136e-01" nType="0">
                <Node pos="l" depth="5" NCoef="0" IVar="-1" Cut="0.0000000000000000e+00" cType="1" res="-3.3942475914955139e-02" rms="2.5425100326538086e-01" purity="8.4141351282596588e-02" nType="-99"/>
                <Node pos="r" depth="5" NCoef="0" IVar="-1" Cut="0.0000000000000000e+00" cType="1" res="-1.8292477354407310e-02" rms="3.0334553122520447e-01" purity="1.5730288624763489e-01" nType="-99"/>
              </Node>
            </Node>
            <Node pos="r" depth="3" NCoef="0" IVar="-1" Cut="0.0000000000000000e+00" cType="1" res="-1.2424672953784466e-02" rms="2.7618074417114258e-01" purity="1.3580940663814545e-01" nType="-99"/>
          </Node>
        </Node>
      </Node>
    </BinaryTree>
    <BinaryTree type="DecisionTree" boostWeight="1.0000000000000000e+00" itree="33">
      <Node pos="s" depth="0" NCoef="0" IVar="1" Cut="1.0975610017776489e+00" cType="1" res="1.1346900282660499e-04" rms="3.1932422518730164e-01" purity="4.9923422932624817e-01" nType="0">
        <Node pos="l" depth="1" NCoef="0" IVar="8" Cut="3.7391996383666992e-01" cType="1" res="-2.5294288992881775e-02" rms="3.2547003030776978e-01" purity="2.5546732544898987e-01" nType="0">
          <Node pos="l" depth="2" NCoef="0" IVar="7" Cut="2.2810106277465820e+00" cType="1" res="-3.9890054613351822e-02" rms="3.0649086833000183e-01" purity="2.0047825574874878e-01" nType="0">
            <Node pos="l" depth="3" NCoef="0" IVar="9" Cut="4.8145887255668640e-01" cType="1" res="-5.0132114440202713e-02" rms="3.1432342529296875e-01" purity="2.0680150389671326e-01" nType="0">
              <Node pos="l" depth="4" NCoef="0" IVar="7" Cut="1.2795909643173218e+00" cType="1" res="-6.4158856868743896e-02" rms="2.9326456785202026e-01" purity="1.6559337079524994e-01" nType="0">
                <Node pos="l" depth="5" NCoef="0" IVar="-1" Cut="0.0000000000000000e+00" cType="1" res="-3.1817924231290817e-02" rms="2.9647782444953918e-01" purity="1.4168839156627655e-01" nType="-99"/>
                <Node pos="r" depth="5" NCoef="0" IVar="-1" Cut="0.0000000000000000e+00" cType="1" res="-1.7506407573819160e-02" rms="2.8803968429565430e-01" purity="1.9533398747444153e-01" nType="-99"/>
              </Node>
              <Node pos="r" depth="4" NCoef="0" IVar="5" Cut="9.2819786071777344e+01" cType="1" res="-1.9525419920682907e-02" rms="3.5405132174491882e-01" purity="2.9671862721443176e-01" nType="0">
                <Node pos="l" depth="5" NCoef="0" IVar="-1" Cut="0.0000000000000000e+00" cType="1" res="3.1851963140070438e-03" rms="3.9367225766181946e-01" purity="4.2959633469581604e-01" nType="-99"/>
                <Node pos="r" depth="5" NCoef="0" IVar="-1" Cut="0.0000000000000000e+00" cType="1" res="-1.8704915419220924e-02" rms="3.0843842029571533e-01" purity="1.6916221380233765e-01" nType="-99"/>
              </Node>
            </Node>
            <Node pos="r" depth="3" NCoef="0" IVar="8" Cut="1.2792590260505676e-01" cType="1" res="-1.4234318397939205e-02" rms="2.8431537747383118e-01" purity="1.8463885784149170e-01" nType="0">
              <Node pos="l" depth="4" NCoef="0" IVar="-1" Cut="0.0000000000000000e+00" cType="1" res="-3.3111937344074249e-02" rms="2.2318255901336670e-01" purity="7.4213095009326935e-02" nType="-99"/>
              <Node pos="r" depth="4" NCoef="0" IVar="6" Cut="1.8389869928359985e+00" cType="1" res="1.4456028118729591e-02" rms="3.0774831771850586e-01" purity="2.4253711104393005e-01" nType="0">
                <Node pos="l" depth="5" NCoef="0" IVar="-1" Cut="0.0000000000000000e+00" cType="1" res="-2.3206133395433426e-02" rms="2.3436316847801208e-01" purity="8.1859342753887177e-02" nType="-99"/>
                <Node pos="r" depth="5" NCoef="0" IVar="-1" Cut="0.0000000000000000e+00" cType="1" res="1.8335232511162758e-02" rms="3.4429639577865601e-01" purity="3.5632735490798950e-01" nType="-99"/>
              </Node>
            </Node>
          </Node>
          <Node pos="r" depth="2" NCoef="0" IVar="0" Cut="2.0731706619262695e+00" cType="1" res="-2.8796489350497723e-03" rms="3.5145473480224609e-01" purity="3.3991372585296631e-01" nType="0">
            <Node pos="l" depth="3" NCoef="0" IVar="6" Cut="2.3753478527069092e+00" cType="1" res="-3.0727140605449677e-02" rms="2.7232360839843750e-01" purity="1.1295781284570694e-01" nType="0">
              <Node pos="l" depth="4" NCoef="0" IVar="4" Cut="1.2284223937988281e+02" cType="1" res="-4.1783027350902557e-02" rms="2.5382503867149353e-01" purity="8.3376839756965637e-02" nType="0">
                <Node pos="l" depth="5" NCoef="0" IVar="-1" Cut="0.0000000000000000e+00" cType="1" res="-1.5624529682099819e-02" rms="2.7851110696792603e-01" purity="1.0150950402021408e-01" nType="-99"/>
                <Node pos="r" depth="5" NCoef="0" IVar="-1" Cut="0.0000000000000000e+00" cType="1" res="-3.0264796689152718e-02" rms="2.1016216278076172e-01" purity="5.5808160454034805e-02" nType="-99"/>
              </Node>
              <Node pos="r" depth="4" NCoef="0" IVar="-1" Cut="0.0000000000000000e+00" cType="1" res="-7.8490318264812231e-04" rms="3.1359520554542542e-01" purity="1.8993461132049561e-01" nType="-99"/>
            </Node>
            <Node pos="r" depth="3" NCoef="0" IVar="9" Cut="2.6357826590538025e-01" cType="1" res="1.7774606123566628e-02" rms="3.9890947937965393e-01" purity="5.0824505090713501e-01" nType="0">
              <Node pos="l" depth="4" NCoef="0" IVar="-1" Cut="0.0000000000000000e+00" cType="1" res="-7.2890981100499630e-03" rms="3.8845226168632507e-01" purity="2.6457646489143372e-01" nType="-99"/>
              <Node pos="r" depth="4" NCoef="0" IVar="6" Cut="1.2259786128997803e+00" cType="1" res="4.1282575577497482e-02" rms="4.0253382921218872e-01" purity="6.4065861701965332e-01" nType="0">
                <Node pos="l" depth="5" NCoef="0" IVar="-1" Cut="0.0000000000000000e+00" cType="1" res="-3.5763341002166271e-03" rms="4.3524685502052307e-01" purity="4.9902352690696716e-01" nType="-99"/>
                <Node pos="r" depth="5" NCoef="0" IVar="-1" Cut="0.0000000000000000e+00" cType="1" res="1.8124027177691460e-02" rms="3.8279277086257935e-01" purity="7.0907509326934814e-01" nType="-99"/>
              </Node>
            </Node>
          </Node>
        </Node>
        <Node pos="r" depth="1" NCoef="0" IVar="4" Cut="1.4554379272460938e+02" cType="1" res="1.9873343408107758e-02" rms="3.1303924322128296e-01" purity="6.8881422281265259e-01" nType="0">
          <Node pos="l" depth="2" NCoef="0" IVar="4" Cut="7.0669654846191406e+01" cType="1" res="3.0722171068191528e-02" rms="3.0807283520698547e-01" purity="7.5866359472274780e-01" nType="0">
            <Node pos="l" depth="3" NCoef="0" IVar="4" Cut="5.4948394775390625e+01" cType="1" res="-5.6454636156558990e-02" rms="3.8744622468948364e-01" purity="3.5511991381645203e-01" nType="0">
              <Node pos="l" depth="4" NCoef="0" IVar="-1" Cut="0.0000000000000000e+00" cType="1" res="-2.2300945594906807e-02" rms="3.8526174426078796e-01" purity="2.9756024479866028e-01" nType="-99"/>
              <Node pos="r" depth="4" NCoef="0" IVar="-1" Cut="0.0000000000000000e+00" cType="1" res="-8.3813304081559181e-03" rms="3.8779023289680481e-01" purity="4.0890684723854065e-01" nType="-99"/>
            </Node>
            <Node pos="r" depth="3" NCoef="0" IVar="6" Cut="9.1949200630187988e-01" cType="1" res="3.9330080151557922e-02" rms="2.9771348834037781e-01" purity="7.9850989580154419e-01" nType="0">
              <Node pos="l" depth="4" NCoef="0" IVar="6" Cut="4.7095897793769836e-01" cType="1" res="-1.5993852168321609e-02" rms="3.5476002097129822e-01" purity="6.2681770324707031e-01" nType="0">
                <Node pos="l" depth="5" NCoef="0" IVar="-1" Cut="0.0000000000000000e+00" cType="1" res="-1.0029234923422337e-02" rms="3.6268895864486694e-01" purity="5.9549123048782349e-01" nType="-99"/>
                <Node pos="r" depth="5" NCoef="0" IVar="-1" Cut="0.0000000000000000e+00" cType="1" res="-9.1604731278494000e-04" rms="3.4721201658248901e-01" purity="6.5391761064529419e-01" nType="-99"/>
              </Node>
              <Node pos="r" depth="4" NCoef="0" IVar="8" Cut="1.5094965696334839e-01" cType="1" res="4.7217261046171188e-02" rms="2.8779914975166321e-01" purity="8.2298696041107178e-01" nType="0">
                <Node pos="l" depth="5" NCoef="0" IVar="-1" Cut="0.0000000000000000e+00" cType="1" res="-9.1905426234006882e-03" rms="3.6548787355422974e-01" purity="5.5052453279495239e-01" nType="-99"/>
                <Node pos="r" depth="5" NCoef="0" IVar="-1" Cut="0.0000000000000000e+00" cType="1" res="2.1596202626824379e-02" rms="2.7983298897743225e-01" purity="8.4450316429138184e-01" nType="-99"/>
              </Node>
            </Node>
          </Node>
          <Node pos="r" depth="2" NCoef="0" IVar="8" Cut="3.4946772456169128e-01" cType="1" res="-4.0937285870313644e-02" rms="3.3305618166923523e-01" purity="2.9728940129280090e-01" nType="0">
            <Node pos="l" depth="3" NCoef="0" IVar="7" Cut="1.6605215072631836e+00" cType="1" res="-7.5348839163780212e-02" rms="3.1277158856391907e-01" purity="2.0620656013488770e-01" nType="0">
              <Node pos="l" depth="4" NCoef="0" IVar="-1" Cut="0.0000000000000000e+00" cType="1" res="-3.0584575608372688e-02" rms="3.2189667224884033e-01" purity="2.0010048151016235e-01" nType="-99"/>
              <Node pos="r" depth="4" NCoef="0" IVar="-1" Cut="0.0000000000000000e+00" cType="1" res="-1.8614126369357109e-02" rms="3.0098834633827209e-01" purity="2.1295635402202606e-01" nType="-99"/>
            </Node>
            <Node pos="r" depth="3" NCoef="0" IVar="-1" Cut="0.0000000000000000e+00" cType="1" res="1.1410857550799847e-03" rms="3.5277497768402100e-01" purity="4.1604685783386230e-01" nType="-99"/>
          </Node>
        </Node>
      </Node>
    </BinaryTree>
    <BinaryTree type="DecisionTree" boostWeight="1.0000000000000000e+00" itree="34">
      <Node pos="s" depth="0" NCoef="0" IVar="0" Cut="2.0731706619262695e+00" cType="1" res="7.1144296089187264e-04" rms="3.1864699721336365e-01" purity="5.0072789192199707e-01" nType="0">
        <Node pos="l" depth="1" NCoef="0" IVar="5" Cut="7.0007087707519531e+01" cType="1" res="-2.6440234854817390e-02" rms="2.9343250393867493e-01" purity="2.3206132650375366e-01" nType="0">
          <Node pos="l" depth="2" NCoef="0" IVar="8" Cut="4.8031288385391235e-01" cType="1" res="-5.5805191397666931e-02" rms="3.0688655376434326e-01" purity="1.8608048558235168e-01" nType="0">
            <Node pos="l" depth="3" NCoef="0" IVar="6" Cut="2.2220916748046875e+00" cType="1" res="-7.0898607373237610e-02" rms="2.8893560171127319e-01" purity="1.5738786756992340e-01" nType="0">
              <Node pos="l" depth="4" NCoef="0" IVar="-1" Cut="0.0000000000000000e+00" cType="1" res="-2.5361387059092522e-02" rms="2.8147915005683899e-01" purity="1.3223478198051453e-01" nType="-99"/>
              <Node pos="r" depth="4" NCoef="0" IVar="-1" Cut="0.0000000000000000e+00" cType="1" res="-3.0566871166229248e-02" rms="2.9955488443374634e-01" purity="1.9694374501705170e-01" nType="-99"/>
            </Node>
            <Node pos="r" depth="3" NCoef="0" IVar="-1" Cut="0.0000000000000000e+00" cType="1" res="-8.1534916535019875e-03" rms="3.4010693430900574e-01" purity="2.4789290130138397e-01" nType="-99"/>
          </Node>
          <Node pos="r" depth="2" NCoef="0" IVar="5" Cut="8.9761581420898438e+01" cType="1" res="-1.7656363546848297e-02" rms="2.8870671987533569e-01" purity="2.4581548571586609e-01" nType="0">
            <Node pos="l" depth="3" NCoef="0" IVar="2" Cut="3.0487804412841797e+00" cType="1" res="2.6395604014396667e-02" rms="3.3882483839988708e-01" purity="4.2918765544891357e-01" nType="0">
              <Node pos="l" depth="4" NCoef="0" IVar="6" Cut="1.3792446851730347e+00" cType="1" res="4.2833153158426285e-02" rms="3.6013910174369812e-01" purity="5.2611833810806274e-01" nType="0">
                <Node pos="l" depth="5" NCoef="0" IVar="-1" Cut="0.0000000000000000e+00" cType="1" res="-2.0281397737562656e-03" rms="3.6566796898841858e-01" purity="3.4583142399787903e-01" nType="-99"/>
                <Node pos="r" depth="5" NCoef="0" IVar="-1" Cut="0.0000000000000000e+00" cType="1" res="1.8810268491506577e-02" rms="3.5581612586975098e-01" purity="6.0096228122711182e-01" nType="-99"/>
              </Node>
              <Node pos="r" depth="4" NCoef="0" IVar="-1" Cut="0.0000000000000000e+00" cType="1" res="-1.5914132818579674e-02" rms="2.4316145479679108e-01" purity="9.4043508172035217e-02" nType="-99"/>
            </Node>
            <Node pos="r" depth="3" NCoef="0" IVar="8" Cut="3.5619425773620605e-01" cType="1" res="-3.7951473146677017e-02" rms="2.5991544127464294e-01" purity="1.6133433580398560e-01" nType="0">
              <Node pos="l" depth="4" NCoef="0" IVar="7" Cut="2.3155884742736816e+00" cType="1" res="-4.9321778118610382e-02" rms="2.3880785703659058e-01" purity="1.1727724224328995e-01" nType="0">
                <Node pos="l" depth="5" NCoef="0" IVar="-1" Cut="0.0000000000000000e+00" cType="1" res="-2.7229247614741325e-02" rms="2.4381126463413239e-01" purity="1.1797900497913361e-01" nType="-99"/>
                <Node pos="r" depth="5" NCoef="0" IVar="-1" Cut="0.0000000000000000e+00" cType="1" res="-1.7708994448184967e-02" rms="2.2545808553695679e-01" purity="1.1557858437299728e-01" nType="-99"/>
              </Node>
              <Node pos="r" depth="4" NCoef="0" IVar="9" Cut="3.3627447485923767e-01" cType="1" res="-1.7138978466391563e-02" rms="2.9352143406867981e-01" purity="2.4197764694690704e-01" nType="0">
                <Node pos="l" depth="5" NCoef="0" IVar="-1" Cut="0.0000000000000000e+00" cType="1" res="-2.0934587344527245e-02" rms="2.5943210721015930e-01" purity="1.2350161373615265e-01" nType="-99"/>
                <Node pos="r" depth="5" NCoef="0" IVar="-1" Cut="0.0000000000000000e+00" cType="1" res="8.1815002486109734e-03" rms="3.3667182922363281e-01" purity="4.3092903494834900e-01" nType="-99"/>
              </Node>
            </Node>
          </Node>
        </Node>
        <Node pos="r" depth="1" NCoef="0" IVar="1" Cut="2.0731706619262695e+00" cType="1" res="1.7851639539003372e-02" rms="3.3244457840919495e-01" purity="6.7033058404922485e-01" nType="0">
          <Node pos="l" depth="2" NCoef="0" IVar="8" Cut="3.7385961413383484e-01" cType="1" res="-6.6837500780820847e-03" rms="3.8046625256538391e-01" purity="4.4625276327133179e-01" nType="0">
            <Node pos="l" depth="3" NCoef="0" IVar="8" Cut="1.7341737449169159e-01" cType="1" res="-2.6983380317687988e-02" rms="3.7023350596427917e-01" purity="3.7353554368019104e-01" nType="0">
              <Node pos="l" depth="4" NCoef="0" IVar="5" Cut="9.5453819274902344e+01" cType="1" res="-7.0341818034648895e-02" rms="3.3253845572471619e-01" purity="2.1453835070133209e-01" nType="0">
                <Node pos="l" depth="5" NCoef="0" IVar="-1" Cut="0.0000000000000000e+00" cType="1" res="-1.2212353758513927e-02" rms="3.8840660452842712e-01" purity="3.3673030138015747e-01" nType="-99"/>
                <Node pos="r" depth="5" NCoef="0" IVar="-1" Cut="0.0000000000000000e+00" cType="1" res="-3.6340538412332535e-02" rms="2.6193514466285706e-01" purity="9.0793184936046600e-02" nType="-99"/>
              </Node>
              <Node pos="r" depth="4" NCoef="0" IVar="7" Cut="2.2003629207611084e+00" cType="1" res="-1.0890470817685127e-02" rms="3.8203209638595581e-01" purity="4.3254888057708740e-01" nType="0">
                <Node pos="l" depth="5" NCoef="0" IVar="-1" Cut="0.0000000000000000e+00" cType="1" res="-7.7610304579138756e-03" rms="3.8803118467330933e-01" purity="4.2677950859069824e-01" nType="-99"/>
                <Node pos="r" depth="5" NCoef="0" IVar="-1" Cut="0.0000000000000000e+00" cType="1" res="1.5023200772702694e-02" rms="3.5178026556968689e-01" purity="4.5419552922248840e-01" nType="-99"/>
              </Node>
            </Node>
            <Node pos="r" depth="3" NCoef="0" IVar="6" Cut="2.6052162647247314e+00" cType="1" res="2.0115146413445473e-02" rms="3.9196109771728516e-01" purity="5.4225170612335205e-01" nType="0">
              <Node pos="l" depth="4" NCoef="0" IVar="6" Cut="8.2604509592056274e-01" cType="1" res="3.0262887012213469e-03" rms="4.0388855338096619e-01" purity="4.7931578755378723e-01" nType="0">
                <Node pos="l" depth="5" NCoef="0" IVar="-1" Cut="0.0000000000000000e+00" cType="1" res="-9.3110427260398865e-03" rms="4.1601085662841797e-01" purity="3.7922751903533936e-01" nType="-99"/>
                <Node pos="r" depth="5" NCoef="0" IVar="-1" Cut="0.0000000000000000e+00" cType="1" res="4.5508011244237423e-03" rms="3.9845320582389832e-01" purity="5.1604402065277100e-01" nType="-99"/>
              </Node>
              <Node pos="r" depth="4" NCoef="0" IVar="-1" Cut="0.0000000000000000e+00" cType="1" res="1.7773050814867020e-02" rms="3.5777279734611511e-01" purity="6.9592386484146118e-01" nType="-99"/>
            </Node>
          </Node>
          <Node pos="r" depth="2" NCoef="0" IVar="9" Cut="3.4084558486938477e-01" cType="1" res="3.6467492580413818e-02" rms="2.8937983512878418e-01" purity="8.4034633636474609e-01" nType="0">
            <Node pos="l" depth="3" NCoef="0" IVar="6" Cut="1.3792371749877930e+00" cType="1" res="1.4447400346398354e-02" rms="3.3720958232879639e-01" purity="7.5432181358337402e-01" nType="0">
              <Node pos="l" depth="4" NCoef="0" IVar="-1" Cut="0.0000000000000000e+00" cType="1" res="-1.4284641481935978e-02" rms="3.9143720269203186e-01" purity="5.5314320325851440e-01" nType="-99"/>
              <Node pos="r" depth="4" NCoef="0" IVar="7" Cut="1.7560170888900757e+00" cType="1" res="2.8071533888578415e-02" rms="3.2314875721931458e-01" purity="7.9610133171081543e-01" nType="0">
                <Node pos="l" depth="5" NCoef="0" IVar="-1" Cut="0.0000000000000000e+00" cType="1" res="-5.2626244723796844e-04" rms="3.4844142198562622e-01" purity="7.6107877492904663e-01" nType="-99"/>
                <Node pos="r" depth="5" NCoef="0" IVar="-1" Cut="0.0000000000000000e+00" cType="1" res="2.2603929042816162e-02" rms="2.8814139962196350e-01" purity="8.3586263656616211e-01" nType="-99"/>
              </Node>
            </Node>
            <Node pos="r" depth="3" NCoef="0" IVar="-1" Cut="0.0000000000000000e+00" cType="1" res="2.5483967736363411e-02" rms="2.4307884275913239e-01" purity="9.0910917520523071e-01" nType="-99"/>
          </Node>
        </Node>
      </Node>
    </BinaryTree>
    <BinaryTree type="DecisionTree" boostWeight="1.0000000000000000e+00" itree="35">
      <Node pos="s" depth="0" NCoef="0" IVar="0" Cut="2.0731706619262695e+00" cType="1" res="-2.9253590037114918e-04" rms="3.1708127260208130e-01" purity="4.9962830543518066e-01" nType="0">
        <Node pos="l" depth="1" NCoef="0" IVar="4" Cut="1.3393737792968750e+02" cType="1" res="-2.7955668047070503e-02" rms="2.8805273771286011e-01" purity="2.2739423811435699e-01" nType="0">
          <Node pos="l" depth="2" NCoef="0" IVar="4" Cut="1.0124189758300781e+02" cType="1" res="-1.6594121232628822e-02" rms="3.0969610810279846e-01" purity="2.8674343228340149e-01" nType="0">
            <Node pos="l" depth="3" NCoef="0" IVar="5" Cut="5.5516845703125000e+01" cType="1" res="-3.7226725369691849e-02" rms="3.0031031370162964e-01" purity="1.9498568773269653e-01" nType="0">
              <Node pos="l" depth="4" NCoef="0" IVar="-1" Cut="0.0000000000000000e+00" cType="1" res="-3.0992439016699791e-02" rms="2.9310637712478638e-01" purity="1.2597587704658508e-01" nType="-99"/>
              <Node pos="r" depth="4" NCoef="0" IVar="5" Cut="9.1193893432617188e+01" cType="1" res="-3.0340008437633514e-02" rms="3.0074071884155273e-01" purity="2.0513361692428589e-01" nType="0">
                <Node pos="l" depth="5" NCoef="0" IVar="-1" Cut="0.0000000000000000e+00" cType="1" res="-1.0670511983335018e-03" rms="3.5235786437988281e-01" purity="3.3549529314041138e-01" nType="-99"/>
                <Node pos="r" depth="5" NCoef="0" IVar="-1" Cut="0.0000000000000000e+00" cType="1" res="-2.4046421051025391e-02" rms="2.5578314065933228e-01" purity="1.1185731738805771e-01" nType="-99"/>
              </Node>
            </Node>
            <Node pos="r" depth="3" NCoef="0" IVar="8" Cut="2.1295067667961121e-01" cType="1" res="1.6197644174098969e-02" rms="3.2133981585502625e-01" purity="4.3257573246955872e-01" nType="0">
              <Node pos="l" depth="4" NCoef="0" IVar="-1" Cut="0.0000000000000000e+00" cType="1" res="-1.6868265345692635e-02" rms="2.9193940758705139e-01" purity="2.0238603651523590e-01" nType="-99"/>
              <Node pos="r" depth="4" NCoef="0" IVar="1" Cut="1.0975610017776489e+00" cType="1" res="3.7081688642501831e-02" rms="3.2868489623069763e-01" purity="5.1470363140106201e-01" nType="0">
                <Node pos="l" depth="5" NCoef="0" IVar="-1" Cut="0.0000000000000000e+00" cType="1" res="-4.4209072366356850e-03" rms="2.9779505729675293e-01" purity="1.5736648440361023e-01" nType="-99"/>
                <Node pos="r" depth="5" NCoef="0" IVar="-1" Cut="0.0000000000000000e+00" cType="1" res="1.8334913998842239e-02" rms="3.4084954857826233e-01" purity="6.9680488109588623e-01" nType="-99"/>
              </Node>
            </Node>
          </Node>
          <Node pos="r" depth="2" NCoef="0" IVar="9" Cut="3.1850355863571167e-01" cType="1" res="-5.1152020692825317e-02" rms="2.3613400757312775e-01" purity="1.0622369498014450e-01" nType="0">
            <Node pos="l" depth="3" NCoef="0" IVar="1" Cut="2.0731706619262695e+00" cType="1" res="-5.8606218546628952e-02" rms="1.9221700727939606e-01" purity="5.9905048459768295e-02" nType="0">
              <Node pos="l" depth="4" NCoef="0" IVar="5" Cut="8.8005279541015625e+01" cType="1" res="-4.7969330102205276e-02" rms="1.5995244681835175e-01" purity="3.3144295215606689e-02" nType="0">
                <Node pos="l" depth="5" NCoef="0" IVar="-1" Cut="0.0000000000000000e+00" cType="1" res="-3.6323867738246918e-02" rms="1.7329601943492889e-01" purity="3.9206683635711670e-02" nType="-99"/>
                <Node pos="r" depth="5" NCoef="0" IVar="-1" Cut="0.0000000000000000e+00" cType="1" res="-3.3525731414556503e-02" rms="1.4943657815456390e-01" purity="2.8892869129776955e-02" nType="-99"/>
              </Node>
              <Node pos="r" depth="4" NCoef="0" IVar="-1" Cut="0.0000000000000000e+00" cType="1" res="-3.3221308141946793e-02" rms="2.3560370504856110e-01" purity="1.0481879860162735e-01" nType="-99"/>
            </Node>
            <Node pos="r" depth="3" NCoef="0" IVar="6" Cut="1.8389737606048584e+00" cType="1" res="-3.6278672516345978e-02" rms="3.0489754676818848e-01" purity="1.9864320755004883e-01" nType="0">
              <Node pos="l" depth="4" NCoef="0" IVar="-1" Cut="0.0000000000000000e+00" cType="1" res="-2.1320212632417679e-02" rms="2.8565171360969543e-01" purity="1.2917390465736389e-01" nType="-99"/>
              <Node pos="r" depth="4" NCoef="0" IVar="-1" Cut="0.0000000000000000e+00" cType="1" res="-7.4271317571401596e-03" rms="3.2394975423812866e-01" purity="2.7460473775863647e-01" nType="-99"/>
            </Node>
          </Node>
        </Node>
        <Node pos="r" depth="1" NCoef="0" IVar="8" Cut="1.2483438104391098e-01" cType="1" res="1.7046729102730751e-02" rms="3.3282232284545898e-01" purity="6.7026484012603760e-01" nType="0">
          <Node pos="l" depth="2" NCoef="0" IVar="-1" Cut="0.0000000000000000e+00" cType="1" res="-2.2279027849435806e-02" rms="3.4528943896293640e-01" purity="3.1243637204170227e-01" nType="-99"/>
          <Node pos="r" depth="2" NCoef="0" IVar="9" Cut="4.2794266343116760e-01" cType="1" res="2.2424032911658287e-02" rms="3.3128857612609863e-01" purity="6.9205152988433838e-01" nType="0">
            <Node pos="l" depth="3" NCoef="0" IVar="6" Cut="1.3026111125946045e+00" cType="1" res="7.4290158227086067e-03" rms="3.4450450539588928e-01" purity="6.3259851932525635e-01" nType="0">
              <Node pos="l" depth="4" NCoef="0" IVar="7" Cut="8.4542530775070190e-01" cType="1" res="-4.4597275555133820e-02" rms="3.7429037690162659e-01" purity="3.8750565052032471e-01" nType="0">
                <Node pos="l" depth="5" NCoef="0" IVar="-1" Cut="0.0000000000000000e+00" cType="1" res="-2.3492822423577309e-02" rms="3.9444458484649658e-01" purity="3.5338923335075378e-01" nType="-99"/>
                <Node pos="r" depth="5" NCoef="0" IVar="-1" Cut="0.0000000000000000e+00" cType="1" res="-8.9735211804509163e-03" rms="3.6368793249130249e-01" purity="4.0302166342735291e-01" nType="-99"/>
              </Node>
              <Node pos="r" depth="4" NCoef="0" IVar="7" Cut="2.3104813098907471e+00" cType="1" res="1.8797229975461960e-02" rms="3.3657750487327576e-01" purity="6.8615347146987915e-01" nType="0">
                <Node pos="l" depth="5" NCoef="0" IVar="-1" Cut="0.0000000000000000e+00" cType="1" res="1.8514440162107348e-03" rms="3.4114691615104675e-01" purity="6.7909073829650879e-01" nType="-99"/>
                <Node pos="r" depth="5" NCoef="0" IVar="-1" Cut="0.0000000000000000e+00" cType="1" res="2.3893238976597786e-02" rms="3.1161314249038696e-01" purity="7.1464878320693970e-01" nType="-99"/>
              </Node>
            </Node>
            <Node pos="r" depth="3" NCoef="0" IVar="6" Cut="8.4287387132644653e-01" cType="1" res="5.2017197012901306e-02" rms="3.0134123563766479e-01" purity="8.0938410758972168e-01" nType="0">
              <Node pos="l" depth="4" NCoef="0" IVar="-1" Cut="0.0000000000000000e+00" cType="1" res="4.6903560869395733e-03" rms="3.5571849346160889e-01" purity="6.9409275054931641e-01" nType="-99"/>
              <Node pos="r" depth="4" NCoef="0" IVar="8" Cut="2.8563496470451355e-01" cType="1" res="5.9965211898088455e-02" rms="2.8783881664276123e-01" purity="8.3389174938201904e-01" nType="0">
                <Node pos="l" depth="5" NCoef="0" IVar="-1" Cut="0.0000000000000000e+00" cType="1" res="1.0700852610170841e-02" rms="3.3285948634147644e-01" purity="7.3185378313064575e-01" nType="-99"/>
                <Node pos="r" depth="5" NCoef="0" IVar="-1" Cut="0.0000000000000000e+00" cType="1" res="2.9999293386936188e-02" rms="2.6192429661750793e-01" purity="8.8363134860992432e-01" nType="-99"/>
              </Node>
            </Node>
          </Node>
        </Node>
      </Node>
    </BinaryTree>
    <BinaryTree type="DecisionTree" boostWeight="1.0000000000000000e+00" itree="36">
      <Node pos="s" depth="0" NCoef="0" IVar="0" Cut="1.0975610017776489e+00" cType="1" res="-5.0636904779821634e-04" rms="3.1570914387702942e-01" purity="4.9969115853309631e-01" nType="0">
        <Node pos="l" depth="1" NCoef="0" IVar="9" Cut="3.5823425650596619e-01" cType="1" res="0.0000000000000000e+00" rms="0.0000000000000000e+00" purity="1.8135856091976166e-01" nType="0">
          <Node pos="l" depth="2" NCoef="0" IVar="5" Cut="6.2584239959716797e+01" cType="1" res="0.0000000000000000e+00" rms="0.0000000000000000e+00" purity="1.2000785022974014e-01" nType="0">
            <Node pos="l" depth="3" NCoef="0" IVar="-1" Cut="0.0000000000000000e+00" cType="1" res="-3.2340809702873230e-02" rms="2.3500753939151764e-01" purity="7.6388597488403320e-02" nType="-99"/>
            <Node pos="r" depth="3" NCoef="0" IVar="5" Cut="8.6344146728515625e+01" cType="1" res="0.0000000000000000e+00" rms="0.0000000000000000e+00" purity="1.2866902351379395e-01" nType="0">
              <Node pos="l" depth="4" NCoef="0" IVar="6" Cut="2.1454784870147705e+00" cType="1" res="0.0000000000000000e+00" rms="0.0000000000000000e+00" purity="2.4080616235733032e-01" nType="0">
                <Node pos="l" depth="5" NCoef="0" IVar="-1" Cut="0.0000000000000000e+00" cType="1" res="-1.3702515512704849e-02" rms="2.8279182314872742e-01" purity="1.4532482624053955e-01" nType="-99"/>
                <Node pos="r" depth="5" NCoef="0" IVar="-1" Cut="0.0000000000000000e+00" cType="1" res="5.2837119437754154e-03" rms="3.3791252970695496e-01" purity="3.5350930690765381e-01" nType="-99"/>
              </Node>
              <Node pos="r" depth="4" NCoef="0" IVar="4" Cut="1.0545610046386719e+02" cType="1" res="0.0000000000000000e+00" rms="0.0000000000000000e+00" purity="8.3288162946701050e-02" nType="0">
                <Node pos="l" depth="5" NCoef="0" IVar="-1" Cut="0.0000000000000000e+00" cType="1" res="-3.1752496957778931e-02" rms="2.0753145217895508e-01" purity="6.6761218011379242e-02" nType="-99"/>
                <Node pos="r" depth="5" NCoef="0" IVar="-1" Cut="0.0000000000000000e+00" cType="1" res="-2.1153487265110016e-02" rms="2.1878312528133392e-01" purity="9.4256959855556488e-02" nType="-99"/>
              </Node>
            </Node>
          </Node>
          <Node pos="r" depth="2" NCoef="0" IVar="6" Cut="1.9156036376953125e+00" cType="1" res="0.0000000000000000e+00" rms="0.0000000000000000e+00" purity="2.7458870410919189e-01" nType="0">
            <Node pos="l" depth="3" NCoef="0" IVar="9" Cut="5.7944840192794800e-01" cType="1" res="0.0000000000000000e+00" rms="0.0000000000000000e+00" purity="1.9167733192443848e-01" nType="0">
              <Node pos="l" depth="4" NCoef="0" IVar="6" Cut="1.0278782844543457e+00" cType="1" res="0.0000000000000000e+00" rms="0.0000000000000000e+00" purity="1.6895467042922974e-01" nType="0">
                <Node pos="l" depth="5" NCoef="0" IVar="-1" Cut="0.0000000000000000e+00" cType="1" res="-2.5361722335219383e-02" rms="2.9406851530075073e-01" purity="1.2727162241935730e-01" nType="-99"/>
                <Node pos="r" depth="5" NCoef="0" IVar="-1" Cut="0.0000000000000000e+00" cType="1" res="-1.3595135882496834e-02" rms="3.0531194806098938e-01" purity="2.0894803106784821e-01" nType="-99"/>
              </Node>
              <Node pos="r" depth="4" NCoef="0" IVar="-1" Cut="0.0000000000000000e+00" cType="1" res="-5.9886421076953411e-03" rms="3.2584536075592041e-01" purity="2.2373895347118378e-01" nType="-99"/>
            </Node>
            <Node pos="r" depth="3" NCoef="0" IVar="8" Cut="3.0616310238838196e-01" cType="1" res="0.0000000000000000e+00" rms="0.0000000000000000e+00" purity="3.7163585424423218e-01" nType="0">
              <Node pos="l" depth="4" NCoef="0" IVar="-1" Cut="0.0000000000000000e+00" cType="1" res="-7.1658669039607048e-03" rms="3.2752788066864014e-01" purity="2.3024350404739380e-01" nType="-99"/>
              <Node pos="r" depth="4" NCoef="0" IVar="-1" Cut="0.0000000000000000e+00" cType="1" res="2.1167920902371407e-02" rms="3.4943103790283203e-01" purity="5.6114983558654785e-01" nType="-99"/>
            </Node>
          </Node>
        </Node>
        <Node pos="r" depth="1" NCoef="0" IVar="4" Cut="1.4612385559082031e+02" cType="1" res="1.3291017152369022e-02" rms="3.3119249343872070e-01" purity="6.5940904617309570e-01" nType="0">
          <Node pos="l" depth="2" NCoef="0" IVar="4" Cut="9.4326255798339844e+01" cType="1" res="2.3559715598821640e-02" rms="3.2258152961730957e-01" purity="7.2698044776916504e-01" nType="0">
            <Node pos="l" depth="3" NCoef="0" IVar="4" Cut="4.8924865722656250e+01" cType="1" res="-1.6151061281561852e-02" rms="3.7664192914962769e-01" purity="5.4082417488098145e-01" nType="0">
              <Node pos="l" depth="4" NCoef="0" IVar="-1" Cut="0.0000000000000000e+00" cType="1" res="-2.4556770920753479e-02" rms="3.9168024063110352e-01" purity="2.9587465524673462e-01" nType="-99"/>
              <Node pos="r" depth="4" NCoef="0" IVar="5" Cut="6.3181228637695312e+01" cType="1" res="-4.5724362134933472e-03" rms="3.7295064330101013e-01" purity="5.7782685756683350e-01" nType="0">
                <Node pos="l" depth="5" NCoef="0" IVar="-1" Cut="0.0000000000000000e+00" cType="1" res="-1.6107572242617607e-02" rms="4.1914993524551392e-01" purity="4.9362364411354065e-01" nType="-99"/>
                <Node pos="r" depth="5" NCoef="0" IVar="-1" Cut="0.0000000000000000e+00" cType="1" res="2.1427315659821033e-03" rms="3.6176127195358276e-01" purity="5.9496939182281494e-01" nType="-99"/>
              </Node>
            </Node>
            <Node pos="r" depth="3" NCoef="0" IVar="6" Cut="1.9156044721603394e+00" cType="1" res="3.9298132061958313e-02" rms="2.9699313640594482e-01" purity="8.0075901746749878e-01" nType="0">
              <Node pos="l" depth="4" NCoef="0" IVar="5" Cut="1.1331681060791016e+02" cType="1" res="1.8517090007662773e-02" rms="3.3393433690071106e-01" purity="7.0346367359161377e-01" nType="0">
                <Node pos="l" depth="5" NCoef="0" IVar="-1" Cut="0.0000000000000000e+00" cType="1" res="1.1157741770148277e-02" rms="3.2315135002136230e-01" purity="7.6551526784896851e-01" nType="-99"/>
                <Node pos="r" depth="5" NCoef="0" IVar="-1" Cut="0.0000000000000000e+00" cType="1" res="-1.3753457926213741e-02" rms="3.8018074631690979e-01" purity="3.6947059631347656e-01" nType="-99"/>
              </Node>
              <Node pos="r" depth="4" NCoef="0" IVar="7" Cut="1.7965565919876099e+00" cType="1" res="5.0177298486232758e-02" rms="2.7506151795387268e-01" purity="8.5169452428817749e-01" nType="0">
                <Node pos="l" depth="5" NCoef="0" IVar="-1" Cut="0.0000000000000000e+00" cType="1" res="1.8470967188477516e-02" rms="2.7506178617477417e-01" purity="8.5657525062561035e-01" nType="-99"/>
                <Node pos="r" depth="5" NCoef="0" IVar="-1" Cut="0.0000000000000000e+00" cType="1" res="2.7758605778217316e-02" rms="2.7378758788108826e-01" purity="8.3906650543212891e-01" nType="-99"/>
              </Node>
            </Node>
          </Node>
          <Node pos="r" depth="2" NCoef="0" IVar="8" Cut="2.4966035783290863e-01" cType="1" res="-3.4537106752395630e-02" rms="3.6487081646919250e-01" purity="3.4468409419059753e-01" nType="0">
            <Node pos="l" depth="3" NCoef="0" IVar="-1" Cut="0.0000000000000000e+00" cType="1" res="-2.8311491012573242e-02" rms="3.2378780841827393e-01" purity="1.8024076521396637e-01" nType="-99"/>
            <Node pos="r" depth="3" NCoef="0" IVar="9" Cut="2.8304886817932129e-01" cType="1" res="-7.9612741246819496e-03" rms="3.8036915659904480e-01" purity="4.2439076304435730e-01" nType="0">
              <Node pos="l" depth="4" NCoef="0" IVar="4" Cut="1.8666088867187500e+02" cType="1" res="-4.7547321766614914e-02" rms="3.6067709326744080e-01" purity="2.3428390920162201e-01" nType="0">
                <Node pos="l" depth="5" NCoef="0" IVar="-1" Cut="0.0000000000000000e+00" cType="1" res="-7.5372201390564442e-03" rms="3.8272440433502197e-01" purity="2.9014021158218384e-01" nType="-99"/>
                <Node pos="r" depth="5" NCoef="0" IVar="-1" Cut="0.0000000000000000e+00" cType="1" res="-2.1563021466135979e-02" rms="3.3603549003601074e-01" purity="1.7892478406429291e-01" nType="-99"/>
              </Node>
              <Node pos="r" depth="4" NCoef="0" IVar="-1" Cut="0.0000000000000000e+00" cType="1" res="8.6961770430207253e-03" rms="3.9578282833099365e-01" purity="6.2427765130996704e-01" nType="-99"/>
            </Node>
          </Node>
        </Node>
      </Node>
    </BinaryTree>
    <BinaryTree type="DecisionTree" boostWeight="1.0000000000000000e+00" itree="37">
      <Node pos="s" depth="0" NCoef="0" IVar="8" Cut="2.3826101422309875e-01" cType="1" res="8.9509383542463183e-04" rms="3.1638178229331970e-01" purity="5.0071001052856445e-01" nType="0">
        <Node pos="l" depth="1" NCoef="0" IVar="8" Cut="7.5631149113178253e-02" cType="1" res="-3.0106676742434502e-02" rms="3.0307948589324951e-01" purity="3.2323679327964783e-01" nType="0">
          <Node pos="l" depth="2" NCoef="0" IVar="-1" Cut="0.0000000000000000e+00" cType="1" res="-4.4888522475957870e-02" rms="2.3860590159893036e-01" purity="9.0668387711048126e-02" nType="-99"/>
          <Node pos="r" depth="2" NCoef="0" IVar="7" Cut="2.9697165489196777e+00" cType="1" res="-2.1686155349016190e-02" rms="3.0910837650299072e-01" purity="3.5209226608276367e-01" nType="0">
            <Node pos="l" depth="3" NCoef="0" IVar="9" Cut="3.4909224510192871e-01" cType="1" res="-3.8630958646535873e-02" rms="3.0846673250198364e-01" purity="3.3331233263015747e-01" nType="0">
              <Node pos="l" depth="4" NCoef="0" IVar="7" Cut="2.4626865386962891e+00" cType="1" res="-7.0139192044734955e-02" rms="2.7673971652984619e-01" purity="2.1048739552497864e-01" nType="0">
                <Node pos="l" depth="5" NCoef="0" IVar="-1" Cut="0.0000000000000000e+00" cType="1" res="-3.9348412305116653e-02" rms="2.6844009757041931e-01" purity="1.3902126252651215e-01" nType="-99"/>
                <Node pos="r" depth="5" NCoef="0" IVar="-1" Cut="0.0000000000000000e+00" cType="1" res="-8.7813092395663261e-03" rms="2.9175657033920288e-01" purity="3.9458054304122925e-01" nType="-99"/>
              </Node>
              <Node pos="r" depth="4" NCoef="0" IVar="5" Cut="1.0979756164550781e+02" cType="1" res="-1.3577835634350777e-02" rms="3.2938995957374573e-01" purity="4.3097403645515442e-01" nType="0">
                <Node pos="l" depth="5" NCoef="0" IVar="-1" Cut="0.0000000000000000e+00" cType="1" res="1.2808283790946007e-03" rms="3.4238019585609436e-01" purity="5.3621351718902588e-01" nType="-99"/>
                <Node pos="r" depth="5" NCoef="0" IVar="-1" Cut="0.0000000000000000e+00" cType="1" res="-2.1432280540466309e-02" rms="2.9480886459350586e-01" purity="1.9652155041694641e-01" nType="-99"/>
              </Node>
            </Node>
            <Node pos="r" depth="3" NCoef="0" IVar="9" Cut="1.5524832904338837e-01" cType="1" res="4.4167932122945786e-02" rms="3.0271324515342712e-01" purity="4.2507848143577576e-01" nType="0">
              <Node pos="l" depth="4" NCoef="0" IVar="-1" Cut="0.0000000000000000e+00" cType="1" res="-3.4878405276685953e-03" rms="2.8089866042137146e-01" purity="2.5503316521644592e-01" nType="-99"/>
              <Node pos="r" depth="4" NCoef="0" IVar="-1" Cut="0.0000000000000000e+00" cType="1" res="3.0227746814489365e-02" rms="3.1266695261001587e-01" purity="5.5997186899185181e-01" nType="-99"/>
            </Node>
          </Node>
        </Node>
        <Node pos="r" depth="1" NCoef="0" IVar="9" Cut="2.2800426185131073e-01" cType="1" res="1.2716523371636868e-02" rms="3.2052040100097656e-01" purity="5.6838321685791016e-01" nType="0">
          <Node pos="l" depth="2" NCoef="0" IVar="9" Cut="7.7996574342250824e-02" cType="1" res="-2.4624681100249290e-02" rms="3.2375341653823853e-01" purity="2.9782959818840027e-01" nType="0">
            <Node pos="l" depth="3" NCoef="0" IVar="-1" Cut="0.0000000000000000e+00" cType="1" res="-3.8230352103710175e-02" rms="2.4931837618350983e-01" purity="9.7178854048252106e-02" nType="-99"/>
            <Node pos="r" depth="3" NCoef="0" IVar="7" Cut="2.6035811901092529e+00" cType="1" res="-1.4553287066519260e-02" rms="3.3300763368606567e-01" purity="3.2988262176513672e-01" nType="0">
              <Node pos="l" depth="4" NCoef="0" IVar="8" Cut="3.4998783469200134e-01" cType="1" res="-3.0016830191016197e-02" rms="3.3331614732742310e-01" purity="2.9445940256118774e-01" nType="0">
                <Node pos="l" depth="5" NCoef="0" IVar="-1" Cut="0.0000000000000000e+00" cType="1" res="-2.3448824882507324e-02" rms="2.9339468479156494e-01" purity="2.0747432112693787e-01" nType="-99"/>
                <Node pos="r" depth="5" NCoef="0" IVar="-1" Cut="0.0000000000000000e+00" cType="1" res="-7.3102819733321667e-03" rms="3.4528994560241699e-01" purity="3.2385122776031494e-01" nType="-99"/>
              </Node>
              <Node pos="r" depth="4" NCoef="0" IVar="-1" Cut="0.0000000000000000e+00" cType="1" res="2.5114273652434349e-02" rms="3.1771060824394226e-01" purity="5.2785497903823853e-01" nType="-99"/>
            </Node>
          </Node>
          <Node pos="r" depth="2" NCoef="0" IVar="4" Cut="5.2694210052490234e+01" cType="1" res="2.5214198976755142e-02" rms="3.1845456361770630e-01" purity="6.5893441438674927e-01" nType="0">
            <Node pos="l" depth="3" NCoef="0" IVar="-1" Cut="0.0000000000000000e+00" cType="1" res="-1.6922634094953537e-02" rms="3.6560216546058655e-01" purity="2.5249886512756348e-01" nType="-99"/>
            <Node pos="r" depth="3" NCoef="0" IVar="6" Cut="1.2259869575500488e+00" cType="1" res="3.1178638339042664e-02" rms="3.1386065483093262e-01" purity="6.8904006481170654e-01" nType="0">
              <Node pos="l" depth="4" NCoef="0" IVar="9" Cut="5.5294454097747803e-01" cType="1" res="-7.1485615335404873e-03" rms="3.5213381052017212e-01" purity="4.9969881772994995e-01" nType="0">
                <Node pos="l" depth="5" NCoef="0" IVar="-1" Cut="0.0000000000000000e+00" cType="1" res="-1.0074832476675510e-02" rms="3.6034744977951050e-01" purity="4.1182321310043335e-01" nType="-99"/>
                <Node pos="r" depth="5" NCoef="0" IVar="-1" Cut="0.0000000000000000e+00" cType="1" res="1.0908428579568863e-02" rms="3.3415579795837402e-01" purity="6.4871442317962646e-01" nType="-99"/>
              </Node>
              <Node pos="r" depth="4" NCoef="0" IVar="3" Cut="4.0243902206420898e+00" cType="1" res="4.2340900748968124e-02" rms="3.0088633298873901e-01" purity="7.4418306350708008e-01" nType="0">
                <Node pos="l" depth="5" NCoef="0" IVar="-1" Cut="0.0000000000000000e+00" cType="1" res="1.9659349694848061e-02" rms="2.9217743873596191e-01" purity="7.7896595001220703e-01" nType="-99"/>
                <Node pos="r" depth="5" NCoef="0" IVar="-1" Cut="0.0000000000000000e+00" cType="1" res="-5.5006062611937523e-03" rms="3.6148691177368164e-01" purity="4.4663903117179871e-01" nType="-99"/>
              </Node>
            </Node>
          </Node>
        </Node>
      </Node>
    </BinaryTree>
    <BinaryTree type="DecisionTree" boostWeight="1.0000000000000000e+00" itree="38">
      <Node pos="s" depth="0" NCoef="0" IVar="2" Cut="2.0731706619262695e+00" cType="1" res="8.3402858581393957e-04" rms="3.1580403447151184e-01" purity="5.0012654066085815e-01" nType="0">
        <Node pos="l" depth="1" NCoef="0" IVar="8" Cut="1.2464582920074463e-01" cType="1" res="1.1012366041541100e-02" rms="3.2864999771118164e-01" purity="6.0487622022628784e-01" nType="0">
          <Node pos="l" depth="2" NCoef="0" IVar="8" Cut="9.1237619519233704e-02" cType="1" res="-6.1189886182546616e-02" rms="3.1990361213684082e-01" purity="2.4348093569278717e-01" nType="0">
            <Node pos="l" depth="3" NCoef="0" IVar="-1" Cut="0.0000000000000000e+00" cType="1" res="-3.4981802105903625e-02" rms="2.9744163155555725e-01" purity="1.6516821086406708e-01" nType="-99"/>
            <Node pos="r" depth="3" NCoef="0" IVar="-1" Cut="0.0000000000000000e+00" cType="1" res="-8.6014159023761749e-03" rms="3.3956757187843323e-01" purity="3.3034038543701172e-01" nType="-99"/>
          </Node>
          <Node pos="r" depth="2" NCoef="0" IVar="9" Cut="3.4939858317375183e-01" cType="1" res="1.6285814344882965e-02" rms="3.2865872979164124e-01" purity="6.3127148151397705e-01" nType="0">
            <Node pos="l" depth="3" NCoef="0" IVar="7" Cut="2.1418173313140869e+00" cType="1" res="-2.7475801762193441e-03" rms="3.3942502737045288e-01" purity="5.1041030883789062e-01" nType="0">
              <Node pos="l" depth="4" NCoef="0" IVar="8" Cut="3.6761486530303955e-01" cType="1" res="-2.0408645272254944e-02" rms="3.4988039731979370e-01" purity="4.8952293395996094e-01" nType="0">
                <Node pos="l" depth="5" NCoef="0" IVar="-1" Cut="0.0000000000000000e+00" cType="1" res="-2.5117406621575356e-02" rms="3.3213314414024353e-01" purity="3.5205993056297302e-01" nType="-99"/>
                <Node pos="r" depth="5" NCoef="0" IVar="-1" Cut="0.0000000000000000e+00" cType="1" res="2.0820116624236107e-03" rms="3.5621538758277893e-01" purity="5.6333488225936890e-01" nType="-99"/>
              </Node>
              <Node pos="r" depth="4" NCoef="0" IVar="9" Cut="1.0240477323532104e-01" cType="1" res="3.5954833030700684e-02" rms="3.1182470917701721e-01" purity="5.5618274211883545e-01" nType="0">
                <Node pos="l" depth="5" NCoef="0" IVar="-1" Cut="0.0000000000000000e+00" cType="1" res="-2.6907918974757195e-02" rms="2.9512393474578857e-01" purity="1.5124712884426117e-01" nType="-99"/>
                <Node pos="r" depth="5" NCoef="0" IVar="-1" Cut="0.0000000000000000e+00" cType="1" res="2.1053154021501541e-02" rms="3.1040018796920776e-01" purity="6.4940905570983887e-01" nType="-99"/>
              </Node>
            </Node>
            <Node pos="r" depth="3" NCoef="0" IVar="6" Cut="9.9611443281173706e-01" cType="1" res="3.5908233374357224e-02" rms="3.1597891449928284e-01" purity="7.5587290525436401e-01" nType="0">
              <Node pos="l" depth="4" NCoef="0" IVar="9" Cut="5.6516349315643311e-01" cType="1" res="-2.5545801036059856e-03" rms="3.6338159441947937e-01" purity="5.8109748363494873e-01" nType="0">
                <Node pos="l" depth="5" NCoef="0" IVar="-1" Cut="0.0000000000000000e+00" cType="1" res="-1.3454313389956951e-02" rms="3.6681300401687622e-01" purity="4.9332588911056519e-01" nType="-99"/>
                <Node pos="r" depth="5" NCoef="0" IVar="-1" Cut="0.0000000000000000e+00" cType="1" res="1.1362170800566673e-02" rms="3.5613277554512024e-01" purity="6.6174852848052979e-01" nType="-99"/>
              </Node>
              <Node pos="r" depth="4" NCoef="0" IVar="8" Cut="3.7968114018440247e-01" cType="1" res="4.4961713254451752e-02" rms="3.0303850769996643e-01" purity="7.9701197147369385e-01" nType="0">
                <Node pos="l" depth="5" NCoef="0" IVar="-1" Cut="0.0000000000000000e+00" cType="1" res="9.4963675364851952e-03" rms="3.3097293972969055e-01" purity="7.3383218050003052e-01" nType="-99"/>
                <Node pos="r" depth="5" NCoef="0" IVar="-1" Cut="0.0000000000000000e+00" cType="1" res="2.8909014537930489e-02" rms="2.6116639375686646e-01" purity="8.7767910957336426e-01" nType="-99"/>
              </Node>
            </Node>
          </Node>
        </Node>
        <Node pos="r" depth="1" NCoef="0" IVar="3" Cut="2.0731706619262695e+00" cType="1" res="-3.1299542635679245e-02" rms="2.6876837015151978e-01" purity="1.6942621767520905e-01" nType="0">
          <Node pos="l" depth="2" NCoef="0" IVar="9" Cut="3.6038911342620850e-01" cType="1" res="-2.3734183982014656e-02" rms="2.8517642617225647e-01" purity="2.0472520589828491e-01" nType="0">
            <Node pos="l" depth="3" NCoef="0" IVar="5" Cut="9.5589927673339844e+01" cType="1" res="-3.6972366273403168e-02" rms="2.6107302308082581e-01" purity="1.4388525485992432e-01" nType="0">
              <Node pos="l" depth="4" NCoef="0" IVar="5" Cut="6.7487152099609375e+01" cType="1" res="-2.1997898817062378e-02" rms="2.9890468716621399e-01" purity="2.1361972391605377e-01" nType="0">
                <Node pos="l" depth="5" NCoef="0" IVar="-1" Cut="0.0000000000000000e+00" cType="1" res="-2.1341877058148384e-02" rms="2.8105524182319641e-01" purity="1.4275749027729034e-01" nType="-99"/>
                <Node pos="r" depth="5" NCoef="0" IVar="-1" Cut="0.0000000000000000e+00" cType="1" res="-1.8529504304751754e-03" rms="3.0891340970993042e-01" purity="2.6045608520507812e-01" nType="-99"/>
              </Node>
              <Node pos="r" depth="4" NCoef="0" IVar="0" Cut="1.0975610017776489e+00" cType="1" res="-5.1659479737281799e-02" rms="2.1666826307773590e-01" purity="7.5488992035388947e-02" nType="0">
                <Node pos="l" depth="5" NCoef="0" IVar="-1" Cut="0.0000000000000000e+00" cType="1" res="-3.7572365254163742e-02" rms="1.3428509235382080e-01" purity="2.0997738465666771e-02" nType="-99"/>
                <Node pos="r" depth="5" NCoef="0" IVar="-1" Cut="0.0000000000000000e+00" cType="1" res="-2.5846052914857864e-02" rms="2.8345450758934021e-01" purity="1.3895496726036072e-01" nType="-99"/>
              </Node>
            </Node>
            <Node pos="r" depth="3" NCoef="0" IVar="0" Cut="1.0975610017776489e+00" cType="1" res="-2.2164862602949142e-03" rms="3.1934127211570740e-01" purity="3.0361610651016235e-01" nType="0">
              <Node pos="l" depth="4" NCoef="0" IVar="-1" Cut="0.0000000000000000e+00" cType="1" res="-2.1105021238327026e-02" rms="2.3691233992576599e-01" purity="9.4304546713829041e-02" nType="-99"/>
              <Node pos="r" depth="4" NCoef="0" IVar="-1" Cut="0.0000000000000000e+00" cType="1" res="9.1964304447174072e-03" rms="3.7062740325927734e-01" purity="4.7578299045562744e-01" nType="-99"/>
            </Node>
          </Node>
          <Node pos="r" depth="2" NCoef="0" IVar="0" Cut="1.0975610017776489e+00" cType="1" res="-5.4023746401071548e-02" rms="2.1034948527812958e-01" purity="6.3398025929927826e-02" nType="0">
            <Node pos="l" depth="3" NCoef="0" IVar="-1" Cut="0.0000000000000000e+00" cType="1" res="-3.3164795488119125e-02" rms="1.5942123532295227e-01" purity="2.9768139123916626e-02" nType="-99"/>
            <Node pos="r" depth="3" NCoef="0" IVar="-1" Cut="0.0000000000000000e+00" cType="1" res="-3.1116394326090813e-02" rms="2.7918457984924316e-01" purity="1.2526036798954010e-01" nType="-99"/>
          </Node>
        </Node>
      </Node>
    </BinaryTree>
    <BinaryTree type="DecisionTree" boostWeight="1.0000000000000000e+00" itree="39">
      <Node pos="s" depth="0" NCoef="0" IVar="2" Cut="4.0243902206420898e+00" cType="1" res="1.1630762601271272e-03" rms="3.1454870104789734e-01" purity="5.0115299224853516e-01" nType="0">
        <Node pos="l" depth="1" NCoef="0" IVar="5" Cut="5.5368286132812500e+01" cType="1" res="9.0301008895039558e-03" rms="3.2805472612380981e-01" purity="5.8449143171310425e-01" nType="0">
          <Node pos="l" depth="2" NCoef="0" IVar="8" Cut="4.9833339452743530e-01" cType="1" res="-5.0111223012208939e-02" rms="3.7205690145492554e-01" purity="4.2702034115791321e-01" nType="0">
            <Node pos="l" depth="3" NCoef="0" IVar="4" Cut="1.0545632934570312e+02" cType="1" res="-6.9379471242427826e-02" rms="3.6158964037895203e-01" purity="3.8689038157463074e-01" nType="0">
              <Node pos="l" depth="4" NCoef="0" IVar="-1" Cut="0.0000000000000000e+00" cType="1" res="-3.1020324677228928e-02" rms="3.7198343873023987e-01" purity="3.4868729114532471e-01" nType="-99"/>
              <Node pos="r" depth="4" NCoef="0" IVar="-1" Cut="0.0000000000000000e+00" cType="1" res="-1.6142167150974274e-02" rms="3.5323953628540039e-01" purity="4.1080677509307861e-01" nType="-99"/>
            </Node>
            <Node pos="r" depth="3" NCoef="0" IVar="-1" Cut="0.0000000000000000e+00" cType="1" res="-4.2164158076047897e-03" rms="3.8830640912055969e-01" purity="5.0198101997375488e-01" nType="-99"/>
          </Node>
          <Node pos="r" depth="2" NCoef="0" IVar="5" Cut="9.3648086547851562e+01" cType="1" res="1.6383312642574310e-02" rms="3.2140424847602844e-01" purity="6.0407024621963501e-01" nType="0">
            <Node pos="l" depth="3" NCoef="0" IVar="3" Cut="4.0243902206420898e+00" cType="1" res="3.5258952528238297e-02" rms="3.1429135799407959e-01" purity="7.2328466176986694e-01" nType="0">
              <Node pos="l" depth="4" NCoef="0" IVar="5" Cut="7.0306671142578125e+01" cType="1" res="4.4601850211620331e-02" rms="3.0917188525199890e-01" purity="7.5876837968826294e-01" nType="0">
                <Node pos="l" depth="5" NCoef="0" IVar="-1" Cut="0.0000000000000000e+00" cType="1" res="1.6565544065088034e-03" rms="3.4781190752983093e-01" purity="6.2930834293365479e-01" nType="-99"/>
                <Node pos="r" depth="5" NCoef="0" IVar="-1" Cut="0.0000000000000000e+00" cType="1" res="2.1649960428476334e-02" rms="2.9632648825645447e-01" purity="7.9549562931060791e-01" nType="-99"/>
              </Node>
              <Node pos="r" depth="4" NCoef="0" IVar="-1" Cut="0.0000000000000000e+00" cType="1" res="-2.6494299992918968e-02" rms="3.5242211818695068e-01" purity="2.6965445280075073e-01" nType="-99"/>
            </Node>
            <Node pos="r" depth="3" NCoef="0" IVar="8" Cut="2.6723363995552063e-01" cType="1" res="-1.0175343602895737e-02" rms="3.2932677865028381e-01" purity="4.3633157014846802e-01" nType="0">
              <Node pos="l" depth="4" NCoef="0" IVar="7" Cut="2.2107300758361816e+00" cType="1" res="-4.4795595109462738e-02" rms="3.1497097015380859e-01" purity="2.6941013336181641e-01" nType="0">
                <Node pos="l" depth="5" NCoef="0" IVar="-1" Cut="0.0000000000000000e+00" cType="1" res="-2.4038055911660194e-02" rms="3.2249647378921509e-01" purity="2.5168308615684509e-01" nType="-99"/>
                <Node pos="r" depth="5" NCoef="0" IVar="-1" Cut="0.0000000000000000e+00" cType="1" res="-5.6192148476839066e-03" rms="3.0023422837257385e-01" purity="2.9730820655822754e-01" nType="-99"/>
              </Node>
              <Node pos="r" depth="4" NCoef="0" IVar="9" Cut="3.5825368762016296e-01" cType="1" res="1.0547623038291931e-02" rms="3.3592525124549866e-01" purity="5.3624731302261353e-01" nType="0">
                <Node pos="l" depth="5" NCoef="0" IVar="-1" Cut="0.0000000000000000e+00" cType="1" res="-6.3336086459457874e-03" rms="3.4809881448745728e-01" purity="3.7323471903800964e-01" nType="-99"/>
                <Node pos="r" depth="5" NCoef="0" IVar="-1" Cut="0.0000000000000000e+00" cType="1" res="1.5849834308028221e-02" rms="3.1724634766578674e-01" purity="7.3209637403488159e-01" nType="-99"/>
              </Node>
            </Node>
          </Node>
        </Node>
        <Node pos="r" depth="1" NCoef="0" IVar="4" Cut="9.3316017150878906e+01" cType="1" res="-3.8712818175554276e-02" rms="2.3031580448150635e-01" purity="7.8732378780841827e-02" nType="0">
          <Node pos="l" depth="2" NCoef="0" IVar="5" Cut="1.0278707885742188e+02" cType="1" res="-5.0565939396619797e-02" rms="1.9591498374938965e-01" purity="4.7290280461311340e-02" nType="0">
            <Node pos="l" depth="3" NCoef="0" IVar="-1" Cut="0.0000000000000000e+00" cType="1" res="-3.0414696782827377e-02" rms="2.2060772776603699e-01" purity="6.0933500528335571e-02" nType="-99"/>
            <Node pos="r" depth="3" NCoef="0" IVar="-1" Cut="0.0000000000000000e+00" cType="1" res="-3.2310001552104950e-02" rms="1.6567362844944000e-01" purity="3.2977223396301270e-02" nType="-99"/>
          </Node>
          <Node pos="r" depth="2" NCoef="0" IVar="4" Cut="1.3917480468750000e+02" cType="1" res="-3.2214321196079254e-02" rms="2.4691084027290344e-01" purity="9.5970563590526581e-02" nType="0">
            <Node pos="l" depth="3" NCoef="0" IVar="0" Cut="1.0975610017776489e+00" cType="1" res="-1.8398653715848923e-02" rms="3.0085846781730652e-01" purity="1.5650694072246552e-01" nType="0">
              <Node pos="l" depth="4" NCoef="0" IVar="-1" Cut="0.0000000000000000e+00" cType="1" res="-2.8538413345813751e-02" rms="1.9043506681919098e-01" purity="4.1351698338985443e-02" nType="-99"/>
              <Node pos="r" depth="4" NCoef="0" IVar="-1" Cut="0.0000000000000000e+00" cType="1" res="1.2704469263553619e-03" rms="3.7876489758491516e-01" purity="2.7107229828834534e-01" nType="-99"/>
            </Node>
            <Node pos="r" depth="3" NCoef="0" IVar="6" Cut="1.4558743238449097e+00" cType="1" res="-4.4992897659540176e-02" rms="1.8246248364448547e-01" purity="3.9978437125682831e-02" nType="0">
              <Node pos="l" depth="4" NCoef="0" IVar="-1" Cut="0.0000000000000000e+00" cType="1" res="-2.3843403905630112e-02" rms="2.0157936215400696e-01" purity="4.6170216053724289e-02" nType="-99"/>
              <Node pos="r" depth="4" NCoef="0" IVar="-1" Cut="0.0000000000000000e+00" cType="1" res="-3.5592094063758850e-02" rms="1.6924156248569489e-01" purity="3.6196637898683548e-02" nType="-99"/>
            </Node>
          </Node>
        </Node>
      </Node>
    </BinaryTree>
    <BinaryTree type="DecisionTree" boostWeight="1.0000000000000000e+00" itree="40">
      <Node pos="s" depth="0" NCoef="0" IVar="6" Cut="2.4519739151000977e+00" cType="1" res="9.0061599621549249e-04" rms="3.1442186236381531e-01" purity="5.0045168399810791e-01" nType="0">
        <Node pos="l" depth="1" NCoef="0" IVar="9" Cut="4.7752058506011963e-01" cType="1" res="-1.2765031307935715e-02" rms="3.1992715597152710e-01" purity="4.0865007042884827e-01" nType="0">
          <Node pos="l" depth="2" NCoef="0" IVar="8" Cut="4.9828308820724487e-01" cType="1" res="-2.2380568087100983e-02" rms="3.1625905632972717e-01" purity="3.5184639692306519e-01" nType="0">
            <Node pos="l" depth="3" NCoef="0" IVar="4" Cut="9.3882064819335938e+01" cType="1" res="-3.1824864447116852e-02" rms="3.0347800254821777e-01" purity="3.1176435947418213e-01" nType="0">
              <Node pos="l" depth="4" NCoef="0" IVar="7" Cut="1.2727800607681274e+00" cType="1" res="-6.0825694352388382e-02" rms="2.9561334848403931e-01" purity="2.0295010507106781e-01" nType="0">
                <Node pos="l" depth="5" NCoef="0" IVar="-1" Cut="0.0000000000000000e+00" cType="1" res="-3.3977963030338287e-02" rms="3.0530777573585510e-01" purity="2.0682658255100250e-01" nType="-99"/>
                <Node pos="r" depth="5" NCoef="0" IVar="-1" Cut="0.0000000000000000e+00" cType="1" res="-1.9265916198492050e-02" rms="2.8846022486686707e-01" purity="2.0056627690792084e-01" nType="-99"/>
              </Node>
              <Node pos="r" depth="4" NCoef="0" IVar="4" Cut="1.3576737976074219e+02" cType="1" res="-2.1216021850705147e-02" rms="3.0561780929565430e-01" purity="3.5156986117362976e-01" nType="0">
                <Node pos="l" depth="5" NCoef="0" IVar="-1" Cut="0.0000000000000000e+00" cType="1" res="-7.6835643267259002e-04" rms="3.2728308439254761e-01" purity="5.2047431468963623e-01" nType="-99"/>
                <Node pos="r" depth="5" NCoef="0" IVar="-1" Cut="0.0000000000000000e+00" cType="1" res="-2.0389553159475327e-02" rms="2.7645841240882874e-01" purity="1.5400265157222748e-01" nType="-99"/>
              </Node>
            </Node>
            <Node pos="r" depth="3" NCoef="0" IVar="8" Cut="9.4776827096939087e-01" cType="1" res="2.4952620733529329e-03" rms="3.4645247459411621e-01" purity="4.5742061734199524e-01" nType="0">
              <Node pos="l" depth="4" NCoef="0" IVar="7" Cut="1.3621878623962402e+00" cType="1" res="1.7284253612160683e-02" rms="3.4523355960845947e-01" purity="4.9465379118919373e-01" nType="0">
                <Node pos="l" depth="5" NCoef="0" IVar="-1" Cut="0.0000000000000000e+00" cType="1" res="1.0375838726758957e-02" rms="3.4815028309822083e-01" purity="5.4993391036987305e-01" nType="-99"/>
                <Node pos="r" depth="5" NCoef="0" IVar="-1" Cut="0.0000000000000000e+00" cType="1" res="-1.0334242135286331e-02" rms="3.3064949512481689e-01" purity="2.9589945077896118e-01" nType="-99"/>
              </Node>
              <Node pos="r" depth="4" NCoef="0" IVar="-1" Cut="0.0000000000000000e+00" cType="1" res="-2.6325667276978493e-02" rms="3.4289312362670898e-01" purity="2.6871326565742493e-01" nType="-99"/>
            </Node>
          </Node>
          <Node pos="r" depth="2" NCoef="0" IVar="5" Cut="1.1331671142578125e+02" cType="1" res="1.3150105252861977e-02" rms="3.2821029424667358e-01" purity="5.6174343824386597e-01" nType="0">
            <Node pos="l" depth="3" NCoef="0" IVar="6" Cut="5.9805291891098022e-01" cType="1" res="2.5012582540512085e-02" rms="3.2917270064353943e-01" purity="6.4514356851577759e-01" nType="0">
              <Node pos="l" depth="4" NCoef="0" IVar="-1" Cut="0.0000000000000000e+00" cType="1" res="-5.9637296944856644e-03" rms="3.4634244441986084e-01" purity="5.3741818666458130e-01" nType="-99"/>
              <Node pos="r" depth="4" NCoef="0" IVar="7" Cut="1.1375699043273926e+00" cType="1" res="3.6413218826055527e-02" rms="3.2347598671913147e-01" purity="6.7395472526550293e-01" nType="0">
                <Node pos="l" depth="5" NCoef="0" IVar="-1" Cut="0.0000000000000000e+00" cType="1" res="1.7392484471201897e-02" rms="3.2112056016921997e-01" purity="7.1443903446197510e-01" nType="-99"/>
                <Node pos="r" depth="5" NCoef="0" IVar="-1" Cut="0.0000000000000000e+00" cType="1" res="-2.1230939310044050e-03" rms="3.2937338948249817e-01" purity="5.1157104969024658e-01" nType="-99"/>
              </Node>
            </Node>
            <Node pos="r" depth="3" NCoef="0" IVar="-1" Cut="0.0000000000000000e+00" cType="1" res="-1.3335026800632477e-02" rms="3.1986966729164124e-01" purity="2.2550080716609955e-01" nType="-99"/>
          </Node>
        </Node>
        <Node pos="r" depth="1" NCoef="0" IVar="9" Cut="2.6202952861785889e-01" cType="1" res="2.2004177793860435e-02" rms="3.0452302098274231e-01" purity="6.4221894741058350e-01" nType="0">
          <Node pos="l" depth="2" NCoef="0" IVar="7" Cut="2.1770892143249512e+00" cType="1" res="-8.7262354791164398e-03" rms="3.2362997531890869e-01" purity="4.5058947801589966e-01" nType="0">
            <Node pos="l" depth="3" NCoef="0" IVar="8" Cut="3.4328410029411316e-01" cType="1" res="-5.3819395601749420e-02" rms="3.3250501751899719e-01" purity="3.5233971476554871e-01" nType="0">
              <Node pos="l" depth="4" NCoef="0" IVar="-1" Cut="0.0000000000000000e+00" cType="1" res="-3.6119244992733002e-02" rms="2.9969081282615662e-01" purity="1.7354048788547516e-01" nType="-99"/>
              <Node pos="r" depth="4" NCoef="0" IVar="9" Cut="1.9210112094879150e-01" cType="1" res="-3.5619482398033142e-02" rms="3.4557726979255676e-01" purity="4.3758141994476318e-01" nType="0">
                <Node pos="l" depth="5" NCoef="0" IVar="-1" Cut="0.0000000000000000e+00" cType="1" res="-2.1723132580518723e-02" rms="3.4036949276924133e-01" purity="2.8036856651306152e-01" nType="-99"/>
                <Node pos="r" depth="5" NCoef="0" IVar="-1" Cut="0.0000000000000000e+00" cType="1" res="-3.6748962011188269e-03" rms="3.4788978099822998e-01" purity="5.6852585077285767e-01" nType="-99"/>
              </Node>
            </Node>
            <Node pos="r" depth="3" NCoef="0" IVar="9" Cut="1.4711622893810272e-01" cType="1" res="4.5846816152334213e-02" rms="3.0372661352157593e-01" purity="5.6949424743652344e-01" nType="0">
              <Node pos="l" depth="4" NCoef="0" IVar="-1" Cut="0.0000000000000000e+00" cType="1" res="-3.9965566247701645e-03" rms="3.1228691339492798e-01" purity="3.4337303042411804e-01" nType="-99"/>
              <Node pos="r" depth="4" NCoef="0" IVar="-1" Cut="0.0000000000000000e+00" cType="1" res="2.7944592759013176e-02" rms="2.9406040906906128e-01" purity="6.9524884223937988e-01" nType="-99"/>
            </Node>
          </Node>
          <Node pos="r" depth="2" NCoef="0" IVar="8" Cut="1.9037589430809021e-01" cType="1" res="3.6166418343782425e-02" rms="2.9422318935394287e-01" purity="7.3053210973739624e-01" nType="0">
            <Node pos="l" depth="3" NCoef="0" IVar="-1" Cut="0.0000000000000000e+00" cType="1" res="-1.2488411739468575e-02" rms="3.3110821247100830e-01" purity="3.9940860867500305e-01" nType="-99"/>
            <Node pos="r" depth="3" NCoef="0" IVar="7" Cut="1.3302530050277710e+00" cType="1" res="4.7370597720146179e-02" rms="2.8639426827430725e-01" purity="7.8250426054000854e-01" nType="0">
              <Node pos="l" depth="4" NCoef="0" IVar="9" Cut="3.9481264352798462e-01" cType="1" res="3.1491726636886597e-02" rms="2.9703715443611145e-01" purity="7.6136565208435059e-01" nType="0">
                <Node pos="l" depth="5" NCoef="0" IVar="-1" Cut="0.0000000000000000e+00" cType="1" res="-3.4123652148991823e-03" rms="3.3183869719505310e-01" purity="6.6197472810745239e-01" nType="-99"/>
                <Node pos="r" depth="5" NCoef="0" IVar="-1" Cut="0.0000000000000000e+00" cType="1" res="2.4296298623085022e-02" rms="2.6988065242767334e-01" purity="8.2370084524154663e-01" nType="-99"/>
              </Node>
              <Node pos="r" depth="4" NCoef="0" IVar="-1" Cut="0.0000000000000000e+00" cType="1" res="3.6044757813215256e-02" rms="2.5321102142333984e-01" purity="8.3583271503448486e-01" nType="-99"/>
            </Node>
          </Node>
        </Node>
      </Node>
    </BinaryTree>
    <BinaryTree type="DecisionTree" boostWeight="1.0000000000000000e+00" itree="41">
      <Node pos="s" depth="0" NCoef="0" IVar="3" Cut="4.0243902206420898e+00" cType="1" res="1.1949538020417094e-04" rms="3.1344631314277649e-01" purity="4.9872782826423645e-01" nType="0">
        <Node pos="l" depth="1" NCoef="0" IVar="5" Cut="1.1309597015380859e+02" cType="1" res="6.6067231819033623e-03" rms="3.1387221813201904e-01" purity="5.4287213087081909e-01" nType="0">
          <Node pos="l" depth="2" NCoef="0" IVar="5" Cut="5.8888191223144531e+01" cType="1" res="1.5618044883012772e-02" rms="3.1766557693481445e-01" purity="6.0859143733978271e-01" nType="0">
            <Node pos="l" depth="3" NCoef="0" IVar="5" Cut="3.7193115234375000e+01" cType="1" res="-3.3426143229007721e-02" rms="3.5601568222045898e-01" purity="4.0437757968902588e-01" nType="0">
              <Node pos="l" depth="4" NCoef="0" IVar="-1" Cut="0.0000000000000000e+00" cType="1" res="-2.6138037443161011e-02" rms="3.5260900855064392e-01" purity="3.1221035122871399e-01" nType="-99"/>
              <Node pos="r" depth="4" NCoef="0" IVar="8" Cut="5.0363683700561523e-01" cType="1" res="-1.8641231581568718e-02" rms="3.5591477155685425e-01" purity="4.3505445122718811e-01" nType="0">
                <Node pos="l" depth="5" NCoef="0" IVar="-1" Cut="0.0000000000000000e+00" cType="1" res="-1.1086864396929741e-02" rms="3.4723421931266785e-01" purity="4.0210899710655212e-01" nType="-99"/>
                <Node pos="r" depth="5" NCoef="0" IVar="-1" Cut="0.0000000000000000e+00" cType="1" res="3.1238726805895567e-03" rms="3.7240716814994812e-01" purity="5.0629442930221558e-01" nType="-99"/>
              </Node>
            </Node>
            <Node pos="r" depth="3" NCoef="0" IVar="2" Cut="4.0243902206420898e+00" cType="1" res="2.5907350704073906e-02" rms="3.0802705883979797e-01" purity="6.5143483877182007e-01" nType="0">
              <Node pos="l" depth="4" NCoef="0" IVar="9" Cut="1.0417428612709045e-01" cType="1" res="3.3441830426454544e-02" rms="3.1294155120849609e-01" purity="7.2334581613540649e-01" nType="0">
                <Node pos="l" depth="5" NCoef="0" IVar="-1" Cut="0.0000000000000000e+00" cType="1" res="-2.0070794969797134e-02" rms="3.2041215896606445e-01" purity="2.0271660387516022e-01" nType="-99"/>
                <Node pos="r" depth="5" NCoef="0" IVar="-1" Cut="0.0000000000000000e+00" cType="1" res="1.4623478986322880e-02" rms="3.1183153390884399e-01" purity="7.5024592876434326e-01" nType="-99"/>
              </Node>
              <Node pos="r" depth="4" NCoef="0" IVar="9" Cut="3.0428725481033325e-01" cType="1" res="-3.0808964744210243e-02" rms="2.6127445697784424e-01" purity="1.1011982709169388e-01" nType="0">
                <Node pos="l" depth="5" NCoef="0" IVar="-1" Cut="0.0000000000000000e+00" cType="1" res="-2.9101263731718063e-02" rms="2.1035353839397430e-01" purity="5.6160163134336472e-02" nType="-99"/>
                <Node pos="r" depth="5" NCoef="0" IVar="-1" Cut="0.0000000000000000e+00" cType="1" res="-4.1984873823821545e-03" rms="3.0909559130668640e-01" purity="1.7314071953296661e-01" nType="-99"/>
              </Node>
            </Node>
          </Node>
          <Node pos="r" depth="2" NCoef="0" IVar="6" Cut="2.7584702968597412e+00" cType="1" res="-2.5766700506210327e-02" rms="2.9760640859603882e-01" purity="3.0677363276481628e-01" nType="0">
            <Node pos="l" depth="3" NCoef="0" IVar="5" Cut="1.3711985778808594e+02" cType="1" res="-3.9105936884880066e-02" rms="2.9329678416252136e-01" purity="2.1370881795883179e-01" nType="0">
              <Node pos="l" depth="4" NCoef="0" IVar="8" Cut="2.2814731299877167e-01" cType="1" res="-2.8666533529758453e-02" rms="3.0158427357673645e-01" purity="2.2969545423984528e-01" nType="0">
                <Node pos="l" depth="5" NCoef="0" IVar="-1" Cut="0.0000000000000000e+00" cType="1" res="-2.4344395846128464e-02" rms="2.4517369270324707e-01" purity="1.1809611320495605e-01" nType="-99"/>
                <Node pos="r" depth="5" NCoef="0" IVar="-1" Cut="0.0000000000000000e+00" cType="1" res="-7.4569843709468842e-03" rms="3.2664832472801208e-01" purity="2.8757667541503906e-01" nType="-99"/>
              </Node>
              <Node pos="r" depth="4" NCoef="0" IVar="8" Cut="2.3024460673332214e-01" cType="1" res="-5.3543463349342346e-02" rms="2.8079468011856079e-01" purity="1.9159956276416779e-01" nType="0">
                <Node pos="l" depth="5" NCoef="0" IVar="-1" Cut="0.0000000000000000e+00" cType="1" res="-3.4253776073455811e-02" rms="2.3505362868309021e-01" purity="8.5143856704235077e-02" nType="-99"/>
                <Node pos="r" depth="5" NCoef="0" IVar="-1" Cut="0.0000000000000000e+00" cType="1" res="-1.8692160025238991e-02" rms="3.0519768595695496e-01" purity="2.5656121969223022e-01" nType="-99"/>
              </Node>
            </Node>
            <Node pos="r" depth="3" NCoef="0" IVar="4" Cut="1.1701037597656250e+02" cType="1" res="1.1814371682703495e-02" rms="3.0631759762763977e-01" purity="5.6896811723709106e-01" nType="0">
              <Node pos="l" depth="4" NCoef="0" IVar="-1" Cut="0.0000000000000000e+00" cType="1" res="-1.8421288114041090e-03" rms="3.1780150532722473e-01" purity="5.2466982603073120e-01" nType="-99"/>
              <Node pos="r" depth="4" NCoef="0" IVar="-1" Cut="0.0000000000000000e+00" cType="1" res="9.3071963638067245e-03" rms="2.9640528559684753e-01" purity="6.0348439216613770e-01" nType="-99"/>
            </Node>
          </Node>
        </Node>
        <Node pos="r" depth="1" NCoef="0" IVar="5" Cut="1.3117683410644531e+02" cType="1" res="-3.9972782135009766e-02" rms="3.0778226256370544e-01" purity="2.2590795159339905e-01" nType="0">
          <Node pos="l" depth="2" NCoef="0" IVar="8" Cut="4.7657316923141479e-01" cType="1" res="-5.4575461894273758e-02" rms="3.0755859613418579e-01" purity="2.1128460764884949e-01" nType="0">
            <Node pos="l" depth="3" NCoef="0" IVar="5" Cut="9.6749275207519531e+01" cType="1" res="-6.5981253981590271e-02" rms="2.8509584069252014e-01" purity="1.8541255593299866e-01" nType="0">
              <Node pos="l" depth="4" NCoef="0" IVar="0" Cut="1.0975610017776489e+00" cType="1" res="-8.3834782242774963e-02" rms="3.0236962437629700e-01" purity="2.0428770780563354e-01" nType="0">
                <Node pos="l" depth="5" NCoef="0" IVar="-1" Cut="0.0000000000000000e+00" cType="1" res="-3.3034168183803558e-02" rms="2.2674986720085144e-01" purity="7.4080184102058411e-02" nType="-99"/>
                <Node pos="r" depth="5" NCoef="0" IVar="-1" Cut="0.0000000000000000e+00" cType="1" res="-2.8989978134632111e-02" rms="3.6492556333541870e-01" purity="3.4241792559623718e-01" nType="-99"/>
              </Node>
              <Node pos="r" depth="4" NCoef="0" IVar="-1" Cut="0.0000000000000000e+00" cType="1" res="-2.2010676562786102e-02" rms="2.6427832245826721e-01" purity="1.6543205082416534e-01" nType="-99"/>
            </Node>
            <Node pos="r" depth="3" NCoef="0" IVar="-1" Cut="0.0000000000000000e+00" cType="1" res="-5.1679192110896111e-03" rms="3.7211602926254272e-01" purity="3.0043077468872070e-01" nType="-99"/>
          </Node>
          <Node pos="r" depth="2" NCoef="0" IVar="-1" Cut="0.0000000000000000e+00" cType="1" res="3.6148726940155029e-03" rms="3.0353978276252747e-01" purity="2.7437981963157654e-01" nType="-99"/>
        </Node>
      </Node>
    </BinaryTree>
    <BinaryTree type="DecisionTree" boostWeight="1.0000000000000000e+00" itree="42">
      <Node pos="s" depth="0" NCoef="0" IVar="4" Cut="1.3974087524414062e+02" cType="1" res="-2.8571652364917099e-04" rms="3.1219041347503662e-01" purity="4.9967378377914429e-01" nType="0">
        <Node pos="l" depth="1" NCoef="0" IVar="4" Cut="9.9260589599609375e+01" cType="1" res="9.2682670801877975e-03" rms="3.1376236677169800e-01" purity="5.7832437753677368e-01" nType="0">
          <Node pos="l" depth="2" NCoef="0" IVar="4" Cut="4.3970592498779297e+01" cType="1" res="-1.9044158980250359e-02" rms="3.3443123102188110e-01" purity="3.9851215481758118e-01" nType="0">
            <Node pos="l" depth="3" NCoef="0" IVar="-1" Cut="0.0000000000000000e+00" cType="1" res="-2.6337631046772003e-02" rms="3.2104009389877319e-01" purity="1.6890896856784821e-01" nType="-99"/>
            <Node pos="r" depth="3" NCoef="0" IVar="9" Cut="4.6388471126556396e-01" cType="1" res="-1.2662120163440704e-02" rms="3.3543017506599426e-01" purity="4.2598560452461243e-01" nType="0">
              <Node pos="l" depth="4" NCoef="0" IVar="5" Cut="5.5368274688720703e+01" cType="1" res="-2.6435054838657379e-02" rms="3.2890060544013977e-01" purity="3.6982142925262451e-01" nType="0">
                <Node pos="l" depth="5" NCoef="0" IVar="-1" Cut="0.0000000000000000e+00" cType="1" res="-2.4679599329829216e-02" rms="3.5473072528839111e-01" purity="2.8736132383346558e-01" nType="-99"/>
                <Node pos="r" depth="5" NCoef="0" IVar="-1" Cut="0.0000000000000000e+00" cType="1" res="-7.6193208806216717e-03" rms="3.2483989000320435e-01" purity="3.8056370615959167e-01" nType="-99"/>
              </Node>
              <Node pos="r" depth="4" NCoef="0" IVar="8" Cut="2.5423300266265869e-01" cType="1" res="1.4832189306616783e-02" rms="3.4646517038345337e-01" purity="5.3810369968414307e-01" nType="0">
                <Node pos="l" depth="5" NCoef="0" IVar="-1" Cut="0.0000000000000000e+00" cType="1" res="-8.4070647135376930e-03" rms="3.3898535370826721e-01" purity="3.5279527306556702e-01" nType="-99"/>
                <Node pos="r" depth="5" NCoef="0" IVar="-1" Cut="0.0000000000000000e+00" cType="1" res="1.1793064884841442e-02" rms="3.4878417849540710e-01" purity="6.3812249898910522e-01" nType="-99"/>
              </Node>
            </Node>
          </Node>
          <Node pos="r" depth="2" NCoef="0" IVar="8" Cut="1.1588650941848755e-01" cType="1" res="3.0272731557488441e-02" rms="2.9575607180595398e-01" purity="7.1172374486923218e-01" nType="0">
            <Node pos="l" depth="3" NCoef="0" IVar="-1" Cut="0.0000000000000000e+00" cType="1" res="-1.3181845657527447e-02" rms="3.1521895527839661e-01" purity="2.9300671815872192e-01" nType="-99"/>
            <Node pos="r" depth="3" NCoef="0" IVar="2" Cut="4.0243902206420898e+00" cType="1" res="3.3817227929830551e-02" rms="2.9424020648002625e-01" purity="7.3471724987030029e-01" nType="0">
              <Node pos="l" depth="4" NCoef="0" IVar="7" Cut="2.3484368324279785e+00" cType="1" res="3.8382839411497116e-02" rms="2.9161101579666138e-01" purity="7.9308706521987915e-01" nType="0">
                <Node pos="l" depth="5" NCoef="0" IVar="-1" Cut="0.0000000000000000e+00" cType="1" res="1.4176258817315102e-02" rms="2.9047682881355286e-01" purity="7.9959547519683838e-01" nType="-99"/>
                <Node pos="r" depth="5" NCoef="0" IVar="-1" Cut="0.0000000000000000e+00" cType="1" res="2.6074508205056190e-02" rms="2.9645341634750366e-01" purity="7.5179547071456909e-01" nType="-99"/>
              </Node>
              <Node pos="r" depth="4" NCoef="0" IVar="-1" Cut="0.0000000000000000e+00" cType="1" res="-3.9829169400036335e-03" rms="3.1498712301254272e-01" purity="1.7573952674865723e-01" nType="-99"/>
            </Node>
          </Node>
        </Node>
        <Node pos="r" depth="1" NCoef="0" IVar="8" Cut="3.5758817195892334e-01" cType="1" res="-3.0512494966387749e-02" rms="3.0520045757293701e-01" purity="2.5084003806114197e-01" nType="0">
          <Node pos="l" depth="2" NCoef="0" IVar="8" Cut="1.7463967204093933e-01" cType="1" res="-4.4039763510227203e-02" rms="2.8840094804763794e-01" purity="1.7828366160392761e-01" nType="0">
            <Node pos="l" depth="3" NCoef="0" IVar="0" Cut="1.0975610017776489e+00" cType="1" res="-5.9759698808193207e-02" rms="2.3907275497913361e-01" purity="9.0067692101001740e-02" nType="0">
              <Node pos="l" depth="4" NCoef="0" IVar="-1" Cut="0.0000000000000000e+00" cType="1" res="-3.2125499099493027e-02" rms="1.6331471502780914e-01" purity="3.0241006985306740e-02" nType="-99"/>
              <Node pos="r" depth="4" NCoef="0" IVar="-1" Cut="0.0000000000000000e+00" cType="1" res="-3.0149316415190697e-02" rms="3.0005380511283875e-01" purity="1.5664812922477722e-01" nType="-99"/>
            </Node>
            <Node pos="r" depth="3" NCoef="0" IVar="7" Cut="2.1947350502014160e+00" cType="1" res="-3.5164725035429001e-02" rms="3.1248456239700317e-01" purity="2.2808793187141418e-01" nType="0">
              <Node pos="l" depth="4" NCoef="0" IVar="6" Cut="2.2987260818481445e+00" cType="1" res="-4.5248787850141525e-02" rms="3.1785929203033447e-01" purity="2.2464887797832489e-01" nType="0">
                <Node pos="l" depth="5" NCoef="0" IVar="-1" Cut="0.0000000000000000e+00" cType="1" res="-1.5434060245752335e-02" rms="2.9663118720054626e-01" purity="1.6410046815872192e-01" nType="-99"/>
                <Node pos="r" depth="5" NCoef="0" IVar="-1" Cut="0.0000000000000000e+00" cType="1" res="-2.0398830994963646e-02" rms="3.4332287311553955e-01" purity="3.0458110570907593e-01" nType="-99"/>
              </Node>
              <Node pos="r" depth="4" NCoef="0" IVar="-1" Cut="0.0000000000000000e+00" cType="1" res="-1.0654364014044404e-03" rms="2.9210001230239868e-01" purity="2.3918920755386353e-01" nType="-99"/>
            </Node>
          </Node>
          <Node pos="r" depth="2" NCoef="0" IVar="9" Cut="3.0261492729187012e-01" cType="1" res="-1.2018848210573196e-02" rms="3.2586580514907837e-01" purity="3.5003468394279480e-01" nType="0">
            <Node pos="l" depth="3" NCoef="0" IVar="4" Cut="1.9890376281738281e+02" cType="1" res="-4.1661873459815979e-02" rms="2.9924869537353516e-01" purity="1.8310599029064178e-01" nType="0">
              <Node pos="l" depth="4" NCoef="0" IVar="-1" Cut="0.0000000000000000e+00" cType="1" res="-1.0930542834103107e-02" rms="3.2311907410621643e-01" purity="2.2907014191150665e-01" nType="-99"/>
              <Node pos="r" depth="4" NCoef="0" IVar="-1" Cut="0.0000000000000000e+00" cType="1" res="-2.8396034613251686e-02" rms="2.5136160850524902e-01" purity="1.0384558141231537e-01" nType="-99"/>
            </Node>
            <Node pos="r" depth="3" NCoef="0" IVar="-1" Cut="0.0000000000000000e+00" cType="1" res="9.6487076953053474e-03" rms="3.5668423771858215e-01" purity="5.9246736764907837e-01" nType="-99"/>
          </Node>
        </Node>
      </Node>
    </BinaryTree>
    <BinaryTree type="DecisionTree" boostWeight="1.0000000000000000e+00" itree="43">
      <Node pos="s" depth="0" NCoef="0" IVar="1" Cut="1.0975610017776489e+00" cType="1" res="1.6258313553407788e-03" rms="3.1378477811813354e-01" purity="5.0062131881713867e-01" nType="0">
        <Node pos="l" depth="1" NCoef="0" IVar="8" Cut="4.7648075222969055e-01" cType="1" res="-1.4648044481873512e-02" rms="3.2312211394309998e-01" purity="2.5859653949737549e-01" nType="0">
          <Node pos="l" depth="2" NCoef="0" IVar="5" Cut="6.3150329589843750e+01" cType="1" res="-2.1433748304843903e-02" rms="3.1288775801658630e-01" purity="2.3754602670669556e-01" nType="0">
            <Node pos="l" depth="3" NCoef="0" IVar="0" Cut="1.0975610017776489e+00" cType="1" res="-5.1206104457378387e-02" rms="3.2083547115325928e-01" purity="1.7505240440368652e-01" nType="0">
              <Node pos="l" depth="4" NCoef="0" IVar="-1" Cut="0.0000000000000000e+00" cType="1" res="-2.3078486323356628e-02" rms="2.0691937208175659e-01" purity="4.8761773854494095e-02" nType="-99"/>
              <Node pos="r" depth="4" NCoef="0" IVar="-1" Cut="0.0000000000000000e+00" cType="1" res="-1.8265128135681152e-02" rms="3.8855949044227600e-01" purity="2.7698022127151489e-01" nType="-99"/>
            </Node>
            <Node pos="r" depth="3" NCoef="0" IVar="5" Cut="8.9134353637695312e+01" cType="1" res="-1.5895538032054901e-02" rms="3.1107279658317566e-01" purity="2.4917100369930267e-01" nType="0">
              <Node pos="l" depth="4" NCoef="0" IVar="3" Cut="2.0731706619262695e+00" cType="1" res="2.6521554682403803e-03" rms="3.6155238747596741e-01" purity="4.0655991435050964e-01" nType="0">
                <Node pos="l" depth="5" NCoef="0" IVar="-1" Cut="0.0000000000000000e+00" cType="1" res="5.5901780724525452e-03" rms="3.7307798862457275e-01" purity="4.6209734678268433e-01" nType="-99"/>
                <Node pos="r" depth="5" NCoef="0" IVar="-1" Cut="0.0000000000000000e+00" cType="1" res="-2.0592572167515755e-02" rms="3.0896213650703430e-01" purity="2.0202261209487915e-01" nType="-99"/>
              </Node>
              <Node pos="r" depth="4" NCoef="0" IVar="8" Cut="2.7909165620803833e-01" cType="1" res="-2.5297731161117554e-02" rms="2.8158766031265259e-01" purity="1.6938747465610504e-01" nType="0">
                <Node pos="l" depth="5" NCoef="0" IVar="-1" Cut="0.0000000000000000e+00" cType="1" res="-1.9846836104989052e-02" rms="2.4491219222545624e-01" purity="9.8601363599300385e-02" nType="-99"/>
                <Node pos="r" depth="5" NCoef="0" IVar="-1" Cut="0.0000000000000000e+00" cType="1" res="-4.5044254511594772e-03" rms="3.2446190714836121e-01" purity="2.6587080955505371e-01" nType="-99"/>
              </Node>
            </Node>
          </Node>
          <Node pos="r" depth="2" NCoef="0" IVar="0" Cut="3.0487804412841797e+00" cType="1" res="7.2168568149209023e-03" rms="3.5320708155632019e-01" purity="3.2642549276351929e-01" nType="0">
            <Node pos="l" depth="3" NCoef="0" IVar="9" Cut="2.8940752148628235e-01" cType="1" res="-2.0097469910979271e-02" rms="2.8324961662292480e-01" purity="1.3667523860931396e-01" nType="0">
              <Node pos="l" depth="4" NCoef="0" IVar="-1" Cut="0.0000000000000000e+00" cType="1" res="-2.1119682118296623e-02" rms="2.1929571032524109e-01" purity="6.8047426640987396e-02" nType="-99"/>
              <Node pos="r" depth="4" NCoef="0" IVar="-1" Cut="0.0000000000000000e+00" cType="1" res="-1.0597623186185956e-03" rms="3.5025009512901306e-01" purity="2.2842122614383698e-01" nType="-99"/>
            </Node>
            <Node pos="r" depth="3" NCoef="0" IVar="6" Cut="1.3026053905487061e+00" cType="1" res="3.3492166548967361e-02" rms="4.0764981508255005e-01" purity="5.0895780324935913e-01" nType="0">
              <Node pos="l" depth="4" NCoef="0" IVar="-1" Cut="0.0000000000000000e+00" cType="1" res="3.3568416256457567e-03" rms="4.2720156908035278e-01" purity="4.2942330241203308e-01" nType="-99"/>
              <Node pos="r" depth="4" NCoef="0" IVar="-1" Cut="0.0000000000000000e+00" cType="1" res="1.3213356025516987e-02" rms="3.9330264925956726e-01" purity="5.6248754262924194e-01" nType="-99"/>
            </Node>
          </Node>
        </Node>
        <Node pos="r" depth="1" NCoef="0" IVar="6" Cut="2.1454765796661377e+00" cType="1" res="1.4317999593913555e-02" rms="3.0570426583290100e-01" purity="6.8937891721725464e-01" nType="0">
          <Node pos="l" depth="2" NCoef="0" IVar="9" Cut="4.4032359123229980e-01" cType="1" res="-5.9866029769182205e-03" rms="3.2768243551254272e-01" purity="5.7697832584381104e-01" nType="0">
            <Node pos="l" depth="3" NCoef="0" IVar="5" Cut="9.1770507812500000e+01" cType="1" res="-2.3437257856130600e-02" rms="3.3954024314880371e-01" purity="4.7615197300910950e-01" nType="0">
              <Node pos="l" depth="4" NCoef="0" IVar="5" Cut="6.6721237182617188e+01" cType="1" res="-7.3290448635816574e-03" rms="3.4247371554374695e-01" purity="5.9629637002944946e-01" nType="0">
                <Node pos="l" depth="5" NCoef="0" IVar="-1" Cut="0.0000000000000000e+00" cType="1" res="-1.2970416806638241e-02" rms="3.6763429641723633e-01" purity="4.6959477663040161e-01" nType="-99"/>
                <Node pos="r" depth="5" NCoef="0" IVar="-1" Cut="0.0000000000000000e+00" cType="1" res="4.4019571505486965e-03" rms="3.2494586706161499e-01" purity="6.7205619812011719e-01" nType="-99"/>
              </Node>
              <Node pos="r" depth="4" NCoef="0" IVar="4" Cut="1.0571067047119141e+02" cType="1" res="-4.7945499420166016e-02" rms="3.3353880047798157e-01" purity="2.9335522651672363e-01" nType="0">
                <Node pos="l" depth="5" NCoef="0" IVar="-1" Cut="0.0000000000000000e+00" cType="1" res="-2.3337107151746750e-02" rms="3.3968064188957214e-01" purity="2.6648181676864624e-01" nType="-99"/>
                <Node pos="r" depth="5" NCoef="0" IVar="-1" Cut="0.0000000000000000e+00" cType="1" res="-1.3814736157655716e-02" rms="3.2980328798294067e-01" purity="3.0740329623222351e-01" nType="-99"/>
              </Node>
            </Node>
            <Node pos="r" depth="3" NCoef="0" IVar="4" Cut="9.3315101623535156e+01" cType="1" res="2.3115038871765137e-02" rms="3.0467513203620911e-01" purity="7.4512171745300293e-01" nType="0">
              <Node pos="l" depth="4" NCoef="0" IVar="-1" Cut="0.0000000000000000e+00" cType="1" res="-1.2678760103881359e-03" rms="3.7186068296432495e-01" purity="5.9024232625961304e-01" nType="-99"/>
              <Node pos="r" depth="4" NCoef="0" IVar="-1" Cut="0.0000000000000000e+00" cType="1" res="1.5332143753767014e-02" rms="2.7199700474739075e-01" purity="8.0790710449218750e-01" nType="-99"/>
            </Node>
          </Node>
          <Node pos="r" depth="2" NCoef="0" IVar="9" Cut="2.5709515810012817e-01" cType="1" res="3.0214121565222740e-02" rms="2.8632390499114990e-01" purity="7.7737540006637573e-01" nType="0">
            <Node pos="l" depth="3" NCoef="0" IVar="7" Cut="2.3001976013183594e+00" cType="1" res="4.3009133078157902e-03" rms="3.3523774147033691e-01" purity="6.0968488454818726e-01" nType="0">
              <Node pos="l" depth="4" NCoef="0" IVar="8" Cut="4.1724941134452820e-01" cType="1" res="-3.6838192492723465e-02" rms="3.6128461360931396e-01" purity="5.1594126224517822e-01" nType="0">
                <Node pos="l" depth="5" NCoef="0" IVar="-1" Cut="0.0000000000000000e+00" cType="1" res="-2.6672199368476868e-02" rms="3.3803850412368774e-01" purity="4.0739747881889343e-01" nType="-99"/>
                <Node pos="r" depth="5" NCoef="0" IVar="-1" Cut="0.0000000000000000e+00" cType="1" res="-1.5508350916206837e-03" rms="3.7662318348884583e-01" purity="6.0658490657806396e-01" nType="-99"/>
              </Node>
              <Node pos="r" depth="4" NCoef="0" IVar="-1" Cut="0.0000000000000000e+00" cType="1" res="2.0272711291909218e-02" rms="2.9232397675514221e-01" purity="7.2488778829574585e-01" nType="-99"/>
            </Node>
            <Node pos="r" depth="3" NCoef="0" IVar="8" Cut="2.9565638303756714e-01" cType="1" res="4.0251329541206360e-02" rms="2.6428064703941345e-01" purity="8.4232854843139648e-01" nType="0">
              <Node pos="l" depth="4" NCoef="0" IVar="7" Cut="1.2096761465072632e+00" cType="1" res="1.1310118250548840e-02" rms="3.1124931573867798e-01" purity="7.2947162389755249e-01" nType="0">
                <Node pos="l" depth="5" NCoef="0" IVar="-1" Cut="0.0000000000000000e+00" cType="1" res="-7.0968293584883213e-03" rms="3.2596182823181152e-01" purity="6.9522368907928467e-01" nType="-99"/>
                <Node pos="r" depth="5" NCoef="0" IVar="-1" Cut="0.0000000000000000e+00" cType="1" res="1.3560623861849308e-02" rms="2.9734456539154053e-01" purity="7.5620234012603760e-01" nType="-99"/>
              </Node>
              <Node pos="r" depth="4" NCoef="0" IVar="-1" Cut="0.0000000000000000e+00" cType="1" res="2.7812222018837929e-02" rms="2.3609228432178497e-01" purity="8.9860188961029053e-01" nType="-99"/>
            </Node>
          </Node>
        </Node>
      </Node>
    </BinaryTree>
    <BinaryTree type="DecisionTree" boostWeight="1.0000000000000000e+00" itree="44">
      <Node pos="s" depth="0" NCoef="0" IVar="6" Cut="2.6818461418151855e+00" cType="1" res="1.6225405270233750e-03" rms="3.1211742758750916e-01" purity="5.0246083736419678e-01" nType="0">
        <Node pos="l" depth="1" NCoef="0" IVar="0" Cut="4.0243902206420898e+00" cType="1" res="-7.8948196023702621e-03" rms="3.1747248768806458e-01" purity="4.3465760350227356e-01" nType="0">
          <Node pos="l" depth="2" NCoef="0" IVar="5" Cut="4.4544345855712891e+01" cType="1" res="-2.1536732092499733e-02" rms="2.9462423920631409e-01" purity="2.7575823664665222e-01" nType="0">
            <Node pos="l" depth="3" NCoef="0" IVar="-1" Cut="0.0000000000000000e+00" cType="1" res="-2.7474224567413330e-02" rms="2.9593938589096069e-01" purity="1.7029523849487305e-01" nType="-99"/>
            <Node pos="r" depth="3" NCoef="0" IVar="4" Cut="1.3413253784179688e+02" cType="1" res="-1.8132269382476807e-02" rms="2.9424351453781128e-01" purity="2.8368288278579712e-01" nType="0">
              <Node pos="l" depth="4" NCoef="0" IVar="4" Cut="9.5557258605957031e+01" cType="1" res="-9.8058721050620079e-03" rms="3.0969116091728210e-01" purity="3.5264757275581360e-01" nType="0">
                <Node pos="l" depth="5" NCoef="0" IVar="-1" Cut="0.0000000000000000e+00" cType="1" res="-1.2472719885408878e-02" rms="3.0147266387939453e-01" purity="2.1859796345233917e-01" nType="-99"/>
                <Node pos="r" depth="5" NCoef="0" IVar="-1" Cut="0.0000000000000000e+00" cType="1" res="4.2276401072740555e-03" rms="3.1690660119056702e-01" purity="4.9533110857009888e-01" nType="-99"/>
              </Node>
              <Node pos="r" depth="4" NCoef="0" IVar="5" Cut="6.9888229370117188e+01" cType="1" res="-3.6248445510864258e-02" rms="2.5651860237121582e-01" purity="1.3363276422023773e-01" nType="0">
                <Node pos="l" depth="5" NCoef="0" IVar="-1" Cut="0.0000000000000000e+00" cType="1" res="-2.8130680322647095e-02" rms="2.5887030363082886e-01" purity="1.1367915570735931e-01" nType="-99"/>
                <Node pos="r" depth="5" NCoef="0" IVar="-1" Cut="0.0000000000000000e+00" cType="1" res="-1.7260421067476273e-02" rms="2.5577625632286072e-01" purity="1.3799200952053070e-01" nType="-99"/>
              </Node>
            </Node>
          </Node>
          <Node pos="r" depth="2" NCoef="0" IVar="5" Cut="1.2040295410156250e+02" cType="1" res="0.0000000000000000e+00" rms="0.0000000000000000e+00" purity="6.2411010265350342e-01" nType="0">
            <Node pos="l" depth="3" NCoef="0" IVar="3" Cut="3.0487804412841797e+00" cType="1" res="0.0000000000000000e+00" rms="0.0000000000000000e+00" purity="6.7822909355163574e-01" nType="0">
              <Node pos="l" depth="4" NCoef="0" IVar="4" Cut="1.7497831726074219e+02" cType="1" res="0.0000000000000000e+00" rms="0.0000000000000000e+00" purity="7.1305435895919800e-01" nType="0">
                <Node pos="l" depth="5" NCoef="0" IVar="-1" Cut="0.0000000000000000e+00" cType="1" res="1.0723724961280823e-02" rms="3.2792320847511292e-01" purity="7.5239998102188110e-01" nType="-99"/>
                <Node pos="r" depth="5" NCoef="0" IVar="-1" Cut="0.0000000000000000e+00" cType="1" res="-8.3925370126962662e-03" rms="3.8434121012687683e-01" purity="2.8407406806945801e-01" nType="-99"/>
              </Node>
              <Node pos="r" depth="4" NCoef="0" IVar="-1" Cut="0.0000000000000000e+00" cType="1" res="-1.3347182422876358e-02" rms="3.7991613149642944e-01" purity="3.8780906796455383e-01" nType="-99"/>
            </Node>
            <Node pos="r" depth="3" NCoef="0" IVar="7" Cut="1.1692521572113037e+00" cType="1" res="0.0000000000000000e+00" rms="0.0000000000000000e+00" purity="3.1338465213775635e-01" nType="0">
              <Node pos="l" depth="4" NCoef="0" IVar="-1" Cut="0.0000000000000000e+00" cType="1" res="-7.5843106023967266e-03" rms="3.8528168201446533e-01" purity="3.7410366535186768e-01" nType="-99"/>
              <Node pos="r" depth="4" NCoef="0" IVar="-1" Cut="0.0000000000000000e+00" cType="1" res="-1.8498206511139870e-02" rms="3.1219145655632019e-01" purity="2.4248073995113373e-01" nType="-99"/>
            </Node>
          </Node>
        </Node>
        <Node pos="r" depth="1" NCoef="0" IVar="7" Cut="1.6314339637756348e+00" cType="1" res="2.5013338774442673e-02" rms="2.9725646972656250e-01" purity="6.6910070180892944e-01" nType="0">
          <Node pos="l" depth="2" NCoef="0" IVar="9" Cut="3.0767154693603516e-01" cType="1" res="1.1833191849291325e-02" rms="2.9889240860939026e-01" purity="6.7945045232772827e-01" nType="0">
            <Node pos="l" depth="3" NCoef="0" IVar="8" Cut="4.6137341856956482e-01" cType="1" res="-4.0191862732172012e-02" rms="3.4320482611656189e-01" purity="4.2147684097290039e-01" nType="0">
              <Node pos="l" depth="4" NCoef="0" IVar="-1" Cut="0.0000000000000000e+00" cType="1" res="-2.8366150334477425e-02" rms="3.3359506726264954e-01" purity="3.0276510119438171e-01" nType="-99"/>
              <Node pos="r" depth="4" NCoef="0" IVar="-1" Cut="0.0000000000000000e+00" cType="1" res="3.7424510810524225e-04" rms="3.4908118844032288e-01" purity="5.5454230308532715e-01" nType="-99"/>
            </Node>
            <Node pos="r" depth="3" NCoef="0" IVar="8" Cut="3.3059227466583252e-01" cType="1" res="3.1607992947101593e-02" rms="2.7767223119735718e-01" purity="7.7750658988952637e-01" nType="0">
              <Node pos="l" depth="4" NCoef="0" IVar="-1" Cut="0.0000000000000000e+00" cType="1" res="-5.5192103609442711e-03" rms="3.3132863044738770e-01" purity="5.9625560045242310e-01" nType="-99"/>
              <Node pos="r" depth="4" NCoef="0" IVar="-1" Cut="0.0000000000000000e+00" cType="1" res="2.7163613587617874e-02" rms="2.4000765383243561e-01" purity="8.7578469514846802e-01" nType="-99"/>
            </Node>
          </Node>
          <Node pos="r" depth="2" NCoef="0" IVar="9" Cut="1.7509357631206512e-01" cType="1" res="5.0438370555639267e-02" rms="2.9240137338638306e-01" purity="6.4913552999496460e-01" nType="0">
            <Node pos="l" depth="3" NCoef="0" IVar="-1" Cut="0.0000000000000000e+00" cType="1" res="9.0959714725613594e-04" rms="3.2463222742080688e-01" purity="3.9658814668655396e-01" nType="-99"/>
            <Node pos="r" depth="3" NCoef="0" IVar="6" Cut="2.9173264503479004e+00" cType="1" res="6.5821982920169830e-02" rms="2.7951145172119141e-01" purity="7.3040592670440674e-01" nType="0">
              <Node pos="l" depth="4" NCoef="0" IVar="-1" Cut="0.0000000000000000e+00" cType="1" res="2.2755729034543037e-02" rms="2.7830898761749268e-01" purity="7.1642321348190308e-01" nType="-99"/>
              <Node pos="r" depth="4" NCoef="0" IVar="-1" Cut="0.0000000000000000e+00" cType="1" res="2.9135281220078468e-02" rms="2.8032910823822021e-01" purity="7.4307715892791748e-01" nType="-99"/>
            </Node>
          </Node>
        </Node>
      </Node>
    </BinaryTree>
    <BinaryTree type="DecisionTree" boostWeight="1.0000000000000000e+00" itree="45">
      <Node pos="s" depth="0" NCoef="0" IVar="6" Cut="2.8350954055786133e+00" cType="1" res="-1.4087989984545857e-04" rms="3.1150624155998230e-01" purity="4.9922010302543640e-01" nType="0">
        <Node pos="l" depth="1" NCoef="0" IVar="0" Cut="3.0487804412841797e+00" cType="1" res="-7.1478141471743584e-03" rms="3.1521400809288025e-01" purity="4.5267364382743835e-01" nType="0">
          <Node pos="l" depth="2" NCoef="0" IVar="4" Cut="1.3393759155273438e+02" cType="1" res="-2.1062381565570831e-02" rms="2.8725025057792664e-01" purity="2.4231465160846710e-01" nType="0">
            <Node pos="l" depth="3" NCoef="0" IVar="1" Cut="1.0975610017776489e+00" cType="1" res="-1.3516459614038467e-02" rms="3.0711185932159424e-01" purity="3.0642989277839661e-01" nType="0">
              <Node pos="l" depth="4" NCoef="0" IVar="9" Cut="5.9706795215606689e-01" cType="1" res="-2.7960747480392456e-02" rms="2.5308242440223694e-01" purity="1.0678133368492126e-01" nType="0">
                <Node pos="l" depth="5" NCoef="0" IVar="-1" Cut="0.0000000000000000e+00" cType="1" res="-1.8249435350298882e-02" rms="2.3887777328491211e-01" purity="9.5605008304119110e-02" nType="-99"/>
                <Node pos="r" depth="5" NCoef="0" IVar="-1" Cut="0.0000000000000000e+00" cType="1" res="-4.5449687168002129e-03" rms="3.1372115015983582e-01" purity="1.6236017644405365e-01" nType="-99"/>
              </Node>
              <Node pos="r" depth="4" NCoef="0" IVar="4" Cut="6.8546455383300781e+01" cType="1" res="1.3014958240091801e-03" rms="3.5346016287803650e-01" purity="5.1124328374862671e-01" nType="0">
                <Node pos="l" depth="5" NCoef="0" IVar="-1" Cut="0.0000000000000000e+00" cType="1" res="-1.3775887899100780e-02" rms="3.5691624879837036e-01" purity="2.3124727606773376e-01" nType="-99"/>
                <Node pos="r" depth="5" NCoef="0" IVar="-1" Cut="0.0000000000000000e+00" cType="1" res="3.5882908850908279e-03" rms="3.5199201107025146e-01" purity="5.7106906175613403e-01" nType="-99"/>
              </Node>
            </Node>
            <Node pos="r" depth="3" NCoef="0" IVar="1" Cut="1.0975610017776489e+00" cType="1" res="-3.6899209022521973e-02" rms="2.3951399326324463e-01" purity="1.0775427520275116e-01" nType="0">
              <Node pos="l" depth="4" NCoef="0" IVar="5" Cut="1.0620044708251953e+02" cType="1" res="-2.7829451486468315e-02" rms="2.1506069600582123e-01" purity="6.5184779465198517e-02" nType="0">
                <Node pos="l" depth="5" NCoef="0" IVar="-1" Cut="0.0000000000000000e+00" cType="1" res="-2.3352298885583878e-02" rms="2.2725726664066315e-01" purity="7.4323706328868866e-02" nType="-99"/>
                <Node pos="r" depth="5" NCoef="0" IVar="-1" Cut="0.0000000000000000e+00" cType="1" res="-1.4052179642021656e-02" rms="1.9655026495456696e-01" purity="5.2756413817405701e-02" nType="-99"/>
              </Node>
              <Node pos="r" depth="4" NCoef="0" IVar="5" Cut="9.8663955688476562e+01" cType="1" res="-4.9602057784795761e-02" rms="2.6955318450927734e-01" purity="1.6737590730190277e-01" nType="0">
                <Node pos="l" depth="5" NCoef="0" IVar="-1" Cut="0.0000000000000000e+00" cType="1" res="-1.5959769487380981e-02" rms="3.0666035413742065e-01" purity="2.3147304356098175e-01" nType="-99"/>
                <Node pos="r" depth="5" NCoef="0" IVar="-1" Cut="0.0000000000000000e+00" cType="1" res="-3.3633552491664886e-02" rms="2.1070551872253418e-01" purity="8.3237089216709137e-02" nType="-99"/>
              </Node>
            </Node>
          </Node>
          <Node pos="r" depth="2" NCoef="0" IVar="9" Cut="1.0421526432037354e-01" cType="1" res="4.8668547533452511e-03" rms="3.3703887462615967e-01" purity="6.3431012630462646e-01" nType="0">
            <Node pos="l" depth="3" NCoef="0" IVar="-1" Cut="0.0000000000000000e+00" cType="1" res="-2.2542297840118408e-02" rms="3.2159796357154846e-01" purity="1.7672950029373169e-01" nType="-99"/>
            <Node pos="r" depth="3" NCoef="0" IVar="1" Cut="3.0487804412841797e+00" cType="1" res="8.4750810638070107e-03" rms="3.3747828006744385e-01" purity="6.5906095504760742e-01" nType="0">
              <Node pos="l" depth="4" NCoef="0" IVar="6" Cut="5.5318933725357056e-01" cType="1" res="-6.7408485338091850e-03" rms="3.7792107462882996e-01" purity="4.7956344485282898e-01" nType="0">
                <Node pos="l" depth="5" NCoef="0" IVar="-1" Cut="0.0000000000000000e+00" cType="1" res="-1.6510339453816414e-02" rms="3.7030380964279175e-01" purity="3.2830658555030823e-01" nType="-99"/>
                <Node pos="r" depth="5" NCoef="0" IVar="-1" Cut="0.0000000000000000e+00" cType="1" res="-1.1298339813947678e-04" rms="3.7850001454353333e-01" purity="5.0017648935317993e-01" nType="-99"/>
              </Node>
              <Node pos="r" depth="4" NCoef="0" IVar="5" Cut="1.1337366485595703e+02" cType="1" res="2.3808425292372704e-02" rms="2.9028806090354919e-01" purity="8.3994352817535400e-01" nType="0">
                <Node pos="l" depth="5" NCoef="0" IVar="-1" Cut="0.0000000000000000e+00" cType="1" res="1.4346384443342686e-02" rms="2.7361395955085754e-01" purity="8.7272608280181885e-01" nType="-99"/>
                <Node pos="r" depth="5" NCoef="0" IVar="-1" Cut="0.0000000000000000e+00" cType="1" res="-4.7141606919467449e-03" rms="3.7825846672058105e-01" purity="6.2870359420776367e-01" nType="-99"/>
              </Node>
            </Node>
          </Node>
        </Node>
        <Node pos="r" depth="1" NCoef="0" IVar="8" Cut="1.9291222095489502e-01" cType="1" res="2.7137275785207748e-02" rms="2.9504996538162231e-01" purity="6.8042665719985962e-01" nType="0">
          <Node pos="l" depth="2" NCoef="0" IVar="-1" Cut="0.0000000000000000e+00" cType="1" res="-8.6046364158391953e-03" rms="3.1889563798904419e-01" purity="4.0346589684486389e-01" nType="-99"/>
          <Node pos="r" depth="2" NCoef="0" IVar="7" Cut="1.6128883361816406e+00" cType="1" res="3.5584494471549988e-02" rms="2.9001724720001221e-01" purity="7.2670143842697144e-01" nType="0">
            <Node pos="l" depth="3" NCoef="0" IVar="9" Cut="3.7878641486167908e-01" cType="1" res="2.2158134728670120e-02" rms="2.9526659846305847e-01" purity="7.2179096937179565e-01" nType="0">
              <Node pos="l" depth="4" NCoef="0" IVar="8" Cut="4.3057933449745178e-01" cType="1" res="-1.2192565016448498e-02" rms="3.3554440736770630e-01" purity="5.6938266754150391e-01" nType="0">
                <Node pos="l" depth="5" NCoef="0" IVar="-1" Cut="0.0000000000000000e+00" cType="1" res="-2.0296288654208183e-02" rms="3.4675920009613037e-01" purity="4.5308309793472290e-01" nType="-99"/>
                <Node pos="r" depth="5" NCoef="0" IVar="-1" Cut="0.0000000000000000e+00" cType="1" res="8.3985431119799614e-03" rms="3.2194155454635620e-01" purity="6.6535949707031250e-01" nType="-99"/>
              </Node>
              <Node pos="r" depth="4" NCoef="0" IVar="-1" Cut="0.0000000000000000e+00" cType="1" res="2.3733848705887794e-02" rms="2.5379416346549988e-01" purity="8.4770387411117554e-01" nType="-99"/>
            </Node>
            <Node pos="r" depth="3" NCoef="0" IVar="-1" Cut="0.0000000000000000e+00" cType="1" res="2.7065705507993698e-02" rms="2.7441734075546265e-01" purity="7.3843950033187866e-01" nType="-99"/>
          </Node>
        </Node>
      </Node>
    </BinaryTree>
    <BinaryTree type="DecisionTree" boostWeight="1.0000000000000000e+00" itree="46">
      <Node pos="s" depth="0" NCoef="0" IVar="3" Cut="3.0487804412841797e+00" cType="1" res="1.6758241690695286e-03" rms="3.1186589598655701e-01" purity="5.0184756517410278e-01" nType="0">
        <Node pos="l" depth="1" NCoef="0" IVar="5" Cut="1.0960384368896484e+02" cType="1" res="8.7042162194848061e-03" rms="3.1211814284324646e-01" purity="5.5496484041213989e-01" nType="0">
          <Node pos="l" depth="2" NCoef="0" IVar="5" Cut="6.9304687500000000e+01" cType="1" res="1.7591580748558044e-02" rms="3.1521138548851013e-01" purity="6.2864774465560913e-01" nType="0">
            <Node pos="l" depth="3" NCoef="0" IVar="4" Cut="1.7455850219726562e+02" cType="1" res="-1.5819545835256577e-02" rms="3.4966471791267395e-01" purity="4.7354334592819214e-01" nType="0">
              <Node pos="l" depth="4" NCoef="0" IVar="5" Cut="3.6001533508300781e+01" cType="1" res="-9.9243773147463799e-03" rms="3.5700252652168274e-01" purity="5.2402555942535400e-01" nType="0">
                <Node pos="l" depth="5" NCoef="0" IVar="-1" Cut="0.0000000000000000e+00" cType="1" res="-1.6873702406883240e-02" rms="3.7975618243217468e-01" purity="3.6803874373435974e-01" nType="-99"/>
                <Node pos="r" depth="5" NCoef="0" IVar="-1" Cut="0.0000000000000000e+00" cType="1" res="-1.2463750317692757e-03" rms="3.5293608903884888e-01" purity="5.4803109169006348e-01" nType="-99"/>
              </Node>
              <Node pos="r" depth="4" NCoef="0" IVar="-1" Cut="0.0000000000000000e+00" cType="1" res="-2.4001384153962135e-02" rms="2.9014220833778381e-01" purity="1.2159182876348495e-01" nType="-99"/>
            </Node>
            <Node pos="r" depth="3" NCoef="0" IVar="2" Cut="4.0243902206420898e+00" cType="1" res="3.1093286350369453e-02" rms="2.9911175370216370e-01" purity="6.9132667779922485e-01" nType="0">
              <Node pos="l" depth="4" NCoef="0" IVar="7" Cut="2.7069983482360840e+00" cType="1" res="3.6923982203006744e-02" rms="3.0151203274726868e-01" purity="7.5862997770309448e-01" nType="0">
                <Node pos="l" depth="5" NCoef="0" IVar="-1" Cut="0.0000000000000000e+00" cType="1" res="1.3049417175352573e-02" rms="2.9828390479087830e-01" purity="7.7058076858520508e-01" nType="-99"/>
                <Node pos="r" depth="5" NCoef="0" IVar="-1" Cut="0.0000000000000000e+00" cType="1" res="2.7896044775843620e-02" rms="3.2251334190368652e-01" purity="6.6329085826873779e-01" nType="-99"/>
              </Node>
              <Node pos="r" depth="4" NCoef="0" IVar="6" Cut="1.6857370138168335e+00" cType="1" res="-1.7880635336041451e-02" rms="2.7326685190200806e-01" purity="1.2602408230304718e-01" nType="0">
                <Node pos="l" depth="5" NCoef="0" IVar="-1" Cut="0.0000000000000000e+00" cType="1" res="-2.5626279413700104e-02" rms="2.2910203039646149e-01" purity="6.7868910729885101e-02" nType="-99"/>
                <Node pos="r" depth="5" NCoef="0" IVar="-1" Cut="0.0000000000000000e+00" cType="1" res="5.6820746976882219e-04" rms="2.9955616593360901e-01" purity="1.6779476404190063e-01" nType="-99"/>
              </Node>
            </Node>
          </Node>
          <Node pos="r" depth="2" NCoef="0" IVar="9" Cut="3.6005005240440369e-01" cType="1" res="-2.1100291982293129e-02" rms="2.9959470033645630e-01" purity="3.0786323547363281e-01" nType="0">
            <Node pos="l" depth="3" NCoef="0" IVar="9" Cut="2.9861521720886230e-01" cType="1" res="-3.4867919981479645e-02" rms="2.8694811463356018e-01" purity="2.0710726082324982e-01" nType="0">
              <Node pos="l" depth="4" NCoef="0" IVar="5" Cut="1.3172886657714844e+02" cType="1" res="-4.0342021733522415e-02" rms="2.7627024054527283e-01" purity="1.6462580859661102e-01" nType="0">
                <Node pos="l" depth="5" NCoef="0" IVar="-1" Cut="0.0000000000000000e+00" cType="1" res="-1.3691755011677742e-02" rms="2.8797584772109985e-01" purity="1.8494349718093872e-01" nType="-99"/>
                <Node pos="r" depth="5" NCoef="0" IVar="-1" Cut="0.0000000000000000e+00" cType="1" res="-2.5435283780097961e-02" rms="2.6311033964157104e-01" purity="1.4356221258640289e-01" nType="-99"/>
              </Node>
              <Node pos="r" depth="4" NCoef="0" IVar="-1" Cut="0.0000000000000000e+00" cType="1" res="-4.9598263576626778e-03" rms="3.2555890083312988e-01" purity="3.7845903635025024e-01" nType="-99"/>
            </Node>
            <Node pos="r" depth="3" NCoef="0" IVar="8" Cut="3.3788976073265076e-01" cType="1" res="3.0681354110129178e-04" rms="3.1707692146301270e-01" purity="4.6452730894088745e-01" nType="0">
              <Node pos="l" depth="4" NCoef="0" IVar="8" Cut="2.1431657671928406e-01" cType="1" res="-2.4809790775179863e-02" rms="3.2039797306060791e-01" purity="3.0467909574508667e-01" nType="0">
                <Node pos="l" depth="5" NCoef="0" IVar="-1" Cut="0.0000000000000000e+00" cType="1" res="-2.1583558991551399e-02" rms="2.9531484842300415e-01" purity="1.6028331220149994e-01" nType="-99"/>
                <Node pos="r" depth="5" NCoef="0" IVar="-1" Cut="0.0000000000000000e+00" cType="1" res="-1.1512305354699492e-03" rms="3.4131091833114624e-01" purity="4.4301989674568176e-01" nType="-99"/>
              </Node>
              <Node pos="r" depth="4" NCoef="0" IVar="-1" Cut="0.0000000000000000e+00" cType="1" res="1.2071954086422920e-02" rms="3.0991569161415100e-01" purity="6.6689777374267578e-01" nType="-99"/>
            </Node>
          </Node>
        </Node>
        <Node pos="r" depth="1" NCoef="0" IVar="5" Cut="1.2752787780761719e+02" cType="1" res="-3.2251909375190735e-02" rms="3.0840060114860535e-01" purity="2.4543775618076324e-01" nType="0">
          <Node pos="l" depth="2" NCoef="0" IVar="3" Cut="4.0243902206420898e+00" cType="1" res="-4.0334265679121017e-02" rms="3.1274899840354919e-01" purity="2.4630016088485718e-01" nType="0">
            <Node pos="l" depth="3" NCoef="0" IVar="-1" Cut="0.0000000000000000e+00" cType="1" res="-5.1509775221347809e-03" rms="3.2672619819641113e-01" purity="3.8228192925453186e-01" nType="-99"/>
            <Node pos="r" depth="3" NCoef="0" IVar="8" Cut="4.7688728570938110e-01" cType="1" res="-4.7878075391054153e-02" rms="3.0831703543663025e-01" purity="2.0839530229568481e-01" nType="0">
              <Node pos="l" depth="4" NCoef="0" IVar="4" Cut="1.1123809814453125e+02" cType="1" res="-5.6145548820495605e-02" rms="2.8979796171188354e-01" purity="1.8140774965286255e-01" nType="0">
                <Node pos="l" depth="5" NCoef="0" IVar="-1" Cut="0.0000000000000000e+00" cType="1" res="-2.9214087873697281e-02" rms="2.9483321309089661e-01" purity="1.6607847809791565e-01" nType="-99"/>
                <Node pos="r" depth="5" NCoef="0" IVar="-1" Cut="0.0000000000000000e+00" cType="1" res="-1.9152421504259109e-02" rms="2.8454566001892090e-01" purity="1.9518865644931793e-01" nType="-99"/>
              </Node>
              <Node pos="r" depth="4" NCoef="0" IVar="-1" Cut="0.0000000000000000e+00" cType="1" res="-6.9711431860923767e-03" rms="3.6230260133743286e-01" purity="2.9904270172119141e-01" nType="-99"/>
            </Node>
          </Node>
          <Node pos="r" depth="2" NCoef="0" IVar="8" Cut="2.9252415895462036e-01" cType="1" res="-7.8466739505529404e-03" rms="2.9353395104408264e-01" purity="2.4283367395401001e-01" nType="0">
            <Node pos="l" depth="3" NCoef="0" IVar="-1" Cut="0.0000000000000000e+00" cType="1" res="-1.6726801171898842e-02" rms="2.5558018684387207e-01" purity="1.2723203003406525e-01" nType="-99"/>
            <Node pos="r" depth="3" NCoef="0" IVar="-1" Cut="0.0000000000000000e+00" cType="1" res="6.7550553940236568e-03" rms="3.2878583669662476e-01" purity="3.7128412723541260e-01" nType="-99"/>
          </Node>
        </Node>
      </Node>
    </BinaryTree>
    <BinaryTree type="DecisionTree" boostWeight="1.0000000000000000e+00" itree="47">
      <Node pos="s" depth="0" NCoef="0" IVar="4" Cut="7.0360069274902344e+01" cType="1" res="1.1284915963187814e-03" rms="3.1063559651374817e-01" purity="5.0206398963928223e-01" nType="0">
        <Node pos="l" depth="1" NCoef="0" IVar="8" Cut="4.6509033441543579e-01" cType="1" res="-3.6409173160791397e-02" rms="3.3599582314491272e-01" purity="2.4150955677032471e-01" nType="0">
          <Node pos="l" depth="2" NCoef="0" IVar="9" Cut="4.7999250888824463e-01" cType="1" res="-4.8639491200447083e-02" rms="3.1716457009315491e-01" purity="2.0814618468284607e-01" nType="0">
            <Node pos="l" depth="3" NCoef="0" IVar="0" Cut="1.0975610017776489e+00" cType="1" res="-5.9369027614593506e-02" rms="2.9525813460350037e-01" purity="1.5298587083816528e-01" nType="0">
              <Node pos="l" depth="4" NCoef="0" IVar="-1" Cut="0.0000000000000000e+00" cType="1" res="-2.5275049731135368e-02" rms="2.2963714599609375e-01" purity="7.2211809456348419e-02" nType="-99"/>
              <Node pos="r" depth="4" NCoef="0" IVar="-1" Cut="0.0000000000000000e+00" cType="1" res="-2.4713380262255669e-02" rms="3.5985749959945679e-01" purity="2.5407916307449341e-01" nType="-99"/>
            </Node>
            <Node pos="r" depth="3" NCoef="0" IVar="-1" Cut="0.0000000000000000e+00" cType="1" res="-9.9771842360496521e-03" rms="3.5149404406547546e-01" purity="3.0480808019638062e-01" nType="-99"/>
          </Node>
          <Node pos="r" depth="2" NCoef="0" IVar="-1" Cut="0.0000000000000000e+00" cType="1" res="-1.1516679078340530e-03" rms="3.7992107868194580e-01" purity="3.3080151677131653e-01" nType="-99"/>
        </Node>
        <Node pos="r" depth="1" NCoef="0" IVar="4" Cut="1.3608186340332031e+02" cType="1" res="6.4058159478008747e-03" rms="3.0653399229049683e-01" purity="5.3869462013244629e-01" nType="0">
          <Node pos="l" depth="2" NCoef="0" IVar="4" Cut="1.0241941070556641e+02" cType="1" res="1.7496876418590546e-02" rms="3.0576556921005249e-01" purity="6.4714628458023071e-01" nType="0">
            <Node pos="l" depth="3" NCoef="0" IVar="5" Cut="9.5205024719238281e+01" cType="1" res="-2.7125044725835323e-03" rms="3.2508137822151184e-01" purity="5.1969397068023682e-01" nType="0">
              <Node pos="l" depth="4" NCoef="0" IVar="5" Cut="7.2992141723632812e+01" cType="1" res="9.6315052360296249e-03" rms="3.2865822315216064e-01" purity="6.3213133811950684e-01" nType="0">
                <Node pos="l" depth="5" NCoef="0" IVar="-1" Cut="0.0000000000000000e+00" cType="1" res="-4.7915796749293804e-03" rms="3.5693839192390442e-01" purity="5.1706653833389282e-01" nType="-99"/>
                <Node pos="r" depth="5" NCoef="0" IVar="-1" Cut="0.0000000000000000e+00" cType="1" res="1.1259570717811584e-02" rms="3.0412894487380981e-01" purity="7.1985465288162231e-01" nType="-99"/>
              </Node>
              <Node pos="r" depth="4" NCoef="0" IVar="9" Cut="4.9098253250122070e-01" cType="1" res="-2.4396469816565514e-02" rms="3.1754124164581299e-01" purity="3.2218199968338013e-01" nType="0">
                <Node pos="l" depth="5" NCoef="0" IVar="-1" Cut="0.0000000000000000e+00" cType="1" res="-1.4969766139984131e-02" rms="3.1439611315727234e-01" purity="2.7418315410614014e-01" nType="-99"/>
                <Node pos="r" depth="5" NCoef="0" IVar="-1" Cut="0.0000000000000000e+00" cType="1" res="3.3225419465452433e-03" rms="3.2438683509826660e-01" purity="4.6340811252593994e-01" nType="-99"/>
              </Node>
            </Node>
            <Node pos="r" depth="3" NCoef="0" IVar="6" Cut="5.3637051582336426e-01" cType="1" res="2.9757432639598846e-02" rms="2.9274892807006836e-01" purity="7.2446864843368530e-01" nType="0">
              <Node pos="l" depth="4" NCoef="0" IVar="-1" Cut="0.0000000000000000e+00" cType="1" res="-7.6589263044297695e-03" rms="3.2633054256439209e-01" purity="4.8815572261810303e-01" nType="-99"/>
              <Node pos="r" depth="4" NCoef="0" IVar="9" Cut="1.3431765139102936e-01" cType="1" res="3.3770810812711716e-02" rms="2.8952673077583313e-01" purity="7.4331665039062500e-01" nType="0">
                <Node pos="l" depth="5" NCoef="0" IVar="-1" Cut="0.0000000000000000e+00" cType="1" res="-3.8011313881725073e-03" rms="3.6157441139221191e-01" purity="3.6772707104682922e-01" nType="-99"/>
                <Node pos="r" depth="5" NCoef="0" IVar="-1" Cut="0.0000000000000000e+00" cType="1" res="1.6770897433161736e-02" rms="2.8319391608238220e-01" purity="7.7103716135025024e-01" nType="-99"/>
              </Node>
            </Node>
          </Node>
          <Node pos="r" depth="2" NCoef="0" IVar="8" Cut="3.6033210158348083e-01" cType="1" res="-1.9203385338187218e-02" rms="3.0677288770675659e-01" purity="2.8828045725822449e-01" nType="0">
            <Node pos="l" depth="3" NCoef="0" IVar="8" Cut="2.9012528061866760e-01" cType="1" res="-3.2370835542678833e-02" rms="2.9283121228218079e-01" purity="2.0818409323692322e-01" nType="0">
              <Node pos="l" depth="4" NCoef="0" IVar="7" Cut="2.9443173408508301e+00" cType="1" res="-3.7872057408094406e-02" rms="2.8132539987564087e-01" purity="1.7055648565292358e-01" nType="0">
                <Node pos="l" depth="5" NCoef="0" IVar="-1" Cut="0.0000000000000000e+00" cType="1" res="-2.0188195630908012e-02" rms="2.8601825237274170e-01" purity="1.7244654893875122e-01" nType="-99"/>
                <Node pos="r" depth="5" NCoef="0" IVar="-1" Cut="0.0000000000000000e+00" cType="1" res="-7.7613960020244122e-03" rms="2.6046404242515564e-01" purity="1.6298322379589081e-01" nType="-99"/>
              </Node>
              <Node pos="r" depth="4" NCoef="0" IVar="-1" Cut="0.0000000000000000e+00" cType="1" res="-5.5854669772088528e-03" rms="3.2714951038360596e-01" purity="3.3179986476898193e-01" nType="-99"/>
            </Node>
            <Node pos="r" depth="3" NCoef="0" IVar="6" Cut="2.5285973548889160e+00" cType="1" res="-1.4858096837997437e-03" rms="3.2374459505081177e-01" purity="3.9605477452278137e-01" nType="0">
              <Node pos="l" depth="4" NCoef="0" IVar="4" Cut="1.9165109252929688e+02" cType="1" res="-1.8594693392515182e-02" rms="3.2556417584419250e-01" purity="2.9026567935943604e-01" nType="0">
                <Node pos="l" depth="5" NCoef="0" IVar="-1" Cut="0.0000000000000000e+00" cType="1" res="-8.6581171490252018e-04" rms="3.4561225771903992e-01" purity="3.7232196331024170e-01" nType="-99"/>
                <Node pos="r" depth="5" NCoef="0" IVar="-1" Cut="0.0000000000000000e+00" cType="1" res="-2.1942771971225739e-02" rms="2.8051653504371643e-01" purity="1.3277560472488403e-01" nType="-99"/>
              </Node>
              <Node pos="r" depth="4" NCoef="0" IVar="-1" Cut="0.0000000000000000e+00" cType="1" res="1.1062652803957462e-02" rms="3.1776824593544006e-01" purity="5.9608244895935059e-01" nType="-99"/>
            </Node>
          </Node>
        </Node>
      </Node>
    </BinaryTree>
    <BinaryTree type="DecisionTree" boostWeight="1.0000000000000000e+00" itree="48">
      <Node pos="s" depth="0" NCoef="0" IVar="1" Cut="4.0243902206420898e+00" cType="1" res="8.4311328828334808e-04" rms="3.1104516983032227e-01" purity="4.9921625852584839e-01" nType="0">
        <Node pos="l" depth="1" NCoef="0" IVar="5" Cut="6.6192169189453125e+01" cType="1" res="-9.4612389802932739e-03" rms="3.1914594769477844e-01" purity="3.5793226957321167e-01" nType="0">
          <Node pos="l" depth="2" NCoef="0" IVar="8" Cut="5.9576576948165894e-01" cType="1" res="-3.3918686211109161e-02" rms="3.4593355655670166e-01" purity="2.9186660051345825e-01" nType="0">
            <Node pos="l" depth="3" NCoef="0" IVar="9" Cut="4.8201122879981995e-01" cType="1" res="-4.6228684484958649e-02" rms="3.3743950724601746e-01" purity="2.6994040608406067e-01" nType="0">
              <Node pos="l" depth="4" NCoef="0" IVar="8" Cut="4.2153057456016541e-01" cType="1" res="-5.3527805954217911e-02" rms="3.2872959971427917e-01" purity="2.3797811567783356e-01" nType="0">
                <Node pos="l" depth="5" NCoef="0" IVar="-1" Cut="0.0000000000000000e+00" cType="1" res="-2.6345450431108475e-02" rms="3.1200253963470459e-01" purity="1.8758258223533630e-01" nType="-99"/>
                <Node pos="r" depth="5" NCoef="0" IVar="-1" Cut="0.0000000000000000e+00" cType="1" res="-8.9578451588749886e-03" rms="3.6570915579795837e-01" purity="3.6323496699333191e-01" nType="-99"/>
              </Node>
              <Node pos="r" depth="4" NCoef="0" IVar="-1" Cut="0.0000000000000000e+00" cType="1" res="-6.5073929727077484e-03" rms="3.6594450473785400e-01" purity="3.8526728749275208e-01" nType="-99"/>
            </Node>
            <Node pos="r" depth="3" NCoef="0" IVar="-1" Cut="0.0000000000000000e+00" cType="1" res="3.6721259821206331e-03" rms="3.7193334102630615e-01" purity="3.7213581800460815e-01" nType="-99"/>
          </Node>
          <Node pos="r" depth="2" NCoef="0" IVar="5" Cut="8.9072052001953125e+01" cType="1" res="-3.4658717922866344e-03" rms="3.1193631887435913e-01" purity="3.7412726879119873e-01" nType="0">
            <Node pos="l" depth="3" NCoef="0" IVar="3" Cut="3.0487804412841797e+00" cType="1" res="1.8500264734029770e-02" rms="3.3495929837226868e-01" purity="5.6180232763290405e-01" nType="0">
              <Node pos="l" depth="4" NCoef="0" IVar="2" Cut="4.0243902206420898e+00" cType="1" res="2.6774691417813301e-02" rms="3.3547320961952209e-01" purity="6.1331051588058472e-01" nType="0">
                <Node pos="l" depth="5" NCoef="0" IVar="-1" Cut="0.0000000000000000e+00" cType="1" res="1.1721271090209484e-02" rms="3.4424853324890137e-01" purity="6.8666517734527588e-01" nType="-99"/>
                <Node pos="r" depth="5" NCoef="0" IVar="-1" Cut="0.0000000000000000e+00" cType="1" res="-1.2912862934172153e-02" rms="2.6073658466339111e-01" purity="1.0285347700119019e-01" nType="-99"/>
              </Node>
              <Node pos="r" depth="4" NCoef="0" IVar="-1" Cut="0.0000000000000000e+00" cType="1" res="-1.2973282486200333e-02" rms="3.2679700851440430e-01" purity="2.3399555683135986e-01" nType="-99"/>
            </Node>
            <Node pos="r" depth="3" NCoef="0" IVar="9" Cut="3.5835945606231689e-01" cType="1" res="-1.6793226823210716e-02" rms="2.9630675911903381e-01" purity="2.6026052236557007e-01" nType="0">
              <Node pos="l" depth="4" NCoef="0" IVar="9" Cut="1.5752579271793365e-01" cType="1" res="-2.7445761486887932e-02" rms="2.7436491847038269e-01" purity="1.7117054760456085e-01" nType="0">
                <Node pos="l" depth="5" NCoef="0" IVar="-1" Cut="0.0000000000000000e+00" cType="1" res="-2.7702230960130692e-02" rms="2.0794849097728729e-01" purity="6.3578635454177856e-02" nType="-99"/>
                <Node pos="r" depth="5" NCoef="0" IVar="-1" Cut="0.0000000000000000e+00" cType="1" res="-9.3912100419402122e-03" rms="3.0010551214218140e-01" purity="2.2132058441638947e-01" nType="-99"/>
              </Node>
              <Node pos="r" depth="4" NCoef="0" IVar="2" Cut="1.0975610017776489e+00" cType="1" res="-1.1484064161777496e-03" rms="3.2523238658905029e-01" purity="3.9110228419303894e-01" nType="0">
                <Node pos="l" depth="5" NCoef="0" IVar="-1" Cut="0.0000000000000000e+00" cType="1" res="6.1012716032564640e-03" rms="3.6042147874832153e-01" purity="5.3617960214614868e-01" nType="-99"/>
                <Node pos="r" depth="5" NCoef="0" IVar="-1" Cut="0.0000000000000000e+00" cType="1" res="-1.4772989787161350e-02" rms="2.6308184862136841e-01" purity="1.7915786802768707e-01" nType="-99"/>
              </Node>
            </Node>
          </Node>
        </Node>
        <Node pos="r" depth="1" NCoef="0" IVar="9" Cut="1.2018571794033051e-01" cType="1" res="1.6858654096722603e-02" rms="2.9730966687202454e-01" purity="7.1880692243576050e-01" nType="0">
          <Node pos="l" depth="2" NCoef="0" IVar="-1" Cut="0.0000000000000000e+00" cType="1" res="-1.6015179455280304e-02" rms="3.3225014805793762e-01" purity="2.7852204442024231e-01" nType="-99"/>
          <Node pos="r" depth="2" NCoef="0" IVar="8" Cut="2.3840408027172089e-01" cType="1" res="2.0941697061061859e-02" rms="2.9451194405555725e-01" purity="7.4626308679580688e-01" nType="0">
            <Node pos="l" depth="3" NCoef="0" IVar="4" Cut="1.3465861511230469e+02" cType="1" res="-6.4201839268207550e-03" rms="3.1907454133033752e-01" purity="5.8159130811691284e-01" nType="0">
              <Node pos="l" depth="4" NCoef="0" IVar="-1" Cut="0.0000000000000000e+00" cType="1" res="3.5751308314502239e-03" rms="3.2070079445838928e-01" purity="6.9310021400451660e-01" nType="-99"/>
              <Node pos="r" depth="4" NCoef="0" IVar="-1" Cut="0.0000000000000000e+00" cType="1" res="-2.0595975220203400e-02" rms="3.0978342890739441e-01" purity="2.5952482223510742e-01" nType="-99"/>
            </Node>
            <Node pos="r" depth="3" NCoef="0" IVar="5" Cut="7.0333999633789062e+01" cType="1" res="2.8769999742507935e-02" rms="2.8661799430847168e-01" purity="7.9337614774703979e-01" nType="0">
              <Node pos="l" depth="4" NCoef="0" IVar="-1" Cut="0.0000000000000000e+00" cType="1" res="2.4831590708345175e-03" rms="3.3934688568115234e-01" purity="7.1524846553802490e-01" nType="-99"/>
              <Node pos="r" depth="4" NCoef="0" IVar="5" Cut="9.0016677856445312e+01" cType="1" res="3.5355888307094574e-02" rms="2.6858168840408325e-01" purity="8.1663155555725098e-01" nType="0">
                <Node pos="l" depth="5" NCoef="0" IVar="-1" Cut="0.0000000000000000e+00" cType="1" res="2.5281114503741264e-02" rms="2.2747789323329926e-01" purity="9.0357601642608643e-01" nType="-99"/>
                <Node pos="r" depth="5" NCoef="0" IVar="-1" Cut="0.0000000000000000e+00" cType="1" res="9.9153397604823112e-03" rms="3.0742052197456360e-01" purity="7.2028368711471558e-01" nType="-99"/>
              </Node>
            </Node>
          </Node>
        </Node>
      </Node>
    </BinaryTree>
    <BinaryTree type="DecisionTree" boostWeight="1.0000000000000000e+00" itree="49">
      <Node pos="s" depth="0" NCoef="0" IVar="2" Cut="2.0731706619262695e+00" cType="1" res="1.6534798778593540e-03" rms="3.1045427918434143e-01" purity="5.0199818611145020e-01" nType="0">
        <Node pos="l" depth="1" NCoef="0" IVar="6" Cut="6.8961799144744873e-01" cType="1" res="9.0593267232179642e-03" rms="3.2404553890228271e-01" purity="6.0665619373321533e-01" nType="0">
          <Node pos="l" depth="2" NCoef="0" IVar="7" Cut="6.9907641410827637e-01" cType="1" res="-2.9040899127721786e-02" rms="3.3696094155311584e-01" purity="3.7430393695831299e-01" nType="0">
            <Node pos="l" depth="3" NCoef="0" IVar="-1" Cut="0.0000000000000000e+00" cType="1" res="-2.2741183638572693e-02" rms="3.6232921481132507e-01" purity="3.7087753415107727e-01" nType="-99"/>
            <Node pos="r" depth="3" NCoef="0" IVar="0" Cut="3.0487804412841797e+00" cType="1" res="-1.3472362421452999e-02" rms="3.2401707768440247e-01" purity="3.7580263614654541e-01" nType="0">
              <Node pos="l" depth="4" NCoef="0" IVar="-1" Cut="0.0000000000000000e+00" cType="1" res="-1.5703815966844559e-02" rms="2.8221476078033447e-01" purity="1.8097105622291565e-01" nType="-99"/>
              <Node pos="r" depth="4" NCoef="0" IVar="-1" Cut="0.0000000000000000e+00" cType="1" res="2.3759352043271065e-03" rms="3.5908225178718567e-01" purity="5.6666338443756104e-01" nType="-99"/>
            </Node>
          </Node>
          <Node pos="r" depth="2" NCoef="0" IVar="8" Cut="1.0625641047954559e-01" cType="1" res="1.4154543168842793e-02" rms="3.2193747162818909e-01" purity="6.3772910833358765e-01" nType="0">
            <Node pos="l" depth="3" NCoef="0" IVar="-1" Cut="0.0000000000000000e+00" cType="1" res="-1.8853543326258659e-02" rms="3.1960719823837280e-01" purity="2.3216246068477631e-01" nType="-99"/>
            <Node pos="r" depth="3" NCoef="0" IVar="9" Cut="4.2473584413528442e-01" cType="1" res="1.7249694094061852e-02" rms="3.2173028588294983e-01" purity="6.5748995542526245e-01" nType="0">
              <Node pos="l" depth="4" NCoef="0" IVar="7" Cut="2.3335702419281006e+00" cType="1" res="7.9927714541554451e-03" rms="3.2965683937072754e-01" purity="5.9650212526321411e-01" nType="0">
                <Node pos="l" depth="5" NCoef="0" IVar="-1" Cut="0.0000000000000000e+00" cType="1" res="-9.4248389359563589e-04" rms="3.3479914069175720e-01" purity="5.9646469354629517e-01" nType="-99"/>
                <Node pos="r" depth="5" NCoef="0" IVar="-1" Cut="0.0000000000000000e+00" cType="1" res="1.7115794122219086e-02" rms="3.0715709924697876e-01" purity="5.9663873910903931e-01" nType="-99"/>
              </Node>
              <Node pos="r" depth="4" NCoef="0" IVar="8" Cut="3.2827156782150269e-01" cType="1" res="3.6646686494350433e-02" rms="3.0353826284408569e-01" purity="7.8528416156768799e-01" nType="0">
                <Node pos="l" depth="5" NCoef="0" IVar="-1" Cut="0.0000000000000000e+00" cType="1" res="7.6207388192415237e-03" rms="3.3645573258399963e-01" purity="6.9841051101684570e-01" nType="-99"/>
                <Node pos="r" depth="5" NCoef="0" IVar="-1" Cut="0.0000000000000000e+00" cType="1" res="2.2870024666190147e-02" rms="2.7148759365081787e-01" purity="8.5959315299987793e-01" nType="-99"/>
              </Node>
            </Node>
          </Node>
        </Node>
        <Node pos="r" depth="1" NCoef="0" IVar="8" Cut="4.5043459534645081e-01" cType="1" res="-2.1839534863829613e-02" rms="2.6134231686592102e-01" purity="1.6999934613704681e-01" nType="0">
          <Node pos="l" depth="2" NCoef="0" IVar="4" Cut="9.3315757751464844e+01" cType="1" res="-2.9475361108779907e-02" rms="2.3971773684024811e-01" purity="1.4253228902816772e-01" nType="0">
            <Node pos="l" depth="3" NCoef="0" IVar="0" Cut="1.0975610017776489e+00" cType="1" res="-4.1952002793550491e-02" rms="2.1492165327072144e-01" purity="8.3679094910621643e-02" nType="0">
              <Node pos="l" depth="4" NCoef="0" IVar="-1" Cut="0.0000000000000000e+00" cType="1" res="-2.9497062787413597e-02" rms="1.6102965176105499e-01" purity="3.4163303673267365e-02" nType="-99"/>
              <Node pos="r" depth="4" NCoef="0" IVar="-1" Cut="0.0000000000000000e+00" cType="1" res="-2.3296037688851357e-02" rms="2.8117647767066956e-01" purity="1.6483567655086517e-01" nType="-99"/>
            </Node>
            <Node pos="r" depth="3" NCoef="0" IVar="3" Cut="1.0975610017776489e+00" cType="1" res="-2.3133100941777229e-02" rms="2.5114893913269043e-01" purity="1.7244914174079895e-01" nType="0">
              <Node pos="l" depth="4" NCoef="0" IVar="0" Cut="3.0487804412841797e+00" cType="1" res="-1.5550071373581886e-02" rms="2.7054867148399353e-01" purity="2.1479195356369019e-01" nType="0">
                <Node pos="l" depth="5" NCoef="0" IVar="-1" Cut="0.0000000000000000e+00" cType="1" res="-2.0455757156014442e-02" rms="2.1128673851490021e-01" purity="9.4127796590328217e-02" nType="-99"/>
                <Node pos="r" depth="5" NCoef="0" IVar="-1" Cut="0.0000000000000000e+00" cType="1" res="8.4725511260330677e-04" rms="3.2987466454505920e-01" purity="3.6771169304847717e-01" nType="-99"/>
              </Node>
              <Node pos="r" depth="4" NCoef="0" IVar="-1" Cut="0.0000000000000000e+00" cType="1" res="-2.8104163706302643e-02" rms="1.9812296330928802e-01" purity="7.4619472026824951e-02" nType="-99"/>
            </Node>
          </Node>
          <Node pos="r" depth="2" NCoef="0" IVar="9" Cut="2.8941157460212708e-01" cType="1" res="1.0404087370261550e-03" rms="3.1633555889129639e-01" purity="2.5230151414871216e-01" nType="0">
            <Node pos="l" depth="3" NCoef="0" IVar="-1" Cut="0.0000000000000000e+00" cType="1" res="-9.4251250848174095e-03" rms="2.8750303387641907e-01" purity="1.4051653444766998e-01" nType="-99"/>
            <Node pos="r" depth="3" NCoef="0" IVar="-1" Cut="0.0000000000000000e+00" cType="1" res="7.7617387287318707e-03" rms="3.4340432286262512e-01" purity="3.7215390801429749e-01" nType="-99"/>
          </Node>
        </Node>
      </Node>
    </BinaryTree>
    <BinaryTree type="DecisionTree" boostWeight="1.0000000000000000e+00" itree="50">
      <Node pos="s" depth="0" NCoef="0" IVar="9" Cut="1.1922270059585571e-01" cType="1" res="1.6035172156989574e-03" rms="3.1097647547721863e-01" purity="5.0172454118728638e-01" nType="0">
        <Node pos="l" depth="1" NCoef="0" IVar="9" Cut="6.4062304794788361e-02" cType="1" res="-3.8409110158681870e-02" rms="2.6579394936561584e-01" purity="1.3172696530818939e-01" nType="0">
          <Node pos="l" depth="2" NCoef="0" IVar="-1" Cut="0.0000000000000000e+00" cType="1" res="-4.0376260876655579e-02" rms="2.2167482972145081e-01" purity="6.1510752886533737e-02" nType="-99"/>
          <Node pos="r" depth="2" NCoef="0" IVar="9" Cut="8.8279001414775848e-02" cType="1" res="-2.2122211754322052e-02" rms="2.8242176771163940e-01" purity="1.6422539949417114e-01" nType="0">
            <Node pos="l" depth="3" NCoef="0" IVar="-1" Cut="0.0000000000000000e+00" cType="1" res="-2.0891960710287094e-02" rms="2.5652167201042175e-01" purity="1.1669378727674484e-01" nType="-99"/>
            <Node pos="r" depth="3" NCoef="0" IVar="-1" Cut="0.0000000000000000e+00" cType="1" res="-5.1924153231084347e-03" rms="2.9594942927360535e-01" purity="1.9192665815353394e-01" nType="-99"/>
          </Node>
        </Node>
        <Node pos="r" depth="1" NCoef="0" IVar="8" Cut="3.6107209324836731e-01" cType="1" res="5.0892019644379616e-03" rms="3.1436434388160706e-01" purity="5.3395670652389526e-01" nType="0">
          <Node pos="l" depth="2" NCoef="0" IVar="7" Cut="2.5597031116485596e+00" cType="1" res="-6.5206768922507763e-03" rms="3.0686396360397339e-01" purity="4.5560473203659058e-01" nType="0">
            <Node pos="l" depth="3" NCoef="0" IVar="9" Cut="4.5665922760963440e-01" cType="1" res="-1.5200017020106316e-02" rms="3.0943334102630615e-01" purity="4.5063731074333191e-01" nType="0">
              <Node pos="l" depth="4" NCoef="0" IVar="7" Cut="1.4983628988265991e+00" cType="1" res="-2.7554849162697792e-02" rms="3.0375230312347412e-01" purity="3.8970395922660828e-01" nType="0">
                <Node pos="l" depth="5" NCoef="0" IVar="-1" Cut="0.0000000000000000e+00" cType="1" res="-2.1720645949244499e-02" rms="3.1755527853965759e-01" purity="3.1239649653434753e-01" nType="-99"/>
                <Node pos="r" depth="5" NCoef="0" IVar="-1" Cut="0.0000000000000000e+00" cType="1" res="-9.9559663794934750e-04" rms="2.8514397144317627e-01" purity="4.7762405872344971e-01" nType="-99"/>
              </Node>
              <Node pos="r" depth="4" NCoef="0" IVar="5" Cut="9.6149093627929688e+01" cType="1" res="5.2484124898910522e-03" rms="3.1755912303924561e-01" purity="5.5148786306381226e-01" nType="0">
                <Node pos="l" depth="5" NCoef="0" IVar="-1" Cut="0.0000000000000000e+00" cType="1" res="7.6218275353312492e-03" rms="3.2315057516098022e-01" purity="6.8066948652267456e-01" nType="-99"/>
                <Node pos="r" depth="5" NCoef="0" IVar="-1" Cut="0.0000000000000000e+00" cType="1" res="-7.4486699886620045e-03" rms="3.0661672353744507e-01" purity="3.3635470271110535e-01" nType="-99"/>
              </Node>
            </Node>
            <Node pos="r" depth="3" NCoef="0" IVar="8" Cut="9.7031317651271820e-02" cType="1" res="3.0286820605397224e-02" rms="2.9287526011466980e-01" purity="4.7667059302330017e-01" nType="0">
              <Node pos="l" depth="4" NCoef="0" IVar="-1" Cut="0.0000000000000000e+00" cType="1" res="-2.2848028689622879e-02" rms="2.6852959394454956e-01" purity="1.4947929978370667e-01" nType="-99"/>
              <Node pos="r" depth="4" NCoef="0" IVar="6" Cut="1.9922337532043457e+00" cType="1" res="5.3280420601367950e-02" rms="2.9583734273910522e-01" purity="5.7373577356338501e-01" nType="0">
                <Node pos="l" depth="5" NCoef="0" IVar="-1" Cut="0.0000000000000000e+00" cType="1" res="1.6825444763526320e-03" rms="2.9609882831573486e-01" purity="3.0826687812805176e-01" nType="-99"/>
                <Node pos="r" depth="5" NCoef="0" IVar="-1" Cut="0.0000000000000000e+00" cType="1" res="3.0031977221369743e-02" rms="2.9258149862289429e-01" purity="7.0697045326232910e-01" nType="-99"/>
              </Node>
            </Node>
          </Node>
          <Node pos="r" depth="2" NCoef="0" IVar="8" Cut="9.1849112510681152e-01" cType="1" res="1.8921466544270515e-02" rms="3.2252812385559082e-01" purity="6.2730699777603149e-01" nType="0">
            <Node pos="l" depth="3" NCoef="0" IVar="4" Cut="7.6535736083984375e+01" cType="1" res="2.2369384765625000e-02" rms="3.1914472579956055e-01" purity="6.4172577857971191e-01" nType="0">
              <Node pos="l" depth="4" NCoef="0" IVar="8" Cut="5.5140978097915649e-01" cType="1" res="-1.3381389901041985e-02" rms="3.8288199901580811e-01" purity="3.4296458959579468e-01" nType="0">
                <Node pos="l" depth="5" NCoef="0" IVar="-1" Cut="0.0000000000000000e+00" cType="1" res="-1.0299194604158401e-02" rms="3.7066489458084106e-01" purity="3.2368612289428711e-01" nType="-99"/>
                <Node pos="r" depth="5" NCoef="0" IVar="-1" Cut="0.0000000000000000e+00" cType="1" res="8.1066824495792389e-03" rms="4.0542829036712646e-01" purity="3.8506004214286804e-01" nType="-99"/>
              </Node>
              <Node pos="r" depth="4" NCoef="0" IVar="6" Cut="9.9611407518386841e-01" cType="1" res="2.9295479878783226e-02" rms="3.0477720499038696e-01" purity="6.9960564374923706e-01" nType="0">
                <Node pos="l" depth="5" NCoef="0" IVar="-1" Cut="0.0000000000000000e+00" cType="1" res="1.8665971001610160e-03" rms="3.4798604249954224e-01" purity="5.0191980600357056e-01" nType="-99"/>
                <Node pos="r" depth="5" NCoef="0" IVar="-1" Cut="0.0000000000000000e+00" cType="1" res="1.4931521378457546e-02" rms="2.9476621747016907e-01" purity="7.4064457416534424e-01" nType="-99"/>
              </Node>
            </Node>
            <Node pos="r" depth="3" NCoef="0" IVar="-1" Cut="0.0000000000000000e+00" cType="1" res="-1.1646214872598648e-02" rms="3.6575940251350403e-01" purity="4.1067829728126526e-01" nType="-99"/>
          </Node>
        </Node>
      </Node>
    </BinaryTree>
    <BinaryTree type="DecisionTree" boostWeight="1.0000000000000000e+00" itree="51">
      <Node pos="s" depth="0" NCoef="0" IVar="5" Cut="6.2584239959716797e+01" cType="1" res="-1.1139614507555962e-03" rms="3.0909660458564758e-01" purity="4.9846377968788147e-01" nType="0">
        <Node pos="l" depth="1" NCoef="0" IVar="9" Cut="4.1213661432266235e-01" cType="1" res="-2.9171587899327278e-02" rms="3.5021567344665527e-01" purity="3.8949438929557800e-01" nType="0">
          <Node pos="l" depth="2" NCoef="0" IVar="8" Cut="5.0340145826339722e-01" cType="1" res="-4.2540393769741058e-02" rms="3.4047877788543701e-01" purity="3.3668529987335205e-01" nType="0">
            <Node pos="l" depth="3" NCoef="0" IVar="5" Cut="5.0264221191406250e+01" cType="1" res="-5.6570813059806824e-02" rms="3.2538118958473206e-01" purity="2.8295207023620605e-01" nType="0">
              <Node pos="l" depth="4" NCoef="0" IVar="-1" Cut="0.0000000000000000e+00" cType="1" res="-2.8057454153895378e-02" rms="3.2771885395050049e-01" purity="2.3363187909126282e-01" nType="-99"/>
              <Node pos="r" depth="4" NCoef="0" IVar="-1" Cut="0.0000000000000000e+00" cType="1" res="-1.6269654035568237e-02" rms="3.2194593548774719e-01" purity="3.3991584181785583e-01" nType="-99"/>
            </Node>
            <Node pos="r" depth="3" NCoef="0" IVar="-1" Cut="0.0000000000000000e+00" cType="1" res="-5.5704908445477486e-03" rms="3.6561009287834167e-01" purity="4.3718123435974121e-01" nType="-99"/>
          </Node>
          <Node pos="r" depth="2" NCoef="0" IVar="4" Cut="9.3902603149414062e+01" cType="1" res="-2.0075794309377670e-03" rms="3.6771577596664429e-01" purity="4.9679687619209290e-01" nType="0">
            <Node pos="l" depth="3" NCoef="0" IVar="-1" Cut="0.0000000000000000e+00" cType="1" res="-1.0643276385962963e-02" rms="3.7943741679191589e-01" purity="3.4510344266891479e-01" nType="-99"/>
            <Node pos="r" depth="3" NCoef="0" IVar="-1" Cut="0.0000000000000000e+00" cType="1" res="8.7395412847399712e-03" rms="3.5545346140861511e-01" purity="6.2358295917510986e-01" nType="-99"/>
          </Node>
        </Node>
        <Node pos="r" depth="1" NCoef="0" IVar="5" Cut="9.3472099304199219e+01" cType="1" res="4.1338196024298668e-03" rms="3.0049183964729309e-01" purity="5.1884496212005615e-01" nType="0">
          <Node pos="l" depth="2" NCoef="0" IVar="3" Cut="4.0243902206420898e+00" cType="1" res="2.0042926073074341e-02" rms="3.0103200674057007e-01" purity="6.8103379011154175e-01" nType="0">
            <Node pos="l" depth="3" NCoef="0" IVar="2" Cut="4.0243902206420898e+00" cType="1" res="2.5502512231469154e-02" rms="2.9782491922378540e-01" purity="7.1834427118301392e-01" nType="0">
              <Node pos="l" depth="4" NCoef="0" IVar="7" Cut="2.8965861797332764e+00" cType="1" res="3.0287351459264755e-02" rms="2.9952856898307800e-01" purity="7.7694022655487061e-01" nType="0">
                <Node pos="l" depth="5" NCoef="0" IVar="-1" Cut="0.0000000000000000e+00" cType="1" res="1.1353672482073307e-02" rms="2.9717567563056946e-01" purity="7.8687763214111328e-01" nType="-99"/>
                <Node pos="r" depth="5" NCoef="0" IVar="-1" Cut="0.0000000000000000e+00" cType="1" res="2.4746725335717201e-02" rms="3.2025414705276489e-01" purity="6.7219030857086182e-01" nType="-99"/>
              </Node>
              <Node pos="r" depth="4" NCoef="0" IVar="-1" Cut="0.0000000000000000e+00" cType="1" res="-1.0956344194710255e-02" rms="2.7543020248413086e-01" purity="1.2681779265403748e-01" nType="-99"/>
            </Node>
            <Node pos="r" depth="3" NCoef="0" IVar="-1" Cut="0.0000000000000000e+00" cType="1" res="-1.7178153619170189e-02" rms="3.3010551333427429e-01" purity="2.3482660949230194e-01" nType="-99"/>
          </Node>
          <Node pos="r" depth="2" NCoef="0" IVar="8" Cut="1.7815721035003662e-01" cType="1" res="-1.3210116885602474e-02" rms="2.9893872141838074e-01" purity="3.4202852845191956e-01" nType="0">
            <Node pos="l" depth="3" NCoef="0" IVar="7" Cut="3.1363928318023682e+00" cType="1" res="-4.0123384445905685e-02" rms="2.4575237929821014e-01" purity="1.2810648977756500e-01" nType="0">
              <Node pos="l" depth="4" NCoef="0" IVar="1" Cut="1.0975610017776489e+00" cType="1" res="-4.9484863877296448e-02" rms="2.4621416628360748e-01" purity="1.1876977980136871e-01" nType="0">
                <Node pos="l" depth="5" NCoef="0" IVar="-1" Cut="0.0000000000000000e+00" cType="1" res="-2.6949618011713028e-02" rms="1.9760049879550934e-01" purity="4.8934176564216614e-02" nType="-99"/>
                <Node pos="r" depth="5" NCoef="0" IVar="-1" Cut="0.0000000000000000e+00" cType="1" res="-2.8097502887248993e-02" rms="3.0790776014328003e-01" purity="2.3203197121620178e-01" nType="-99"/>
              </Node>
              <Node pos="r" depth="4" NCoef="0" IVar="-1" Cut="0.0000000000000000e+00" cType="1" res="-6.5372246317565441e-03" rms="2.4204795062541962e-01" purity="1.5692892670631409e-01" nType="-99"/>
            </Node>
            <Node pos="r" depth="3" NCoef="0" IVar="6" Cut="2.7584660053253174e+00" cType="1" res="-6.2043410725891590e-03" rms="3.1091463565826416e-01" purity="3.9771443605422974e-01" nType="0">
              <Node pos="l" depth="4" NCoef="0" IVar="5" Cut="1.2267932128906250e+02" cType="1" res="-1.5358472242951393e-02" rms="3.1643548607826233e-01" purity="3.0811306834220886e-01" nType="0">
                <Node pos="l" depth="5" NCoef="0" IVar="-1" Cut="0.0000000000000000e+00" cType="1" res="-2.5635464116930962e-03" rms="3.2655358314514160e-01" purity="3.6868080496788025e-01" nType="-99"/>
                <Node pos="r" depth="5" NCoef="0" IVar="-1" Cut="0.0000000000000000e+00" cType="1" res="-1.2088089250028133e-02" rms="3.0230414867401123e-01" purity="2.2906917333602905e-01" nType="-99"/>
              </Node>
              <Node pos="r" depth="4" NCoef="0" IVar="9" Cut="2.5804230570793152e-01" cType="1" res="1.7772795632481575e-02" rms="2.9462125897407532e-01" purity="6.3240456581115723e-01" nType="0">
                <Node pos="l" depth="5" NCoef="0" IVar="-1" Cut="0.0000000000000000e+00" cType="1" res="-1.0338712483644485e-02" rms="3.2248720526695251e-01" purity="3.2994121313095093e-01" nType="-99"/>
                <Node pos="r" depth="5" NCoef="0" IVar="-1" Cut="0.0000000000000000e+00" cType="1" res="1.5186385251581669e-02" rms="2.8107851743698120e-01" purity="7.4978655576705933e-01" nType="-99"/>
              </Node>
            </Node>
          </Node>
        </Node>
      </Node>
    </BinaryTree>
    <BinaryTree type="DecisionTree" boostWeight="1.0000000000000000e+00" itree="52">
      <Node pos="s" depth="0" NCoef="0" IVar="4" Cut="6.4300483703613281e+01" cType="1" res="-2.7603917988017201e-04" rms="3.0750259757041931e-01" purity="5.0174194574356079e-01" nType="0">
        <Node pos="l" depth="1" NCoef="0" IVar="1" Cut="2.0731706619262695e+00" cType="1" res="-3.9051283150911331e-02" rms="3.3171275258064270e-01" purity="2.2011049091815948e-01" nType="0">
          <Node pos="l" depth="2" NCoef="0" IVar="4" Cut="4.0420040130615234e+01" cType="1" res="-2.7979923412203789e-02" rms="3.1288126111030579e-01" purity="1.8642592430114746e-01" nType="0">
            <Node pos="l" depth="3" NCoef="0" IVar="-1" Cut="0.0000000000000000e+00" cType="1" res="-2.0904920995235443e-02" rms="2.9249078035354614e-01" purity="1.4258103072643280e-01" nType="-99"/>
            <Node pos="r" depth="3" NCoef="0" IVar="8" Cut="3.3257099986076355e-01" cType="1" res="-1.9777148962020874e-02" rms="3.2043415307998657e-01" purity="2.0424340665340424e-01" nType="0">
              <Node pos="l" depth="4" NCoef="0" IVar="-1" Cut="0.0000000000000000e+00" cType="1" res="-1.5234194695949554e-02" rms="2.7701336145401001e-01" purity="1.3228504359722137e-01" nType="-99"/>
              <Node pos="r" depth="4" NCoef="0" IVar="-1" Cut="0.0000000000000000e+00" cType="1" res="-3.6615068092942238e-03" rms="3.5294145345687866e-01" purity="2.6551762223243713e-01" nType="-99"/>
            </Node>
          </Node>
          <Node pos="r" depth="2" NCoef="0" IVar="-1" Cut="0.0000000000000000e+00" cType="1" res="-2.0174955949187279e-02" rms="3.7539461255073547e-01" purity="3.0909571051597595e-01" nType="-99"/>
        </Node>
        <Node pos="r" depth="1" NCoef="0" IVar="9" Cut="2.9750758409500122e-01" cType="1" res="3.8722660392522812e-03" rms="3.0450642108917236e-01" purity="5.3187185525894165e-01" nType="0">
          <Node pos="l" depth="2" NCoef="0" IVar="9" Cut="6.5429866313934326e-02" cType="1" res="-1.2925755232572556e-02" rms="3.0593103170394897e-01" purity="3.6552146077156067e-01" nType="0">
            <Node pos="l" depth="3" NCoef="0" IVar="-1" Cut="0.0000000000000000e+00" cType="1" res="-4.3883576989173889e-02" rms="2.1243375539779663e-01" purity="5.1394939422607422e-02" nType="-99"/>
            <Node pos="r" depth="3" NCoef="0" IVar="7" Cut="2.9027819633483887e+00" cType="1" res="-8.7587656453251839e-03" rms="3.1061875820159912e-01" purity="3.8608583807945251e-01" nType="0">
              <Node pos="l" depth="4" NCoef="0" IVar="8" Cut="2.5264033675193787e-01" cType="1" res="-1.7406055703759193e-02" rms="3.1467434763908386e-01" purity="3.7486326694488525e-01" nType="0">
                <Node pos="l" depth="5" NCoef="0" IVar="-1" Cut="0.0000000000000000e+00" cType="1" res="-2.3958312347531319e-02" rms="2.6752007007598877e-01" purity="2.0079834759235382e-01" nType="-99"/>
                <Node pos="r" depth="5" NCoef="0" IVar="-1" Cut="0.0000000000000000e+00" cType="1" res="-3.2961352262645960e-03" rms="3.2761412858963013e-01" purity="4.2976441979408264e-01" nType="-99"/>
              </Node>
              <Node pos="r" depth="4" NCoef="0" IVar="8" Cut="1.4064356684684753e-01" cType="1" res="3.3787962049245834e-02" rms="2.8605678677558899e-01" purity="4.4130352139472961e-01" nType="0">
                <Node pos="l" depth="5" NCoef="0" IVar="-1" Cut="0.0000000000000000e+00" cType="1" res="-7.5168758630752563e-03" rms="2.6716962456703186e-01" purity="2.4385617673397064e-01" nType="-99"/>
                <Node pos="r" depth="5" NCoef="0" IVar="-1" Cut="0.0000000000000000e+00" cType="1" res="2.5541082024574280e-02" rms="2.9299870133399963e-01" purity="5.6495130062103271e-01" nType="-99"/>
              </Node>
            </Node>
          </Node>
          <Node pos="r" depth="2" NCoef="0" IVar="8" Cut="2.3842944204807281e-01" cType="1" res="1.6300765797495842e-02" rms="3.0284899473190308e-01" purity="6.5495091676712036e-01" nType="0">
            <Node pos="l" depth="3" NCoef="0" IVar="8" Cut="1.5705689787864685e-01" cType="1" res="-9.2230308800935745e-03" rms="3.1770494580268860e-01" purity="4.0905326604843140e-01" nType="0">
              <Node pos="l" depth="4" NCoef="0" IVar="8" Cut="8.8159620761871338e-02" cType="1" res="-2.9295949265360832e-02" rms="3.0546686053276062e-01" purity="2.8704944252967834e-01" nType="0">
                <Node pos="l" depth="5" NCoef="0" IVar="-1" Cut="0.0000000000000000e+00" cType="1" res="-2.0880674943327904e-02" rms="2.8483116626739502e-01" purity="1.7298176884651184e-01" nType="-99"/>
                <Node pos="r" depth="5" NCoef="0" IVar="-1" Cut="0.0000000000000000e+00" cType="1" res="-8.9436313137412071e-03" rms="3.1493490934371948e-01" purity="3.4364354610443115e-01" nType="-99"/>
              </Node>
              <Node pos="r" depth="4" NCoef="0" IVar="2" Cut="1.0975610017776489e+00" cType="1" res="7.6717329211533070e-03" rms="3.2669681310653687e-01" purity="5.1174020767211914e-01" nType="0">
                <Node pos="l" depth="5" NCoef="0" IVar="-1" Cut="0.0000000000000000e+00" cType="1" res="7.5006545521318913e-03" rms="3.4916070103645325e-01" purity="6.3680088520050049e-01" nType="-99"/>
                <Node pos="r" depth="5" NCoef="0" IVar="-1" Cut="0.0000000000000000e+00" cType="1" res="-1.1442943476140499e-02" rms="2.6666876673698425e-01" purity="2.2888725996017456e-01" nType="-99"/>
              </Node>
            </Node>
            <Node pos="r" depth="3" NCoef="0" IVar="7" Cut="1.4648332595825195e+00" cType="1" res="2.5364993140101433e-02" rms="2.9686713218688965e-01" purity="7.4227625131607056e-01" nType="0">
              <Node pos="l" depth="4" NCoef="0" IVar="8" Cut="3.5176983475685120e-01" cType="1" res="1.9518040120601654e-02" rms="3.0191844701766968e-01" purity="7.3398131132125854e-01" nType="0">
                <Node pos="l" depth="5" NCoef="0" IVar="-1" Cut="0.0000000000000000e+00" cType="1" res="-1.1719494359567761e-03" rms="3.2559841871261597e-01" purity="6.4204114675521851e-01" nType="-99"/>
                <Node pos="r" depth="5" NCoef="0" IVar="-1" Cut="0.0000000000000000e+00" cType="1" res="1.2688054703176022e-02" rms="2.9110416769981384e-01" purity="7.7186435461044312e-01" nType="-99"/>
              </Node>
              <Node pos="r" depth="4" NCoef="0" IVar="-1" Cut="0.0000000000000000e+00" cType="1" res="2.8678206726908684e-02" rms="2.5805893540382385e-01" purity="7.9668700695037842e-01" nType="-99"/>
            </Node>
          </Node>
        </Node>
      </Node>
    </BinaryTree>
    <BinaryTree type="DecisionTree" boostWeight="1.0000000000000000e+00" itree="53">
      <Node pos="s" depth="0" NCoef="0" IVar="0" Cut="1.0975610017776489e+00" cType="1" res="-2.3032394237816334e-03" rms="3.0759480595588684e-01" purity="4.9549499154090881e-01" nType="0">
        <Node pos="l" depth="1" NCoef="0" IVar="9" Cut="4.6377182006835938e-01" cType="1" res="0.0000000000000000e+00" rms="0.0000000000000000e+00" purity="1.7945101857185364e-01" nType="0">
          <Node pos="l" depth="2" NCoef="0" IVar="7" Cut="1.0638514757156372e+00" cType="1" res="0.0000000000000000e+00" rms="0.0000000000000000e+00" purity="1.5147836506366730e-01" nType="0">
            <Node pos="l" depth="3" NCoef="0" IVar="8" Cut="4.6791812777519226e-01" cType="1" res="0.0000000000000000e+00" rms="0.0000000000000000e+00" purity="1.5775217115879059e-01" nType="0">
              <Node pos="l" depth="4" NCoef="0" IVar="1" Cut="1.0975610017776489e+00" cType="1" res="0.0000000000000000e+00" rms="0.0000000000000000e+00" purity="1.1037758737802505e-01" nType="0">
                <Node pos="l" depth="5" NCoef="0" IVar="-1" Cut="0.0000000000000000e+00" cType="1" res="-2.3872070014476776e-02" rms="1.9404564797878265e-01" purity="4.1250102221965790e-02" nType="-99"/>
                <Node pos="r" depth="5" NCoef="0" IVar="-1" Cut="0.0000000000000000e+00" cType="1" res="-2.8545821085572243e-02" rms="3.0562561750411987e-01" purity="1.9837735593318939e-01" nType="-99"/>
              </Node>
              <Node pos="r" depth="4" NCoef="0" IVar="-1" Cut="0.0000000000000000e+00" cType="1" res="-6.3866265118122101e-03" rms="2.9979711771011353e-01" purity="2.3400679230690002e-01" nType="-99"/>
            </Node>
            <Node pos="r" depth="3" NCoef="0" IVar="9" Cut="1.2456750124692917e-01" cType="1" res="0.0000000000000000e+00" rms="0.0000000000000000e+00" purity="1.4736352860927582e-01" nType="0">
              <Node pos="l" depth="4" NCoef="0" IVar="-1" Cut="0.0000000000000000e+00" cType="1" res="-3.4092500805854797e-02" rms="1.5466147661209106e-01" purity="3.1051587313413620e-02" nType="-99"/>
              <Node pos="r" depth="4" NCoef="0" IVar="6" Cut="2.1454772949218750e+00" cType="1" res="0.0000000000000000e+00" rms="0.0000000000000000e+00" purity="1.7880831658840179e-01" nType="0">
                <Node pos="l" depth="5" NCoef="0" IVar="-1" Cut="0.0000000000000000e+00" cType="1" res="-1.2491591274738312e-02" rms="2.3715360462665558e-01" purity="8.9878812432289124e-02" nType="-99"/>
                <Node pos="r" depth="5" NCoef="0" IVar="-1" Cut="0.0000000000000000e+00" cType="1" res="2.8613533359020948e-03" rms="2.9322412610054016e-01" purity="2.8449809551239014e-01" nType="-99"/>
              </Node>
            </Node>
          </Node>
          <Node pos="r" depth="2" NCoef="0" IVar="8" Cut="2.2046856582164764e-01" cType="1" res="0.0000000000000000e+00" rms="0.0000000000000000e+00" purity="2.6991024613380432e-01" nType="0">
            <Node pos="l" depth="3" NCoef="0" IVar="-1" Cut="0.0000000000000000e+00" cType="1" res="-1.2570651248097420e-02" rms="2.7479675412178040e-01" purity="1.3288688659667969e-01" nType="-99"/>
            <Node pos="r" depth="3" NCoef="0" IVar="1" Cut="1.0975610017776489e+00" cType="1" res="0.0000000000000000e+00" rms="0.0000000000000000e+00" purity="3.4769299626350403e-01" nType="0">
              <Node pos="l" depth="4" NCoef="0" IVar="-1" Cut="0.0000000000000000e+00" cType="1" res="-4.4640111736953259e-03" rms="3.2402640581130981e-01" purity="1.4550979435443878e-01" nType="-99"/>
              <Node pos="r" depth="4" NCoef="0" IVar="-1" Cut="0.0000000000000000e+00" cType="1" res="8.3099538460373878e-03" rms="3.8207712769508362e-01" purity="5.5685657262802124e-01" nType="-99"/>
            </Node>
          </Node>
        </Node>
        <Node pos="r" depth="1" NCoef="0" IVar="3" Cut="3.0487804412841797e+00" cType="1" res="5.4964176379144192e-03" rms="3.2257220149040222e-01" purity="6.5531736612319946e-01" nType="0">
          <Node pos="l" depth="2" NCoef="0" IVar="5" Cut="4.1496971130371094e+01" cType="1" res="1.0364119894802570e-02" rms="3.1676977872848511e-01" purity="6.9343692064285278e-01" nType="0">
            <Node pos="l" depth="3" NCoef="0" IVar="-1" Cut="0.0000000000000000e+00" cType="1" res="-1.5730684623122215e-02" rms="3.9836326241493225e-01" purity="4.7630229592323303e-01" nType="-99"/>
            <Node pos="r" depth="3" NCoef="0" IVar="5" Cut="1.1664508056640625e+02" cType="1" res="1.3207151554524899e-02" rms="3.1227159500122070e-01" purity="7.0327210426330566e-01" nType="0">
              <Node pos="l" depth="4" NCoef="0" IVar="4" Cut="1.8074920654296875e+02" cType="1" res="1.8962046131491661e-02" rms="3.0688264966011047e-01" purity="7.5518268346786499e-01" nType="0">
                <Node pos="l" depth="5" NCoef="0" IVar="-1" Cut="0.0000000000000000e+00" cType="1" res="9.8917838186025620e-03" rms="3.0157563090324402e-01" purity="7.8683602809906006e-01" nType="-99"/>
                <Node pos="r" depth="5" NCoef="0" IVar="-1" Cut="0.0000000000000000e+00" cType="1" res="-8.9106606319546700e-03" rms="3.6428099870681763e-01" purity="3.5328099131584167e-01" nType="-99"/>
              </Node>
              <Node pos="r" depth="4" NCoef="0" IVar="9" Cut="3.4933432936668396e-01" cType="1" res="-1.5155991539359093e-02" rms="3.3614036440849304e-01" purity="4.4742974638938904e-01" nType="0">
                <Node pos="l" depth="5" NCoef="0" IVar="-1" Cut="0.0000000000000000e+00" cType="1" res="-1.1261167936027050e-02" rms="3.4094876050949097e-01" purity="3.0005440115928650e-01" nType="-99"/>
                <Node pos="r" depth="5" NCoef="0" IVar="-1" Cut="0.0000000000000000e+00" cType="1" res="1.3588258298113942e-03" rms="3.2922327518463135e-01" purity="6.2658274173736572e-01" nType="-99"/>
              </Node>
            </Node>
          </Node>
          <Node pos="r" depth="2" NCoef="0" IVar="5" Cut="1.0948778533935547e+02" cType="1" res="-2.6948843151330948e-02" rms="3.5716822743415833e-01" purity="4.0123441815376282e-01" nType="0">
            <Node pos="l" depth="3" NCoef="0" IVar="9" Cut="3.1017062067985535e-01" cType="1" res="-4.6396780759096146e-02" rms="3.6833772063255310e-01" purity="4.1341838240623474e-01" nType="0">
              <Node pos="l" depth="4" NCoef="0" IVar="-1" Cut="0.0000000000000000e+00" cType="1" res="-2.1992569789290428e-02" rms="3.4034731984138489e-01" purity="2.7510720491409302e-01" nType="-99"/>
              <Node pos="r" depth="4" NCoef="0" IVar="-1" Cut="0.0000000000000000e+00" cType="1" res="-8.6812674999237061e-03" rms="3.8889849185943604e-01" purity="5.2633130550384521e-01" nType="-99"/>
            </Node>
            <Node pos="r" depth="3" NCoef="0" IVar="-1" Cut="0.0000000000000000e+00" cType="1" res="-2.5735467716003768e-05" rms="3.3929994702339172e-01" purity="3.8439556956291199e-01" nType="-99"/>
          </Node>
        </Node>
      </Node>
    </BinaryTree>
    <BinaryTree type="DecisionTree" boostWeight="1.0000000000000000e+00" itree="54">
      <Node pos="s" depth="0" NCoef="0" IVar="4" Cut="8.7512832641601562e+01" cType="1" res="5.8767429436556995e-05" rms="3.0714094638824463e-01" purity="5.0066196918487549e-01" nType="0">
        <Node pos="l" depth="1" NCoef="0" IVar="4" Cut="3.9672595977783203e+01" cType="1" res="-2.3376528173685074e-02" rms="3.3165529370307922e-01" purity="3.1821024417877197e-01" nType="0">
          <Node pos="l" depth="2" NCoef="0" IVar="-1" Cut="0.0000000000000000e+00" cType="1" res="-2.6660477742552757e-02" rms="3.0480095744132996e-01" purity="1.4342047274112701e-01" nType="-99"/>
          <Node pos="r" depth="2" NCoef="0" IVar="8" Cut="6.2901520729064941e-01" cType="1" res="-1.8161213025450706e-02" rms="3.3443757891654968e-01" purity="3.3970323204994202e-01" nType="0">
            <Node pos="l" depth="3" NCoef="0" IVar="5" Cut="5.8976261138916016e+01" cType="1" res="-2.3575648665428162e-02" rms="3.2871726155281067e-01" purity="3.3117240667343140e-01" nType="0">
              <Node pos="l" depth="4" NCoef="0" IVar="-1" Cut="0.0000000000000000e+00" cType="1" res="-2.1632725372910500e-02" rms="3.4368899464607239e-01" purity="2.4120193719863892e-01" nType="-99"/>
              <Node pos="r" depth="4" NCoef="0" IVar="6" Cut="1.8389803171157837e+00" cType="1" res="-1.7549430951476097e-02" rms="3.2595700025558472e-01" purity="3.4486544132232666e-01" nType="0">
                <Node pos="l" depth="5" NCoef="0" IVar="-1" Cut="0.0000000000000000e+00" cType="1" res="-1.5004865825176239e-02" rms="3.0737274885177612e-01" purity="2.3633319139480591e-01" nType="-99"/>
                <Node pos="r" depth="5" NCoef="0" IVar="-1" Cut="0.0000000000000000e+00" cType="1" res="-1.9002691842615604e-03" rms="3.3820047974586487e-01" purity="4.2324891686439514e-01" nType="-99"/>
              </Node>
            </Node>
            <Node pos="r" depth="3" NCoef="0" IVar="-1" Cut="0.0000000000000000e+00" cType="1" res="8.5343923419713974e-03" rms="3.7524414062500000e-01" purity="4.0982475876808167e-01" nType="-99"/>
          </Node>
        </Node>
        <Node pos="r" depth="1" NCoef="0" IVar="4" Cut="1.3506999206542969e+02" cType="1" res="6.8570184521377087e-03" rms="2.9931148886680603e-01" purity="5.5358856916427612e-01" nType="0">
          <Node pos="l" depth="2" NCoef="0" IVar="1" Cut="1.0975610017776489e+00" cType="1" res="1.8764711916446686e-02" rms="2.9594570398330688e-01" purity="6.9322043657302856e-01" nType="0">
            <Node pos="l" depth="3" NCoef="0" IVar="0" Cut="1.0975610017776489e+00" cType="1" res="3.0430810875259340e-04" rms="3.3650356531143188e-01" purity="3.6644935607910156e-01" nType="0">
              <Node pos="l" depth="4" NCoef="0" IVar="9" Cut="3.2193168997764587e-01" cType="1" res="0.0000000000000000e+00" rms="0.0000000000000000e+00" purity="8.0124981701374054e-02" nType="0">
                <Node pos="l" depth="5" NCoef="0" IVar="-1" Cut="0.0000000000000000e+00" cType="1" res="-2.4367360398173332e-02" rms="1.7737065255641937e-01" purity="4.1516806930303574e-02" nType="-99"/>
                <Node pos="r" depth="5" NCoef="0" IVar="-1" Cut="0.0000000000000000e+00" cType="1" res="-5.2891541272401810e-03" rms="2.9249814152717590e-01" purity="1.2460952997207642e-01" nType="-99"/>
              </Node>
              <Node pos="r" depth="4" NCoef="0" IVar="5" Cut="7.0353019714355469e+01" cType="1" res="1.1726176366209984e-02" rms="3.7868961691856384e-01" purity="5.2109676599502563e-01" nType="0">
                <Node pos="l" depth="5" NCoef="0" IVar="-1" Cut="0.0000000000000000e+00" cType="1" res="-4.7324104234576225e-03" rms="4.2134577035903931e-01" purity="4.7465336322784424e-01" nType="-99"/>
                <Node pos="r" depth="5" NCoef="0" IVar="-1" Cut="0.0000000000000000e+00" cType="1" res="6.7229392006993294e-03" rms="3.6387193202972412e-01" purity="5.3557211160659790e-01" nType="-99"/>
              </Node>
            </Node>
            <Node pos="r" depth="3" NCoef="0" IVar="4" Cut="1.0607175445556641e+02" cType="1" res="2.6642691344022751e-02" rms="2.7645957469940186e-01" purity="8.3267003297805786e-01" nType="0">
              <Node pos="l" depth="4" NCoef="0" IVar="9" Cut="2.8420576453208923e-01" cType="1" res="1.0987258516252041e-02" rms="2.9875996708869934e-01" purity="7.8393954038619995e-01" nType="0">
                <Node pos="l" depth="5" NCoef="0" IVar="-1" Cut="0.0000000000000000e+00" cType="1" res="-4.7725173644721508e-03" rms="3.5344773530960083e-01" purity="6.2658214569091797e-01" nType="-99"/>
                <Node pos="r" depth="5" NCoef="0" IVar="-1" Cut="0.0000000000000000e+00" cType="1" res="1.0492932051420212e-02" rms="2.7408549189567566e-01" purity="8.4489285945892334e-01" nType="-99"/>
              </Node>
              <Node pos="r" depth="4" NCoef="0" IVar="7" Cut="1.8297371864318848e+00" cType="1" res="3.3277407288551331e-02" rms="2.6616856455802917e-01" purity="8.5332185029983521e-01" nType="0">
                <Node pos="l" depth="5" NCoef="0" IVar="-1" Cut="0.0000000000000000e+00" cType="1" res="1.4880362898111343e-02" rms="2.6291611790657043e-01" purity="8.6413991451263428e-01" nType="-99"/>
                <Node pos="r" depth="5" NCoef="0" IVar="-1" Cut="0.0000000000000000e+00" cType="1" res="2.1303215995430946e-02" rms="2.7483472228050232e-01" purity="8.2191079854965210e-01" nType="-99"/>
              </Node>
            </Node>
          </Node>
          <Node pos="r" depth="2" NCoef="0" IVar="6" Cut="2.9117183685302734e+00" cType="1" res="-1.5127886086702347e-02" rms="3.0420598387718201e-01" purity="2.9578956961631775e-01" nType="0">
            <Node pos="l" depth="3" NCoef="0" IVar="8" Cut="2.4930772185325623e-01" cType="1" res="-2.0190725103020668e-02" rms="3.0194109678268433e-01" purity="2.5506645441055298e-01" nType="0">
              <Node pos="l" depth="4" NCoef="0" IVar="1" Cut="1.0975610017776489e+00" cType="1" res="-3.2169528305530548e-02" rms="2.6236435770988464e-01" purity="1.3127641379833221e-01" nType="0">
                <Node pos="l" depth="5" NCoef="0" IVar="-1" Cut="0.0000000000000000e+00" cType="1" res="-1.2269146740436554e-02" rms="2.4550133943557739e-01" purity="9.1982968151569366e-02" nType="-99"/>
                <Node pos="r" depth="5" NCoef="0" IVar="-1" Cut="0.0000000000000000e+00" cType="1" res="-2.3618279024958611e-02" rms="2.8468593955039978e-01" purity="1.9039426743984222e-01" nType="-99"/>
              </Node>
              <Node pos="r" depth="4" NCoef="0" IVar="0" Cut="4.0243902206420898e+00" cType="1" res="-1.3317874632775784e-02" rms="3.2226178050041199e-01" purity="3.2609111070632935e-01" nType="0">
                <Node pos="l" depth="5" NCoef="0" IVar="-1" Cut="0.0000000000000000e+00" cType="1" res="-1.1438702233135700e-02" rms="2.7971908450126648e-01" purity="1.9457747042179108e-01" nType="-99"/>
                <Node pos="r" depth="5" NCoef="0" IVar="-1" Cut="0.0000000000000000e+00" cType="1" res="-5.3357449360191822e-05" rms="3.7019643187522888e-01" purity="4.9811288714408875e-01" nType="-99"/>
              </Node>
            </Node>
            <Node pos="r" depth="3" NCoef="0" IVar="-1" Cut="0.0000000000000000e+00" cType="1" res="4.9990327097475529e-03" rms="3.1515979766845703e-01" purity="5.2552425861358643e-01" nType="-99"/>
          </Node>
        </Node>
      </Node>
    </BinaryTree>
    <BinaryTree type="DecisionTree" boostWeight="1.0000000000000000e+00" itree="55">
      <Node pos="s" depth="0" NCoef="0" IVar="0" Cut="2.0731706619262695e+00" cType="1" res="1.2545600766316056e-03" rms="3.0832701921463013e-01" purity="5.0110399723052979e-01" nType="0">
        <Node pos="l" depth="1" NCoef="0" IVar="9" Cut="4.5099541544914246e-01" cType="1" res="-1.1739683337509632e-02" rms="2.8085601329803467e-01" purity="2.3378512263298035e-01" nType="0">
          <Node pos="l" depth="2" NCoef="0" IVar="8" Cut="4.6635276079177856e-01" cType="1" res="-1.7579907551407814e-02" rms="2.6170369982719421e-01" purity="1.9884827733039856e-01" nType="0">
            <Node pos="l" depth="3" NCoef="0" IVar="7" Cut="1.4256319999694824e+00" cType="1" res="-2.3482022807002068e-02" rms="2.4457184970378876e-01" purity="1.7672160267829895e-01" nType="0">
              <Node pos="l" depth="4" NCoef="0" IVar="1" Cut="1.0975610017776489e+00" cType="1" res="-4.3294966220855713e-02" rms="2.4937933683395386e-01" purity="1.4412088692188263e-01" nType="0">
                <Node pos="l" depth="5" NCoef="0" IVar="-1" Cut="0.0000000000000000e+00" cType="1" res="-2.6949686929583549e-02" rms="1.9044819474220276e-01" purity="4.3417703360319138e-02" nType="-99"/>
                <Node pos="r" depth="5" NCoef="0" IVar="-1" Cut="0.0000000000000000e+00" cType="1" res="-2.3254800587892532e-02" rms="3.0419149994850159e-01" purity="2.6333922147750854e-01" nType="-99"/>
              </Node>
              <Node pos="r" depth="4" NCoef="0" IVar="9" Cut="1.8709041178226471e-01" cType="1" res="-9.0865716338157654e-03" rms="2.3999497294425964e-01" purity="2.0040826499462128e-01" nType="0">
                <Node pos="l" depth="5" NCoef="0" IVar="-1" Cut="0.0000000000000000e+00" cType="1" res="-2.1515859290957451e-02" rms="1.8994803726673126e-01" purity="9.4759054481983185e-02" nType="-99"/>
                <Node pos="r" depth="5" NCoef="0" IVar="-1" Cut="0.0000000000000000e+00" cType="1" res="2.5813807733356953e-03" rms="2.6607382297515869e-01" purity="2.6777398586273193e-01" nType="-99"/>
              </Node>
            </Node>
            <Node pos="r" depth="3" NCoef="0" IVar="1" Cut="4.0243902206420898e+00" cType="1" res="-8.9450390078127384e-04" rms="3.0435496568679810e-01" purity="2.6140081882476807e-01" nType="0">
              <Node pos="l" depth="4" NCoef="0" IVar="5" Cut="8.0736633300781250e+01" cType="1" res="-1.3710644096136093e-02" rms="2.6823693513870239e-01" purity="1.3936361670494080e-01" nType="0">
                <Node pos="l" depth="5" NCoef="0" IVar="-1" Cut="0.0000000000000000e+00" cType="1" res="-1.2027779594063759e-02" rms="2.7933719754219055e-01" purity="1.4025297760963440e-01" nType="-99"/>
                <Node pos="r" depth="5" NCoef="0" IVar="-1" Cut="0.0000000000000000e+00" cType="1" res="-3.8262449670583010e-03" rms="2.5925093889236450e-01" purity="1.3868935406208038e-01" nType="-99"/>
              </Node>
              <Node pos="r" depth="4" NCoef="0" IVar="-1" Cut="0.0000000000000000e+00" cType="1" res="7.9806810244917870e-03" rms="3.6225628852844238e-01" purity="4.9455389380455017e-01" nType="-99"/>
            </Node>
          </Node>
          <Node pos="r" depth="2" NCoef="0" IVar="1" Cut="2.0731706619262695e+00" cType="1" res="5.2692755125463009e-03" rms="3.2977995276451111e-01" purity="3.3553457260131836e-01" nType="0">
            <Node pos="l" depth="3" NCoef="0" IVar="6" Cut="1.7623490095138550e+00" cType="1" res="-9.6586979925632477e-03" rms="3.0222186446189880e-01" purity="1.4507946372032166e-01" nType="0">
              <Node pos="l" depth="4" NCoef="0" IVar="-1" Cut="0.0000000000000000e+00" cType="1" res="-1.0785784572362900e-02" rms="2.9147431254386902e-01" purity="1.0850361734628677e-01" nType="-99"/>
              <Node pos="r" depth="4" NCoef="0" IVar="-1" Cut="0.0000000000000000e+00" cType="1" res="2.5376982521265745e-03" rms="3.1546267867088318e-01" purity="1.9430890679359436e-01" nType="-99"/>
            </Node>
            <Node pos="r" depth="3" NCoef="0" IVar="-1" Cut="0.0000000000000000e+00" cType="1" res="7.7576022595167160e-03" rms="3.6015188694000244e-01" purity="5.7143294811248779e-01" nType="-99"/>
          </Node>
        </Node>
        <Node pos="r" depth="1" NCoef="0" IVar="6" Cut="5.3637099266052246e-01" cType="1" res="9.4826230779290199e-03" rms="3.2425251603126526e-01" purity="6.7037248611450195e-01" nType="0">
          <Node pos="l" depth="2" NCoef="0" IVar="7" Cut="1.0731389522552490e+00" cType="1" res="-2.8241548687219620e-02" rms="3.5769850015640259e-01" purity="4.5156520605087280e-01" nType="0">
            <Node pos="l" depth="3" NCoef="0" IVar="-1" Cut="0.0000000000000000e+00" cType="1" res="-1.4817340299487114e-02" rms="3.7433728575706482e-01" purity="4.8373207449913025e-01" nType="-99"/>
            <Node pos="r" depth="3" NCoef="0" IVar="-1" Cut="0.0000000000000000e+00" cType="1" res="-4.6603218652307987e-03" rms="3.4027183055877686e-01" purity="4.2068970203399658e-01" nType="-99"/>
          </Node>
          <Node pos="r" depth="2" NCoef="0" IVar="7" Cut="3.0955011844635010e+00" cType="1" res="1.2650570832192898e-02" rms="3.2108372449874878e-01" purity="6.8874722719192505e-01" nType="0">
            <Node pos="l" depth="3" NCoef="0" IVar="9" Cut="2.6801636815071106e-01" cType="1" res="9.9021419882774353e-03" rms="3.2029345631599426e-01" purity="6.9724810123443604e-01" nType="0">
              <Node pos="l" depth="4" NCoef="0" IVar="8" Cut="2.8360855579376221e-01" cType="1" res="-1.5179077163338661e-02" rms="3.5682937502861023e-01" purity="4.9027782678604126e-01" nType="0">
                <Node pos="l" depth="5" NCoef="0" IVar="-1" Cut="0.0000000000000000e+00" cType="1" res="-1.7985025420784950e-02" rms="3.1579041481018066e-01" purity="3.8170081377029419e-01" nType="-99"/>
                <Node pos="r" depth="5" NCoef="0" IVar="-1" Cut="0.0000000000000000e+00" cType="1" res="-1.1863646795973182e-03" rms="3.7147682905197144e-01" purity="5.3408867120742798e-01" nType="-99"/>
              </Node>
              <Node pos="r" depth="4" NCoef="0" IVar="8" Cut="4.1113814711570740e-01" cType="1" res="1.9500350579619408e-02" rms="3.0461066961288452e-01" purity="7.7645260095596313e-01" nType="0">
                <Node pos="l" depth="5" NCoef="0" IVar="-1" Cut="0.0000000000000000e+00" cType="1" res="3.5611712373793125e-03" rms="3.1807041168212891e-01" purity="7.2666847705841064e-01" nType="-99"/>
                <Node pos="r" depth="5" NCoef="0" IVar="-1" Cut="0.0000000000000000e+00" cType="1" res="1.7350217327475548e-02" rms="2.8045558929443359e-01" purity="8.5736179351806641e-01" nType="-99"/>
              </Node>
            </Node>
            <Node pos="r" depth="3" NCoef="0" IVar="-1" Cut="0.0000000000000000e+00" cType="1" res="1.9773066043853760e-02" rms="3.3034083247184753e-01" purity="5.5355596542358398e-01" nType="-99"/>
          </Node>
        </Node>
      </Node>
    </BinaryTree>
    <BinaryTree type="DecisionTree" boostWeight="1.0000000000000000e+00" itree="56">
      <Node pos="s" depth="0" NCoef="0" IVar="1" Cut="2.0731706619262695e+00" cType="1" res="-9.8514591809362173e-04" rms="3.0750748515129089e-01" purity="4.9775388836860657e-01" nType="0">
        <Node pos="l" depth="1" NCoef="0" IVar="8" Cut="4.8031392693519592e-01" cType="1" res="-1.1390700004994869e-02" rms="3.1660896539688110e-01" purity="2.8158408403396606e-01" nType="0">
          <Node pos="l" depth="2" NCoef="0" IVar="5" Cut="7.3408187866210938e+01" cType="1" res="-1.6318321228027344e-02" rms="3.0647504329681396e-01" purity="2.6124063134193420e-01" nType="0">
            <Node pos="l" depth="3" NCoef="0" IVar="4" Cut="9.3539062500000000e+01" cType="1" res="-3.5075727850198746e-02" rms="3.2913970947265625e-01" purity="2.4258264899253845e-01" nType="0">
              <Node pos="l" depth="4" NCoef="0" IVar="-1" Cut="0.0000000000000000e+00" cType="1" res="-2.0910426974296570e-02" rms="3.2584631443023682e-01" purity="1.9243459403514862e-01" nType="-99"/>
              <Node pos="r" depth="4" NCoef="0" IVar="6" Cut="2.3753459453582764e+00" cType="1" res="-2.5808161124587059e-02" rms="3.3037492632865906e-01" purity="2.6753178238868713e-01" nType="0">
                <Node pos="l" depth="5" NCoef="0" IVar="-1" Cut="0.0000000000000000e+00" cType="1" res="-7.1390736848115921e-03" rms="3.2236650586128235e-01" purity="2.2912468016147614e-01" nType="-99"/>
                <Node pos="r" depth="5" NCoef="0" IVar="-1" Cut="0.0000000000000000e+00" cType="1" res="-1.4916969463229179e-02" rms="3.4383469820022583e-01" purity="3.3725035190582275e-01" nType="-99"/>
              </Node>
            </Node>
            <Node pos="r" depth="3" NCoef="0" IVar="7" Cut="1.8057094812393188e+00" cType="1" res="-1.0388793423771858e-02" rms="2.9870820045471191e-01" purity="2.6713871955871582e-01" nType="0">
              <Node pos="l" depth="4" NCoef="0" IVar="9" Cut="4.7831812500953674e-01" cType="1" res="-1.9392149522900581e-02" rms="3.1150761246681213e-01" purity="2.8538727760314941e-01" nType="0">
                <Node pos="l" depth="5" NCoef="0" IVar="-1" Cut="0.0000000000000000e+00" cType="1" res="-1.6145188361406326e-02" rms="2.9432314634323120e-01" purity="2.2283257544040680e-01" nType="-99"/>
                <Node pos="r" depth="5" NCoef="0" IVar="-1" Cut="0.0000000000000000e+00" cType="1" res="3.0855864752084017e-03" rms="3.4092578291893005e-01" purity="4.0758350491523743e-01" nType="-99"/>
              </Node>
              <Node pos="r" depth="4" NCoef="0" IVar="6" Cut="2.2220942974090576e+00" cType="1" res="5.9870472177863121e-03" rms="2.7313911914825439e-01" purity="2.3394721746444702e-01" nType="0">
                <Node pos="l" depth="5" NCoef="0" IVar="-1" Cut="0.0000000000000000e+00" cType="1" res="-1.1147430166602135e-02" rms="2.3525615036487579e-01" purity="1.1317646503448486e-01" nType="-99"/>
                <Node pos="r" depth="5" NCoef="0" IVar="-1" Cut="0.0000000000000000e+00" cType="1" res="1.3360699638724327e-02" rms="3.1044438481330872e-01" purity="3.7965980172157288e-01" nType="-99"/>
              </Node>
            </Node>
          </Node>
          <Node pos="r" depth="2" NCoef="0" IVar="0" Cut="4.0243902206420898e+00" cType="1" res="4.8213400878012180e-03" rms="3.4737980365753174e-01" purity="3.4851476550102234e-01" nType="0">
            <Node pos="l" depth="3" NCoef="0" IVar="9" Cut="2.7475172281265259e-01" cType="1" res="-8.4688151255249977e-03" rms="3.0205601453781128e-01" purity="1.9978699088096619e-01" nType="0">
              <Node pos="l" depth="4" NCoef="0" IVar="-1" Cut="0.0000000000000000e+00" cType="1" res="-1.1455648578703403e-02" rms="2.5083240866661072e-01" purity="9.6698001027107239e-02" nType="-99"/>
              <Node pos="r" depth="4" NCoef="0" IVar="-1" Cut="0.0000000000000000e+00" cType="1" res="8.7528652511537075e-04" rms="3.4938412904739380e-01" purity="3.1283167004585266e-01" nType="-99"/>
            </Node>
            <Node pos="r" depth="3" NCoef="0" IVar="5" Cut="7.7406761169433594e+01" cType="1" res="0.0000000000000000e+00" rms="0.0000000000000000e+00" purity="5.3803360462188721e-01" nType="0">
              <Node pos="l" depth="4" NCoef="0" IVar="-1" Cut="0.0000000000000000e+00" cType="1" res="2.9383229557424784e-03" rms="4.1672387719154358e-01" purity="5.3884285688400269e-01" nType="-99"/>
              <Node pos="r" depth="4" NCoef="0" IVar="-1" Cut="0.0000000000000000e+00" cType="1" res="9.5598539337515831e-03" rms="3.8063684105873108e-01" purity="5.3739488124847412e-01" nType="-99"/>
            </Node>
          </Node>
        </Node>
        <Node pos="r" depth="1" NCoef="0" IVar="4" Cut="1.8036238098144531e+02" cType="1" res="8.8986316695809364e-03" rms="2.9826959967613220e-01" purity="7.0308399200439453e-01" nType="0">
          <Node pos="l" depth="2" NCoef="0" IVar="4" Cut="6.1328071594238281e+01" cType="1" res="1.2748221866786480e-02" rms="2.9862904548645020e-01" purity="7.4257165193557739e-01" nType="0">
            <Node pos="l" depth="3" NCoef="0" IVar="-1" Cut="0.0000000000000000e+00" cType="1" res="-1.2755862437188625e-02" rms="3.7843635678291321e-01" purity="3.2532232999801636e-01" nType="-99"/>
            <Node pos="r" depth="3" NCoef="0" IVar="8" Cut="1.1416118592023849e-01" cType="1" res="1.5724295750260353e-02" rms="2.9347032308578491e-01" purity="7.6480615139007568e-01" nType="0">
              <Node pos="l" depth="4" NCoef="0" IVar="-1" Cut="0.0000000000000000e+00" cType="1" res="-1.6084263101220131e-02" rms="3.3883079886436462e-01" purity="3.6720931529998779e-01" nType="-99"/>
              <Node pos="r" depth="4" NCoef="0" IVar="9" Cut="1.7023840546607971e-01" cType="1" res="1.8658608198165894e-02" rms="2.9083320498466492e-01" purity="7.8350973129272461e-01" nType="0">
                <Node pos="l" depth="5" NCoef="0" IVar="-1" Cut="0.0000000000000000e+00" cType="1" res="-5.1710633561015129e-03" rms="3.6819514632225037e-01" purity="4.6957165002822876e-01" nType="-99"/>
                <Node pos="r" depth="5" NCoef="0" IVar="-1" Cut="0.0000000000000000e+00" cType="1" res="1.1184307746589184e-02" rms="2.8002971410751343e-01" purity="8.2049864530563354e-01" nType="-99"/>
              </Node>
            </Node>
          </Node>
          <Node pos="r" depth="2" NCoef="0" IVar="-1" Cut="0.0000000000000000e+00" cType="1" res="-1.6480155289173126e-02" rms="2.8904172778129578e-01" purity="1.9403427839279175e-01" nType="-99"/>
        </Node>
      </Node>
    </BinaryTree>
    <BinaryTree type="DecisionTree" boostWeight="1.0000000000000000e+00" itree="57">
      <Node pos="s" depth="0" NCoef="0" IVar="2" Cut="2.0731706619262695e+00" cType="1" res="9.9938921630382538e-04" rms="3.0787077546119690e-01" purity="5.0062000751495361e-01" nType="0">
        <Node pos="l" depth="1" NCoef="0" IVar="5" Cut="4.4544345855712891e+01" cType="1" res="6.6579901613295078e-03" rms="3.2116052508354187e-01" purity="6.0538506507873535e-01" nType="0">
          <Node pos="l" depth="2" NCoef="0" IVar="5" Cut="3.5040275573730469e+01" cType="1" res="-3.6957360804080963e-02" rms="3.6883604526519775e-01" purity="4.1036927700042725e-01" nType="0">
            <Node pos="l" depth="3" NCoef="0" IVar="-1" Cut="0.0000000000000000e+00" cType="1" res="-1.9381169229745865e-02" rms="3.6284178495407104e-01" purity="3.5642215609550476e-01" nType="-99"/>
            <Node pos="r" depth="3" NCoef="0" IVar="-1" Cut="0.0000000000000000e+00" cType="1" res="-6.6181914880871773e-03" rms="3.7268766760826111e-01" purity="4.5357561111450195e-01" nType="-99"/>
          </Node>
          <Node pos="r" depth="2" NCoef="0" IVar="6" Cut="1.1493628025054932e+00" cType="1" res="9.4823390245437622e-03" rms="3.1762039661407471e-01" purity="6.1801344156265259e-01" nType="0">
            <Node pos="l" depth="3" NCoef="0" IVar="9" Cut="6.0005503892898560e-01" cType="1" res="-9.6809016540646553e-03" rms="3.3447787165641785e-01" purity="4.2715731263160706e-01" nType="0">
              <Node pos="l" depth="4" NCoef="0" IVar="7" Cut="5.0444954633712769e-01" cType="1" res="-1.9928382709622383e-02" rms="3.3300420641899109e-01" purity="3.5399237275123596e-01" nType="0">
                <Node pos="l" depth="5" NCoef="0" IVar="-1" Cut="0.0000000000000000e+00" cType="1" res="-2.1841209381818771e-02" rms="3.5493630170822144e-01" purity="3.3236193656921387e-01" nType="-99"/>
                <Node pos="r" depth="5" NCoef="0" IVar="-1" Cut="0.0000000000000000e+00" cType="1" res="-4.3742358684539795e-03" rms="3.2692795991897583e-01" purity="3.5912761092185974e-01" nType="-99"/>
              </Node>
              <Node pos="r" depth="4" NCoef="0" IVar="-1" Cut="0.0000000000000000e+00" cType="1" res="8.4885600954294205e-03" rms="3.3706238865852356e-01" purity="6.6102492809295654e-01" nType="-99"/>
            </Node>
            <Node pos="r" depth="3" NCoef="0" IVar="9" Cut="1.6281059384346008e-01" cType="1" res="1.4617174863815308e-02" rms="3.1274977326393127e-01" purity="6.6915380954742432e-01" nType="0">
              <Node pos="l" depth="4" NCoef="0" IVar="9" Cut="8.7446138262748718e-02" cType="1" res="-1.5148630365729332e-02" rms="3.3125320076942444e-01" purity="3.0322286486625671e-01" nType="0">
                <Node pos="l" depth="5" NCoef="0" IVar="-1" Cut="0.0000000000000000e+00" cType="1" res="-2.8314115479588509e-02" rms="2.7649971842765808e-01" purity="1.1903505027294159e-01" nType="-99"/>
                <Node pos="r" depth="5" NCoef="0" IVar="-1" Cut="0.0000000000000000e+00" cType="1" res="1.4036369975656271e-03" rms="3.4892851114273071e-01" purity="3.7682330608367920e-01" nType="-99"/>
              </Node>
              <Node pos="r" depth="4" NCoef="0" IVar="7" Cut="1.9594892263412476e+00" cType="1" res="1.8923524767160416e-02" rms="3.0974459648132324e-01" purity="7.2209465503692627e-01" nType="0">
                <Node pos="l" depth="5" NCoef="0" IVar="-1" Cut="0.0000000000000000e+00" cType="1" res="5.1458226516842842e-03" rms="3.1237378716468811e-01" purity="7.2726374864578247e-01" nType="-99"/>
                <Node pos="r" depth="5" NCoef="0" IVar="-1" Cut="0.0000000000000000e+00" cType="1" res="1.9103117287158966e-02" rms="2.9712378978729248e-01" purity="7.0107501745223999e-01" nType="-99"/>
              </Node>
            </Node>
          </Node>
        </Node>
        <Node pos="r" depth="1" NCoef="0" IVar="8" Cut="2.2309437394142151e-01" cType="1" res="-1.6891475766897202e-02" rms="2.6063817739486694e-01" purity="1.6938306391239166e-01" nType="0">
          <Node pos="l" depth="2" NCoef="0" IVar="1" Cut="1.0975610017776489e+00" cType="1" res="-2.8548162430524826e-02" rms="1.9151882827281952e-01" purity="7.0800326764583588e-02" nType="0">
            <Node pos="l" depth="3" NCoef="0" IVar="0" Cut="1.0975610017776489e+00" cType="1" res="-2.1683502942323685e-02" rms="1.5736652910709381e-01" purity="3.3557236194610596e-02" nType="0">
              <Node pos="l" depth="4" NCoef="0" IVar="-1" Cut="0.0000000000000000e+00" cType="1" res="-2.9902437701821327e-02" rms="1.0839062184095383e-01" purity="1.2163510546088219e-02" nType="-99"/>
              <Node pos="r" depth="4" NCoef="0" IVar="-1" Cut="0.0000000000000000e+00" cType="1" res="-2.0476104691624641e-02" rms="2.0819629728794098e-01" purity="6.4279362559318542e-02" nType="-99"/>
            </Node>
            <Node pos="r" depth="3" NCoef="0" IVar="-1" Cut="0.0000000000000000e+00" cType="1" res="-2.2456994280219078e-02" rms="2.4590909481048584e-01" purity="1.4606492221355438e-01" nType="-99"/>
          </Node>
          <Node pos="r" depth="2" NCoef="0" IVar="0" Cut="4.0243902206420898e+00" cType="1" res="-1.1557408608496189e-02" rms="2.8660571575164795e-01" purity="2.1449425816535950e-01" nType="0">
            <Node pos="l" depth="3" NCoef="0" IVar="2" Cut="4.0243902206420898e+00" cType="1" res="-1.9450360909104347e-02" rms="2.4231472611427307e-01" purity="1.2884818017482758e-01" nType="0">
              <Node pos="l" depth="4" NCoef="0" IVar="-1" Cut="0.0000000000000000e+00" cType="1" res="-1.0674954392015934e-03" rms="3.1901046633720398e-01" purity="3.0132877826690674e-01" nType="-99"/>
              <Node pos="r" depth="4" NCoef="0" IVar="5" Cut="8.4908004760742188e+01" cType="1" res="-2.6437802240252495e-02" rms="2.0193816721439362e-01" purity="5.7653218507766724e-02" nType="0">
                <Node pos="l" depth="5" NCoef="0" IVar="-1" Cut="0.0000000000000000e+00" cType="1" res="-2.5346729904413223e-02" rms="2.0693095028400421e-01" purity="5.7348381727933884e-02" nType="-99"/>
                <Node pos="r" depth="5" NCoef="0" IVar="-1" Cut="0.0000000000000000e+00" cType="1" res="-1.6055677086114883e-02" rms="1.9873003661632538e-01" purity="5.7826612144708633e-02" nType="-99"/>
              </Node>
            </Node>
            <Node pos="r" depth="3" NCoef="0" IVar="6" Cut="1.6857371330261230e+00" cType="1" res="0.0000000000000000e+00" rms="0.0000000000000000e+00" purity="3.7796863913536072e-01" nType="0">
              <Node pos="l" depth="4" NCoef="0" IVar="-1" Cut="0.0000000000000000e+00" cType="1" res="-7.4114496819674969e-03" rms="3.5057166218757629e-01" purity="2.6794376969337463e-01" nType="-99"/>
              <Node pos="r" depth="4" NCoef="0" IVar="-1" Cut="0.0000000000000000e+00" cType="1" res="5.9504671953618526e-03" rms="3.5800650715827942e-01" purity="4.4467288255691528e-01" nType="-99"/>
            </Node>
          </Node>
        </Node>
      </Node>
    </BinaryTree>
    <BinaryTree type="DecisionTree" boostWeight="1.0000000000000000e+00" itree="58">
      <Node pos="s" depth="0" NCoef="0" IVar="9" Cut="2.3826093971729279e-01" cType="1" res="1.0712652001529932e-03" rms="3.0828791856765747e-01" purity="5.0035250186920166e-01" nType="0">
        <Node pos="l" depth="1" NCoef="0" IVar="7" Cut="2.8375432491302490e+00" cType="1" res="-1.5251932665705681e-02" rms="2.9763215780258179e-01" purity="2.8341948986053467e-01" nType="0">
          <Node pos="l" depth="2" NCoef="0" IVar="8" Cut="2.3405903577804565e-01" cType="1" res="-2.6256125420331955e-02" rms="3.0366811156272888e-01" purity="2.5715503096580505e-01" nType="0">
            <Node pos="l" depth="3" NCoef="0" IVar="-1" Cut="0.0000000000000000e+00" cType="1" res="-3.7590127438306808e-02" rms="2.2547554969787598e-01" purity="7.5114473700523376e-02" nType="-99"/>
            <Node pos="r" depth="3" NCoef="0" IVar="8" Cut="7.8817015886306763e-01" cType="1" res="-1.9301734864711761e-02" rms="3.1812906265258789e-01" purity="2.9788058996200562e-01" nType="0">
              <Node pos="l" depth="4" NCoef="0" IVar="8" Cut="3.1514886021614075e-01" cType="1" res="-1.4058871194720268e-02" rms="3.1566432118415833e-01" purity="3.0818915367126465e-01" nType="0">
                <Node pos="l" depth="5" NCoef="0" IVar="-1" Cut="0.0000000000000000e+00" cType="1" res="-2.1694762632250786e-02" rms="2.6401203870773315e-01" purity="2.3790159821510315e-01" nType="-99"/>
                <Node pos="r" depth="5" NCoef="0" IVar="-1" Cut="0.0000000000000000e+00" cType="1" res="-2.3951292969286442e-03" rms="3.2906195521354675e-01" purity="3.2914763689041138e-01" nType="-99"/>
              </Node>
              <Node pos="r" depth="4" NCoef="0" IVar="-1" Cut="0.0000000000000000e+00" cType="1" res="-2.0916540175676346e-02" rms="3.3089873194694519e-01" purity="2.3543353378772736e-01" nType="-99"/>
            </Node>
          </Node>
          <Node pos="r" depth="2" NCoef="0" IVar="9" Cut="9.3102134764194489e-02" cType="1" res="1.5231004916131496e-02" rms="2.7796816825866699e-01" purity="3.5617521405220032e-01" nType="0">
            <Node pos="l" depth="3" NCoef="0" IVar="-1" Cut="0.0000000000000000e+00" cType="1" res="-2.9294855892658234e-02" rms="2.2354206442832947e-01" purity="8.5808232426643372e-02" nType="-99"/>
            <Node pos="r" depth="3" NCoef="0" IVar="0" Cut="2.0731706619262695e+00" cType="1" res="4.1453465819358826e-02" rms="2.9298478364944458e-01" purity="4.6485584974288940e-01" nType="0">
              <Node pos="l" depth="4" NCoef="0" IVar="-1" Cut="0.0000000000000000e+00" cType="1" res="5.4656867869198322e-03" rms="2.5868222117424011e-01" purity="1.9836732745170593e-01" nType="-99"/>
              <Node pos="r" depth="4" NCoef="0" IVar="-1" Cut="0.0000000000000000e+00" cType="1" res="2.3804215714335442e-02" rms="3.1353929638862610e-01" purity="6.5782606601715088e-01" nType="-99"/>
            </Node>
          </Node>
        </Node>
        <Node pos="r" depth="1" NCoef="0" IVar="8" Cut="3.5765707492828369e-01" cType="1" res="7.6901451684534550e-03" rms="3.1226214766502380e-01" purity="5.8831650018692017e-01" nType="0">
          <Node pos="l" depth="2" NCoef="0" IVar="8" Cut="1.6585373878479004e-01" cType="1" res="-2.9457279015332460e-03" rms="3.1376340985298157e-01" purity="4.9016290903091431e-01" nType="0">
            <Node pos="l" depth="3" NCoef="0" IVar="8" Cut="7.6969310641288757e-02" cType="1" res="-2.8309322893619537e-02" rms="3.0061852931976318e-01" purity="2.6901507377624512e-01" nType="0">
              <Node pos="l" depth="4" NCoef="0" IVar="-1" Cut="0.0000000000000000e+00" cType="1" res="-3.2050009816884995e-02" rms="2.5488194823265076e-01" purity="1.1391231417655945e-01" nType="-99"/>
              <Node pos="r" depth="4" NCoef="0" IVar="7" Cut="2.3332500457763672e+00" cType="1" res="-1.9152674823999405e-02" rms="3.1197372078895569e-01" purity="3.1376656889915466e-01" nType="0">
                <Node pos="l" depth="5" NCoef="0" IVar="-1" Cut="0.0000000000000000e+00" cType="1" res="-1.2422104366123676e-02" rms="3.0849882960319519e-01" purity="2.8951478004455566e-01" nType="-99"/>
                <Node pos="r" depth="5" NCoef="0" IVar="-1" Cut="0.0000000000000000e+00" cType="1" res="9.7630539676174521e-04" rms="3.1947842240333557e-01" purity="3.7439578771591187e-01" nType="-99"/>
              </Node>
            </Node>
            <Node pos="r" depth="3" NCoef="0" IVar="7" Cut="1.7502629756927490e+00" cType="1" res="5.2350969053804874e-03" rms="3.1745535135269165e-01" purity="5.6149238348007202e-01" nType="0">
              <Node pos="l" depth="4" NCoef="0" IVar="9" Cut="5.6686294078826904e-01" cType="1" res="-8.3631640300154686e-03" rms="3.2895725965499878e-01" purity="5.2596133947372437e-01" nType="0">
                <Node pos="l" depth="5" NCoef="0" IVar="-1" Cut="0.0000000000000000e+00" cType="1" res="-9.2570418491959572e-03" rms="3.2910534739494324e-01" purity="4.9209263920783997e-01" nType="-99"/>
                <Node pos="r" depth="5" NCoef="0" IVar="-1" Cut="0.0000000000000000e+00" cType="1" res="1.0209702886641026e-02" rms="3.2621124386787415e-01" purity="6.0893428325653076e-01" nType="-99"/>
              </Node>
              <Node pos="r" depth="4" NCoef="0" IVar="6" Cut="2.1454691886901855e+00" cType="1" res="4.4759951531887054e-02" rms="2.7761048078536987e-01" purity="6.6476726531982422e-01" nType="0">
                <Node pos="l" depth="5" NCoef="0" IVar="-1" Cut="0.0000000000000000e+00" cType="1" res="1.4790433924645185e-03" rms="3.0957955121994019e-01" purity="3.9673379063606262e-01" nType="-99"/>
                <Node pos="r" depth="5" NCoef="0" IVar="-1" Cut="0.0000000000000000e+00" cType="1" res="2.9964480549097061e-02" rms="2.5795122981071472e-01" purity="7.9713708162307739e-01" nType="-99"/>
              </Node>
            </Node>
          </Node>
          <Node pos="r" depth="2" NCoef="0" IVar="6" Cut="1.7623553276062012e+00" cType="1" res="1.9531138241291046e-02" rms="3.1015345454216003e-01" purity="6.9759160280227661e-01" nType="0">
            <Node pos="l" depth="3" NCoef="0" IVar="9" Cut="5.7793259620666504e-01" cType="1" res="1.7982143908739090e-03" rms="3.4630572795867920e-01" purity="5.5997508764266968e-01" nType="0">
              <Node pos="l" depth="4" NCoef="0" IVar="4" Cut="1.0572692108154297e+02" cType="1" res="-7.9674767330288887e-03" rms="3.5092735290527344e-01" purity="5.1722115278244019e-01" nType="0">
                <Node pos="l" depth="5" NCoef="0" IVar="-1" Cut="0.0000000000000000e+00" cType="1" res="-1.0860089212656021e-02" rms="3.5779935121536255e-01" purity="4.2632263898849487e-01" nType="-99"/>
                <Node pos="r" depth="5" NCoef="0" IVar="-1" Cut="0.0000000000000000e+00" cType="1" res="3.0558770522475243e-03" rms="3.4504741430282593e-01" purity="5.8203017711639404e-01" nType="-99"/>
              </Node>
              <Node pos="r" depth="4" NCoef="0" IVar="-1" Cut="0.0000000000000000e+00" cType="1" res="9.3229999765753746e-03" rms="3.3421024680137634e-01" purity="6.5940028429031372e-01" nType="-99"/>
            </Node>
            <Node pos="r" depth="3" NCoef="0" IVar="9" Cut="4.0588903427124023e-01" cType="1" res="3.1700998544692993e-02" rms="2.8203541040420532e-01" purity="7.9203593730926514e-01" nType="0">
              <Node pos="l" depth="4" NCoef="0" IVar="7" Cut="9.0536826848983765e-01" cType="1" res="2.0539322867989540e-02" rms="3.0730813741683960e-01" purity="7.3835271596908569e-01" nType="0">
                <Node pos="l" depth="5" NCoef="0" IVar="-1" Cut="0.0000000000000000e+00" cType="1" res="9.3486031983047724e-04" rms="3.2782039046287537e-01" purity="6.9748300313949585e-01" nType="-99"/>
                <Node pos="r" depth="5" NCoef="0" IVar="-1" Cut="0.0000000000000000e+00" cType="1" res="2.1695770323276520e-02" rms="2.7490994334220886e-01" purity="7.9413652420043945e-01" nType="-99"/>
              </Node>
              <Node pos="r" depth="4" NCoef="0" IVar="-1" Cut="0.0000000000000000e+00" cType="1" res="2.6653533801436424e-02" rms="2.3619759082794189e-01" purity="8.7585836648941040e-01" nType="-99"/>
            </Node>
          </Node>
        </Node>
      </Node>
    </BinaryTree>
    <BinaryTree type="DecisionTree" boostWeight="1.0000000000000000e+00" itree="59">
      <Node pos="s" depth="0" NCoef="0" IVar="6" Cut="1.4558594226837158e+00" cType="1" res="1.5123074990697205e-04" rms="3.0572137236595154e-01" purity="5.0147360563278198e-01" nType="0">
        <Node pos="l" depth="1" NCoef="0" IVar="9" Cut="7.2035479545593262e-01" cType="1" res="-1.4976606704294682e-02" rms="3.1135004758834839e-01" purity="3.4451714158058167e-01" nType="0">
          <Node pos="l" depth="2" NCoef="0" IVar="4" Cut="9.9560813903808594e+01" cType="1" res="-2.0359162241220474e-02" rms="3.0835953354835510e-01" purity="3.1348702311515808e-01" nType="0">
            <Node pos="l" depth="3" NCoef="0" IVar="7" Cut="9.5191997289657593e-01" cType="1" res="-3.9861015975475311e-02" rms="3.1279754638671875e-01" purity="2.3629100620746613e-01" nType="0">
              <Node pos="l" depth="4" NCoef="0" IVar="-1" Cut="0.0000000000000000e+00" cType="1" res="-2.7201410382986069e-02" rms="3.2846882939338684e-01" purity="2.7091535925865173e-01" nType="-99"/>
              <Node pos="r" depth="4" NCoef="0" IVar="8" Cut="3.3481091260910034e-01" cType="1" res="-2.2215673699975014e-02" rms="3.0097174644470215e-01" purity="2.1402414143085480e-01" nType="0">
                <Node pos="l" depth="5" NCoef="0" IVar="-1" Cut="0.0000000000000000e+00" cType="1" res="-1.7406377941370010e-02" rms="2.7369695901870728e-01" purity="1.5717761218547821e-01" nType="-99"/>
                <Node pos="r" depth="5" NCoef="0" IVar="-1" Cut="0.0000000000000000e+00" cType="1" res="-3.4890575334429741e-03" rms="3.3235639333724976e-01" purity="2.8728619217872620e-01" nType="-99"/>
              </Node>
            </Node>
            <Node pos="r" depth="3" NCoef="0" IVar="0" Cut="4.0243902206420898e+00" cType="1" res="-1.0745282284915447e-02" rms="3.0569055676460266e-01" purity="3.5154256224632263e-01" nType="0">
              <Node pos="l" depth="4" NCoef="0" IVar="8" Cut="6.0171967744827271e-01" cType="1" res="-2.5791108608245850e-02" rms="2.7004218101501465e-01" purity="1.9122113287448883e-01" nType="0">
                <Node pos="l" depth="5" NCoef="0" IVar="-1" Cut="0.0000000000000000e+00" cType="1" res="-1.8115740269422531e-02" rms="2.4988728761672974e-01" purity="1.6220308840274811e-01" nType="-99"/>
                <Node pos="r" depth="5" NCoef="0" IVar="-1" Cut="0.0000000000000000e+00" cType="1" res="-3.0269704293459654e-03" rms="3.3308148384094238e-01" purity="2.9775890707969666e-01" nType="-99"/>
              </Node>
              <Node pos="r" depth="4" NCoef="0" IVar="4" Cut="1.4359196472167969e+02" cType="1" res="0.0000000000000000e+00" rms="0.0000000000000000e+00" purity="5.4870045185089111e-01" nType="0">
                <Node pos="l" depth="5" NCoef="0" IVar="-1" Cut="0.0000000000000000e+00" cType="1" res="7.5017493218183517e-03" rms="3.4116092324256897e-01" purity="6.9708579778671265e-01" nType="-99"/>
                <Node pos="r" depth="5" NCoef="0" IVar="-1" Cut="0.0000000000000000e+00" cType="1" res="-6.4166504889726639e-03" rms="3.4728124737739563e-01" purity="2.4244803190231323e-01" nType="-99"/>
              </Node>
            </Node>
          </Node>
          <Node pos="r" depth="2" NCoef="0" IVar="-1" Cut="0.0000000000000000e+00" cType="1" res="8.0285500735044479e-03" rms="3.2806578278541565e-01" purity="5.4738271236419678e-01" nType="-99"/>
        </Node>
        <Node pos="r" depth="1" NCoef="0" IVar="2" Cut="4.0243902206420898e+00" cType="1" res="6.5629589371383190e-03" rms="3.0307647585868835e-01" purity="5.6799745559692383e-01" nType="0">
          <Node pos="l" depth="2" NCoef="0" IVar="9" Cut="3.8303950428962708e-01" cType="1" res="1.1128094047307968e-02" rms="3.1398430466651917e-01" purity="6.5190392732620239e-01" nType="0">
            <Node pos="l" depth="3" NCoef="0" IVar="7" Cut="1.8769431114196777e+00" cType="1" res="2.0550442859530449e-03" rms="3.2472935318946838e-01" purity="5.7443970441818237e-01" nType="0">
              <Node pos="l" depth="4" NCoef="0" IVar="8" Cut="3.8866758346557617e-01" cType="1" res="-1.3850240968167782e-02" rms="3.4039434790611267e-01" purity="5.5746054649353027e-01" nType="0">
                <Node pos="l" depth="5" NCoef="0" IVar="-1" Cut="0.0000000000000000e+00" cType="1" res="-1.8683547154068947e-02" rms="3.4025922417640686e-01" purity="4.1005617380142212e-01" nType="-99"/>
                <Node pos="r" depth="5" NCoef="0" IVar="-1" Cut="0.0000000000000000e+00" cType="1" res="3.2656861003488302e-03" rms="3.3865985274314880e-01" purity="6.5655773878097534e-01" nType="-99"/>
              </Node>
              <Node pos="r" depth="4" NCoef="0" IVar="9" Cut="1.6829591989517212e-01" cType="1" res="2.6726635172963142e-02" rms="2.9713010787963867e-01" purity="6.0077702999114990e-01" nType="0">
                <Node pos="l" depth="5" NCoef="0" IVar="-1" Cut="0.0000000000000000e+00" cType="1" res="-1.8673992017284036e-03" rms="3.1977191567420959e-01" purity="3.5870510339736938e-01" nType="-99"/>
                <Node pos="r" depth="5" NCoef="0" IVar="-1" Cut="0.0000000000000000e+00" cType="1" res="1.7846155911684036e-02" rms="2.8440225124359131e-01" purity="7.1673202514648438e-01" nType="-99"/>
              </Node>
            </Node>
            <Node pos="r" depth="3" NCoef="0" IVar="8" Cut="2.0531824231147766e-01" cType="1" res="2.5203153491020203e-02" rms="2.9599615931510925e-01" purity="7.7207452058792114e-01" nType="0">
              <Node pos="l" depth="4" NCoef="0" IVar="4" Cut="1.0545610046386719e+02" cType="1" res="-5.1070060580968857e-03" rms="3.5326957702636719e-01" purity="4.9846264719963074e-01" nType="0">
                <Node pos="l" depth="5" NCoef="0" IVar="-1" Cut="0.0000000000000000e+00" cType="1" res="-4.1565531864762306e-03" rms="3.5714352130889893e-01" purity="4.5972394943237305e-01" nType="-99"/>
                <Node pos="r" depth="5" NCoef="0" IVar="-1" Cut="0.0000000000000000e+00" cType="1" res="3.6510685458779335e-04" rms="3.4974330663681030e-01" purity="5.3223025798797607e-01" nType="-99"/>
              </Node>
              <Node pos="r" depth="4" NCoef="0" IVar="7" Cut="8.3592331409454346e-01" cType="1" res="3.2104063779115677e-02" rms="2.8087475895881653e-01" purity="8.3436948060989380e-01" nType="0">
                <Node pos="l" depth="5" NCoef="0" IVar="-1" Cut="0.0000000000000000e+00" cType="1" res="1.2192253954708576e-02" rms="2.8493452072143555e-01" purity="8.3248925209045410e-01" nType="-99"/>
                <Node pos="r" depth="5" NCoef="0" IVar="-1" Cut="0.0000000000000000e+00" cType="1" res="2.1200319752097130e-02" rms="2.7294418215751648e-01" purity="8.3777225017547607e-01" nType="-99"/>
              </Node>
            </Node>
          </Node>
          <Node pos="r" depth="2" NCoef="0" IVar="0" Cut="3.0487804412841797e+00" cType="1" res="-1.9198039546608925e-02" rms="2.3041766881942749e-01" purity="9.4514392316341400e-02" nType="0">
            <Node pos="l" depth="3" NCoef="0" IVar="1" Cut="2.0731706619262695e+00" cType="1" res="-2.8569793328642845e-02" rms="1.5867623686790466e-01" purity="3.4359615296125412e-02" nType="0">
              <Node pos="l" depth="4" NCoef="0" IVar="6" Cut="2.5248632431030273e+00" cType="1" res="-2.2813679650425911e-02" rms="1.2896524369716644e-01" purity="1.9022593274712563e-02" nType="0">
                <Node pos="l" depth="5" NCoef="0" IVar="-1" Cut="0.0000000000000000e+00" cType="1" res="-2.9656859114766121e-02" rms="1.2342584878206253e-01" purity="1.5635864809155464e-02" nType="-99"/>
                <Node pos="r" depth="5" NCoef="0" IVar="-1" Cut="0.0000000000000000e+00" cType="1" res="-2.9789863154292107e-02" rms="1.3584986329078674e-01" purity="2.3517142981290817e-02" nType="-99"/>
              </Node>
              <Node pos="r" depth="4" NCoef="0" IVar="-1" Cut="0.0000000000000000e+00" cType="1" res="-2.4450885131955147e-02" rms="2.1288941800594330e-01" purity="7.0991203188896179e-02" nType="-99"/>
            </Node>
            <Node pos="r" depth="3" NCoef="0" IVar="-1" Cut="0.0000000000000000e+00" cType="1" res="-6.3068734016269445e-04" rms="3.2387939095497131e-01" purity="2.0717331767082214e-01" nType="-99"/>
          </Node>
        </Node>
      </Node>
    </BinaryTree>
    <BinaryTree type="DecisionTree" boostWeight="1.0000000000000000e+00" itree="60">
      <Node pos="s" depth="0" NCoef="0" IVar="4" Cut="8.7512908935546875e+01" cType="1" res="-1.2320352252572775e-03" rms="3.0587884783744812e-01" purity="4.9760282039642334e-01" nType="0">
        <Node pos="l" depth="1" NCoef="0" IVar="8" Cut="5.2295684814453125e-01" cType="1" res="-1.8868193030357361e-02" rms="3.3178344368934631e-01" purity="3.2091766595840454e-01" nType="0">
          <Node pos="l" depth="2" NCoef="0" IVar="9" Cut="5.9702616930007935e-01" cType="1" res="-2.6290308684110641e-02" rms="3.2068762183189392e-01" purity="3.0363810062408447e-01" nType="0">
            <Node pos="l" depth="3" NCoef="0" IVar="7" Cut="1.4256334304809570e+00" cType="1" res="-3.3155310899019241e-02" rms="3.1158003211021423e-01" purity="2.8448089957237244e-01" nType="0">
              <Node pos="l" depth="4" NCoef="0" IVar="8" Cut="2.9440274834632874e-01" cType="1" res="-4.7377701848745346e-02" rms="3.2381036877632141e-01" purity="3.1543576717376709e-01" nType="0">
                <Node pos="l" depth="5" NCoef="0" IVar="-1" Cut="0.0000000000000000e+00" cType="1" res="-3.3581964671611786e-02" rms="2.7528354525566101e-01" purity="1.6564436256885529e-01" nType="-99"/>
                <Node pos="r" depth="5" NCoef="0" IVar="-1" Cut="0.0000000000000000e+00" cType="1" res="-1.4369097538292408e-02" rms="3.4065982699394226e-01" purity="3.7439823150634766e-01" nType="-99"/>
              </Node>
              <Node pos="r" depth="4" NCoef="0" IVar="9" Cut="2.9140770435333252e-01" cType="1" res="-1.7291508615016937e-02" rms="2.9654163122177124e-01" purity="2.4995361268520355e-01" nType="0">
                <Node pos="l" depth="5" NCoef="0" IVar="-1" Cut="0.0000000000000000e+00" cType="1" res="-1.4636528678238392e-02" rms="2.7756699919700623e-01" purity="1.8299838900566101e-01" nType="-99"/>
                <Node pos="r" depth="5" NCoef="0" IVar="-1" Cut="0.0000000000000000e+00" cType="1" res="3.0539617000613362e-05" rms="3.2014581561088562e-01" purity="3.4261575341224670e-01" nType="-99"/>
              </Node>
            </Node>
            <Node pos="r" depth="3" NCoef="0" IVar="-1" Cut="0.0000000000000000e+00" cType="1" res="9.9050614517182112e-04" rms="3.5513955354690552e-01" purity="3.8455760478973389e-01" nType="-99"/>
          </Node>
          <Node pos="r" depth="2" NCoef="0" IVar="6" Cut="1.4558606147766113e+00" cType="1" res="1.2883920222520828e-02" rms="3.7390929460525513e-01" purity="3.9484015107154846e-01" nType="0">
            <Node pos="l" depth="3" NCoef="0" IVar="-1" Cut="0.0000000000000000e+00" cType="1" res="3.5226022009737790e-04" rms="3.7809148430824280e-01" purity="3.5213094949722290e-01" nType="-99"/>
            <Node pos="r" depth="3" NCoef="0" IVar="-1" Cut="0.0000000000000000e+00" cType="1" res="8.4331929683685303e-03" rms="3.6884957551956177e-01" purity="4.4151392579078674e-01" nType="-99"/>
          </Node>
        </Node>
        <Node pos="r" depth="1" NCoef="0" IVar="4" Cut="1.3110705566406250e+02" cType="1" res="3.9432980120182037e-03" rms="2.9765161871910095e-01" purity="5.4945111274719238e-01" nType="0">
          <Node pos="l" depth="2" NCoef="0" IVar="4" Cut="1.0984161376953125e+02" cType="1" res="1.5481910668313503e-02" rms="2.9531928896903992e-01" purity="6.9118916988372803e-01" nType="0">
            <Node pos="l" depth="3" NCoef="0" IVar="9" Cut="4.0885877609252930e-01" cType="1" res="4.4610374607145786e-03" rms="3.0883491039276123e-01" purity="6.2974822521209717e-01" nType="0">
              <Node pos="l" depth="4" NCoef="0" IVar="7" Cut="1.8057104349136353e+00" cType="1" res="-4.6924757771193981e-03" rms="3.2110077142715454e-01" purity="5.5345779657363892e-01" nType="0">
                <Node pos="l" depth="5" NCoef="0" IVar="-1" Cut="0.0000000000000000e+00" cType="1" res="-7.2723156772553921e-03" rms="3.3322826027870178e-01" purity="5.5298846960067749e-01" nType="-99"/>
                <Node pos="r" depth="5" NCoef="0" IVar="-1" Cut="0.0000000000000000e+00" cType="1" res="6.7125759087502956e-03" rms="2.9979422688484192e-01" purity="5.5420058965682983e-01" nType="-99"/>
              </Node>
              <Node pos="r" depth="4" NCoef="0" IVar="6" Cut="1.5324816703796387e+00" cType="1" res="1.7674729228019714e-02" rms="2.8970578312873840e-01" purity="7.3987841606140137e-01" nType="0">
                <Node pos="l" depth="5" NCoef="0" IVar="-1" Cut="0.0000000000000000e+00" cType="1" res="2.3478849325329065e-03" rms="3.1942752003669739e-01" purity="6.4627975225448608e-01" nType="-99"/>
                <Node pos="r" depth="5" NCoef="0" IVar="-1" Cut="0.0000000000000000e+00" cType="1" res="1.2882715091109276e-02" rms="2.7136418223381042e-01" purity="7.9242044687271118e-01" nType="-99"/>
              </Node>
            </Node>
            <Node pos="r" depth="3" NCoef="0" IVar="7" Cut="2.4702649116516113e+00" cType="1" res="2.4324120953679085e-02" rms="2.8370147943496704e-01" purity="7.4048429727554321e-01" nType="0">
              <Node pos="l" depth="4" NCoef="0" IVar="9" Cut="2.5050359964370728e-01" cType="1" res="2.0671714097261429e-02" rms="2.8222039341926575e-01" purity="7.5382250547409058e-01" nType="0">
                <Node pos="l" depth="5" NCoef="0" IVar="-1" Cut="0.0000000000000000e+00" cType="1" res="-2.9659108258783817e-03" rms="3.5301750898361206e-01" purity="5.0561726093292236e-01" nType="-99"/>
                <Node pos="r" depth="5" NCoef="0" IVar="-1" Cut="0.0000000000000000e+00" cType="1" res="1.4626828953623772e-02" rms="2.6261353492736816e-01" purity="8.1146854162216187e-01" nType="-99"/>
              </Node>
              <Node pos="r" depth="4" NCoef="0" IVar="-1" Cut="0.0000000000000000e+00" cType="1" res="1.9681856036186218e-02" rms="2.9167616367340088e-01" purity="6.5804392099380493e-01" nType="-99"/>
            </Node>
          </Node>
          <Node pos="r" depth="2" NCoef="0" IVar="5" Cut="7.0007087707519531e+01" cType="1" res="-1.3623393140733242e-02" rms="3.0031770467758179e-01" purity="3.3366519212722778e-01" nType="0">
            <Node pos="l" depth="3" NCoef="0" IVar="7" Cut="1.5957756042480469e+00" cType="1" res="-3.3742729574441910e-02" rms="3.1881222128868103e-01" purity="2.5937873125076294e-01" nType="0">
              <Node pos="l" depth="4" NCoef="0" IVar="6" Cut="1.6857204437255859e+00" cType="1" res="-2.1929550915956497e-02" rms="3.4521481394767761e-01" purity="3.1366625428199768e-01" nType="0">
                <Node pos="l" depth="5" NCoef="0" IVar="-1" Cut="0.0000000000000000e+00" cType="1" res="-4.0178531780838966e-03" rms="3.4344157576560974e-01" purity="2.6718497276306152e-01" nType="-99"/>
                <Node pos="r" depth="5" NCoef="0" IVar="-1" Cut="0.0000000000000000e+00" cType="1" res="-1.2098907493054867e-02" rms="3.4632211923599243e-01" purity="3.5109534859657288e-01" nType="-99"/>
              </Node>
              <Node pos="r" depth="4" NCoef="0" IVar="-1" Cut="0.0000000000000000e+00" cType="1" res="-2.9579652473330498e-02" rms="2.5135689973831177e-01" purity="1.4318956434726715e-01" nType="-99"/>
            </Node>
            <Node pos="r" depth="3" NCoef="0" IVar="5" Cut="8.9761688232421875e+01" cType="1" res="-7.8183887526392937e-03" rms="2.9451048374176025e-01" purity="3.5509899258613586e-01" nType="0">
              <Node pos="l" depth="4" NCoef="0" IVar="1" Cut="1.0975610017776489e+00" cType="1" res="1.1502288281917572e-02" rms="3.2096323370933533e-01" purity="5.4163062572479248e-01" nType="0">
                <Node pos="l" depth="5" NCoef="0" IVar="-1" Cut="0.0000000000000000e+00" cType="1" res="-3.2536757644265890e-03" rms="3.4426978230476379e-01" purity="3.4281596541404724e-01" nType="-99"/>
                <Node pos="r" depth="5" NCoef="0" IVar="-1" Cut="0.0000000000000000e+00" cType="1" res="1.1514912359416485e-02" rms="3.0090451240539551e-01" purity="6.9441998004913330e-01" nType="-99"/>
              </Node>
              <Node pos="r" depth="4" NCoef="0" IVar="6" Cut="2.9117195606231689e+00" cType="1" res="-1.8052566796541214e-02" rms="2.7894431352615356e-01" purity="2.5629302859306335e-01" nType="0">
                <Node pos="l" depth="5" NCoef="0" IVar="-1" Cut="0.0000000000000000e+00" cType="1" res="-1.2328970246016979e-02" rms="2.7469372749328613e-01" purity="2.0515260100364685e-01" nType="-99"/>
                <Node pos="r" depth="5" NCoef="0" IVar="-1" Cut="0.0000000000000000e+00" cType="1" res="3.0099500436335802e-03" rms="2.9864019155502319e-01" purity="5.2028995752334595e-01" nType="-99"/>
              </Node>
            </Node>
          </Node>
        </Node>
      </Node>
    </BinaryTree>
    <BinaryTree type="DecisionTree" boostWeight="1.0000000000000000e+00" itree="61">
      <Node pos="s" depth="0" NCoef="0" IVar="0" Cut="1.0975610017776489e+00" cType="1" res="1.3557163765653968e-03" rms="3.0777680873870850e-01" purity="4.9905690550804138e-01" nType="0">
        <Node pos="l" depth="1" NCoef="0" IVar="4" Cut="1.3393737792968750e+02" cType="1" res="0.0000000000000000e+00" rms="0.0000000000000000e+00" purity="1.8173342943191528e-01" nType="0">
          <Node pos="l" depth="2" NCoef="0" IVar="4" Cut="1.1015883636474609e+02" cType="1" res="0.0000000000000000e+00" rms="0.0000000000000000e+00" purity="2.3376967012882233e-01" nType="0">
            <Node pos="l" depth="3" NCoef="0" IVar="8" Cut="5.5977803468704224e-01" cType="1" res="0.0000000000000000e+00" rms="0.0000000000000000e+00" purity="1.8669368326663971e-01" nType="0">
              <Node pos="l" depth="4" NCoef="0" IVar="9" Cut="4.7646069526672363e-01" cType="1" res="0.0000000000000000e+00" rms="0.0000000000000000e+00" purity="1.8078510463237762e-01" nType="0">
                <Node pos="l" depth="5" NCoef="0" IVar="-1" Cut="0.0000000000000000e+00" cType="1" res="-1.1441833339631557e-02" rms="2.6367917656898499e-01" purity="1.4952957630157471e-01" nType="-99"/>
                <Node pos="r" depth="5" NCoef="0" IVar="-1" Cut="0.0000000000000000e+00" cType="1" res="-1.2633989099413157e-03" rms="3.2565814256668091e-01" purity="2.5299373269081116e-01" nType="-99"/>
              </Node>
              <Node pos="r" depth="4" NCoef="0" IVar="-1" Cut="0.0000000000000000e+00" cType="1" res="4.8673427663743496e-03" rms="3.3988380432128906e-01" purity="2.2321091592311859e-01" nType="-99"/>
            </Node>
            <Node pos="r" depth="3" NCoef="0" IVar="6" Cut="1.7623555660247803e+00" cType="1" res="0.0000000000000000e+00" rms="0.0000000000000000e+00" purity="3.6880606412887573e-01" nType="0">
              <Node pos="l" depth="4" NCoef="0" IVar="-1" Cut="0.0000000000000000e+00" cType="1" res="-8.7668653577566147e-03" rms="3.0401343107223511e-01" purity="2.1059218049049377e-01" nType="-99"/>
              <Node pos="r" depth="4" NCoef="0" IVar="-1" Cut="0.0000000000000000e+00" cType="1" res="1.3286074623465538e-02" rms="3.2447552680969238e-01" purity="4.7562238574028015e-01" nType="-99"/>
            </Node>
          </Node>
          <Node pos="r" depth="2" NCoef="0" IVar="6" Cut="8.4286600351333618e-01" cType="1" res="0.0000000000000000e+00" rms="0.0000000000000000e+00" purity="7.8649275004863739e-02" nType="0">
            <Node pos="l" depth="3" NCoef="0" IVar="-1" Cut="0.0000000000000000e+00" cType="1" res="-5.5170007981359959e-03" rms="2.2579763829708099e-01" purity="6.0526560992002487e-02" nType="-99"/>
            <Node pos="r" depth="3" NCoef="0" IVar="5" Cut="7.4120422363281250e+01" cType="1" res="0.0000000000000000e+00" rms="0.0000000000000000e+00" purity="8.4087558090686798e-02" nType="0">
              <Node pos="l" depth="4" NCoef="0" IVar="-1" Cut="0.0000000000000000e+00" cType="1" res="-2.9257535934448242e-02" rms="2.0338705182075500e-01" purity="5.5360458791255951e-02" nType="-99"/>
              <Node pos="r" depth="4" NCoef="0" IVar="3" Cut="2.0731706619262695e+00" cType="1" res="0.0000000000000000e+00" rms="0.0000000000000000e+00" purity="9.4407245516777039e-02" nType="0">
                <Node pos="l" depth="5" NCoef="0" IVar="-1" Cut="0.0000000000000000e+00" cType="1" res="-1.0624577291309834e-02" rms="2.3760755360126495e-01" purity="1.1941079795360565e-01" nType="-99"/>
                <Node pos="r" depth="5" NCoef="0" IVar="-1" Cut="0.0000000000000000e+00" cType="1" res="-2.8869146481156349e-02" rms="1.7782175540924072e-01" purity="4.3640721589326859e-02" nType="-99"/>
              </Node>
            </Node>
          </Node>
        </Node>
        <Node pos="r" depth="1" NCoef="0" IVar="6" Cut="1.3792351484298706e+00" cType="1" res="7.5630028732120991e-03" rms="3.2281821966171265e-01" purity="6.5844559669494629e-01" nType="0">
          <Node pos="l" depth="2" NCoef="0" IVar="9" Cut="5.8140826225280762e-01" cType="1" res="-1.0383414104580879e-02" rms="3.4967169165611267e-01" purity="5.0301951169967651e-01" nType="0">
            <Node pos="l" depth="3" NCoef="0" IVar="7" Cut="7.6366782188415527e-01" cType="1" res="-1.8987329676747322e-02" rms="3.5749420523643494e-01" purity="4.2760649323463440e-01" nType="0">
              <Node pos="l" depth="4" NCoef="0" IVar="-1" Cut="0.0000000000000000e+00" cType="1" res="-1.5289893373847008e-02" rms="3.7508666515350342e-01" purity="4.4266355037689209e-01" nType="-99"/>
              <Node pos="r" depth="4" NCoef="0" IVar="0" Cut="4.0487804412841797e+00" cType="1" res="-7.7941245399415493e-03" rms="3.4856262803077698e-01" purity="4.2070451378822327e-01" nType="0">
                <Node pos="l" depth="5" NCoef="0" IVar="-1" Cut="0.0000000000000000e+00" cType="1" res="-1.1553925462067127e-02" rms="3.3105608820915222e-01" purity="3.4114852547645569e-01" nType="-99"/>
                <Node pos="r" depth="5" NCoef="0" IVar="-1" Cut="0.0000000000000000e+00" cType="1" res="4.8882048577070236e-04" rms="3.5498267412185669e-01" purity="4.5285022258758545e-01" nType="-99"/>
              </Node>
            </Node>
            <Node pos="r" depth="3" NCoef="0" IVar="-1" Cut="0.0000000000000000e+00" cType="1" res="5.8196303434669971e-03" rms="3.2442867755889893e-01" purity="7.2342616319656372e-01" nType="-99"/>
          </Node>
          <Node pos="r" depth="2" NCoef="0" IVar="7" Cut="2.6608834266662598e+00" cType="1" res="1.3253525830805302e-02" rms="3.1360960006713867e-01" purity="7.0772874355316162e-01" nType="0">
            <Node pos="l" depth="3" NCoef="0" IVar="9" Cut="3.7754857540130615e-01" cType="1" res="9.6353692933917046e-03" rms="3.1367668509483337e-01" purity="7.1599501371383667e-01" nType="0">
              <Node pos="l" depth="4" NCoef="0" IVar="8" Cut="2.4809445440769196e-01" cType="1" res="-3.3333844039589167e-03" rms="3.3680903911590576e-01" purity="6.2849551439285278e-01" nType="0">
                <Node pos="l" depth="5" NCoef="0" IVar="-1" Cut="0.0000000000000000e+00" cType="1" res="-2.0560611039400101e-02" rms="3.2981804013252258e-01" purity="3.7165513634681702e-01" nType="-99"/>
                <Node pos="r" depth="5" NCoef="0" IVar="-1" Cut="0.0000000000000000e+00" cType="1" res="2.2609757725149393e-03" rms="3.3734267950057983e-01" purity="6.7709958553314209e-01" nType="-99"/>
              </Node>
              <Node pos="r" depth="4" NCoef="0" IVar="8" Cut="2.8364202380180359e-01" cType="1" res="2.4889158084988594e-02" rms="2.8330910205841064e-01" purity="8.1891149282455444e-01" nType="0">
                <Node pos="l" depth="5" NCoef="0" IVar="-1" Cut="0.0000000000000000e+00" cType="1" res="3.0350466258823872e-03" rms="3.3777529001235962e-01" purity="6.7808443307876587e-01" nType="-99"/>
                <Node pos="r" depth="5" NCoef="0" IVar="-1" Cut="0.0000000000000000e+00" cType="1" res="1.8467839807271957e-02" rms="2.5162491202354431e-01" purity="8.8857579231262207e-01" nType="-99"/>
              </Node>
            </Node>
            <Node pos="r" depth="3" NCoef="0" IVar="-1" Cut="0.0000000000000000e+00" cType="1" res="1.5905762091279030e-02" rms="3.1155461072921753e-01" purity="6.4142996072769165e-01" nType="-99"/>
          </Node>
        </Node>
      </Node>
    </BinaryTree>
    <BinaryTree type="DecisionTree" boostWeight="1.0000000000000000e+00" itree="62">
      <Node pos="s" depth="0" NCoef="0" IVar="1" Cut="4.0243902206420898e+00" cType="1" res="-1.0748355271061882e-04" rms="3.0629539489746094e-01" purity="4.9891951680183411e-01" nType="0">
        <Node pos="l" depth="1" NCoef="0" IVar="5" Cut="3.7328357696533203e+01" cType="1" res="-7.7130589634180069e-03" rms="3.1374362111091614e-01" purity="3.5918810963630676e-01" nType="0">
          <Node pos="l" depth="2" NCoef="0" IVar="-1" Cut="0.0000000000000000e+00" cType="1" res="-1.8853403627872467e-02" rms="3.2663145661354065e-01" purity="2.0616793632507324e-01" nType="-99"/>
          <Node pos="r" depth="2" NCoef="0" IVar="5" Cut="9.1184074401855469e+01" cType="1" res="-6.1691459268331528e-03" rms="3.1312999129295349e-01" purity="3.6513954401016235e-01" nType="0">
            <Node pos="l" depth="3" NCoef="0" IVar="5" Cut="7.5421371459960938e+01" cType="1" res="2.6200637221336365e-03" rms="3.3562508225440979e-01" purity="4.8128476738929749e-01" nType="0">
              <Node pos="l" depth="4" NCoef="0" IVar="9" Cut="4.1931763291358948e-01" cType="1" res="-1.3538150116801262e-02" rms="3.4682905673980713e-01" purity="3.7789887189865112e-01" nType="0">
                <Node pos="l" depth="5" NCoef="0" IVar="-1" Cut="0.0000000000000000e+00" cType="1" res="-8.7364772334694862e-03" rms="3.3332264423370361e-01" purity="3.2317984104156494e-01" nType="-99"/>
                <Node pos="r" depth="5" NCoef="0" IVar="-1" Cut="0.0000000000000000e+00" cType="1" res="1.1154414387419820e-03" rms="3.7272408604621887e-01" purity="4.9135869741439819e-01" nType="-99"/>
              </Node>
              <Node pos="r" depth="4" NCoef="0" IVar="3" Cut="2.0731706619262695e+00" cType="1" res="2.0125443115830421e-02" rms="3.2213538885116577e-01" purity="5.9329032897949219e-01" nType="0">
                <Node pos="l" depth="5" NCoef="0" IVar="-1" Cut="0.0000000000000000e+00" cType="1" res="1.0238386690616608e-02" rms="3.2049235701560974e-01" purity="6.4890843629837036e-01" nType="-99"/>
                <Node pos="r" depth="5" NCoef="0" IVar="-1" Cut="0.0000000000000000e+00" cType="1" res="-3.3489677589386702e-03" rms="3.2866653800010681e-01" purity="3.1855881214141846e-01" nType="-99"/>
              </Node>
            </Node>
            <Node pos="r" depth="3" NCoef="0" IVar="6" Cut="2.9117197990417480e+00" cType="1" res="-1.5369999222457409e-02" rms="2.8741532564163208e-01" purity="2.4355463683605194e-01" nType="0">
              <Node pos="l" depth="4" NCoef="0" IVar="4" Cut="1.2849092102050781e+02" cType="1" res="-1.8336471170186996e-02" rms="2.8381836414337158e-01" purity="2.0599626004695892e-01" nType="0">
                <Node pos="l" depth="5" NCoef="0" IVar="-1" Cut="0.0000000000000000e+00" cType="1" res="-6.9450386799871922e-03" rms="2.9835751652717590e-01" purity="2.4207721650600433e-01" nType="-99"/>
                <Node pos="r" depth="5" NCoef="0" IVar="-1" Cut="0.0000000000000000e+00" cType="1" res="-1.4838712289929390e-02" rms="2.5860583782196045e-01" purity="1.4799349009990692e-01" nType="-99"/>
              </Node>
              <Node pos="r" depth="4" NCoef="0" IVar="5" Cut="1.1971740722656250e+02" cType="1" res="2.5140976067632437e-03" rms="3.0760687589645386e-01" purity="4.6998447179794312e-01" nType="0">
                <Node pos="l" depth="5" NCoef="0" IVar="-1" Cut="0.0000000000000000e+00" cType="1" res="-1.9976790063083172e-03" rms="3.0349853634834290e-01" purity="5.0115245580673218e-01" nType="-99"/>
                <Node pos="r" depth="5" NCoef="0" IVar="-1" Cut="0.0000000000000000e+00" cType="1" res="3.9864978753030300e-03" rms="3.1145560741424561e-01" purity="4.3914866447448730e-01" nType="-99"/>
              </Node>
            </Node>
          </Node>
        </Node>
        <Node pos="r" depth="1" NCoef="0" IVar="3" Cut="4.0243902206420898e+00" cType="1" res="1.1783837340772152e-02" rms="2.9387831687927246e-01" purity="7.1738952398300171e-01" nType="0">
          <Node pos="l" depth="2" NCoef="0" IVar="5" Cut="1.2752787780761719e+02" cType="1" res="1.5135370194911957e-02" rms="2.8799453377723694e-01" purity="7.4535912275314331e-01" nType="0">
            <Node pos="l" depth="3" NCoef="0" IVar="5" Cut="5.9944190979003906e+01" cType="1" res="1.8978273496031761e-02" rms="2.8426635265350342e-01" purity="7.7397388219833374e-01" nType="0">
              <Node pos="l" depth="4" NCoef="0" IVar="-1" Cut="0.0000000000000000e+00" cType="1" res="-3.4104550722986460e-03" rms="3.5052856802940369e-01" purity="6.2260437011718750e-01" nType="-99"/>
              <Node pos="r" depth="4" NCoef="0" IVar="5" Cut="9.1263710021972656e+01" cType="1" res="2.3687545210123062e-02" rms="2.7143990993499756e-01" purity="7.9906278848648071e-01" nType="0">
                <Node pos="l" depth="5" NCoef="0" IVar="-1" Cut="0.0000000000000000e+00" cType="1" res="1.6240494325757027e-02" rms="2.5318351387977600e-01" purity="8.5776287317276001e-01" nType="-99"/>
                <Node pos="r" depth="5" NCoef="0" IVar="-1" Cut="0.0000000000000000e+00" cType="1" res="4.8805810511112213e-03" rms="3.0828672647476196e-01" purity="6.6675204038619995e-01" nType="-99"/>
              </Node>
            </Node>
            <Node pos="r" depth="3" NCoef="0" IVar="-1" Cut="0.0000000000000000e+00" cType="1" res="-7.2945775464177132e-03" rms="3.1620439887046814e-01" purity="5.0056713819503784e-01" nType="-99"/>
          </Node>
          <Node pos="r" depth="2" NCoef="0" IVar="-1" Cut="0.0000000000000000e+00" cType="1" res="-8.2956971600651741e-03" rms="3.4809750318527222e-01" purity="4.2180895805358887e-01" nType="-99"/>
        </Node>
      </Node>
    </BinaryTree>
    <BinaryTree type="DecisionTree" boostWeight="1.0000000000000000e+00" itree="63">
      <Node pos="s" depth="0" NCoef="0" IVar="4" Cut="5.2694229125976562e+01" cType="1" res="2.8461820329539478e-04" rms="3.0584278702735901e-01" purity="5.0005328655242920e-01" nType="0">
        <Node pos="l" depth="1" NCoef="0" IVar="0" Cut="2.0731706619262695e+00" cType="1" res="-3.6242131143808365e-02" rms="3.2867100834846497e-01" purity="1.9048219919204712e-01" nType="0">
          <Node pos="l" depth="2" NCoef="0" IVar="-1" Cut="0.0000000000000000e+00" cType="1" res="-1.2823605909943581e-02" rms="2.7297183871269226e-01" purity="1.1219730973243713e-01" nType="-99"/>
          <Node pos="r" depth="2" NCoef="0" IVar="-1" Cut="0.0000000000000000e+00" cType="1" res="-1.6077989712357521e-02" rms="3.9785614609718323e-01" purity="3.0928379297256470e-01" nType="-99"/>
        </Node>
        <Node pos="r" depth="1" NCoef="0" IVar="4" Cut="1.4412847900390625e+02" cType="1" res="2.5007822550833225e-03" rms="3.0426159501075745e-01" purity="5.1883572340011597e-01" nType="0">
          <Node pos="l" depth="2" NCoef="0" IVar="4" Cut="9.5066177368164062e+01" cType="1" res="7.4740606360137463e-03" rms="3.0583322048187256e-01" purity="6.0675913095474243e-01" nType="0">
            <Node pos="l" depth="3" NCoef="0" IVar="8" Cut="6.2903648614883423e-01" cType="1" res="-7.5625684112310410e-03" rms="3.3144861459732056e-01" purity="4.1177842020988464e-01" nType="0">
              <Node pos="l" depth="4" NCoef="0" IVar="9" Cut="5.5146485567092896e-01" cType="1" res="-1.2762254104018211e-02" rms="3.2490417361259460e-01" purity="4.0700516104698181e-01" nType="0">
                <Node pos="l" depth="5" NCoef="0" IVar="-1" Cut="0.0000000000000000e+00" cType="1" res="-8.0202743411064148e-03" rms="3.2008367776870728e-01" purity="3.7840592861175537e-01" nType="-99"/>
                <Node pos="r" depth="5" NCoef="0" IVar="-1" Cut="0.0000000000000000e+00" cType="1" res="3.9571980014443398e-03" rms="3.4071925282478333e-01" purity="5.1008075475692749e-01" nType="-99"/>
              </Node>
              <Node pos="r" depth="4" NCoef="0" IVar="-1" Cut="0.0000000000000000e+00" cType="1" res="1.2235113419592381e-02" rms="3.7925168871879578e-01" purity="4.5190724730491638e-01" nType="-99"/>
            </Node>
            <Node pos="r" depth="3" NCoef="0" IVar="9" Cut="1.7177434265613556e-01" cType="1" res="1.4364976435899734e-02" rms="2.9309019446372986e-01" purity="6.9611400365829468e-01" nType="0">
              <Node pos="l" depth="4" NCoef="0" IVar="7" Cut="2.8481409549713135e+00" cType="1" res="-9.3131558969616890e-03" rms="3.3870631456375122e-01" purity="3.8111275434494019e-01" nType="0">
                <Node pos="l" depth="5" NCoef="0" IVar="-1" Cut="0.0000000000000000e+00" cType="1" res="-1.0566968470811844e-02" rms="3.5070204734802246e-01" purity="3.2177841663360596e-01" nType="-99"/>
                <Node pos="r" depth="5" NCoef="0" IVar="-1" Cut="0.0000000000000000e+00" cType="1" res="9.9361231550574303e-03" rms="3.1387794017791748e-01" purity="4.8339089751243591e-01" nType="-99"/>
              </Node>
              <Node pos="r" depth="4" NCoef="0" IVar="8" Cut="3.1936010718345642e-01" cType="1" res="1.7677668482065201e-02" rms="2.8597268462181091e-01" purity="7.4018424749374390e-01" nType="0">
                <Node pos="l" depth="5" NCoef="0" IVar="-1" Cut="0.0000000000000000e+00" cType="1" res="2.6774015277624130e-03" rms="3.0215361714363098e-01" purity="6.2667226791381836e-01" nType="-99"/>
                <Node pos="r" depth="5" NCoef="0" IVar="-1" Cut="0.0000000000000000e+00" cType="1" res="1.3576849363744259e-02" rms="2.7367916703224182e-01" purity="8.2023847103118896e-01" nType="-99"/>
              </Node>
            </Node>
          </Node>
          <Node pos="r" depth="2" NCoef="0" IVar="9" Cut="1.9826269149780273e-01" cType="1" res="-1.3921694830060005e-02" rms="2.9842513799667358e-01" purity="2.2849987447261810e-01" nType="0">
            <Node pos="l" depth="3" NCoef="0" IVar="6" Cut="2.2987267971038818e+00" cType="1" res="-2.6970580220222473e-02" rms="2.2701102495193481e-01" purity="7.6497286558151245e-02" nType="0">
              <Node pos="l" depth="4" NCoef="0" IVar="7" Cut="1.7070128917694092e+00" cType="1" res="-1.9390102475881577e-02" rms="2.0822602510452271e-01" purity="5.5776067078113556e-02" nType="0">
                <Node pos="l" depth="5" NCoef="0" IVar="-1" Cut="0.0000000000000000e+00" cType="1" res="-5.2201794460415840e-03" rms="2.3946571350097656e-01" purity="6.9082632660865784e-02" nType="-99"/>
                <Node pos="r" depth="5" NCoef="0" IVar="-1" Cut="0.0000000000000000e+00" cType="1" res="-2.6668647304177284e-02" rms="1.7412176728248596e-01" purity="4.3654505163431168e-02" nType="-99"/>
              </Node>
              <Node pos="r" depth="4" NCoef="0" IVar="-1" Cut="0.0000000000000000e+00" cType="1" res="-2.0019479095935822e-02" rms="2.5723889470100403e-01" purity="1.1434765905141830e-01" nType="-99"/>
            </Node>
            <Node pos="r" depth="3" NCoef="0" IVar="8" Cut="4.7160837054252625e-01" cType="1" res="-7.0529645308852196e-03" rms="3.2965523004531860e-01" purity="3.0851170420646667e-01" nType="0">
              <Node pos="l" depth="4" NCoef="0" IVar="7" Cut="1.8216602802276611e+00" cType="1" res="-1.4492507092654705e-02" rms="3.1882163882255554e-01" purity="2.7241781353950500e-01" nType="0">
                <Node pos="l" depth="5" NCoef="0" IVar="-1" Cut="0.0000000000000000e+00" cType="1" res="-9.8521746695041656e-03" rms="3.2553318142890930e-01" purity="2.7684313058853149e-01" nType="-99"/>
                <Node pos="r" depth="5" NCoef="0" IVar="-1" Cut="0.0000000000000000e+00" cType="1" res="4.5820153318345547e-03" rms="2.9815474152565002e-01" purity="2.6024404168128967e-01" nType="-99"/>
              </Node>
              <Node pos="r" depth="4" NCoef="0" IVar="-1" Cut="0.0000000000000000e+00" cType="1" res="6.1424602754414082e-03" rms="3.6263275146484375e-01" purity="4.2998218536376953e-01" nType="-99"/>
            </Node>
          </Node>
        </Node>
      </Node>
    </BinaryTree>
    <BinaryTree type="DecisionTree" boostWeight="1.0000000000000000e+00" itree="64">
      <Node pos="s" depth="0" NCoef="0" IVar="4" Cut="8.7744621276855469e+01" cType="1" res="6.6963979043066502e-04" rms="3.0657947063446045e-01" purity="4.9959662556648254e-01" nType="0">
        <Node pos="l" depth="1" NCoef="0" IVar="8" Cut="6.2895762920379639e-01" cType="1" res="-1.5448739752173424e-02" rms="3.3234724402427673e-01" purity="3.2112944126129150e-01" nType="0">
          <Node pos="l" depth="2" NCoef="0" IVar="5" Cut="7.3938827514648438e+01" cType="1" res="-1.9922951236367226e-02" rms="3.2538601756095886e-01" purity="3.1368795037269592e-01" nType="0">
            <Node pos="l" depth="3" NCoef="0" IVar="6" Cut="1.8389806747436523e+00" cType="1" res="-4.2020220309495926e-02" rms="3.5204949975013733e-01" purity="3.1223809719085693e-01" nType="0">
              <Node pos="l" depth="4" NCoef="0" IVar="-1" Cut="0.0000000000000000e+00" cType="1" res="-2.1144693717360497e-02" rms="3.3759066462516785e-01" purity="2.2319138050079346e-01" nType="-99"/>
              <Node pos="r" depth="4" NCoef="0" IVar="-1" Cut="0.0000000000000000e+00" cType="1" res="-1.0837633162736893e-02" rms="3.6170923709869385e-01" purity="3.7567955255508423e-01" nType="-99"/>
            </Node>
            <Node pos="r" depth="3" NCoef="0" IVar="5" Cut="8.8632171630859375e+01" cType="1" res="-1.2095693498849869e-02" rms="3.1502962112426758e-01" purity="3.1420153379440308e-01" nType="0">
              <Node pos="l" depth="4" NCoef="0" IVar="-1" Cut="0.0000000000000000e+00" cType="1" res="3.5917491186410189e-03" rms="3.5587835311889648e-01" purity="5.5524158477783203e-01" nType="-99"/>
              <Node pos="r" depth="4" NCoef="0" IVar="8" Cut="4.2964926362037659e-01" cType="1" res="-2.1235393360257149e-02" rms="2.9621878266334534e-01" purity="2.1560370922088623e-01" nType="0">
                <Node pos="l" depth="5" NCoef="0" IVar="-1" Cut="0.0000000000000000e+00" cType="1" res="-1.3358674943447113e-02" rms="2.8325578570365906e-01" purity="1.9702716171741486e-01" nType="-99"/>
                <Node pos="r" depth="5" NCoef="0" IVar="-1" Cut="0.0000000000000000e+00" cType="1" res="1.1290060356259346e-03" rms="3.4573885798454285e-01" purity="2.9598981142044067e-01" nType="-99"/>
              </Node>
            </Node>
          </Node>
          <Node pos="r" depth="2" NCoef="0" IVar="-1" Cut="0.0000000000000000e+00" cType="1" res="8.0268625169992447e-03" rms="3.8646617531776428e-01" purity="3.8720902800559998e-01" nType="-99"/>
        </Node>
        <Node pos="r" depth="1" NCoef="0" IVar="9" Cut="7.9705715179443359e-02" cType="1" res="5.4097459651529789e-03" rms="2.9841318726539612e-01" purity="5.5208033323287964e-01" nType="0">
          <Node pos="l" depth="2" NCoef="0" IVar="-1" Cut="0.0000000000000000e+00" cType="1" res="-2.7927486225962639e-02" rms="2.2901263833045959e-01" purity="8.2542195916175842e-02" nType="-99"/>
          <Node pos="r" depth="2" NCoef="0" IVar="8" Cut="1.2610383331775665e-01" cType="1" res="7.4735996313393116e-03" rms="3.0070239305496216e-01" purity="5.7107847929000854e-01" nType="0">
            <Node pos="l" depth="3" NCoef="0" IVar="8" Cut="7.3945358395576477e-02" cType="1" res="-2.3606512695550919e-02" rms="2.8044778108596802e-01" purity="2.0599177479743958e-01" nType="0">
              <Node pos="l" depth="4" NCoef="0" IVar="-1" Cut="0.0000000000000000e+00" cType="1" res="-2.9574887827038765e-02" rms="2.4561583995819092e-01" purity="1.1230860650539398e-01" nType="-99"/>
              <Node pos="r" depth="4" NCoef="0" IVar="-1" Cut="0.0000000000000000e+00" cType="1" res="-4.4235726818442345e-03" rms="2.9616600275039673e-01" purity="2.5541928410530090e-01" nType="-99"/>
            </Node>
            <Node pos="r" depth="3" NCoef="0" IVar="7" Cut="2.8860831260681152e+00" cType="1" res="1.0215379297733307e-02" rms="3.0227071046829224e-01" purity="6.0328513383865356e-01" nType="0">
              <Node pos="l" depth="4" NCoef="0" IVar="9" Cut="2.3492206633090973e-01" cType="1" res="7.2389822453260422e-03" rms="3.0253624916076660e-01" purity="6.0277646780014038e-01" nType="0">
                <Node pos="l" depth="5" NCoef="0" IVar="-1" Cut="0.0000000000000000e+00" cType="1" res="-4.1170772165060043e-03" rms="3.1933164596557617e-01" purity="3.2513776421546936e-01" nType="-99"/>
                <Node pos="r" depth="5" NCoef="0" IVar="-1" Cut="0.0000000000000000e+00" cType="1" res="5.7442849501967430e-03" rms="2.9718139767646790e-01" purity="6.8529027700424194e-01" nType="-99"/>
              </Node>
              <Node pos="r" depth="4" NCoef="0" IVar="-1" Cut="0.0000000000000000e+00" cType="1" res="2.6601364836096764e-02" rms="2.9234936833381653e-01" purity="6.1241823434829712e-01" nType="-99"/>
            </Node>
          </Node>
        </Node>
      </Node>
    </BinaryTree>
    <BinaryTree type="DecisionTree" boostWeight="1.0000000000000000e+00" itree="65">
      <Node pos="s" depth="0" NCoef="0" IVar="2" Cut="1.0975610017776489e+00" cType="1" res="1.1258008453296497e-04" rms="3.0493471026420593e-01" purity="5.0102102756500244e-01" nType="0">
        <Node pos="l" depth="1" NCoef="0" IVar="5" Cut="3.7328384399414062e+01" cType="1" res="5.3120739758014679e-03" rms="3.1868553161621094e-01" purity="6.0670179128646851e-01" nType="0">
          <Node pos="l" depth="2" NCoef="0" IVar="-1" Cut="0.0000000000000000e+00" cType="1" res="-1.4498261734843254e-02" rms="3.6595761775970459e-01" purity="3.6806511878967285e-01" nType="-99"/>
          <Node pos="r" depth="2" NCoef="0" IVar="1" Cut="4.0243902206420898e+00" cType="1" res="7.0182560011744499e-03" rms="3.1673219799995422e-01" purity="6.1523157358169556e-01" nType="0">
            <Node pos="l" depth="3" NCoef="0" IVar="9" Cut="4.5103436708450317e-01" cType="1" res="-9.7422183898743242e-05" rms="3.3820611238479614e-01" purity="4.7644901275634766e-01" nType="0">
              <Node pos="l" depth="4" NCoef="0" IVar="7" Cut="1.1405059099197388e+00" cType="1" res="-5.3240773268043995e-03" rms="3.3174413442611694e-01" purity="4.2054080963134766e-01" nType="0">
                <Node pos="l" depth="5" NCoef="0" IVar="-1" Cut="0.0000000000000000e+00" cType="1" res="-8.1579415127635002e-03" rms="3.4982332587242126e-01" purity="4.3987128138542175e-01" nType="-99"/>
                <Node pos="r" depth="5" NCoef="0" IVar="-1" Cut="0.0000000000000000e+00" cType="1" res="2.7320694644004107e-03" rms="3.1687027215957642e-01" purity="4.0592968463897705e-01" nType="-99"/>
              </Node>
              <Node pos="r" depth="4" NCoef="0" IVar="4" Cut="1.2833935546875000e+02" cType="1" res="1.3383635319769382e-02" rms="3.5397380590438843e-01" purity="6.2065231800079346e-01" nType="0">
                <Node pos="l" depth="5" NCoef="0" IVar="-1" Cut="0.0000000000000000e+00" cType="1" res="7.3869321495294571e-03" rms="3.5089966654777527e-01" purity="6.4431548118591309e-01" nType="-99"/>
                <Node pos="r" depth="5" NCoef="0" IVar="-1" Cut="0.0000000000000000e+00" cType="1" res="-4.5152157545089722e-03" rms="3.6405682563781738e-01" purity="5.3183293342590332e-01" nType="-99"/>
              </Node>
            </Node>
            <Node pos="r" depth="3" NCoef="0" IVar="3" Cut="4.0243902206420898e+00" cType="1" res="1.5942757949233055e-02" rms="2.8729236125946045e-01" purity="7.8929305076599121e-01" nType="0">
              <Node pos="l" depth="4" NCoef="0" IVar="5" Cut="1.2409593963623047e+02" cType="1" res="1.8363012000918388e-02" rms="2.7871865034103394e-01" purity="8.1449180841445923e-01" nType="0">
                <Node pos="l" depth="5" NCoef="0" IVar="-1" Cut="0.0000000000000000e+00" cType="1" res="1.1084668338298798e-02" rms="2.7205324172973633e-01" purity="8.3960223197937012e-01" nType="-99"/>
                <Node pos="r" depth="5" NCoef="0" IVar="-1" Cut="0.0000000000000000e+00" cType="1" res="-1.7600713763386011e-03" rms="3.2820233702659607e-01" purity="6.0506230592727661e-01" nType="-99"/>
              </Node>
              <Node pos="r" depth="4" NCoef="0" IVar="-1" Cut="0.0000000000000000e+00" cType="1" res="-3.8945686537772417e-03" rms="3.7015277147293091e-01" purity="5.0212359428405762e-01" nType="-99"/>
            </Node>
          </Node>
        </Node>
        <Node pos="r" depth="1" NCoef="0" IVar="3" Cut="1.0975610017776489e+00" cType="1" res="-1.2056523002684116e-02" rms="2.6963651180267334e-01" purity="2.5368148088455200e-01" nType="0">
          <Node pos="l" depth="2" NCoef="0" IVar="2" Cut="4.0487804412841797e+00" cType="1" res="-5.1821717061102390e-03" rms="2.8321364521980286e-01" purity="3.0632328987121582e-01" nType="0">
            <Node pos="l" depth="3" NCoef="0" IVar="5" Cut="1.0990336608886719e+02" cType="1" res="5.2782171405851841e-03" rms="3.1818690896034241e-01" purity="5.3932398557662964e-01" nType="0">
              <Node pos="l" depth="4" NCoef="0" IVar="6" Cut="1.6857329607009888e+00" cType="1" res="1.6018297523260117e-02" rms="3.2649737596511841e-01" purity="6.1447250843048096e-01" nType="0">
                <Node pos="l" depth="5" NCoef="0" IVar="-1" Cut="0.0000000000000000e+00" cType="1" res="-1.4682080654893070e-04" rms="3.4635168313980103e-01" purity="4.7002357244491577e-01" nType="-99"/>
                <Node pos="r" depth="5" NCoef="0" IVar="-1" Cut="0.0000000000000000e+00" cType="1" res="1.0206094011664391e-02" rms="3.1588560342788696e-01" purity="6.8602633476257324e-01" nType="-99"/>
              </Node>
              <Node pos="r" depth="4" NCoef="0" IVar="-1" Cut="0.0000000000000000e+00" cType="1" res="-1.2386640533804893e-02" rms="2.8910499811172485e-01" purity="3.1139156222343445e-01" nType="-99"/>
            </Node>
            <Node pos="r" depth="3" NCoef="0" IVar="8" Cut="2.2568297386169434e-01" cType="1" res="-1.4587256126105785e-02" rms="2.4720865488052368e-01" purity="9.6829079091548920e-02" nType="0">
              <Node pos="l" depth="4" NCoef="0" IVar="-1" Cut="0.0000000000000000e+00" cType="1" res="-2.6202708482742310e-02" rms="1.5976330637931824e-01" purity="3.2231554388999939e-02" nType="-99"/>
              <Node pos="r" depth="4" NCoef="0" IVar="6" Cut="2.4519736766815186e+00" cType="1" res="-9.6755363047122955e-03" rms="2.7860802412033081e-01" purity="1.2693564593791962e-01" nType="0">
                <Node pos="l" depth="5" NCoef="0" IVar="-1" Cut="0.0000000000000000e+00" cType="1" res="-9.9889999255537987e-03" rms="2.6598227024078369e-01" purity="9.5132298767566681e-02" nType="-99"/>
                <Node pos="r" depth="5" NCoef="0" IVar="-1" Cut="0.0000000000000000e+00" cType="1" res="2.1216622553765774e-03" rms="3.0351629853248596e-01" purity="1.9544059038162231e-01" nType="-99"/>
              </Node>
            </Node>
          </Node>
          <Node pos="r" depth="2" NCoef="0" IVar="5" Cut="1.1713417053222656e+02" cType="1" res="-2.9450923204421997e-02" rms="2.3084351420402527e-01" purity="1.2048010528087616e-01" nType="0">
            <Node pos="l" depth="3" NCoef="0" IVar="2" Cut="4.0487804412841797e+00" cType="1" res="-3.7270355969667435e-02" rms="2.3882645368576050e-01" purity="1.3117322325706482e-01" nType="0">
              <Node pos="l" depth="4" NCoef="0" IVar="-1" Cut="0.0000000000000000e+00" cType="1" res="-2.1220976486802101e-02" rms="3.0595129728317261e-01" purity="2.6602199673652649e-01" nType="-99"/>
              <Node pos="r" depth="4" NCoef="0" IVar="-1" Cut="0.0000000000000000e+00" cType="1" res="-2.5467086583375931e-02" rms="1.7974931001663208e-01" purity="4.0620405226945877e-02" nType="-99"/>
            </Node>
            <Node pos="r" depth="3" NCoef="0" IVar="-1" Cut="0.0000000000000000e+00" cType="1" res="-1.2670223601162434e-02" rms="2.1671463549137115e-01" purity="1.0318382084369659e-01" nType="-99"/>
          </Node>
        </Node>
      </Node>
    </BinaryTree>
    <BinaryTree type="DecisionTree" boostWeight="1.0000000000000000e+00" itree="66">
      <Node pos="s" depth="0" NCoef="0" IVar="1" Cut="3.0487804412841797e+00" cType="1" res="-1.5598344907630235e-04" rms="3.0494612455368042e-01" purity="4.9932411313056946e-01" nType="0">
        <Node pos="l" depth="1" NCoef="0" IVar="8" Cut="5.0341349840164185e-01" cType="1" res="-7.9102013260126114e-03" rms="3.1356564164161682e-01" purity="3.1619775295257568e-01" nType="0">
          <Node pos="l" depth="2" NCoef="0" IVar="7" Cut="1.2304538488388062e+00" cType="1" res="-1.1600033380091190e-02" rms="3.0503213405609131e-01" purity="3.0218967795372009e-01" nType="0">
            <Node pos="l" depth="3" NCoef="0" IVar="9" Cut="4.8135551810264587e-01" cType="1" res="-2.0617997273802757e-02" rms="3.2196706533432007e-01" purity="3.4120854735374451e-01" nType="0">
              <Node pos="l" depth="4" NCoef="0" IVar="8" Cut="4.4220489263534546e-01" cType="1" res="-3.5814505070447922e-02" rms="3.0534708499908447e-01" purity="2.6736643910408020e-01" nType="0">
                <Node pos="l" depth="5" NCoef="0" IVar="-1" Cut="0.0000000000000000e+00" cType="1" res="-2.0791970193386078e-02" rms="2.9790034890174866e-01" purity="2.2543448209762573e-01" nType="-99"/>
                <Node pos="r" depth="5" NCoef="0" IVar="-1" Cut="0.0000000000000000e+00" cType="1" res="-1.9543587695807219e-03" rms="3.3662968873977661e-01" purity="4.6560189127922058e-01" nType="-99"/>
              </Node>
              <Node pos="r" depth="4" NCoef="0" IVar="4" Cut="8.7988212585449219e+01" cType="1" res="5.9504145756363869e-03" rms="3.4753575921058655e-01" purity="4.7030845284461975e-01" nType="0">
                <Node pos="l" depth="5" NCoef="0" IVar="-1" Cut="0.0000000000000000e+00" cType="1" res="-3.9643147028982639e-03" rms="3.5712820291519165e-01" purity="3.3505752682685852e-01" nType="-99"/>
                <Node pos="r" depth="5" NCoef="0" IVar="-1" Cut="0.0000000000000000e+00" cType="1" res="6.6942381672561169e-03" rms="3.4062835574150085e-01" purity="5.5928426980972290e-01" nType="-99"/>
              </Node>
            </Node>
            <Node pos="r" depth="3" NCoef="0" IVar="8" Cut="2.8250339627265930e-01" cType="1" res="-2.9724803753197193e-03" rms="2.8763496875762939e-01" purity="2.6486000418663025e-01" nType="0">
              <Node pos="l" depth="4" NCoef="0" IVar="7" Cut="3.1751697063446045e+00" cType="1" res="-1.3844811357557774e-02" rms="2.7685204148292542e-01" purity="2.1075664460659027e-01" nType="0">
                <Node pos="l" depth="5" NCoef="0" IVar="-1" Cut="0.0000000000000000e+00" cType="1" res="-1.1395530775189400e-02" rms="2.7758067846298218e-01" purity="2.1526420116424561e-01" nType="-99"/>
                <Node pos="r" depth="5" NCoef="0" IVar="-1" Cut="0.0000000000000000e+00" cType="1" res="8.1519745290279388e-03" rms="2.7263852953910828e-01" purity="1.9672766327857971e-01" nType="-99"/>
              </Node>
              <Node pos="r" depth="4" NCoef="0" IVar="6" Cut="2.4519760608673096e+00" cType="1" res="1.7021397128701210e-02" rms="3.0546724796295166e-01" purity="3.6435434222221375e-01" nType="0">
                <Node pos="l" depth="5" NCoef="0" IVar="-1" Cut="0.0000000000000000e+00" cType="1" res="-6.5194617491215467e-04" rms="3.0369383096694946e-01" purity="2.2939419746398926e-01" nType="-99"/>
                <Node pos="r" depth="5" NCoef="0" IVar="-1" Cut="0.0000000000000000e+00" cType="1" res="1.7199160531163216e-02" rms="3.0607524514198303e-01" purity="5.5730479955673218e-01" nType="-99"/>
              </Node>
            </Node>
          </Node>
          <Node pos="r" depth="2" NCoef="0" IVar="9" Cut="1.9248390197753906e-01" cType="1" res="6.2889782711863518e-03" rms="3.4406870603561401e-01" purity="3.7010353803634644e-01" nType="0">
            <Node pos="l" depth="3" NCoef="0" IVar="-1" Cut="0.0000000000000000e+00" cType="1" res="-9.0283760800957680e-03" rms="2.8282916545867920e-01" purity="1.3114057481288910e-01" nType="-99"/>
            <Node pos="r" depth="3" NCoef="0" IVar="0" Cut="1.0975610017776489e+00" cType="1" res="1.5465233474969864e-02" rms="3.6504110693931580e-01" purity="4.6452277898788452e-01" nType="0">
              <Node pos="l" depth="4" NCoef="0" IVar="-1" Cut="0.0000000000000000e+00" cType="1" res="-3.3745556138455868e-03" rms="2.9437741637229919e-01" purity="1.4022047817707062e-01" nType="-99"/>
              <Node pos="r" depth="4" NCoef="0" IVar="6" Cut="1.1493574380874634e+00" cType="1" res="2.6271620765328407e-02" rms="3.9433062076568604e-01" purity="6.2180715799331665e-01" nType="0">
                <Node pos="l" depth="5" NCoef="0" IVar="-1" Cut="0.0000000000000000e+00" cType="1" res="2.9623813461512327e-03" rms="4.2295619845390320e-01" purity="5.0802850723266602e-01" nType="-99"/>
                <Node pos="r" depth="5" NCoef="0" IVar="-1" Cut="0.0000000000000000e+00" cType="1" res="1.1633284389972687e-02" rms="3.7478861212730408e-01" purity="6.9369477033615112e-01" nType="-99"/>
              </Node>
            </Node>
          </Node>
        </Node>
        <Node pos="r" depth="1" NCoef="0" IVar="4" Cut="1.8616517639160156e+02" cType="1" res="8.8753625750541687e-03" rms="2.9433181881904602e-01" purity="7.1261149644851685e-01" nType="0">
          <Node pos="l" depth="2" NCoef="0" IVar="4" Cut="6.7272422790527344e+01" cType="1" res="1.1729646474123001e-02" rms="2.9452985525131226e-01" purity="7.4775892496109009e-01" nType="0">
            <Node pos="l" depth="3" NCoef="0" IVar="-1" Cut="0.0000000000000000e+00" cType="1" res="-9.9093858152627945e-03" rms="3.7248137593269348e-01" purity="3.5417151451110840e-01" nType="-99"/>
            <Node pos="r" depth="3" NCoef="0" IVar="3" Cut="4.0243902206420898e+00" cType="1" res="1.4699945226311684e-02" rms="2.8830519318580627e-01" purity="7.7415931224822998e-01" nType="0">
              <Node pos="l" depth="4" NCoef="0" IVar="5" Cut="6.9799987792968750e+01" cType="1" res="1.7445826902985573e-02" rms="2.8175553679466248e-01" purity="7.9802763462066650e-01" nType="0">
                <Node pos="l" depth="5" NCoef="0" IVar="-1" Cut="0.0000000000000000e+00" cType="1" res="8.4784079808741808e-04" rms="3.3229178190231323e-01" purity="7.3966342210769653e-01" nType="-99"/>
                <Node pos="r" depth="5" NCoef="0" IVar="-1" Cut="0.0000000000000000e+00" cType="1" res="1.1673410423099995e-02" rms="2.6653507351875305e-01" purity="8.1357294321060181e-01" nType="-99"/>
              </Node>
              <Node pos="r" depth="4" NCoef="0" IVar="-1" Cut="0.0000000000000000e+00" cType="1" res="-5.8622122742235661e-03" rms="3.5416534543037415e-01" purity="4.9658453464508057e-01" nType="-99"/>
            </Node>
          </Node>
          <Node pos="r" depth="2" NCoef="0" IVar="-1" Cut="0.0000000000000000e+00" cType="1" res="-1.4509138651192188e-02" rms="2.8804624080657959e-01" purity="1.8959385156631470e-01" nType="-99"/>
        </Node>
      </Node>
    </BinaryTree>
    <BinaryTree type="DecisionTree" boostWeight="1.0000000000000000e+00" itree="67">
      <Node pos="s" depth="0" NCoef="0" IVar="5" Cut="6.9928314208984375e+01" cType="1" res="1.3621967518702149e-03" rms="3.0573612451553345e-01" purity="5.0145936012268066e-01" nType="0">
        <Node pos="l" depth="1" NCoef="0" IVar="6" Cut="9.1949188709259033e-01" cType="1" res="-1.3122207485139370e-02" rms="3.3909890055656433e-01" purity="4.4780686497688293e-01" nType="0">
          <Node pos="l" depth="2" NCoef="0" IVar="4" Cut="1.1773409271240234e+02" cType="1" res="-3.6238629370927811e-02" rms="3.3305415511131287e-01" purity="2.9855397343635559e-01" nType="0">
            <Node pos="l" depth="3" NCoef="0" IVar="-1" Cut="0.0000000000000000e+00" cType="1" res="-1.9419914111495018e-02" rms="3.4603285789489746e-01" purity="3.1875392794609070e-01" nType="-99"/>
            <Node pos="r" depth="3" NCoef="0" IVar="-1" Cut="0.0000000000000000e+00" cType="1" res="-8.6640557274222374e-03" rms="3.1800940632820129e-01" purity="2.7734065055847168e-01" nType="-99"/>
          </Node>
          <Node pos="r" depth="2" NCoef="0" IVar="8" Cut="1.9800005853176117e-01" cType="1" res="-7.7003482729196548e-03" rms="3.4027385711669922e-01" purity="4.8281353712081909e-01" nType="0">
            <Node pos="l" depth="3" NCoef="0" IVar="-1" Cut="0.0000000000000000e+00" cType="1" res="-1.8377726897597313e-02" rms="3.0063104629516602e-01" purity="2.6216462254524231e-01" nType="-99"/>
            <Node pos="r" depth="3" NCoef="0" IVar="9" Cut="2.4588452279567719e-01" cType="1" res="-1.6339888097718358e-03" rms="3.4671920537948608e-01" purity="5.2332782745361328e-01" nType="0">
              <Node pos="l" depth="4" NCoef="0" IVar="5" Cut="5.7274261474609375e+01" cType="1" res="-2.1064775064587593e-02" rms="3.3093559741973877e-01" purity="3.4398397803306580e-01" nType="0">
                <Node pos="l" depth="5" NCoef="0" IVar="-1" Cut="0.0000000000000000e+00" cType="1" res="-1.3459329493343830e-02" rms="3.2961201667785645e-01" purity="2.7873945236206055e-01" nType="-99"/>
                <Node pos="r" depth="5" NCoef="0" IVar="-1" Cut="0.0000000000000000e+00" cType="1" res="-3.0433218926191330e-03" rms="3.3176082372665405e-01" purity="4.1072943806648254e-01" nType="-99"/>
              </Node>
              <Node pos="r" depth="4" NCoef="0" IVar="8" Cut="4.6984985470771790e-01" cType="1" res="5.6652943603694439e-03" rms="3.5218894481658936e-01" purity="5.9069931507110596e-01" nType="0">
                <Node pos="l" depth="5" NCoef="0" IVar="-1" Cut="0.0000000000000000e+00" cType="1" res="-2.7716965414583683e-03" rms="3.5068708658218384e-01" purity="5.5250495672225952e-01" nType="-99"/>
                <Node pos="r" depth="5" NCoef="0" IVar="-1" Cut="0.0000000000000000e+00" cType="1" res="1.0324899107217789e-02" rms="3.5367482900619507e-01" purity="6.5740036964416504e-01" nType="-99"/>
              </Node>
            </Node>
          </Node>
        </Node>
        <Node pos="r" depth="1" NCoef="0" IVar="5" Cut="8.9700080871582031e+01" cType="1" res="5.5784359574317932e-03" rms="2.9518368840217590e-01" purity="5.1707696914672852e-01" nType="0">
          <Node pos="l" depth="2" NCoef="0" IVar="3" Cut="4.0243902206420898e+00" cType="1" res="1.9843069836497307e-02" rms="2.9096040129661560e-01" purity="7.1260797977447510e-01" nType="0">
            <Node pos="l" depth="3" NCoef="0" IVar="7" Cut="2.4726746082305908e+00" cType="1" res="2.4131707847118378e-02" rms="2.8840431571006775e-01" purity="7.4768942594528198e-01" nType="0">
              <Node pos="l" depth="4" NCoef="0" IVar="9" Cut="1.8804071843624115e-01" cType="1" res="1.9653782248497009e-02" rms="2.8684917092323303e-01" purity="7.5910902023315430e-01" nType="0">
                <Node pos="l" depth="5" NCoef="0" IVar="-1" Cut="0.0000000000000000e+00" cType="1" res="-7.5219171121716499e-03" rms="3.3888041973114014e-01" purity="3.3881175518035889e-01" nType="-99"/>
                <Node pos="r" depth="5" NCoef="0" IVar="-1" Cut="0.0000000000000000e+00" cType="1" res="1.2016831897199154e-02" rms="2.8063037991523743e-01" purity="8.0231440067291260e-01" nType="-99"/>
              </Node>
              <Node pos="r" depth="4" NCoef="0" IVar="-1" Cut="0.0000000000000000e+00" cType="1" res="2.0757552236318588e-02" rms="2.9590824246406555e-01" purity="6.8169194459915161e-01" nType="-99"/>
            </Node>
            <Node pos="r" depth="3" NCoef="0" IVar="-1" Cut="0.0000000000000000e+00" cType="1" res="-1.5134784393012524e-02" rms="3.1762191653251648e-01" purity="2.4502390623092651e-01" nType="-99"/>
          </Node>
          <Node pos="r" depth="2" NCoef="0" IVar="8" Cut="1.7116093635559082e-01" cType="1" res="-4.5686261728405952e-03" rms="2.9773578047752380e-01" purity="3.7798708677291870e-01" nType="0">
            <Node pos="l" depth="3" NCoef="0" IVar="6" Cut="2.2221028804779053e+00" cType="1" res="-2.6256626471877098e-02" rms="2.5064921379089355e-01" purity="1.4349804818630219e-01" nType="0">
              <Node pos="l" depth="4" NCoef="0" IVar="5" Cut="1.2570725250244141e+02" cType="1" res="-1.6378425061702728e-02" rms="2.3595346510410309e-01" purity="1.0877683758735657e-01" nType="0">
                <Node pos="l" depth="5" NCoef="0" IVar="-1" Cut="0.0000000000000000e+00" cType="1" res="-7.3761106468737125e-03" rms="2.6275295019149780e-01" purity="1.5020534396171570e-01" nType="-99"/>
                <Node pos="r" depth="5" NCoef="0" IVar="-1" Cut="0.0000000000000000e+00" cType="1" res="-2.1197812631726265e-02" rms="1.9413170218467712e-01" purity="5.3270846605300903e-02" nType="-99"/>
              </Node>
              <Node pos="r" depth="4" NCoef="0" IVar="-1" Cut="0.0000000000000000e+00" cType="1" res="-2.0416522398591042e-02" rms="2.7162560820579529e-01" purity="1.9863894581794739e-01" nType="-99"/>
            </Node>
            <Node pos="r" depth="3" NCoef="0" IVar="8" Cut="7.3998755216598511e-01" cType="1" res="3.5813928116112947e-04" rms="3.0721530318260193e-01" purity="4.3125492334365845e-01" nType="0">
              <Node pos="l" depth="4" NCoef="0" IVar="8" Cut="3.9314198493957520e-01" cType="1" res="3.5071510355919600e-03" rms="3.0556684732437134e-01" purity="4.4264245033264160e-01" nType="0">
                <Node pos="l" depth="5" NCoef="0" IVar="-1" Cut="0.0000000000000000e+00" cType="1" res="-2.5533004663884640e-03" rms="2.9894790053367615e-01" purity="3.8662764430046082e-01" nType="-99"/>
                <Node pos="r" depth="5" NCoef="0" IVar="-1" Cut="0.0000000000000000e+00" cType="1" res="8.1253796815872192e-03" rms="3.1579035520553589e-01" purity="5.3649967908859253e-01" nType="-99"/>
              </Node>
              <Node pos="r" depth="4" NCoef="0" IVar="-1" Cut="0.0000000000000000e+00" cType="1" res="-2.1692736074328423e-02" rms="3.2883077859878540e-01" purity="2.4430288374423981e-01" nType="-99"/>
            </Node>
          </Node>
        </Node>
      </Node>
    </BinaryTree>
    <BinaryTree type="DecisionTree" boostWeight="1.0000000000000000e+00" itree="68">
      <Node pos="s" depth="0" NCoef="0" IVar="2" Cut="4.0243902206420898e+00" cType="1" res="6.3492619665339589e-04" rms="3.0544531345367432e-01" purity="4.9987554550170898e-01" nType="0">
        <Node pos="l" depth="1" NCoef="0" IVar="6" Cut="1.0727388858795166e+00" cType="1" res="4.0341136045753956e-03" rms="3.1883057951927185e-01" purity="5.8307832479476929e-01" nType="0">
          <Node pos="l" depth="2" NCoef="0" IVar="7" Cut="4.7513794898986816e-01" cType="1" res="-1.2988531030714512e-02" rms="3.3219227194786072e-01" purity="3.8916763663291931e-01" nType="0">
            <Node pos="l" depth="3" NCoef="0" IVar="-1" Cut="0.0000000000000000e+00" cType="1" res="-1.5869002789258957e-02" rms="3.5416504740715027e-01" purity="4.0805739164352417e-01" nType="-99"/>
            <Node pos="r" depth="3" NCoef="0" IVar="0" Cut="3.0487804412841797e+00" cType="1" res="-5.0143157131969929e-03" rms="3.2529172301292419e-01" purity="3.8384723663330078e-01" nType="0">
              <Node pos="l" depth="4" NCoef="0" IVar="1" Cut="3.0487804412841797e+00" cType="1" res="-1.7704203724861145e-02" rms="2.8986361622810364e-01" purity="1.9041949510574341e-01" nType="0">
                <Node pos="l" depth="5" NCoef="0" IVar="-1" Cut="0.0000000000000000e+00" cType="1" res="-7.3249372653663158e-03" rms="2.6037442684173584e-01" purity="1.0220736265182495e-01" nType="-99"/>
                <Node pos="r" depth="5" NCoef="0" IVar="-1" Cut="0.0000000000000000e+00" cType="1" res="-1.0639367625117302e-02" rms="3.3649483323097229e-01" purity="3.5039108991622925e-01" nType="-99"/>
              </Node>
              <Node pos="r" depth="4" NCoef="0" IVar="5" Cut="8.8282356262207031e+01" cType="1" res="7.4749272316694260e-03" rms="3.5629960894584656e-01" purity="5.7421666383743286e-01" nType="0">
                <Node pos="l" depth="5" NCoef="0" IVar="-1" Cut="0.0000000000000000e+00" cType="1" res="6.4508952200412750e-03" rms="3.5261571407318115e-01" purity="6.7914009094238281e-01" nType="-99"/>
                <Node pos="r" depth="5" NCoef="0" IVar="-1" Cut="0.0000000000000000e+00" cType="1" res="-3.2164081931114197e-03" rms="3.6121952533721924e-01" purity="4.1425842046737671e-01" nType="-99"/>
              </Node>
            </Node>
          </Node>
          <Node pos="r" depth="2" NCoef="0" IVar="9" Cut="8.1721894443035126e-02" cType="1" res="8.2584545016288757e-03" rms="3.1528481841087341e-01" purity="6.3119924068450928e-01" nType="0">
            <Node pos="l" depth="3" NCoef="0" IVar="-1" Cut="0.0000000000000000e+00" cType="1" res="-2.7234060689806938e-02" rms="2.5896054506301880e-01" purity="1.0264094918966293e-01" nType="-99"/>
            <Node pos="r" depth="3" NCoef="0" IVar="7" Cut="3.2878115177154541e+00" cType="1" res="1.0232715867459774e-02" rms="3.1675070524215698e-01" purity="6.4836508035659790e-01" nType="0">
              <Node pos="l" depth="4" NCoef="0" IVar="8" Cut="1.7210026085376740e-01" cType="1" res="8.1507572904229164e-03" rms="3.1631320714950562e-01" purity="6.5373742580413818e-01" nType="0">
                <Node pos="l" depth="5" NCoef="0" IVar="-1" Cut="0.0000000000000000e+00" cType="1" res="-9.0924166142940521e-03" rms="3.3680436015129089e-01" purity="3.5392391681671143e-01" nType="-99"/>
                <Node pos="r" depth="5" NCoef="0" IVar="-1" Cut="0.0000000000000000e+00" cType="1" res="5.1243770867586136e-03" rms="3.1360149383544922e-01" purity="6.8919432163238525e-01" nType="-99"/>
              </Node>
              <Node pos="r" depth="4" NCoef="0" IVar="-1" Cut="0.0000000000000000e+00" cType="1" res="2.3019410669803619e-02" rms="3.2307013869285583e-01" purity="5.1969242095947266e-01" nType="-99"/>
            </Node>
          </Node>
        </Node>
        <Node pos="r" depth="1" NCoef="0" IVar="3" Cut="2.0731706619262695e+00" cType="1" res="-1.6597796231508255e-02" rms="2.2489705681800842e-01" purity="7.8065320849418640e-02" nType="0">
          <Node pos="l" depth="2" NCoef="0" IVar="6" Cut="2.2987248897552490e+00" cType="1" res="-1.3098624534904957e-02" rms="2.4424701929092407e-01" purity="9.6495591104030609e-02" nType="0">
            <Node pos="l" depth="3" NCoef="0" IVar="0" Cut="2.0731706619262695e+00" cType="1" res="-1.8922712653875351e-02" rms="2.2575668990612030e-01" purity="6.8972066044807434e-02" nType="0">
              <Node pos="l" depth="4" NCoef="0" IVar="6" Cut="1.4016585350036621e+00" cType="1" res="-1.3531962409615517e-02" rms="1.6891998052597046e-01" purity="3.2664440572261810e-02" nType="0">
                <Node pos="l" depth="5" NCoef="0" IVar="-1" Cut="0.0000000000000000e+00" cType="1" res="-5.2057607099413872e-03" rms="1.9337071478366852e-01" purity="4.0450021624565125e-02" nType="-99"/>
                <Node pos="r" depth="5" NCoef="0" IVar="-1" Cut="0.0000000000000000e+00" cType="1" res="-3.0429901555180550e-02" rms="1.3057994842529297e-01" purity="2.2793384268879890e-02" nType="-99"/>
              </Node>
              <Node pos="r" depth="4" NCoef="0" IVar="-1" Cut="0.0000000000000000e+00" cType="1" res="-1.2635339982807636e-02" rms="2.9149392247200012e-01" purity="1.2418750673532486e-01" nType="-99"/>
            </Node>
            <Node pos="r" depth="3" NCoef="0" IVar="9" Cut="2.6703667640686035e-01" cType="1" res="-3.1036690343171358e-03" rms="2.7278685569763184e-01" purity="1.4372985064983368e-01" nType="0">
              <Node pos="l" depth="4" NCoef="0" IVar="-1" Cut="0.0000000000000000e+00" cType="1" res="-1.5055418014526367e-02" rms="2.2716319561004639e-01" purity="7.2540067136287689e-02" nType="-99"/>
              <Node pos="r" depth="4" NCoef="0" IVar="-1" Cut="0.0000000000000000e+00" cType="1" res="5.5525698699057102e-03" rms="3.0511617660522461e-01" purity="2.0370331406593323e-01" nType="-99"/>
            </Node>
          </Node>
          <Node pos="r" depth="2" NCoef="0" IVar="9" Cut="2.9819205403327942e-01" cType="1" res="-2.6309348642826080e-02" rms="1.5892025828361511e-01" purity="2.6914164423942566e-02" nType="0">
            <Node pos="l" depth="3" NCoef="0" IVar="-1" Cut="0.0000000000000000e+00" cType="1" res="-1.7566999420523643e-02" rms="1.6169884800910950e-01" purity="2.8705157339572906e-02" nType="-99"/>
            <Node pos="r" depth="3" NCoef="0" IVar="-1" Cut="0.0000000000000000e+00" cType="1" res="-3.5373136401176453e-02" rms="1.5557298064231873e-01" purity="2.5369873270392418e-02" nType="-99"/>
          </Node>
        </Node>
      </Node>
    </BinaryTree>
    <BinaryTree type="DecisionTree" boostWeight="1.0000000000000000e+00" itree="69">
      <Node pos="s" depth="0" NCoef="0" IVar="8" Cut="1.2468472123146057e-01" cType="1" res="1.1042898986488581e-03" rms="3.0568966269493103e-01" purity="4.9975016713142395e-01" nType="0">
        <Node pos="l" depth="1" NCoef="0" IVar="8" Cut="7.6116934418678284e-02" cType="1" res="-2.5397887453436852e-02" rms="2.6703572273254395e-01" purity="1.7214220762252808e-01" nType="0">
          <Node pos="l" depth="2" NCoef="0" IVar="-1" Cut="0.0000000000000000e+00" cType="1" res="-3.4050583839416504e-02" rms="2.2571906447410583e-01" purity="8.2810044288635254e-02" nType="-99"/>
          <Node pos="r" depth="2" NCoef="0" IVar="5" Cut="1.0620068359375000e+02" cType="1" res="-8.4107946604490280e-03" rms="2.8815597295761108e-01" purity="2.2692404687404633e-01" nType="0">
            <Node pos="l" depth="3" NCoef="0" IVar="-1" Cut="0.0000000000000000e+00" cType="1" res="1.6468036919832230e-03" rms="3.2713037729263306e-01" purity="3.3259609341621399e-01" nType="-99"/>
            <Node pos="r" depth="3" NCoef="0" IVar="-1" Cut="0.0000000000000000e+00" cType="1" res="-2.0443167537450790e-02" rms="2.1644245088100433e-01" purity="6.9958746433258057e-02" nType="-99"/>
          </Node>
        </Node>
        <Node pos="r" depth="1" NCoef="0" IVar="4" Cut="8.1709800720214844e+01" cType="1" res="3.4260214306414127e-03" rms="3.0873721837997437e-01" purity="5.2845036983489990e-01" nType="0">
          <Node pos="l" depth="2" NCoef="0" IVar="9" Cut="4.6385437250137329e-01" cType="1" res="-1.3338696211576462e-02" rms="3.3845022320747375e-01" purity="3.0436402559280396e-01" nType="0">
            <Node pos="l" depth="3" NCoef="0" IVar="4" Cut="4.4717174530029297e+01" cType="1" res="-2.3980317637324333e-02" rms="3.1907010078430176e-01" purity="2.4360550940036774e-01" nType="0">
              <Node pos="l" depth="4" NCoef="0" IVar="-1" Cut="0.0000000000000000e+00" cType="1" res="-2.4163573980331421e-02" rms="2.8013005852699280e-01" purity="1.1520144343376160e-01" nType="-99"/>
              <Node pos="r" depth="4" NCoef="0" IVar="7" Cut="6.1988490819931030e-01" cType="1" res="-1.7893718555569649e-02" rms="3.2742014527320862e-01" purity="2.7436760067939758e-01" nType="0">
                <Node pos="l" depth="5" NCoef="0" IVar="-1" Cut="0.0000000000000000e+00" cType="1" res="-1.4150742441415787e-02" rms="3.4450951218605042e-01" purity="2.9705089330673218e-01" nType="-99"/>
                <Node pos="r" depth="5" NCoef="0" IVar="-1" Cut="0.0000000000000000e+00" cType="1" res="-4.7220131382346153e-03" rms="3.2098501920700073e-01" purity="2.6645943522453308e-01" nType="-99"/>
              </Node>
            </Node>
            <Node pos="r" depth="3" NCoef="0" IVar="6" Cut="1.7623559236526489e+00" cType="1" res="5.9502306394279003e-03" rms="3.7022802233695984e-01" purity="4.1449439525604248e-01" nType="0">
              <Node pos="l" depth="4" NCoef="0" IVar="-1" Cut="0.0000000000000000e+00" cType="1" res="-3.1114877201616764e-03" rms="3.7160947918891907e-01" purity="3.5038521885871887e-01" nType="-99"/>
              <Node pos="r" depth="4" NCoef="0" IVar="-1" Cut="0.0000000000000000e+00" cType="1" res="7.8450487926602364e-03" rms="3.6784577369689941e-01" purity="4.8893421888351440e-01" nType="-99"/>
            </Node>
          </Node>
          <Node pos="r" depth="2" NCoef="0" IVar="9" Cut="1.7140831053256989e-01" cType="1" res="7.2744409553706646e-03" rms="3.0137190222740173e-01" purity="5.7989042997360229e-01" nType="0">
            <Node pos="l" depth="3" NCoef="0" IVar="7" Cut="2.9902632236480713e+00" cType="1" res="-1.3763719238340855e-02" rms="2.9535365104675293e-01" purity="2.3711685836315155e-01" nType="0">
              <Node pos="l" depth="4" NCoef="0" IVar="6" Cut="1.8389840126037598e+00" cType="1" res="-2.4367135018110275e-02" rms="2.9525563120841980e-01" purity="1.9514399766921997e-01" nType="0">
                <Node pos="l" depth="5" NCoef="0" IVar="-1" Cut="0.0000000000000000e+00" cType="1" res="-5.2330470643937588e-03" rms="2.7557784318923950e-01" purity="1.5582938492298126e-01" nType="-99"/>
                <Node pos="r" depth="5" NCoef="0" IVar="-1" Cut="0.0000000000000000e+00" cType="1" res="-1.6303731128573418e-02" rms="3.1120291352272034e-01" purity="2.3033778369426727e-01" nType="-99"/>
              </Node>
              <Node pos="r" depth="4" NCoef="0" IVar="-1" Cut="0.0000000000000000e+00" cType="1" res="8.1940749660134315e-03" rms="2.9338899254798889e-01" purity="3.6194702982902527e-01" nType="-99"/>
            </Node>
            <Node pos="r" depth="3" NCoef="0" IVar="7" Cut="1.9743821620941162e+00" cType="1" res="1.1262059211730957e-02" rms="3.0233412981033325e-01" purity="6.4486044645309448e-01" nType="0">
              <Node pos="l" depth="4" NCoef="0" IVar="8" Cut="3.6752337217330933e-01" cType="1" res="6.0554067604243755e-03" rms="3.0672755837440491e-01" purity="6.3920789957046509e-01" nType="0">
                <Node pos="l" depth="5" NCoef="0" IVar="-1" Cut="0.0000000000000000e+00" cType="1" res="-3.3561128657311201e-03" rms="3.1382393836975098e-01" purity="5.3913998603820801e-01" nType="-99"/>
                <Node pos="r" depth="5" NCoef="0" IVar="-1" Cut="0.0000000000000000e+00" cType="1" res="7.8457323834300041e-03" rms="3.0047503113746643e-01" purity="7.1964317560195923e-01" nType="-99"/>
              </Node>
              <Node pos="r" depth="4" NCoef="0" IVar="6" Cut="2.2987189292907715e+00" cType="1" res="4.0299810469150543e-02" rms="2.7475106716156006e-01" purity="6.7638528347015381e-01" nType="0">
                <Node pos="l" depth="5" NCoef="0" IVar="-1" Cut="0.0000000000000000e+00" cType="1" res="1.3994559412822127e-03" rms="2.9301077127456665e-01" purity="4.5408838987350464e-01" nType="-99"/>
                <Node pos="r" depth="5" NCoef="0" IVar="-1" Cut="0.0000000000000000e+00" cType="1" res="3.0883623287081718e-02" rms="2.6043239235877991e-01" purity="8.1161016225814819e-01" nType="-99"/>
              </Node>
            </Node>
          </Node>
        </Node>
      </Node>
    </BinaryTree>
    <BinaryTree type="DecisionTree" boostWeight="1.0000000000000000e+00" itree="70">
      <Node pos="s" depth="0" NCoef="0" IVar="8" Cut="1.0065772533416748e+00" cType="1" res="-4.1627144673839211e-04" rms="3.0438432097434998e-01" purity="4.9977338314056396e-01" nType="0">
        <Node pos="l" depth="1" NCoef="0" IVar="8" Cut="4.4202679395675659e-01" cType="1" res="9.5590844284743071e-04" rms="3.0348992347717285e-01" purity="5.0454407930374146e-01" nType="0">
          <Node pos="l" depth="2" NCoef="0" IVar="4" Cut="7.0103530883789062e+01" cType="1" res="-4.3391901999711990e-03" rms="2.9685059189796448e-01" purity="4.6717193722724915e-01" nType="0">
            <Node pos="l" depth="3" NCoef="0" IVar="1" Cut="1.0975610017776489e+00" cType="1" res="-2.9138768091797829e-02" rms="3.0965068936347961e-01" purity="2.0197089016437531e-01" nType="0">
              <Node pos="l" depth="4" NCoef="0" IVar="5" Cut="9.8663955688476562e+01" cType="1" res="-1.8069176003336906e-02" rms="2.9227963089942932e-01" purity="1.5455120801925659e-01" nType="0">
                <Node pos="l" depth="5" NCoef="0" IVar="-1" Cut="0.0000000000000000e+00" cType="1" res="-1.1441522277891636e-02" rms="3.2908028364181519e-01" purity="2.2914905846118927e-01" nType="-99"/>
                <Node pos="r" depth="5" NCoef="0" IVar="-1" Cut="0.0000000000000000e+00" cType="1" res="-5.3844475187361240e-03" rms="2.5134810805320740e-01" purity="8.2731120288372040e-02" nType="-99"/>
              </Node>
              <Node pos="r" depth="4" NCoef="0" IVar="-1" Cut="0.0000000000000000e+00" cType="1" res="-1.7760038375854492e-02" rms="3.4157484769821167e-01" purity="2.9976424574851990e-01" nType="-99"/>
            </Node>
            <Node pos="r" depth="3" NCoef="0" IVar="4" Cut="1.3153147888183594e+02" cType="1" res="-9.3219586415216327e-04" rms="2.9488581418991089e-01" purity="5.0360554456710815e-01" nType="0">
              <Node pos="l" depth="4" NCoef="0" IVar="7" Cut="1.2363393306732178e+00" cType="1" res="6.6143129952251911e-03" rms="2.9591524600982666e-01" purity="6.1728721857070923e-01" nType="0">
                <Node pos="l" depth="5" NCoef="0" IVar="-1" Cut="0.0000000000000000e+00" cType="1" res="-2.6365027297288179e-03" rms="3.0377417802810669e-01" purity="6.3468837738037109e-01" nType="-99"/>
                <Node pos="r" depth="5" NCoef="0" IVar="-1" Cut="0.0000000000000000e+00" cType="1" res="8.2729561254382133e-03" rms="2.8819292783737183e-01" purity="6.0155439376831055e-01" nType="-99"/>
              </Node>
              <Node pos="r" depth="4" NCoef="0" IVar="5" Cut="6.2847427368164062e+01" cType="1" res="-1.5319819562137127e-02" rms="2.9237392544746399e-01" purity="2.8686839342117310e-01" nType="0">
                <Node pos="l" depth="5" NCoef="0" IVar="-1" Cut="0.0000000000000000e+00" cType="1" res="-1.7841294407844543e-02" rms="2.8762936592102051e-01" purity="1.8084771931171417e-01" nType="-99"/>
                <Node pos="r" depth="5" NCoef="0" IVar="-1" Cut="0.0000000000000000e+00" cType="1" res="-5.8507421053946018e-03" rms="2.9306933283805847e-01" purity="3.0580714344978333e-01" nType="-99"/>
              </Node>
            </Node>
          </Node>
          <Node pos="r" depth="2" NCoef="0" IVar="5" Cut="6.2584194183349609e+01" cType="1" res="1.4195939525961876e-02" rms="3.1910365819931030e-01" purity="5.9799057245254517e-01" nType="0">
            <Node pos="l" depth="3" NCoef="0" IVar="6" Cut="1.5324846506118774e+00" cType="1" res="-9.1916555538773537e-03" rms="3.6068433523178101e-01" purity="4.8128551244735718e-01" nType="0">
              <Node pos="l" depth="4" NCoef="0" IVar="-1" Cut="0.0000000000000000e+00" cType="1" res="-9.7453203052282333e-03" rms="3.5452327132225037e-01" purity="3.9703285694122314e-01" nType="-99"/>
              <Node pos="r" depth="4" NCoef="0" IVar="-1" Cut="0.0000000000000000e+00" cType="1" res="1.0962531669065356e-03" rms="3.6423569917678833e-01" purity="5.3774613142013550e-01" nType="-99"/>
            </Node>
            <Node pos="r" depth="3" NCoef="0" IVar="9" Cut="3.4593343734741211e-01" cType="1" res="2.0076109096407890e-02" rms="3.0748710036277771e-01" purity="6.2733280658721924e-01" nType="0">
              <Node pos="l" depth="4" NCoef="0" IVar="4" Cut="1.0069763946533203e+02" cType="1" res="1.1304694227874279e-02" rms="3.3287003636360168e-01" purity="4.8513418436050415e-01" nType="0">
                <Node pos="l" depth="5" NCoef="0" IVar="-1" Cut="0.0000000000000000e+00" cType="1" res="-2.4941405281424522e-03" rms="3.4775182604789734e-01" purity="3.5006028413772583e-01" nType="-99"/>
                <Node pos="r" depth="5" NCoef="0" IVar="-1" Cut="0.0000000000000000e+00" cType="1" res="8.1599494442343712e-03" rms="3.2589718699455261e-01" purity="5.4382556676864624e-01" nType="-99"/>
              </Node>
              <Node pos="r" depth="4" NCoef="0" IVar="5" Cut="1.0060034942626953e+02" cType="1" res="3.0434420332312584e-02" rms="2.7414479851722717e-01" purity="7.9525756835937500e-01" nType="0">
                <Node pos="l" depth="5" NCoef="0" IVar="-1" Cut="0.0000000000000000e+00" cType="1" res="1.9536452367901802e-02" rms="2.5998365879058838e-01" purity="8.5111850500106812e-01" nType="-99"/>
                <Node pos="r" depth="5" NCoef="0" IVar="-1" Cut="0.0000000000000000e+00" cType="1" res="7.4071544222533703e-03" rms="3.0706229805946350e-01" purity="6.5237009525299072e-01" nType="-99"/>
              </Node>
            </Node>
          </Node>
        </Node>
        <Node pos="r" depth="1" NCoef="0" IVar="-1" Cut="0.0000000000000000e+00" cType="1" res="-2.3432681336998940e-02" rms="3.3476647734642029e-01" purity="2.9958996176719666e-01" nType="-99"/>
      </Node>
    </BinaryTree>
    <BinaryTree type="DecisionTree" boostWeight="1.0000000000000000e+00" itree="71">
      <Node pos="s" depth="0" NCoef="0" IVar="9" Cut="2.4024751782417297e-01" cType="1" res="-3.7959159817546606e-04" rms="3.0329966545104980e-01" purity="5.0134998559951782e-01" nType="0">
        <Node pos="l" depth="1" NCoef="0" IVar="7" Cut="3.3534593582153320e+00" cType="1" res="-1.2456805445253849e-02" rms="2.9229819774627686e-01" purity="2.8526833653450012e-01" nType="0">
          <Node pos="l" depth="2" NCoef="0" IVar="8" Cut="2.3570857942104340e-01" cType="1" res="-1.7150837928056717e-02" rms="2.9577451944351196e-01" purity="2.8263792395591736e-01" nType="0">
            <Node pos="l" depth="3" NCoef="0" IVar="8" Cut="1.8411335349082947e-01" cType="1" res="-3.7566576153039932e-02" rms="2.3610365390777588e-01" purity="1.8003606796264648e-01" nType="0">
              <Node pos="l" depth="4" NCoef="0" IVar="-1" Cut="0.0000000000000000e+00" cType="1" res="-3.6650102585554123e-02" rms="2.1519199013710022e-01" purity="1.0345989465713501e-01" nType="-99"/>
              <Node pos="r" depth="4" NCoef="0" IVar="-1" Cut="0.0000000000000000e+00" cType="1" res="-1.1232483200728893e-02" rms="2.5895196199417114e-01" purity="2.7625918388366699e-01" nType="-99"/>
            </Node>
            <Node pos="r" depth="3" NCoef="0" IVar="8" Cut="7.9465407133102417e-01" cType="1" res="-1.0950795374810696e-02" rms="3.1137746572494507e-01" purity="3.1379705667495728e-01" nType="0">
              <Node pos="l" depth="4" NCoef="0" IVar="4" Cut="7.6796691894531250e+01" cType="1" res="-6.4221131615340710e-03" rms="3.0899760127067566e-01" purity="3.2726731896400452e-01" nType="0">
                <Node pos="l" depth="5" NCoef="0" IVar="-1" Cut="0.0000000000000000e+00" cType="1" res="-1.9168697297573090e-02" rms="2.7205818891525269e-01" purity="1.0691759735345840e-01" nType="-99"/>
                <Node pos="r" depth="5" NCoef="0" IVar="-1" Cut="0.0000000000000000e+00" cType="1" res="-6.5217807423323393e-04" rms="3.1462097167968750e-01" purity="3.6498159170150757e-01" nType="-99"/>
              </Node>
              <Node pos="r" depth="4" NCoef="0" IVar="-1" Cut="0.0000000000000000e+00" cType="1" res="-1.8499461933970451e-02" rms="3.2563340663909912e-01" purity="2.2071623802185059e-01" nType="-99"/>
            </Node>
          </Node>
          <Node pos="r" depth="2" NCoef="0" IVar="9" Cut="1.1729168146848679e-01" cType="1" res="1.5348248183727264e-02" rms="2.6911908388137817e-01" purity="3.0084934830665588e-01" nType="0">
            <Node pos="l" depth="3" NCoef="0" IVar="-1" Cut="0.0000000000000000e+00" cType="1" res="-1.0834579356014729e-02" rms="2.4056906998157501e-01" purity="1.4592078328132629e-01" nType="-99"/>
            <Node pos="r" depth="3" NCoef="0" IVar="-1" Cut="0.0000000000000000e+00" cType="1" res="2.2783258929848671e-02" rms="2.9121977090835571e-01" purity="4.5734590291976929e-01" nType="-99"/>
          </Node>
        </Node>
        <Node pos="r" depth="1" NCoef="0" IVar="8" Cut="3.4627094864845276e-01" cType="1" res="4.5969355851411819e-03" rms="3.0758056044578552e-01" purity="5.9038841724395752e-01" nType="0">
          <Node pos="l" depth="2" NCoef="0" IVar="8" Cut="1.9436097145080566e-01" cType="1" res="-4.8567005433142185e-03" rms="3.0789890885353088e-01" purity="4.8167791962623596e-01" nType="0">
            <Node pos="l" depth="3" NCoef="0" IVar="7" Cut="2.7336850166320801e+00" cType="1" res="-1.8237309530377388e-02" rms="3.0113193392753601e-01" purity="3.0967825651168823e-01" nType="0">
              <Node pos="l" depth="4" NCoef="0" IVar="6" Cut="1.6857290267944336e+00" cType="1" res="-2.2308504208922386e-02" rms="3.0414861440658569e-01" purity="3.0094948410987854e-01" nType="0">
                <Node pos="l" depth="5" NCoef="0" IVar="-1" Cut="0.0000000000000000e+00" cType="1" res="-3.2774941064417362e-03" rms="2.9753044247627258e-01" purity="2.4878457188606262e-01" nType="-99"/>
                <Node pos="r" depth="5" NCoef="0" IVar="-1" Cut="0.0000000000000000e+00" cType="1" res="-1.4837927184998989e-02" rms="3.0805429816246033e-01" purity="3.3608263731002808e-01" nType="-99"/>
              </Node>
              <Node pos="r" depth="4" NCoef="0" IVar="-1" Cut="0.0000000000000000e+00" cType="1" res="-3.5905229742638767e-04" rms="2.8717046976089478e-01" purity="3.4714269638061523e-01" nType="-99"/>
            </Node>
            <Node pos="r" depth="3" NCoef="0" IVar="7" Cut="1.7452613115310669e+00" cType="1" res="2.2918118629604578e-03" rms="3.1121820211410522e-01" purity="5.7356774806976318e-01" nType="0">
              <Node pos="l" depth="4" NCoef="0" IVar="9" Cut="4.6133643388748169e-01" cType="1" res="-7.6808626763522625e-03" rms="3.2505315542221069e-01" purity="5.3493988513946533e-01" nType="0">
                <Node pos="l" depth="5" NCoef="0" IVar="-1" Cut="0.0000000000000000e+00" cType="1" res="-1.1876330710947514e-02" rms="3.2912558317184448e-01" purity="4.3563404679298401e-01" nType="-99"/>
                <Node pos="r" depth="5" NCoef="0" IVar="-1" Cut="0.0000000000000000e+00" cType="1" res="4.8419479280710220e-03" rms="3.1991392374038696e-01" purity="6.3171678781509399e-01" nType="-99"/>
              </Node>
              <Node pos="r" depth="4" NCoef="0" IVar="-1" Cut="0.0000000000000000e+00" cType="1" res="1.6489721834659576e-02" rms="2.6215314865112305e-01" purity="6.9160807132720947e-01" nType="-99"/>
            </Node>
          </Node>
          <Node pos="r" depth="2" NCoef="0" IVar="6" Cut="2.6818461418151855e+00" cType="1" res="1.4015953056514263e-02" rms="3.0697366595268250e-01" purity="6.9870078563690186e-01" nType="0">
            <Node pos="l" depth="3" NCoef="0" IVar="5" Cut="8.7840026855468750e+01" cType="1" res="6.9691366516053677e-03" rms="3.2971486449241638e-01" purity="6.2942904233932495e-01" nType="0">
              <Node pos="l" depth="4" NCoef="0" IVar="8" Cut="5.6007069349288940e-01" cType="1" res="1.4900985173881054e-02" rms="3.2310542464256287e-01" purity="6.8791055679321289e-01" nType="0">
                <Node pos="l" depth="5" NCoef="0" IVar="-1" Cut="0.0000000000000000e+00" cType="1" res="2.1991715766489506e-03" rms="3.1136247515678406e-01" purity="6.9527620077133179e-01" nType="-99"/>
                <Node pos="r" depth="5" NCoef="0" IVar="-1" Cut="0.0000000000000000e+00" cType="1" res="1.2264324352145195e-02" rms="3.4095856547355652e-01" purity="6.7575895786285400e-01" nType="-99"/>
              </Node>
              <Node pos="r" depth="4" NCoef="0" IVar="4" Cut="1.2872239685058594e+02" cType="1" res="-7.8076734207570553e-03" rms="3.4119591116905212e-01" purity="5.2047950029373169e-01" nType="0">
                <Node pos="l" depth="5" NCoef="0" IVar="-1" Cut="0.0000000000000000e+00" cType="1" res="-8.0920421169139445e-05" rms="3.3938989043235779e-01" purity="5.5727732181549072e-01" nType="-99"/>
                <Node pos="r" depth="5" NCoef="0" IVar="-1" Cut="0.0000000000000000e+00" cType="1" res="-1.0040645487606525e-02" rms="3.4498405456542969e-01" purity="4.2709380388259888e-01" nType="-99"/>
              </Node>
            </Node>
            <Node pos="r" depth="3" NCoef="0" IVar="-1" Cut="0.0000000000000000e+00" cType="1" res="1.6899278387427330e-02" rms="2.4878308176994324e-01" purity="8.5173863172531128e-01" nType="-99"/>
          </Node>
        </Node>
      </Node>
    </BinaryTree>
    <BinaryTree type="DecisionTree" boostWeight="1.0000000000000000e+00" itree="72">
      <Node pos="s" depth="0" NCoef="0" IVar="6" Cut="6.1299353837966919e-01" cType="1" res="-3.8094105548225343e-04" rms="3.0352216958999634e-01" purity="4.9990302324295044e-01" nType="0">
        <Node pos="l" depth="1" NCoef="0" IVar="7" Cut="7.3608511686325073e-01" cType="1" res="-2.0400704815983772e-02" rms="3.0935680866241455e-01" purity="2.9023534059524536e-01" nType="0">
          <Node pos="l" depth="2" NCoef="0" IVar="-1" Cut="0.0000000000000000e+00" cType="1" res="-1.6700720414519310e-02" rms="3.3787238597869873e-01" purity="2.9997521638870239e-01" nType="-99"/>
          <Node pos="r" depth="2" NCoef="0" IVar="8" Cut="4.6266725659370422e-01" cType="1" res="-1.1115633882582188e-02" rms="2.9390561580657959e-01" purity="2.8545448184013367e-01" nType="0">
            <Node pos="l" depth="3" NCoef="0" IVar="8" Cut="2.2591063380241394e-01" cType="1" res="-1.9416619092226028e-02" rms="2.7456641197204590e-01" purity="2.3110690712928772e-01" nType="0">
              <Node pos="l" depth="4" NCoef="0" IVar="-1" Cut="0.0000000000000000e+00" cType="1" res="-6.9965329021215439e-03" rms="2.6221656799316406e-01" purity="1.8068689107894897e-01" nType="-99"/>
              <Node pos="r" depth="4" NCoef="0" IVar="-1" Cut="0.0000000000000000e+00" cType="1" res="-1.3088083826005459e-02" rms="2.8563800454139709e-01" purity="2.7915912866592407e-01" nType="-99"/>
            </Node>
            <Node pos="r" depth="3" NCoef="0" IVar="-1" Cut="0.0000000000000000e+00" cType="1" res="3.4528002142906189e-03" rms="3.3426707983016968e-01" purity="4.1348412632942200e-01" nType="-99"/>
          </Node>
        </Node>
        <Node pos="r" depth="1" NCoef="0" IVar="9" Cut="3.4181514382362366e-01" cType="1" res="2.1525863558053970e-03" rms="3.0268141627311707e-01" purity="5.2643674612045288e-01" nType="0">
          <Node pos="l" depth="2" NCoef="0" IVar="7" Cut="2.4340534210205078e+00" cType="1" res="-5.9959418140351772e-03" rms="3.0444389581680298e-01" purity="4.1024214029312134e-01" nType="0">
            <Node pos="l" depth="3" NCoef="0" IVar="8" Cut="3.4955996274948120e-01" cType="1" res="-1.1855670250952244e-02" rms="3.1389796733856201e-01" purity="4.0229952335357666e-01" nType="0">
              <Node pos="l" depth="4" NCoef="0" IVar="8" Cut="2.9009485244750977e-01" cType="1" res="-2.5575233623385429e-02" rms="2.8344911336898804e-01" purity="2.7926924824714661e-01" nType="0">
                <Node pos="l" depth="5" NCoef="0" IVar="-1" Cut="0.0000000000000000e+00" cType="1" res="-1.9920762628316879e-02" rms="2.7283164858818054e-01" purity="2.0699046552181244e-01" nType="-99"/>
                <Node pos="r" depth="5" NCoef="0" IVar="-1" Cut="0.0000000000000000e+00" cType="1" res="-3.7477456498891115e-03" rms="3.0258893966674805e-01" purity="4.2236807942390442e-01" nType="-99"/>
              </Node>
              <Node pos="r" depth="4" NCoef="0" IVar="8" Cut="7.7997332811355591e-01" cType="1" res="-2.8903097845613956e-03" rms="3.3198532462120056e-01" purity="4.8269644379615784e-01" nType="0">
                <Node pos="l" depth="5" NCoef="0" IVar="-1" Cut="0.0000000000000000e+00" cType="1" res="6.4893311355262995e-04" rms="3.2966718077659607e-01" purity="5.0813204050064087e-01" nType="-99"/>
                <Node pos="r" depth="5" NCoef="0" IVar="-1" Cut="0.0000000000000000e+00" cType="1" res="-1.2783469632267952e-02" rms="3.4508356451988220e-01" purity="3.2012477517127991e-01" nType="-99"/>
              </Node>
            </Node>
            <Node pos="r" depth="3" NCoef="0" IVar="9" Cut="9.1797515749931335e-02" cType="1" res="1.0362478904426098e-02" rms="2.7568641304969788e-01" purity="4.3241533637046814e-01" nType="0">
              <Node pos="l" depth="4" NCoef="0" IVar="-1" Cut="0.0000000000000000e+00" cType="1" res="-2.2036265581846237e-02" rms="2.3561349511146545e-01" purity="1.0201935470104218e-01" nType="-99"/>
              <Node pos="r" depth="4" NCoef="0" IVar="8" Cut="2.0406226813793182e-01" cType="1" res="2.0929474383592606e-02" rms="2.8277546167373657e-01" purity="5.0612610578536987e-01" nType="0">
                <Node pos="l" depth="5" NCoef="0" IVar="-1" Cut="0.0000000000000000e+00" cType="1" res="6.2533792515750974e-05" rms="2.8547099232673645e-01" purity="3.9871293306350708e-01" nType="-99"/>
                <Node pos="r" depth="5" NCoef="0" IVar="-1" Cut="0.0000000000000000e+00" cType="1" res="2.0604718476533890e-02" rms="2.7763152122497559e-01" purity="6.3153362274169922e-01" nType="-99"/>
              </Node>
            </Node>
          </Node>
          <Node pos="r" depth="2" NCoef="0" IVar="3" Cut="4.0243902206420898e+00" cType="1" res="1.0932732373476028e-02" rms="3.0052354931831360e-01" purity="6.5163803100585938e-01" nType="0">
            <Node pos="l" depth="3" NCoef="0" IVar="8" Cut="1.6094481945037842e-01" cType="1" res="1.4861335046589375e-02" rms="2.9745513200759888e-01" purity="6.9797986745834351e-01" nType="0">
              <Node pos="l" depth="4" NCoef="0" IVar="5" Cut="8.8587554931640625e+01" cType="1" res="-8.1889610737562180e-03" rms="3.2650318741798401e-01" purity="3.5111090540885925e-01" nType="0">
                <Node pos="l" depth="5" NCoef="0" IVar="-1" Cut="0.0000000000000000e+00" cType="1" res="-8.9044525520876050e-04" rms="3.5083132982254028e-01" purity="4.7454255819320679e-01" nType="-99"/>
                <Node pos="r" depth="5" NCoef="0" IVar="-1" Cut="0.0000000000000000e+00" cType="1" res="-6.5657296217978001e-03" rms="3.0196332931518555e-01" purity="2.3603869974613190e-01" nType="-99"/>
              </Node>
              <Node pos="r" depth="4" NCoef="0" IVar="7" Cut="1.0603916645050049e+00" cType="1" res="1.7746882513165474e-02" rms="2.9348894953727722e-01" purity="7.4140256643295288e-01" nType="0">
                <Node pos="l" depth="5" NCoef="0" IVar="-1" Cut="0.0000000000000000e+00" cType="1" res="6.1341342516243458e-03" rms="2.9548314213752747e-01" purity="7.4550420045852661e-01" nType="-99"/>
                <Node pos="r" depth="5" NCoef="0" IVar="-1" Cut="0.0000000000000000e+00" cType="1" res="1.4744810760021210e-02" rms="2.8792777657508850e-01" purity="7.3094785213470459e-01" nType="-99"/>
              </Node>
            </Node>
            <Node pos="r" depth="3" NCoef="0" IVar="2" Cut="1.0975610017776489e+00" cType="1" res="-1.6071079298853874e-02" rms="3.1951719522476196e-01" purity="3.3310070633888245e-01" nType="0">
              <Node pos="l" depth="4" NCoef="0" IVar="-1" Cut="0.0000000000000000e+00" cType="1" res="-1.2541192700155079e-04" rms="3.6769050359725952e-01" purity="4.7064855694770813e-01" nType="-99"/>
              <Node pos="r" depth="4" NCoef="0" IVar="-1" Cut="0.0000000000000000e+00" cType="1" res="-2.7557142078876495e-02" rms="2.1472863852977753e-01" purity="1.0500815510749817e-01" nType="-99"/>
            </Node>
          </Node>
        </Node>
      </Node>
    </BinaryTree>
    <BinaryTree type="DecisionTree" boostWeight="1.0000000000000000e+00" itree="73">
      <Node pos="s" depth="0" NCoef="0" IVar="4" Cut="4.1088054656982422e+01" cType="1" res="-1.7400352589902468e-05" rms="3.0455526709556580e-01" purity="4.9890416860580444e-01" nType="0">
        <Node pos="l" depth="1" NCoef="0" IVar="-1" Cut="0.0000000000000000e+00" cType="1" res="-1.9812494516372681e-02" rms="3.0972126126289368e-01" purity="1.4799799025058746e-01" nType="-99"/>
        <Node pos="r" depth="1" NCoef="0" IVar="5" Cut="5.1760303497314453e+01" cType="1" res="1.2599022593349218e-03" rms="3.0430993437767029e-01" purity="5.0892251729965210e-01" nType="0">
          <Node pos="l" depth="2" NCoef="0" IVar="7" Cut="1.6100447177886963e+00" cType="1" res="-2.0196044817566872e-02" rms="3.5289993882179260e-01" purity="3.6425814032554626e-01" nType="0">
            <Node pos="l" depth="3" NCoef="0" IVar="4" Cut="1.0732774353027344e+02" cType="1" res="-1.2696229852735996e-02" rms="3.6965939402580261e-01" purity="4.1952341794967651e-01" nType="0">
              <Node pos="l" depth="4" NCoef="0" IVar="-1" Cut="0.0000000000000000e+00" cType="1" res="-9.4943093135952950e-03" rms="3.8374885916709900e-01" purity="4.0187439322471619e-01" nType="-99"/>
              <Node pos="r" depth="4" NCoef="0" IVar="-1" Cut="0.0000000000000000e+00" cType="1" res="-5.1634566625580192e-04" rms="3.5887032747268677e-01" purity="4.3207424879074097e-01" nType="-99"/>
            </Node>
            <Node pos="r" depth="3" NCoef="0" IVar="-1" Cut="0.0000000000000000e+00" cType="1" res="-1.8480602651834488e-02" rms="3.0153062939643860e-01" purity="2.1344874799251556e-01" nType="-99"/>
          </Node>
          <Node pos="r" depth="2" NCoef="0" IVar="2" Cut="2.0731706619262695e+00" cType="1" res="3.4493200946599245e-03" rms="2.9882127046585083e-01" purity="5.2368444204330444e-01" nType="0">
            <Node pos="l" depth="3" NCoef="0" IVar="9" Cut="1.0403382778167725e-01" cType="1" res="7.4526350945234299e-03" rms="3.1035435199737549e-01" purity="6.3080716133117676e-01" nType="0">
              <Node pos="l" depth="4" NCoef="0" IVar="-1" Cut="0.0000000000000000e+00" cType="1" res="-1.2361140921711922e-02" rms="2.7441072463989258e-01" purity="1.4242783188819885e-01" nType="-99"/>
              <Node pos="r" depth="4" NCoef="0" IVar="7" Cut="3.1880743503570557e+00" cType="1" res="9.4446055591106415e-03" rms="3.1237950921058655e-01" purity="6.6166210174560547e-01" nType="0">
                <Node pos="l" depth="5" NCoef="0" IVar="-1" Cut="0.0000000000000000e+00" cType="1" res="3.1497245654463768e-03" rms="3.1181588768959045e-01" purity="6.6620844602584839e-01" nType="-99"/>
                <Node pos="r" depth="5" NCoef="0" IVar="-1" Cut="0.0000000000000000e+00" cType="1" res="2.3651909083127975e-02" rms="3.1982338428497314e-01" purity="5.6527173519134521e-01" nType="-99"/>
              </Node>
            </Node>
            <Node pos="r" depth="3" NCoef="0" IVar="3" Cut="2.0731706619262695e+00" cType="1" res="-9.5128593966364861e-03" rms="2.5753855705261230e-01" purity="1.7683570086956024e-01" nType="0">
              <Node pos="l" depth="4" NCoef="0" IVar="6" Cut="2.9117186069488525e+00" cType="1" res="-4.0361792780458927e-03" rms="2.7595284581184387e-01" purity="2.1786461770534515e-01" nType="0">
                <Node pos="l" depth="5" NCoef="0" IVar="-1" Cut="0.0000000000000000e+00" cType="1" res="-5.2916831336915493e-03" rms="2.7004212141036987e-01" purity="1.9084748625755310e-01" nType="-99"/>
                <Node pos="r" depth="5" NCoef="0" IVar="-1" Cut="0.0000000000000000e+00" cType="1" res="1.2803750112652779e-02" rms="3.0972078442573547e-01" purity="3.9431345462799072e-01" nType="-99"/>
              </Node>
              <Node pos="r" depth="4" NCoef="0" IVar="5" Cut="1.0456175231933594e+02" cType="1" res="-2.5468312203884125e-02" rms="1.9329731166362762e-01" purity="5.7304412126541138e-02" nType="0">
                <Node pos="l" depth="5" NCoef="0" IVar="-1" Cut="0.0000000000000000e+00" cType="1" res="-3.0501184985041618e-02" rms="1.9866639375686646e-01" purity="5.5227998644113541e-02" nType="-99"/>
                <Node pos="r" depth="5" NCoef="0" IVar="-1" Cut="0.0000000000000000e+00" cType="1" res="-1.5983635559678078e-02" rms="1.8902443349361420e-01" purity="5.8718692511320114e-02" nType="-99"/>
              </Node>
            </Node>
          </Node>
        </Node>
      </Node>
    </BinaryTree>
    <BinaryTree type="DecisionTree" boostWeight="1.0000000000000000e+00" itree="74">
      <Node pos="s" depth="0" NCoef="0" IVar="8" Cut="1.2472492456436157e-01" cType="1" res="9.2810101341456175e-04" rms="3.0378851294517517e-01" purity="5.0100040435791016e-01" nType="0">
        <Node pos="l" depth="1" NCoef="0" IVar="8" Cut="6.0946639627218246e-02" cType="1" res="-2.6736538857221603e-02" rms="2.5990876555442810e-01" purity="1.6544406116008759e-01" nType="0">
          <Node pos="l" depth="2" NCoef="0" IVar="-1" Cut="0.0000000000000000e+00" cType="1" res="-3.7167631089687347e-02" rms="2.2282657027244568e-01" purity="6.4819425344467163e-02" nType="-99"/>
          <Node pos="r" depth="2" NCoef="0" IVar="5" Cut="1.0979770660400391e+02" cType="1" res="-1.7619321122765541e-02" rms="2.7062946557998657e-01" purity="1.9927318394184113e-01" nType="0">
            <Node pos="l" depth="3" NCoef="0" IVar="-1" Cut="0.0000000000000000e+00" cType="1" res="-3.6965741310268641e-03" rms="3.0922099947929382e-01" purity="2.9029312729835510e-01" nType="-99"/>
            <Node pos="r" depth="3" NCoef="0" IVar="-1" Cut="0.0000000000000000e+00" cType="1" res="-2.7810005471110344e-02" rms="1.9045980274677277e-01" purity="5.0412155687808990e-02" nType="-99"/>
          </Node>
        </Node>
        <Node pos="r" depth="1" NCoef="0" IVar="2" Cut="4.0243902206420898e+00" cType="1" res="3.3271210268139839e-03" rms="3.0718120932579041e-01" purity="5.3009909391403198e-01" nType="0">
          <Node pos="l" depth="2" NCoef="0" IVar="6" Cut="1.4558595418930054e+00" cType="1" res="6.2740114517509937e-03" rms="3.1841573119163513e-01" purity="6.1195588111877441e-01" nType="0">
            <Node pos="l" depth="3" NCoef="0" IVar="0" Cut="4.0243902206420898e+00" cType="1" res="-5.3106900304555893e-03" rms="3.3895114064216614e-01" purity="4.4154280424118042e-01" nType="0">
              <Node pos="l" depth="4" NCoef="0" IVar="3" Cut="2.0731706619262695e+00" cType="1" res="-1.4481063932180405e-02" rms="3.2490989565849304e-01" purity="2.7274641394615173e-01" nType="0">
                <Node pos="l" depth="5" NCoef="0" IVar="-1" Cut="0.0000000000000000e+00" cType="1" res="-9.1909794136881828e-03" rms="3.2608744502067566e-01" purity="3.0866330862045288e-01" nType="-99"/>
                <Node pos="r" depth="5" NCoef="0" IVar="-1" Cut="0.0000000000000000e+00" cType="1" res="2.4728206917643547e-03" rms="3.2094645500183105e-01" purity="1.7645961046218872e-01" nType="-99"/>
              </Node>
              <Node pos="r" depth="4" NCoef="0" IVar="4" Cut="1.0591944885253906e+02" cType="1" res="0.0000000000000000e+00" rms="0.0000000000000000e+00" purity="6.3533979654312134e-01" nType="0">
                <Node pos="l" depth="5" NCoef="0" IVar="-1" Cut="0.0000000000000000e+00" cType="1" res="-4.3887235224246979e-03" rms="3.7754663825035095e-01" purity="6.0299444198608398e-01" nType="-99"/>
                <Node pos="r" depth="5" NCoef="0" IVar="-1" Cut="0.0000000000000000e+00" cType="1" res="6.1043859459459782e-03" rms="3.3937358856201172e-01" purity="6.5401792526245117e-01" nType="-99"/>
              </Node>
            </Node>
            <Node pos="r" depth="3" NCoef="0" IVar="7" Cut="2.4385888576507568e+00" cType="1" res="1.0743412189185619e-02" rms="3.1001412868499756e-01" purity="6.7770159244537354e-01" nType="0">
              <Node pos="l" depth="4" NCoef="0" IVar="9" Cut="2.6470431685447693e-01" cType="1" res="7.2364723309874535e-03" rms="3.1243780255317688e-01" purity="6.8369400501251221e-01" nType="0">
                <Node pos="l" depth="5" NCoef="0" IVar="-1" Cut="0.0000000000000000e+00" cType="1" res="-6.7154108546674252e-03" rms="3.4504565596580505e-01" purity="4.2102420330047607e-01" nType="-99"/>
                <Node pos="r" depth="5" NCoef="0" IVar="-1" Cut="0.0000000000000000e+00" cType="1" res="7.1388441137969494e-03" rms="3.0057236552238464e-01" purity="7.6960450410842896e-01" nType="-99"/>
              </Node>
              <Node pos="r" depth="4" NCoef="0" IVar="9" Cut="1.4710901677608490e-01" cType="1" res="3.4597665071487427e-02" rms="2.9188081622123718e-01" purity="6.3694107532501221e-01" nType="0">
                <Node pos="l" depth="5" NCoef="0" IVar="-1" Cut="0.0000000000000000e+00" cType="1" res="-3.5188042093068361e-03" rms="3.1224387884140015e-01" purity="3.5642957687377930e-01" nType="-99"/>
                <Node pos="r" depth="5" NCoef="0" IVar="-1" Cut="0.0000000000000000e+00" cType="1" res="2.4760587140917778e-02" rms="2.7858909964561462e-01" purity="7.7755349874496460e-01" nType="-99"/>
              </Node>
            </Node>
          </Node>
          <Node pos="r" depth="2" NCoef="0" IVar="4" Cut="6.5007835388183594e+01" cType="1" res="-1.2582159601151943e-02" rms="2.3689031600952148e-01" purity="8.8181667029857635e-02" nType="0">
            <Node pos="l" depth="3" NCoef="0" IVar="-1" Cut="0.0000000000000000e+00" cType="1" res="-3.3279091119766235e-02" rms="1.4616858959197998e-01" purity="2.1859383210539818e-02" nType="-99"/>
            <Node pos="r" depth="3" NCoef="0" IVar="4" Cut="1.2817547607421875e+02" cType="1" res="-8.7257279083132744e-03" rms="2.5084641575813293e-01" purity="1.0134377330541611e-01" nType="0">
              <Node pos="l" depth="4" NCoef="0" IVar="6" Cut="2.4519686698913574e+00" cType="1" res="-2.1345214918255806e-03" rms="2.8055942058563232e-01" purity="1.3904714584350586e-01" nType="0">
                <Node pos="l" depth="5" NCoef="0" IVar="-1" Cut="0.0000000000000000e+00" cType="1" res="-9.0437894687056541e-03" rms="2.5976258516311646e-01" purity="9.8298214375972748e-02" nType="-99"/>
                <Node pos="r" depth="5" NCoef="0" IVar="-1" Cut="0.0000000000000000e+00" cType="1" res="9.7806164994835854e-03" rms="3.1581485271453857e-01" purity="2.1857093274593353e-01" nType="-99"/>
              </Node>
              <Node pos="r" depth="4" NCoef="0" IVar="6" Cut="1.7623537778854370e+00" cType="1" res="-1.6221826896071434e-02" rms="2.1180403232574463e-01" purity="5.8464195579290390e-02" nType="0">
                <Node pos="l" depth="5" NCoef="0" IVar="-1" Cut="0.0000000000000000e+00" cType="1" res="-3.8372171111404896e-03" rms="2.2763079404830933e-01" purity="5.6787595152854919e-02" nType="-99"/>
                <Node pos="r" depth="5" NCoef="0" IVar="-1" Cut="0.0000000000000000e+00" cType="1" res="-2.1039109677076340e-02" rms="1.9683751463890076e-01" purity="5.9881355613470078e-02" nType="-99"/>
              </Node>
            </Node>
          </Node>
        </Node>
      </Node>
    </BinaryTree>
    <BinaryTree type="DecisionTree" boostWeight="1.0000000000000000e+00" itree="75">
      <Node pos="s" depth="0" NCoef="0" IVar="1" Cut="1.0975610017776489e+00" cType="1" res="-3.3039567642845213e-04" rms="3.0345577001571655e-01" purity="4.9882781505584717e-01" nType="0">
        <Node pos="l" depth="1" NCoef="0" IVar="5" Cut="6.9800209045410156e+01" cType="1" res="-8.4449984133243561e-03" rms="3.1131348013877869e-01" purity="2.5475764274597168e-01" nType="0">
          <Node pos="l" depth="2" NCoef="0" IVar="6" Cut="2.2987220287322998e+00" cType="1" res="-2.0482022315263748e-02" rms="3.3312556147575378e-01" purity="2.2336445748806000e-01" nType="0">
            <Node pos="l" depth="3" NCoef="0" IVar="4" Cut="1.1095880126953125e+02" cType="1" res="-1.3136448338627815e-02" rms="3.2617717981338501e-01" purity="2.0557604730129242e-01" nType="0">
              <Node pos="l" depth="4" NCoef="0" IVar="-1" Cut="0.0000000000000000e+00" cType="1" res="-1.0182693600654602e-02" rms="3.2759895920753479e-01" purity="2.1782927215099335e-01" nType="-99"/>
              <Node pos="r" depth="4" NCoef="0" IVar="-1" Cut="0.0000000000000000e+00" cType="1" res="-3.5869411658495665e-04" rms="3.2428753376007080e-01" purity="1.9343061745166779e-01" nType="-99"/>
            </Node>
            <Node pos="r" depth="3" NCoef="0" IVar="-1" Cut="0.0000000000000000e+00" cType="1" res="-1.2870775535702705e-02" rms="3.4601381421089172e-01" purity="2.5858858227729797e-01" nType="-99"/>
          </Node>
          <Node pos="r" depth="2" NCoef="0" IVar="8" Cut="3.8202413916587830e-01" cType="1" res="-4.7588935121893883e-03" rms="3.0422621965408325e-01" purity="2.6437121629714966e-01" nType="0">
            <Node pos="l" depth="3" NCoef="0" IVar="7" Cut="1.6614052057266235e+00" cType="1" res="-1.1539141647517681e-02" rms="2.8769308328628540e-01" purity="2.0890304446220398e-01" nType="0">
              <Node pos="l" depth="4" NCoef="0" IVar="6" Cut="2.6052188873291016e+00" cType="1" res="-1.9380996003746986e-02" rms="3.0418914556503296e-01" purity="2.1093119680881500e-01" nType="0">
                <Node pos="l" depth="5" NCoef="0" IVar="-1" Cut="0.0000000000000000e+00" cType="1" res="-7.1061924099922180e-03" rms="2.9205039143562317e-01" purity="1.7891255021095276e-01" nType="-99"/>
                <Node pos="r" depth="5" NCoef="0" IVar="-1" Cut="0.0000000000000000e+00" cType="1" res="-1.4930470846593380e-02" rms="3.3341240882873535e-01" purity="2.9510349035263062e-01" nType="-99"/>
              </Node>
              <Node pos="r" depth="4" NCoef="0" IVar="5" Cut="8.9600433349609375e+01" cType="1" res="-1.6700855921953917e-03" rms="2.6515045762062073e-01" purity="2.0635060966014862e-01" nType="0">
                <Node pos="l" depth="5" NCoef="0" IVar="-1" Cut="0.0000000000000000e+00" cType="1" res="7.2114942595362663e-03" rms="3.3345988392829895e-01" purity="4.1243231296539307e-01" nType="-99"/>
                <Node pos="r" depth="5" NCoef="0" IVar="-1" Cut="0.0000000000000000e+00" cType="1" res="-7.7764918096363544e-03" rms="2.2782491147518158e-01" purity="1.1514479666948318e-01" nType="-99"/>
              </Node>
            </Node>
            <Node pos="r" depth="3" NCoef="0" IVar="9" Cut="4.2001447081565857e-01" cType="1" res="7.7008763328194618e-03" rms="3.3211094141006470e-01" purity="3.6630272865295410e-01" nType="0">
              <Node pos="l" depth="4" NCoef="0" IVar="7" Cut="1.1717298030853271e+00" cType="1" res="1.6499565681442618e-03" rms="3.2484647631645203e-01" purity="2.8327280282974243e-01" nType="0">
                <Node pos="l" depth="5" NCoef="0" IVar="-1" Cut="0.0000000000000000e+00" cType="1" res="-3.4675037022680044e-03" rms="3.4220740199089050e-01" purity="3.0415844917297363e-01" nType="-99"/>
                <Node pos="r" depth="5" NCoef="0" IVar="-1" Cut="0.0000000000000000e+00" cType="1" res="8.3993393927812576e-03" rms="2.9540550708770752e-01" purity="2.5104317069053650e-01" nType="-99"/>
              </Node>
              <Node pos="r" depth="4" NCoef="0" IVar="-1" Cut="0.0000000000000000e+00" cType="1" res="8.6032152175903320e-03" rms="3.5016599297523499e-01" purity="5.8680182695388794e-01" nType="-99"/>
            </Node>
          </Node>
        </Node>
        <Node pos="r" depth="1" NCoef="0" IVar="3" Cut="4.0243902206420898e+00" cType="1" res="5.9808683581650257e-03" rms="2.9704746603965759e-01" purity="6.8865734338760376e-01" nType="0">
          <Node pos="l" depth="2" NCoef="0" IVar="4" Cut="5.8497310638427734e+01" cType="1" res="8.5789998993277550e-03" rms="2.9159033298492432e-01" purity="7.2040683031082153e-01" nType="0">
            <Node pos="l" depth="3" NCoef="0" IVar="-1" Cut="0.0000000000000000e+00" cType="1" res="-1.0654999874532223e-02" rms="3.7687468528747559e-01" purity="3.1905257701873779e-01" nType="-99"/>
            <Node pos="r" depth="3" NCoef="0" IVar="9" Cut="2.8856015205383301e-01" cType="1" res="1.0318238288164139e-02" rms="2.8740799427032471e-01" purity="7.3691594600677490e-01" nType="0">
              <Node pos="l" depth="4" NCoef="0" IVar="7" Cut="2.6824483871459961e+00" cType="1" res="-1.0029809782281518e-03" rms="3.2211524248123169e-01" purity="5.7412189245223999e-01" nType="0">
                <Node pos="l" depth="5" NCoef="0" IVar="-1" Cut="0.0000000000000000e+00" cType="1" res="-4.8457030206918716e-03" rms="3.3231455087661743e-01" purity="5.5022406578063965e-01" nType="-99"/>
                <Node pos="r" depth="5" NCoef="0" IVar="-1" Cut="0.0000000000000000e+00" cType="1" res="1.3053040951490402e-02" rms="2.8997024893760681e-01" purity="6.4023751020431519e-01" nType="-99"/>
              </Node>
              <Node pos="r" depth="4" NCoef="0" IVar="8" Cut="2.3086468875408173e-01" cType="1" res="1.6597410663962364e-02" rms="2.6600667834281921e-01" purity="8.2720762491226196e-01" nType="0">
                <Node pos="l" depth="5" NCoef="0" IVar="-1" Cut="0.0000000000000000e+00" cType="1" res="-1.0957734193652868e-03" rms="3.1891852617263794e-01" purity="6.3824838399887085e-01" nType="-99"/>
                <Node pos="r" depth="5" NCoef="0" IVar="-1" Cut="0.0000000000000000e+00" cType="1" res="1.3034677132964134e-02" rms="2.5148990750312805e-01" purity="8.7240642309188843e-01" nType="-99"/>
              </Node>
            </Node>
          </Node>
          <Node pos="r" depth="2" NCoef="0" IVar="5" Cut="1.0285090637207031e+02" cType="1" res="-1.9376177340745926e-02" rms="3.4478875994682312e-01" purity="3.7879157066345215e-01" nType="0">
            <Node pos="l" depth="3" NCoef="0" IVar="-1" Cut="0.0000000000000000e+00" cType="1" res="-1.4624708332121372e-02" rms="3.7062847614288330e-01" purity="3.6380729079246521e-01" nType="-99"/>
            <Node pos="r" depth="3" NCoef="0" IVar="-1" Cut="0.0000000000000000e+00" cType="1" res="5.2766548469662666e-04" rms="3.1783276796340942e-01" purity="3.9254644513130188e-01" nType="-99"/>
          </Node>
        </Node>
      </Node>
    </BinaryTree>
    <BinaryTree type="DecisionTree" boostWeight="1.0000000000000000e+00" itree="76">
      <Node pos="s" depth="0" NCoef="0" IVar="8" Cut="9.9641489982604980e-01" cType="1" res="1.0251323692500591e-03" rms="3.0439287424087524e-01" purity="4.9966272711753845e-01" nType="0">
        <Node pos="l" depth="1" NCoef="0" IVar="8" Cut="3.1612190604209900e-01" cType="1" res="2.1364663261920214e-03" rms="3.0353710055351257e-01" purity="5.0443094968795776e-01" nType="0">
          <Node pos="l" depth="2" NCoef="0" IVar="8" Cut="6.1902027577161789e-02" cType="1" res="-6.2882150523364544e-03" rms="2.9463204741477966e-01" purity="3.9348739385604858e-01" nType="0">
            <Node pos="l" depth="3" NCoef="0" IVar="-1" Cut="0.0000000000000000e+00" cType="1" res="-3.1381811946630478e-02" rms="2.2538380324840546e-01" purity="7.6057821512222290e-02" nType="-99"/>
            <Node pos="r" depth="3" NCoef="0" IVar="7" Cut="3.5703983306884766e+00" cType="1" res="-4.4072540476918221e-03" rms="2.9750314354896545e-01" purity="4.0913727879524231e-01" nType="0">
              <Node pos="l" depth="4" NCoef="0" IVar="9" Cut="4.5654591917991638e-01" cType="1" res="-7.6966299675405025e-03" rms="2.9789823293685913e-01" purity="4.1372191905975342e-01" nType="0">
                <Node pos="l" depth="5" NCoef="0" IVar="-1" Cut="0.0000000000000000e+00" cType="1" res="-6.8021477200090885e-03" rms="2.8648334741592407e-01" purity="3.6682757735252380e-01" nType="-99"/>
                <Node pos="r" depth="5" NCoef="0" IVar="-1" Cut="0.0000000000000000e+00" cType="1" res="2.0592159125953913e-03" rms="3.2172781229019165e-01" purity="5.1908922195434570e-01" nType="-99"/>
              </Node>
              <Node pos="r" depth="4" NCoef="0" IVar="-1" Cut="0.0000000000000000e+00" cType="1" res="2.3475941270589828e-02" rms="2.8649738430976868e-01" purity="3.3796733617782593e-01" nType="-99"/>
            </Node>
          </Node>
          <Node pos="r" depth="2" NCoef="0" IVar="4" Cut="1.0492222595214844e+02" cType="1" res="9.2371925711631775e-03" rms="3.1066727638244629e-01" purity="5.9793943166732788e-01" nType="0">
            <Node pos="l" depth="3" NCoef="0" IVar="9" Cut="5.3671091794967651e-01" cType="1" res="-2.7615414001047611e-03" rms="3.3778327703475952e-01" purity="4.9614414572715759e-01" nType="0">
              <Node pos="l" depth="4" NCoef="0" IVar="4" Cut="5.2835666656494141e+01" cType="1" res="-8.3188964053988457e-03" rms="3.3711040019989014e-01" purity="4.6541157364845276e-01" nType="0">
                <Node pos="l" depth="5" NCoef="0" IVar="-1" Cut="0.0000000000000000e+00" cType="1" res="-1.3432390987873077e-02" rms="3.2454636693000793e-01" purity="1.9067536294460297e-01" nType="-99"/>
                <Node pos="r" depth="5" NCoef="0" IVar="-1" Cut="0.0000000000000000e+00" cType="1" res="-1.4510324690490961e-03" rms="3.3933550119400024e-01" purity="5.1971864700317383e-01" nType="-99"/>
              </Node>
              <Node pos="r" depth="4" NCoef="0" IVar="-1" Cut="0.0000000000000000e+00" cType="1" res="7.4294456280767918e-03" rms="3.3955657482147217e-01" purity="6.1949187517166138e-01" nType="-99"/>
            </Node>
            <Node pos="r" depth="3" NCoef="0" IVar="4" Cut="1.3323007202148438e+02" cType="1" res="1.6469083726406097e-02" rms="2.9287746548652649e-01" purity="6.5929365158081055e-01" nType="0">
              <Node pos="l" depth="4" NCoef="0" IVar="6" Cut="1.6857504844665527e+00" cType="1" res="2.4526597931981087e-02" rms="2.7093237638473511e-01" purity="8.1368601322174072e-01" nType="0">
                <Node pos="l" depth="5" NCoef="0" IVar="-1" Cut="0.0000000000000000e+00" cType="1" res="5.7386206462979317e-03" rms="3.1533536314964294e-01" purity="6.9178903102874756e-01" nType="-99"/>
                <Node pos="r" depth="5" NCoef="0" IVar="-1" Cut="0.0000000000000000e+00" cType="1" res="1.7441879957914352e-02" rms="2.5134459137916565e-01" purity="8.6126160621643066e-01" nType="-99"/>
              </Node>
              <Node pos="r" depth="4" NCoef="0" IVar="7" Cut="8.7301045656204224e-01" cType="1" res="5.1926164887845516e-03" rms="3.2074126601219177e-01" purity="4.4322198629379272e-01" nType="0">
                <Node pos="l" depth="5" NCoef="0" IVar="-1" Cut="0.0000000000000000e+00" cType="1" res="-2.2360186558216810e-03" rms="3.3900198340415955e-01" purity="4.7760134935379028e-01" nType="-99"/>
                <Node pos="r" depth="5" NCoef="0" IVar="-1" Cut="0.0000000000000000e+00" cType="1" res="7.2094099596142769e-03" rms="3.0061191320419312e-01" purity="4.0819191932678223e-01" nType="-99"/>
              </Node>
            </Node>
          </Node>
        </Node>
        <Node pos="r" depth="1" NCoef="0" IVar="-1" Cut="0.0000000000000000e+00" cType="1" res="-1.7985366284847260e-02" rms="3.3394011855125427e-01" purity="3.0806949734687805e-01" nType="-99"/>
      </Node>
    </BinaryTree>
    <BinaryTree type="DecisionTree" boostWeight="1.0000000000000000e+00" itree="77">
      <Node pos="s" depth="0" NCoef="0" IVar="4" Cut="1.3393763732910156e+02" cType="1" res="-6.8564352113753557e-04" rms="3.0266028642654419e-01" purity="4.9969276785850525e-01" nType="0">
        <Node pos="l" depth="1" NCoef="0" IVar="4" Cut="1.0124209594726562e+02" cType="1" res="3.0702187214046717e-03" rms="3.0392256379127502e-01" purity="5.7671326398849487e-01" nType="0">
          <Node pos="l" depth="2" NCoef="0" IVar="9" Cut="6.0047066211700439e-01" cType="1" res="-8.6432490497827530e-03" rms="3.2446780800819397e-01" purity="4.0774136781692505e-01" nType="0">
            <Node pos="l" depth="3" NCoef="0" IVar="9" Cut="2.6382032036781311e-01" cType="1" res="-1.2541124597191811e-02" rms="3.2118391990661621e-01" purity="3.9076671004295349e-01" nType="0">
              <Node pos="l" depth="4" NCoef="0" IVar="7" Cut="2.8375456333160400e+00" cType="1" res="-2.5351872667670250e-02" rms="2.9162043333053589e-01" purity="2.2650863230228424e-01" nType="0">
                <Node pos="l" depth="5" NCoef="0" IVar="-1" Cut="0.0000000000000000e+00" cType="1" res="-1.5244591049849987e-02" rms="3.0014455318450928e-01" purity="2.1064400672912598e-01" nType="-99"/>
                <Node pos="r" depth="5" NCoef="0" IVar="-1" Cut="0.0000000000000000e+00" cType="1" res="-4.3662502430379391e-03" rms="2.6492902636528015e-01" purity="2.7201497554779053e-01" nType="-99"/>
              </Node>
              <Node pos="r" depth="4" NCoef="0" IVar="7" Cut="9.1122919321060181e-01" cType="1" res="-5.9891440905630589e-03" rms="3.3510875701904297e-01" purity="4.7477555274963379e-01" nType="0">
                <Node pos="l" depth="5" NCoef="0" IVar="-1" Cut="0.0000000000000000e+00" cType="1" res="-7.0025422610342503e-03" rms="3.4834554791450500e-01" purity="4.9634456634521484e-01" nType="-99"/>
                <Node pos="r" depth="5" NCoef="0" IVar="-1" Cut="0.0000000000000000e+00" cType="1" res="2.2839906159788370e-03" rms="3.2111692428588867e-01" purity="4.5350605249404907e-01" nType="-99"/>
              </Node>
            </Node>
            <Node pos="r" depth="3" NCoef="0" IVar="8" Cut="2.4499829113483429e-01" cType="1" res="1.0051631368696690e-02" rms="3.3915498852729797e-01" purity="4.8915448784828186e-01" nType="0">
              <Node pos="l" depth="4" NCoef="0" IVar="-1" Cut="0.0000000000000000e+00" cType="1" res="-3.5405224189162254e-03" rms="3.1492716073989868e-01" purity="3.4720388054847717e-01" nType="-99"/>
              <Node pos="r" depth="4" NCoef="0" IVar="-1" Cut="0.0000000000000000e+00" cType="1" res="7.5919497758150101e-03" rms="3.5214358568191528e-01" purity="5.7227987051010132e-01" nType="-99"/>
            </Node>
          </Node>
          <Node pos="r" depth="2" NCoef="0" IVar="6" Cut="9.1949260234832764e-01" cType="1" res="1.3528770767152309e-02" rms="2.8391855955123901e-01" purity="7.2758257389068604e-01" nType="0">
            <Node pos="l" depth="3" NCoef="0" IVar="4" Cut="1.1639367675781250e+02" cType="1" res="-9.3988198786973953e-03" rms="3.2146194577217102e-01" purity="5.1711332798004150e-01" nType="0">
              <Node pos="l" depth="4" NCoef="0" IVar="-1" Cut="0.0000000000000000e+00" cType="1" res="1.2355940416455269e-03" rms="3.3124637603759766e-01" purity="5.2583819627761841e-01" nType="-99"/>
              <Node pos="r" depth="4" NCoef="0" IVar="-1" Cut="0.0000000000000000e+00" cType="1" res="-8.9775780215859413e-03" rms="3.1122374534606934e-01" purity="5.0866425037384033e-01" nType="-99"/>
            </Node>
            <Node pos="r" depth="3" NCoef="0" IVar="8" Cut="2.7410164475440979e-01" cType="1" res="1.7089692875742912e-02" rms="2.7746260166168213e-01" purity="7.6027083396911621e-01" nType="0">
              <Node pos="l" depth="4" NCoef="0" IVar="0" Cut="2.0731706619262695e+00" cType="1" res="6.9791488349437714e-03" rms="2.9770821332931519e-01" purity="6.2104070186614990e-01" nType="0">
                <Node pos="l" depth="5" NCoef="0" IVar="-1" Cut="0.0000000000000000e+00" cType="1" res="-4.5935255475342274e-03" rms="3.0385601520538330e-01" purity="3.0737736821174622e-01" nType="-99"/>
                <Node pos="r" depth="5" NCoef="0" IVar="-1" Cut="0.0000000000000000e+00" cType="1" res="7.0799528621137142e-03" rms="2.9450491070747375e-01" purity="7.6564753055572510e-01" nType="-99"/>
              </Node>
              <Node pos="r" depth="4" NCoef="0" IVar="7" Cut="1.3236187696456909e+00" cType="1" res="2.1560195833444595e-02" rms="2.6790198683738708e-01" purity="8.2183319330215454e-01" nType="0">
                <Node pos="l" depth="5" NCoef="0" IVar="-1" Cut="0.0000000000000000e+00" cType="1" res="8.8059576228260994e-03" rms="2.7066451311111450e-01" purity="8.2788193225860596e-01" nType="-99"/>
                <Node pos="r" depth="5" NCoef="0" IVar="-1" Cut="0.0000000000000000e+00" cType="1" res="1.9050812348723412e-02" rms="2.6101669669151306e-01" purity="8.0826711654663086e-01" nType="-99"/>
              </Node>
            </Node>
          </Node>
        </Node>
        <Node pos="r" depth="1" NCoef="0" IVar="8" Cut="3.7765675783157349e-01" cType="1" res="-1.0357391089200974e-02" rms="2.9916831851005554e-01" purity="3.0135664343833923e-01" nType="0">
          <Node pos="l" depth="2" NCoef="0" IVar="4" Cut="2.1319952392578125e+02" cType="1" res="-1.5905633568763733e-02" rms="2.8630402684211731e-01" purity="2.2743432223796844e-01" nType="0">
            <Node pos="l" depth="3" NCoef="0" IVar="8" Cut="1.7515726387500763e-01" cType="1" res="-1.3162977993488312e-02" rms="2.9454767704010010e-01" purity="2.5292855501174927e-01" nType="0">
              <Node pos="l" depth="4" NCoef="0" IVar="0" Cut="1.0975610017776489e+00" cType="1" res="-2.3213291540741920e-02" rms="2.5028890371322632e-01" purity="1.2314025312662125e-01" nType="0">
                <Node pos="l" depth="5" NCoef="0" IVar="-1" Cut="0.0000000000000000e+00" cType="1" res="-1.1696328409016132e-02" rms="1.8519350886344910e-01" purity="4.1434802114963531e-02" nType="-99"/>
                <Node pos="r" depth="5" NCoef="0" IVar="-1" Cut="0.0000000000000000e+00" cType="1" res="-1.6402309760451317e-02" rms="3.0338132381439209e-01" purity="2.0900040864944458e-01" nType="-99"/>
              </Node>
              <Node pos="r" depth="4" NCoef="0" IVar="7" Cut="1.4278782606124878e+00" cType="1" res="-8.3340704441070557e-03" rms="3.1348448991775513e-01" purity="3.1528839468955994e-01" nType="0">
                <Node pos="l" depth="5" NCoef="0" IVar="-1" Cut="0.0000000000000000e+00" cType="1" res="-7.0615694858133793e-03" rms="3.3392685651779175e-01" purity="2.9910948872566223e-01" nType="-99"/>
                <Node pos="r" depth="5" NCoef="0" IVar="-1" Cut="0.0000000000000000e+00" cType="1" res="5.7190103689208627e-05" rms="2.8643259406089783e-01" purity="3.3496850728988647e-01" nType="-99"/>
              </Node>
            </Node>
            <Node pos="r" depth="3" NCoef="0" IVar="-1" Cut="0.0000000000000000e+00" cType="1" res="-1.7295405268669128e-02" rms="2.4649822711944580e-01" purity="1.1546311527490616e-01" nType="-99"/>
          </Node>
          <Node pos="r" depth="2" NCoef="0" IVar="9" Cut="2.6258096098899841e-01" cType="1" res="-2.0067822188138962e-03" rms="3.1736651062965393e-01" purity="4.1261649131774902e-01" nType="0">
            <Node pos="l" depth="3" NCoef="0" IVar="4" Cut="1.9338362121582031e+02" cType="1" res="-1.2693964876234531e-02" rms="3.0020809173583984e-01" purity="1.9891846179962158e-01" nType="0">
              <Node pos="l" depth="4" NCoef="0" IVar="-1" Cut="0.0000000000000000e+00" cType="1" res="-2.1996656432747841e-03" rms="3.2865560054779053e-01" purity="2.6574319601058960e-01" nType="-99"/>
              <Node pos="r" depth="4" NCoef="0" IVar="-1" Cut="0.0000000000000000e+00" cType="1" res="-1.5339360572397709e-02" rms="2.4614866077899933e-01" purity="8.9546665549278259e-02" nType="-99"/>
            </Node>
            <Node pos="r" depth="3" NCoef="0" IVar="7" Cut="5.7118225097656250e-01" cType="1" res="7.9437242820858955e-03" rms="3.3223831653594971e-01" purity="6.1158418655395508e-01" nType="0">
              <Node pos="l" depth="4" NCoef="0" IVar="-1" Cut="0.0000000000000000e+00" cType="1" res="-9.7251316765323281e-04" rms="3.4166625142097473e-01" purity="5.9009170532226562e-01" nType="-99"/>
              <Node pos="r" depth="4" NCoef="0" IVar="-1" Cut="0.0000000000000000e+00" cType="1" res="7.3047303594648838e-03" rms="3.2234722375869751e-01" purity="6.3276159763336182e-01" nType="-99"/>
            </Node>
          </Node>
        </Node>
      </Node>
    </BinaryTree>
    <BinaryTree type="DecisionTree" boostWeight="1.0000000000000000e+00" itree="78">
      <Node pos="s" depth="0" NCoef="0" IVar="0" Cut="1.0975610017776489e+00" cType="1" res="9.3228500190889463e-06" rms="3.0282515287399292e-01" purity="5.0014078617095947e-01" nType="0">
        <Node pos="l" depth="1" NCoef="0" IVar="9" Cut="2.2381389141082764e-01" cType="1" res="0.0000000000000000e+00" rms="0.0000000000000000e+00" purity="1.8213593959808350e-01" nType="0">
          <Node pos="l" depth="2" NCoef="0" IVar="7" Cut="3.1991810798645020e+00" cType="1" res="0.0000000000000000e+00" rms="0.0000000000000000e+00" purity="7.4154853820800781e-02" nType="0">
            <Node pos="l" depth="3" NCoef="0" IVar="2" Cut="2.0731706619262695e+00" cType="1" res="0.0000000000000000e+00" rms="0.0000000000000000e+00" purity="6.7852400243282318e-02" nType="0">
              <Node pos="l" depth="4" NCoef="0" IVar="7" Cut="1.6386125087738037e+00" cType="1" res="0.0000000000000000e+00" rms="0.0000000000000000e+00" purity="9.5683529973030090e-02" nType="0">
                <Node pos="l" depth="5" NCoef="0" IVar="-1" Cut="0.0000000000000000e+00" cType="1" res="-1.5733247622847557e-02" rms="2.2667069733142853e-01" purity="7.8295983374118805e-02" nType="-99"/>
                <Node pos="r" depth="5" NCoef="0" IVar="-1" Cut="0.0000000000000000e+00" cType="1" res="-2.1355967968702316e-02" rms="2.1731427311897278e-01" purity="1.1495812982320786e-01" nType="-99"/>
              </Node>
              <Node pos="r" depth="4" NCoef="0" IVar="-1" Cut="0.0000000000000000e+00" cType="1" res="-1.6701765358448029e-02" rms="1.4304512739181519e-01" purity="2.4850640445947647e-02" nType="-99"/>
            </Node>
            <Node pos="r" depth="3" NCoef="0" IVar="-1" Cut="0.0000000000000000e+00" cType="1" res="-4.0380340069532394e-03" rms="2.0470905303955078e-01" purity="9.9847063422203064e-02" nType="-99"/>
          </Node>
          <Node pos="r" depth="2" NCoef="0" IVar="8" Cut="4.4622582197189331e-01" cType="1" res="0.0000000000000000e+00" rms="0.0000000000000000e+00" purity="2.3440286517143250e-01" nType="0">
            <Node pos="l" depth="3" NCoef="0" IVar="3" Cut="2.0731706619262695e+00" cType="1" res="0.0000000000000000e+00" rms="0.0000000000000000e+00" purity="2.0675221085548401e-01" nType="0">
              <Node pos="l" depth="4" NCoef="0" IVar="6" Cut="1.9156068563461304e+00" cType="1" res="0.0000000000000000e+00" rms="0.0000000000000000e+00" purity="2.5242474675178528e-01" nType="0">
                <Node pos="l" depth="5" NCoef="0" IVar="-1" Cut="0.0000000000000000e+00" cType="1" res="-9.6444860100746155e-03" rms="2.7652671933174133e-01" purity="1.4647030830383301e-01" nType="-99"/>
                <Node pos="r" depth="5" NCoef="0" IVar="-1" Cut="0.0000000000000000e+00" cType="1" res="3.7289403844624758e-03" rms="3.2528245449066162e-01" purity="3.4547272324562073e-01" nType="-99"/>
              </Node>
              <Node pos="r" depth="4" NCoef="0" IVar="8" Cut="2.1780106425285339e-01" cType="1" res="0.0000000000000000e+00" rms="0.0000000000000000e+00" purity="1.0707126557826996e-01" nType="0">
                <Node pos="l" depth="5" NCoef="0" IVar="-1" Cut="0.0000000000000000e+00" cType="1" res="-1.1838722974061966e-02" rms="2.0450542867183685e-01" purity="5.5557060986757278e-02" nType="-99"/>
                <Node pos="r" depth="5" NCoef="0" IVar="-1" Cut="0.0000000000000000e+00" cType="1" res="-1.6454551368951797e-02" rms="2.6432582736015320e-01" purity="1.4747184514999390e-01" nType="-99"/>
              </Node>
            </Node>
            <Node pos="r" depth="3" NCoef="0" IVar="1" Cut="2.0731706619262695e+00" cType="1" res="0.0000000000000000e+00" rms="0.0000000000000000e+00" purity="3.2336130738258362e-01" nType="0">
              <Node pos="l" depth="4" NCoef="0" IVar="-1" Cut="0.0000000000000000e+00" cType="1" res="-4.6130921691656113e-03" rms="2.9174214601516724e-01" purity="1.2648837268352509e-01" nType="-99"/>
              <Node pos="r" depth="4" NCoef="0" IVar="-1" Cut="0.0000000000000000e+00" cType="1" res="9.1061908751726151e-03" rms="3.8749405741691589e-01" purity="5.4898411035537720e-01" nType="-99"/>
            </Node>
          </Node>
        </Node>
        <Node pos="r" depth="1" NCoef="0" IVar="5" Cut="7.0007087707519531e+01" cType="1" res="4.6131834387779236e-03" rms="3.1771621108055115e-01" purity="6.5952146053314209e-01" nType="0">
          <Node pos="l" depth="2" NCoef="0" IVar="9" Cut="4.4612780213356018e-01" cType="1" res="-1.0105589404702187e-02" rms="3.6162212491035461e-01" purity="6.0213994979858398e-01" nType="0">
            <Node pos="l" depth="3" NCoef="0" IVar="6" Cut="1.2259876728057861e+00" cType="1" res="-1.7754578962922096e-02" rms="3.6425662040710449e-01" purity="5.5974829196929932e-01" nType="0">
              <Node pos="l" depth="4" NCoef="0" IVar="-1" Cut="0.0000000000000000e+00" cType="1" res="-1.3533428311347961e-02" rms="3.7011665105819702e-01" purity="3.7235563993453979e-01" nType="-99"/>
              <Node pos="r" depth="4" NCoef="0" IVar="9" Cut="2.6131901144981384e-01" cType="1" res="-1.2652887031435966e-02" rms="3.6265468597412109e-01" purity="6.0458469390869141e-01" nType="0">
                <Node pos="l" depth="5" NCoef="0" IVar="-1" Cut="0.0000000000000000e+00" cType="1" res="-8.4577919915318489e-03" rms="3.6624783277511597e-01" purity="4.8681476712226868e-01" nType="-99"/>
                <Node pos="r" depth="5" NCoef="0" IVar="-1" Cut="0.0000000000000000e+00" cType="1" res="-1.9752366933971643e-03" rms="3.6013528704643250e-01" purity="6.8011450767517090e-01" nType="-99"/>
              </Node>
            </Node>
            <Node pos="r" depth="3" NCoef="0" IVar="-1" Cut="0.0000000000000000e+00" cType="1" res="3.7712787743657827e-03" rms="3.5371682047843933e-01" purity="7.1487486362457275e-01" nType="-99"/>
          </Node>
          <Node pos="r" depth="2" NCoef="0" IVar="5" Cut="9.1956520080566406e+01" cType="1" res="8.8040987029671669e-03" rms="3.0392703413963318e-01" purity="6.7585980892181396e-01" nType="0">
            <Node pos="l" depth="3" NCoef="0" IVar="7" Cut="1.9472430944442749e+00" cType="1" res="1.7286121845245361e-02" rms="2.7590209245681763e-01" purity="8.2018262147903442e-01" nType="0">
              <Node pos="l" depth="4" NCoef="0" IVar="9" Cut="3.8600513339042664e-01" cType="1" res="1.1957360431551933e-02" rms="2.7351123094558716e-01" purity="8.3087056875228882e-01" nType="0">
                <Node pos="l" depth="5" NCoef="0" IVar="-1" Cut="0.0000000000000000e+00" cType="1" res="1.7032051982823759e-04" rms="3.0346569418907166e-01" purity="7.4745714664459229e-01" nType="-99"/>
                <Node pos="r" depth="5" NCoef="0" IVar="-1" Cut="0.0000000000000000e+00" cType="1" res="1.3329363428056240e-02" rms="2.4709063768386841e-01" purity="8.9634573459625244e-01" nType="-99"/>
              </Node>
              <Node pos="r" depth="4" NCoef="0" IVar="-1" Cut="0.0000000000000000e+00" cType="1" res="1.6147399321198463e-02" rms="2.8293341398239136e-01" purity="7.8493720293045044e-01" nType="-99"/>
            </Node>
            <Node pos="r" depth="3" NCoef="0" IVar="9" Cut="1.1643108725547791e-01" cType="1" res="-2.6249344227835536e-04" rms="3.3103188872337341e-01" purity="5.2159041166305542e-01" nType="0">
              <Node pos="l" depth="4" NCoef="0" IVar="-1" Cut="0.0000000000000000e+00" cType="1" res="-1.1091391555964947e-02" rms="2.8531712293624878e-01" purity="1.2305151671171188e-01" nType="-99"/>
              <Node pos="r" depth="4" NCoef="0" IVar="7" Cut="2.6126496791839600e+00" cType="1" res="1.6486919485032558e-03" rms="3.3487069606781006e-01" purity="5.5835920572280884e-01" nType="0">
                <Node pos="l" depth="5" NCoef="0" IVar="-1" Cut="0.0000000000000000e+00" cType="1" res="-4.9750343896448612e-04" rms="3.3633667230606079e-01" purity="5.6479638814926147e-01" nType="-99"/>
                <Node pos="r" depth="5" NCoef="0" IVar="-1" Cut="0.0000000000000000e+00" cType="1" res="1.1730588972568512e-02" rms="3.1874629855155945e-01" purity="4.9509787559509277e-01" nType="-99"/>
              </Node>
            </Node>
          </Node>
        </Node>
      </Node>
    </BinaryTree>
    <BinaryTree type="DecisionTree" boostWeight="1.0000000000000000e+00" itree="79">
      <Node pos="s" depth="0" NCoef="0" IVar="9" Cut="2.4009531736373901e-01" cType="1" res="-1.7656240379437804e-04" rms="3.0379641056060791e-01" purity="4.9902069568634033e-01" nType="0">
        <Node pos="l" depth="1" NCoef="0" IVar="9" Cut="6.4567208290100098e-02" cType="1" res="-1.0276508517563343e-02" rms="2.9134166240692139e-01" purity="2.8202354907989502e-01" nType="0">
          <Node pos="l" depth="2" NCoef="0" IVar="-1" Cut="0.0000000000000000e+00" cType="1" res="-3.6752089858055115e-02" rms="1.8939600884914398e-01" purity="4.7832041978836060e-02" nType="-99"/>
          <Node pos="r" depth="2" NCoef="0" IVar="7" Cut="3.0546700954437256e+00" cType="1" res="-6.6048433072865009e-03" rms="2.9902559518814087e-01" purity="3.0443811416625977e-01" nType="0">
            <Node pos="l" depth="3" NCoef="0" IVar="8" Cut="4.7600457072257996e-01" cType="1" res="-1.3026517815887928e-02" rms="3.0341851711273193e-01" purity="2.7996799349784851e-01" nType="0">
              <Node pos="l" depth="4" NCoef="0" IVar="8" Cut="2.2107167541980743e-01" cType="1" res="-2.2576741874217987e-02" rms="2.7535212039947510e-01" purity="2.4789649248123169e-01" nType="0">
                <Node pos="l" depth="5" NCoef="0" IVar="-1" Cut="0.0000000000000000e+00" cType="1" res="-2.9871705919504166e-02" rms="2.2849690914154053e-01" purity="1.0093171894550323e-01" nType="-99"/>
                <Node pos="r" depth="5" NCoef="0" IVar="-1" Cut="0.0000000000000000e+00" cType="1" res="-8.3248335868120193e-03" rms="2.9021060466766357e-01" purity="3.0107808113098145e-01" nType="-99"/>
              </Node>
              <Node pos="r" depth="4" NCoef="0" IVar="8" Cut="7.9756778478622437e-01" cType="1" res="5.2137570455670357e-03" rms="3.5011544823646545e-01" purity="3.4122225642204285e-01" nType="0">
                <Node pos="l" depth="5" NCoef="0" IVar="-1" Cut="0.0000000000000000e+00" cType="1" res="7.7090142294764519e-03" rms="3.5519278049468994e-01" purity="3.8348087668418884e-01" nType="-99"/>
                <Node pos="r" depth="5" NCoef="0" IVar="-1" Cut="0.0000000000000000e+00" cType="1" res="-1.3307320885360241e-02" rms="3.3440625667572021e-01" purity="2.3542085289955139e-01" nType="-99"/>
              </Node>
            </Node>
            <Node pos="r" depth="3" NCoef="0" IVar="5" Cut="9.1853858947753906e+01" cType="1" res="2.1551992744207382e-02" rms="2.7719804644584656e-01" purity="4.1173118352890015e-01" nType="0">
              <Node pos="l" depth="4" NCoef="0" IVar="-1" Cut="0.0000000000000000e+00" cType="1" res="1.8169218674302101e-02" rms="2.9133379459381104e-01" purity="5.5856394767761230e-01" nType="-99"/>
              <Node pos="r" depth="4" NCoef="0" IVar="-1" Cut="0.0000000000000000e+00" cType="1" res="-2.1331314928829670e-03" rms="2.5554174184799194e-01" purity="2.2158235311508179e-01" nType="-99"/>
            </Node>
          </Node>
        </Node>
        <Node pos="r" depth="1" NCoef="0" IVar="6" Cut="1.6857297420501709e+00" cType="1" res="3.9842370897531509e-03" rms="3.0868515372276306e-01" purity="5.8841538429260254e-01" nType="0">
          <Node pos="l" depth="2" NCoef="0" IVar="9" Cut="6.9646847248077393e-01" cType="1" res="-5.0285472534596920e-03" rms="3.2789251208305359e-01" purity="4.4762253761291504e-01" nType="0">
            <Node pos="l" depth="3" NCoef="0" IVar="4" Cut="8.8132064819335938e+01" cType="1" res="-9.3853231519460678e-03" rms="3.2893660664558411e-01" purity="4.2472946643829346e-01" nType="0">
              <Node pos="l" depth="4" NCoef="0" IVar="5" Cut="9.8829742431640625e+01" cType="1" res="-2.7702825143933296e-02" rms="3.3337157964706421e-01" purity="2.5061649084091187e-01" nType="0">
                <Node pos="l" depth="5" NCoef="0" IVar="-1" Cut="0.0000000000000000e+00" cType="1" res="-1.4694986864924431e-02" rms="3.5527443885803223e-01" purity="3.2390639185905457e-01" nType="-99"/>
                <Node pos="r" depth="5" NCoef="0" IVar="-1" Cut="0.0000000000000000e+00" cType="1" res="-4.4396580196917057e-03" rms="2.9384112358093262e-01" purity="1.3325382769107819e-01" nType="-99"/>
              </Node>
              <Node pos="r" depth="4" NCoef="0" IVar="6" Cut="6.1673212051391602e-01" cType="1" res="-2.8833991382271051e-03" rms="3.2710134983062744e-01" purity="4.8653209209442139e-01" nType="0">
                <Node pos="l" depth="5" NCoef="0" IVar="-1" Cut="0.0000000000000000e+00" cType="1" res="-8.2397954538464546e-03" rms="3.3196723461151123e-01" purity="3.6808490753173828e-01" nType="-99"/>
                <Node pos="r" depth="5" NCoef="0" IVar="-1" Cut="0.0000000000000000e+00" cType="1" res="1.7351203132420778e-03" rms="3.2487398386001587e-01" purity="5.3435534238815308e-01" nType="-99"/>
              </Node>
            </Node>
            <Node pos="r" depth="3" NCoef="0" IVar="9" Cut="9.0239512920379639e-01" cType="1" res="1.3376167975366116e-02" rms="3.2279646396636963e-01" purity="5.4433184862136841e-01" nType="0">
              <Node pos="l" depth="4" NCoef="0" IVar="-1" Cut="0.0000000000000000e+00" cType="1" res="6.6002365201711655e-03" rms="3.1829503178596497e-01" purity="5.9050756692886353e-01" nType="-99"/>
              <Node pos="r" depth="4" NCoef="0" IVar="-1" Cut="0.0000000000000000e+00" cType="1" res="4.5330105349421501e-03" rms="3.2864421606063843e-01" purity="4.8317092657089233e-01" nType="-99"/>
            </Node>
          </Node>
          <Node pos="r" depth="2" NCoef="0" IVar="7" Cut="1.6711958646774292e+00" cType="1" res="8.8639389723539352e-03" rms="2.9765549302101135e-01" purity="6.6464340686798096e-01" nType="0">
            <Node pos="l" depth="3" NCoef="0" IVar="8" Cut="4.5692250132560730e-01" cType="1" res="3.6923624575138092e-03" rms="3.0334097146987915e-01" purity="6.6981625556945801e-01" nType="0">
              <Node pos="l" depth="4" NCoef="0" IVar="9" Cut="4.9995291233062744e-01" cType="1" res="-4.1777058504521847e-03" rms="3.0908674001693726e-01" purity="6.2402904033660889e-01" nType="0">
                <Node pos="l" depth="5" NCoef="0" IVar="-1" Cut="0.0000000000000000e+00" cType="1" res="-7.7878287993371487e-03" rms="3.1543213129043579e-01" purity="5.8842360973358154e-01" nType="-99"/>
                <Node pos="r" depth="5" NCoef="0" IVar="-1" Cut="0.0000000000000000e+00" cType="1" res="9.3950359150767326e-03" rms="2.9494857788085938e-01" purity="6.9307476282119751e-01" nType="-99"/>
              </Node>
              <Node pos="r" depth="4" NCoef="0" IVar="-1" Cut="0.0000000000000000e+00" cType="1" res="1.2886679731309414e-02" rms="2.8599995374679565e-01" purity="7.9461109638214111e-01" nType="-99"/>
            </Node>
            <Node pos="r" depth="3" NCoef="0" IVar="8" Cut="1.7448362708091736e-01" cType="1" res="2.7117770165205002e-02" rms="2.7588143944740295e-01" purity="6.4638531208038330e-01" nType="0">
              <Node pos="l" depth="4" NCoef="0" IVar="-1" Cut="0.0000000000000000e+00" cType="1" res="-7.1755312383174896e-03" rms="3.1378149986267090e-01" purity="3.3867385983467102e-01" nType="-99"/>
              <Node pos="r" depth="4" NCoef="0" IVar="-1" Cut="0.0000000000000000e+00" cType="1" res="2.4438131600618362e-02" rms="2.5476026535034180e-01" purity="7.8385990858078003e-01" nType="-99"/>
            </Node>
          </Node>
        </Node>
      </Node>
    </BinaryTree>
    <BinaryTree type="DecisionTree" boostWeight="1.0000000000000000e+00" itree="80">
      <Node pos="s" depth="0" NCoef="0" IVar="2" Cut="4.0243902206420898e+00" cType="1" res="2.4854021830833517e-05" rms="3.0190712213516235e-01" purity="5.0166893005371094e-01" nType="0">
        <Node pos="l" depth="1" NCoef="0" IVar="4" Cut="4.7180751800537109e+01" cType="1" res="2.9997695237398148e-03" rms="3.1573584675788879e-01" purity="5.8514463901519775e-01" nType="0">
          <Node pos="l" depth="2" NCoef="0" IVar="-1" Cut="0.0000000000000000e+00" cType="1" res="-1.1293011717498302e-02" rms="3.6121147871017456e-01" purity="2.2993303835391998e-01" nType="-99"/>
          <Node pos="r" depth="2" NCoef="0" IVar="5" Cut="7.0043891906738281e+01" cType="1" res="4.3251034803688526e-03" rms="3.1380233168601990e-01" purity="5.9863591194152832e-01" nType="0">
            <Node pos="l" depth="3" NCoef="0" IVar="9" Cut="4.9684444069862366e-01" cType="1" res="-7.2170174680650234e-03" rms="3.5388845205307007e-01" purity="5.2266705036163330e-01" nType="0">
              <Node pos="l" depth="4" NCoef="0" IVar="8" Cut="3.7404808402061462e-01" cType="1" res="-1.2174674309790134e-02" rms="3.5297372937202454e-01" purity="4.9077999591827393e-01" nType="0">
                <Node pos="l" depth="5" NCoef="0" IVar="-1" Cut="0.0000000000000000e+00" cType="1" res="-9.3541750684380531e-03" rms="3.4049999713897705e-01" purity="3.9865711331367493e-01" nType="-99"/>
                <Node pos="r" depth="5" NCoef="0" IVar="-1" Cut="0.0000000000000000e+00" cType="1" res="-1.2433149386197329e-03" rms="3.6292141675949097e-01" purity="5.6843739748001099e-01" nType="-99"/>
              </Node>
              <Node pos="r" depth="4" NCoef="0" IVar="-1" Cut="0.0000000000000000e+00" cType="1" res="5.2940966561436653e-03" rms="3.5707020759582520e-01" purity="6.6305440664291382e-01" nType="-99"/>
            </Node>
            <Node pos="r" depth="3" NCoef="0" IVar="5" Cut="8.9790359497070312e+01" cType="1" res="7.6819895766675472e-03" rms="3.0106073617935181e-01" purity="6.2073045969009399e-01" nType="0">
              <Node pos="l" depth="4" NCoef="0" IVar="3" Cut="3.0487804412841797e+00" cType="1" res="1.6534607857465744e-02" rms="2.8269580006599426e-01" purity="7.8176689147949219e-01" nType="0">
                <Node pos="l" depth="5" NCoef="0" IVar="-1" Cut="0.0000000000000000e+00" cType="1" res="1.0995519347488880e-02" rms="2.7721741795539856e-01" purity="8.1779855489730835e-01" nType="-99"/>
                <Node pos="r" depth="5" NCoef="0" IVar="-1" Cut="0.0000000000000000e+00" cType="1" res="-1.2838863767683506e-02" rms="3.3449116349220276e-01" purity="3.7382677197456360e-01" nType="-99"/>
              </Node>
              <Node pos="r" depth="4" NCoef="0" IVar="8" Cut="2.6719000935554504e-01" cType="1" res="1.3864810171071440e-04" rms="3.1567227840423584e-01" purity="4.8351094126701355e-01" nType="0">
                <Node pos="l" depth="5" NCoef="0" IVar="-1" Cut="0.0000000000000000e+00" cType="1" res="-4.4302740134298801e-03" rms="3.0627563595771790e-01" purity="3.1681996583938599e-01" nType="-99"/>
                <Node pos="r" depth="5" NCoef="0" IVar="-1" Cut="0.0000000000000000e+00" cType="1" res="2.5330439675599337e-03" rms="3.2099390029907227e-01" purity="5.8259272575378418e-01" nType="-99"/>
              </Node>
            </Node>
          </Node>
        </Node>
        <Node pos="r" depth="1" NCoef="0" IVar="5" Cut="7.4225883483886719e+01" cType="1" res="-1.5160339884459972e-02" rms="2.1742640435695648e-01" purity="7.5574368238449097e-02" nType="0">
          <Node pos="l" depth="2" NCoef="0" IVar="5" Cut="5.6443508148193359e+01" cType="1" res="-2.4232944473624229e-02" rms="2.3664286732673645e-01" purity="8.2197695970535278e-02" nType="0">
            <Node pos="l" depth="3" NCoef="0" IVar="-1" Cut="0.0000000000000000e+00" cType="1" res="-1.5157314948737621e-02" rms="2.3628650605678558e-01" purity="7.5592853128910065e-02" nType="-99"/>
            <Node pos="r" depth="3" NCoef="0" IVar="-1" Cut="0.0000000000000000e+00" cType="1" res="-1.6447264701128006e-02" rms="2.3698492348194122e-01" purity="8.8832661509513855e-02" nType="-99"/>
          </Node>
          <Node pos="r" depth="2" NCoef="0" IVar="9" Cut="2.4024632573127747e-01" cType="1" res="-1.2188288383185863e-02" rms="2.1066576242446899e-01" purity="7.3404662311077118e-02" nType="0">
            <Node pos="l" depth="3" NCoef="0" IVar="0" Cut="1.0975610017776489e+00" cType="1" res="-1.9186109304428101e-02" rms="1.5628741681575775e-01" purity="3.1851541250944138e-02" nType="0">
              <Node pos="l" depth="4" NCoef="0" IVar="-1" Cut="0.0000000000000000e+00" cType="1" res="-2.8477068990468979e-02" rms="9.7518660128116608e-02" purity="1.0631497949361801e-02" nType="-99"/>
              <Node pos="r" depth="4" NCoef="0" IVar="-1" Cut="0.0000000000000000e+00" cType="1" res="-2.0467381924390793e-02" rms="2.1234339475631714e-01" purity="6.1463769525289536e-02" nType="-99"/>
            </Node>
            <Node pos="r" depth="3" NCoef="0" IVar="8" Cut="3.1775271892547607e-01" cType="1" res="-7.5818225741386414e-03" rms="2.3971223831176758e-01" purity="1.0075791925191879e-01" nType="0">
              <Node pos="l" depth="4" NCoef="0" IVar="8" Cut="1.9390283524990082e-01" cType="1" res="-1.4282641001045704e-02" rms="1.7893959581851959e-01" purity="4.9816258251667023e-02" nType="0">
                <Node pos="l" depth="5" NCoef="0" IVar="-1" Cut="0.0000000000000000e+00" cType="1" res="-3.2303888350725174e-02" rms="1.1811005324125290e-01" purity="1.7662819474935532e-02" nType="-99"/>
                <Node pos="r" depth="5" NCoef="0" IVar="-1" Cut="0.0000000000000000e+00" cType="1" res="-5.0195408985018730e-03" rms="2.2316201031208038e-01" purity="8.1677533686161041e-02" nType="-99"/>
              </Node>
              <Node pos="r" depth="4" NCoef="0" IVar="-1" Cut="0.0000000000000000e+00" cType="1" res="1.0871393606066704e-03" rms="3.0801236629486084e-01" purity="1.7598913609981537e-01" nType="-99"/>
            </Node>
          </Node>
        </Node>
      </Node>
    </BinaryTree>
    <BinaryTree type="DecisionTree" boostWeight="1.0000000000000000e+00" itree="81">
      <Node pos="s" depth="0" NCoef="0" IVar="4" Cut="1.2813465881347656e+02" cType="1" res="-2.8037902666255832e-04" rms="3.0276769399642944e-01" purity="4.9887219071388245e-01" nType="0">
        <Node pos="l" depth="1" NCoef="0" IVar="4" Cut="9.6995880126953125e+01" cType="1" res="3.6640181206166744e-03" rms="3.0649644136428833e-01" purity="5.6521672010421753e-01" nType="0">
          <Node pos="l" depth="2" NCoef="0" IVar="9" Cut="6.0038071870803833e-01" cType="1" res="-6.0502262786030769e-03" rms="3.2832646369934082e-01" purity="3.8135817646980286e-01" nType="0">
            <Node pos="l" depth="3" NCoef="0" IVar="8" Cut="6.1506742238998413e-01" cType="1" res="-1.1579852551221848e-02" rms="3.2247921824455261e-01" purity="3.6089822649955750e-01" nType="0">
              <Node pos="l" depth="4" NCoef="0" IVar="5" Cut="7.3408180236816406e+01" cType="1" res="-1.4978750608861446e-02" rms="3.1538769602775574e-01" purity="3.5823807120323181e-01" nType="0">
                <Node pos="l" depth="5" NCoef="0" IVar="-1" Cut="0.0000000000000000e+00" cType="1" res="-1.1205788701772690e-02" rms="3.4191408753395081e-01" purity="3.6794018745422363e-01" nType="-99"/>
                <Node pos="r" depth="5" NCoef="0" IVar="-1" Cut="0.0000000000000000e+00" cType="1" res="-4.7373534180223942e-03" rms="3.0522796511650085e-01" purity="3.5478460788726807e-01" nType="-99"/>
              </Node>
              <Node pos="r" depth="4" NCoef="0" IVar="-1" Cut="0.0000000000000000e+00" cType="1" res="6.1557283625006676e-03" rms="3.7540224194526672e-01" purity="3.8315081596374512e-01" nType="-99"/>
            </Node>
            <Node pos="r" depth="3" NCoef="0" IVar="8" Cut="3.0320167541503906e-01" cType="1" res="1.9172137603163719e-02" rms="3.5267597436904907e-01" purity="4.7468233108520508e-01" nType="0">
              <Node pos="l" depth="4" NCoef="0" IVar="-1" Cut="0.0000000000000000e+00" cType="1" res="3.6607861984521151e-03" rms="3.3369025588035583e-01" purity="3.9368718862533569e-01" nType="-99"/>
              <Node pos="r" depth="4" NCoef="0" IVar="-1" Cut="0.0000000000000000e+00" cType="1" res="1.0678034275770187e-02" rms="3.7183013558387756e-01" purity="5.6247425079345703e-01" nType="-99"/>
            </Node>
          </Node>
          <Node pos="r" depth="2" NCoef="0" IVar="9" Cut="3.9921599626541138e-01" cType="1" res="1.1801051907241344e-02" rms="2.8668212890625000e-01" purity="7.1922397613525391e-01" nType="0">
            <Node pos="l" depth="3" NCoef="0" IVar="7" Cut="1.6661878824234009e+00" cType="1" res="4.7598793171346188e-03" rms="3.0374711751937866e-01" purity="6.5518444776535034e-01" nType="0">
              <Node pos="l" depth="4" NCoef="0" IVar="8" Cut="3.6180445551872253e-01" cType="1" res="-6.0377744957804680e-03" rms="3.2093754410743713e-01" purity="6.4214146137237549e-01" nType="0">
                <Node pos="l" depth="5" NCoef="0" IVar="-1" Cut="0.0000000000000000e+00" cType="1" res="-1.7425185069441795e-02" rms="3.2334515452384949e-01" purity="4.2461639642715454e-01" nType="-99"/>
                <Node pos="r" depth="5" NCoef="0" IVar="-1" Cut="0.0000000000000000e+00" cType="1" res="3.7261759862303734e-03" rms="3.1886553764343262e-01" purity="7.3534661531448364e-01" nType="-99"/>
              </Node>
              <Node pos="r" depth="4" NCoef="0" IVar="8" Cut="2.0100016891956329e-01" cType="1" res="1.8394082784652710e-02" rms="2.7994567155838013e-01" purity="6.7165392637252808e-01" nType="0">
                <Node pos="l" depth="5" NCoef="0" IVar="-1" Cut="0.0000000000000000e+00" cType="1" res="-2.9274055268615484e-03" rms="2.9386091232299805e-01" purity="4.9584010243415833e-01" nType="-99"/>
                <Node pos="r" depth="5" NCoef="0" IVar="-1" Cut="0.0000000000000000e+00" cType="1" res="1.4608714729547501e-02" rms="2.7337312698364258e-01" purity="7.4397289752960205e-01" nType="-99"/>
              </Node>
            </Node>
            <Node pos="r" depth="3" NCoef="0" IVar="7" Cut="5.9089070558547974e-01" cType="1" res="2.2225970402359962e-02" rms="2.5901132822036743e-01" purity="8.1403863430023193e-01" nType="0">
              <Node pos="l" depth="4" NCoef="0" IVar="-1" Cut="0.0000000000000000e+00" cType="1" res="9.5900064334273338e-03" rms="2.5600811839103699e-01" purity="8.3992737531661987e-01" nType="-99"/>
              <Node pos="r" depth="4" NCoef="0" IVar="-1" Cut="0.0000000000000000e+00" cType="1" res="1.5646746382117271e-02" rms="2.6122748851776123e-01" purity="7.9354035854339600e-01" nType="-99"/>
            </Node>
          </Node>
        </Node>
        <Node pos="r" depth="1" NCoef="0" IVar="0" Cut="3.0487804412841797e+00" cType="1" res="-8.0749131739139557e-03" rms="2.9510587453842163e-01" purity="3.6776843667030334e-01" nType="0">
          <Node pos="l" depth="2" NCoef="0" IVar="6" Cut="2.9117166996002197e+00" cType="1" res="-1.5736382454633713e-02" rms="2.4664363265037537e-01" purity="1.8099686503410339e-01" nType="0">
            <Node pos="l" depth="3" NCoef="0" IVar="0" Cut="1.0487804412841797e+00" cType="1" res="-1.7869152128696442e-02" rms="2.4117723107337952e-01" purity="1.5017120540142059e-01" nType="0">
              <Node pos="l" depth="4" NCoef="0" IVar="5" Cut="6.3042873382568359e+01" cType="1" res="0.0000000000000000e+00" rms="0.0000000000000000e+00" purity="9.1533511877059937e-02" nType="0">
                <Node pos="l" depth="5" NCoef="0" IVar="-1" Cut="0.0000000000000000e+00" cType="1" res="-1.5832170611247420e-03" rms="2.3600767552852631e-01" purity="7.9281114041805267e-02" nType="-99"/>
                <Node pos="r" depth="5" NCoef="0" IVar="-1" Cut="0.0000000000000000e+00" cType="1" res="-1.4451660215854645e-02" rms="2.1689623594284058e-01" purity="9.4375744462013245e-02" nType="-99"/>
              </Node>
              <Node pos="r" depth="4" NCoef="0" IVar="-1" Cut="0.0000000000000000e+00" cType="1" res="-1.2441877275705338e-02" rms="3.0661311745643616e-01" purity="3.7342083454132080e-01" nType="-99"/>
            </Node>
            <Node pos="r" depth="3" NCoef="0" IVar="-1" Cut="0.0000000000000000e+00" cType="1" res="-7.2564434958621860e-04" rms="2.7996274828910828e-01" purity="3.8651356101036072e-01" nType="-99"/>
          </Node>
          <Node pos="r" depth="2" NCoef="0" IVar="8" Cut="2.3867881298065186e-01" cType="1" res="-1.0173197370022535e-03" rms="3.3341959118843079e-01" purity="5.3981864452362061e-01" nType="0">
            <Node pos="l" depth="3" NCoef="0" IVar="8" Cut="1.5739738941192627e-01" cType="1" res="-1.7740186303853989e-02" rms="3.2732921838760376e-01" purity="3.2458066940307617e-01" nType="0">
              <Node pos="l" depth="4" NCoef="0" IVar="-1" Cut="0.0000000000000000e+00" cType="1" res="-1.2880403548479080e-02" rms="3.0794093012809753e-01" purity="2.3424138128757477e-01" nType="-99"/>
              <Node pos="r" depth="4" NCoef="0" IVar="-1" Cut="0.0000000000000000e+00" cType="1" res="-3.7368175107985735e-03" rms="3.4236183762550354e-01" purity="3.9963310956954956e-01" nType="-99"/>
            </Node>
            <Node pos="r" depth="3" NCoef="0" IVar="1" Cut="2.0731706619262695e+00" cType="1" res="4.9379277043044567e-03" rms="3.3536046743392944e-01" purity="6.1646795272827148e-01" nType="0">
              <Node pos="l" depth="4" NCoef="0" IVar="7" Cut="1.3213266134262085e+00" cType="1" res="-5.6431503035128117e-03" rms="3.7341302633285522e-01" purity="4.2355880141258240e-01" nType="0">
                <Node pos="l" depth="5" NCoef="0" IVar="-1" Cut="0.0000000000000000e+00" cType="1" res="-5.9233736246824265e-03" rms="3.8947850465774536e-01" purity="4.4124910235404968e-01" nType="-99"/>
                <Node pos="r" depth="5" NCoef="0" IVar="-1" Cut="0.0000000000000000e+00" cType="1" res="6.9152568466961384e-03" rms="3.3725184202194214e-01" purity="3.8771048188209534e-01" nType="-99"/>
              </Node>
              <Node pos="r" depth="4" NCoef="0" IVar="-1" Cut="0.0000000000000000e+00" cType="1" res="6.9695529527962208e-03" rms="2.9615709185600281e-01" purity="7.9215472936630249e-01" nType="-99"/>
            </Node>
          </Node>
        </Node>
      </Node>
    </BinaryTree>
    <BinaryTree type="DecisionTree" boostWeight="1.0000000000000000e+00" itree="82">
      <Node pos="s" depth="0" NCoef="0" IVar="5" Cut="5.5368286132812500e+01" cType="1" res="-7.6808209996670485e-05" rms="3.0284094810485840e-01" purity="4.9718487262725830e-01" nType="0">
        <Node pos="l" depth="1" NCoef="0" IVar="8" Cut="6.2310069799423218e-01" cType="1" res="-2.0054291933774948e-02" rms="3.4504178166389465e-01" purity="3.6104395985603333e-01" nType="0">
          <Node pos="l" depth="2" NCoef="0" IVar="4" Cut="1.1072519683837891e+02" cType="1" res="-2.5124818086624146e-02" rms="3.3748549222946167e-01" purity="3.4517788887023926e-01" nType="0">
            <Node pos="l" depth="3" NCoef="0" IVar="6" Cut="2.0688548088073730e+00" cType="1" res="-3.7376910448074341e-02" rms="3.4454587101936340e-01" purity="3.4435278177261353e-01" nType="0">
              <Node pos="l" depth="4" NCoef="0" IVar="-1" Cut="0.0000000000000000e+00" cType="1" res="-1.7864400520920753e-02" rms="3.3458769321441650e-01" purity="2.6560333371162415e-01" nType="-99"/>
              <Node pos="r" depth="4" NCoef="0" IVar="-1" Cut="0.0000000000000000e+00" cType="1" res="-1.0789619758725166e-02" rms="3.5366964340209961e-01" purity="4.1970977187156677e-01" nType="-99"/>
            </Node>
            <Node pos="r" depth="3" NCoef="0" IVar="8" Cut="3.4982323646545410e-01" cType="1" res="-1.4468905515968800e-02" rms="3.3085390925407410e-01" purity="3.4589549899101257e-01" nType="0">
              <Node pos="l" depth="4" NCoef="0" IVar="-1" Cut="0.0000000000000000e+00" cType="1" res="-3.9529744535684586e-03" rms="3.1513658165931702e-01" purity="2.6643097400665283e-01" nType="-99"/>
              <Node pos="r" depth="4" NCoef="0" IVar="-1" Cut="0.0000000000000000e+00" cType="1" res="-8.8702403008937836e-03" rms="3.5073742270469666e-01" purity="4.5299991965293884e-01" nType="-99"/>
            </Node>
          </Node>
          <Node pos="r" depth="2" NCoef="0" IVar="-1" Cut="0.0000000000000000e+00" cType="1" res="1.5649709894205444e-05" rms="3.7281516194343567e-01" purity="4.2393511533737183e-01" nType="-99"/>
        </Node>
        <Node pos="r" depth="1" NCoef="0" IVar="2" Cut="4.0243902206420898e+00" cType="1" res="2.4369491729885340e-03" rms="2.9701140522956848e-01" purity="5.1431542634963989e-01" nType="0">
          <Node pos="l" depth="2" NCoef="0" IVar="8" Cut="1.1962168663740158e-01" cType="1" res="5.0681349821388721e-03" rms="3.1005498766899109e-01" purity="6.0062271356582642e-01" nType="0">
            <Node pos="l" depth="3" NCoef="0" IVar="8" Cut="7.8872174024581909e-02" cType="1" res="-1.5713134780526161e-02" rms="2.9813179373741150e-01" purity="2.3363584280014038e-01" nType="0">
              <Node pos="l" depth="4" NCoef="0" IVar="-1" Cut="0.0000000000000000e+00" cType="1" res="-2.2608023136854172e-02" rms="2.7079522609710693e-01" purity="1.3424274325370789e-01" nType="-99"/>
              <Node pos="r" depth="4" NCoef="0" IVar="-1" Cut="0.0000000000000000e+00" cType="1" res="1.4849249273538589e-03" rms="3.1557068228721619e-01" purity="3.0752152204513550e-01" nType="-99"/>
            </Node>
            <Node pos="r" depth="3" NCoef="0" IVar="7" Cut="1.4001421928405762e+00" cType="1" res="6.5664667636156082e-03" rms="3.1084328889846802e-01" purity="6.2708252668380737e-01" nType="0">
              <Node pos="l" depth="4" NCoef="0" IVar="8" Cut="4.6890276670455933e-01" cType="1" res="9.5247797435149550e-04" rms="3.1805309653282166e-01" purity="6.5228623151779175e-01" nType="0">
                <Node pos="l" depth="5" NCoef="0" IVar="-1" Cut="0.0000000000000000e+00" cType="1" res="-3.4106399398297071e-03" rms="3.1946408748626709e-01" purity="6.2139838933944702e-01" nType="-99"/>
                <Node pos="r" depth="5" NCoef="0" IVar="-1" Cut="0.0000000000000000e+00" cType="1" res="6.9514880888164043e-03" rms="3.1506583094596863e-01" purity="7.0588690042495728e-01" nType="-99"/>
              </Node>
              <Node pos="r" depth="4" NCoef="0" IVar="6" Cut="2.5285954475402832e+00" cType="1" res="1.6456672921776772e-02" rms="2.9745963215827942e-01" purity="5.8268094062805176e-01" nType="0">
                <Node pos="l" depth="5" NCoef="0" IVar="-1" Cut="0.0000000000000000e+00" cType="1" res="1.5035754768177867e-03" rms="3.1400141119956970e-01" purity="4.3713319301605225e-01" nType="-99"/>
                <Node pos="r" depth="5" NCoef="0" IVar="-1" Cut="0.0000000000000000e+00" cType="1" res="1.5717897564172745e-02" rms="2.7457740902900696e-01" purity="7.6420730352401733e-01" nType="-99"/>
              </Node>
            </Node>
          </Node>
          <Node pos="r" depth="2" NCoef="0" IVar="5" Cut="7.5784301757812500e+01" cType="1" res="-1.0912562720477581e-02" rms="2.1869675815105438e-01" purity="7.6429195702075958e-02" nType="0">
            <Node pos="l" depth="3" NCoef="0" IVar="-1" Cut="0.0000000000000000e+00" cType="1" res="-1.5137653797864914e-02" rms="2.4158154428005219e-01" purity="8.6411006748676300e-02" nType="-99"/>
            <Node pos="r" depth="3" NCoef="0" IVar="6" Cut="2.1454780101776123e+00" cType="1" res="-8.5415663197636604e-03" rms="2.1396845579147339e-01" purity="7.4523776769638062e-02" nType="0">
              <Node pos="l" depth="4" NCoef="0" IVar="1" Cut="1.0975610017776489e+00" cType="1" res="-1.2452349998056889e-02" rms="1.9925406575202942e-01" purity="4.7249745577573776e-02" nType="0">
                <Node pos="l" depth="5" NCoef="0" IVar="-1" Cut="0.0000000000000000e+00" cType="1" res="-4.9172397702932358e-03" rms="1.8288098275661469e-01" purity="3.7679456174373627e-02" nType="-99"/>
                <Node pos="r" depth="5" NCoef="0" IVar="-1" Cut="0.0000000000000000e+00" cType="1" res="-2.1924825385212898e-02" rms="2.3083928227424622e-01" purity="6.8912029266357422e-02" nType="-99"/>
              </Node>
              <Node pos="r" depth="4" NCoef="0" IVar="0" Cut="1.0975610017776489e+00" cType="1" res="-3.4079339820891619e-03" rms="2.3177060484886169e-01" purity="1.1032602190971375e-01" nType="0">
                <Node pos="l" depth="5" NCoef="0" IVar="-1" Cut="0.0000000000000000e+00" cType="1" res="-2.3258989676833153e-02" rms="1.4056281745433807e-01" purity="2.5449568405747414e-02" nType="-99"/>
                <Node pos="r" depth="5" NCoef="0" IVar="-1" Cut="0.0000000000000000e+00" cType="1" res="6.3239741139113903e-03" rms="3.1061813235282898e-01" purity="2.1868312358856201e-01" nType="-99"/>
              </Node>
            </Node>
          </Node>
        </Node>
      </Node>
    </BinaryTree>
    <BinaryTree type="DecisionTree" boostWeight="1.0000000000000000e+00" itree="83">
      <Node pos="s" depth="0" NCoef="0" IVar="0" Cut="2.0731706619262695e+00" cType="1" res="5.5092840921133757e-04" rms="3.0233210325241089e-01" purity="5.0008887052536011e-01" nType="0">
        <Node pos="l" depth="1" NCoef="0" IVar="5" Cut="7.7016159057617188e+01" cType="1" res="-6.9413580931723118e-03" rms="2.7512603998184204e-01" purity="2.3169539868831635e-01" nType="0">
          <Node pos="l" depth="2" NCoef="0" IVar="8" Cut="5.8251905441284180e-01" cType="1" res="-1.5581321902573109e-02" rms="3.0047529935836792e-01" purity="2.2789536416530609e-01" nType="0">
            <Node pos="l" depth="3" NCoef="0" IVar="2" Cut="2.0731706619262695e+00" cType="1" res="-1.9679842516779900e-02" rms="2.9448470473289490e-01" purity="2.2043660283088684e-01" nType="0">
              <Node pos="l" depth="4" NCoef="0" IVar="8" Cut="2.9864421486854553e-01" cType="1" res="-2.4509942159056664e-02" rms="3.2552564144134521e-01" purity="2.9082426428794861e-01" nType="0">
                <Node pos="l" depth="5" NCoef="0" IVar="-1" Cut="0.0000000000000000e+00" cType="1" res="-1.6197491437196732e-02" rms="2.9938638210296631e-01" purity="2.1384438872337341e-01" nType="-99"/>
                <Node pos="r" depth="5" NCoef="0" IVar="-1" Cut="0.0000000000000000e+00" cType="1" res="-5.5957804434001446e-03" rms="3.4762832522392273e-01" purity="3.6189860105514526e-01" nType="-99"/>
              </Node>
              <Node pos="r" depth="4" NCoef="0" IVar="-1" Cut="0.0000000000000000e+00" cType="1" res="-8.5476590320467949e-03" rms="2.1737501025199890e-01" purity="7.6615139842033386e-02" nType="-99"/>
            </Node>
            <Node pos="r" depth="3" NCoef="0" IVar="-1" Cut="0.0000000000000000e+00" cType="1" res="5.2860920550301671e-04" rms="3.2331871986389160e-01" purity="2.5844964385032654e-01" nType="-99"/>
          </Node>
          <Node pos="r" depth="2" NCoef="0" IVar="5" Cut="9.3208122253417969e+01" cType="1" res="-3.1842151656746864e-03" rms="2.6325416564941406e-01" purity="2.3334784805774689e-01" nType="0">
            <Node pos="l" depth="3" NCoef="0" IVar="6" Cut="1.9156014919281006e+00" cType="1" res="1.6058348119258881e-02" rms="3.1617650389671326e-01" purity="4.3824407458305359e-01" nType="0">
              <Node pos="l" depth="4" NCoef="0" IVar="-1" Cut="0.0000000000000000e+00" cType="1" res="7.1208318695425987e-04" rms="3.2008647918701172e-01" purity="3.0208763480186462e-01" nType="-99"/>
              <Node pos="r" depth="4" NCoef="0" IVar="4" Cut="1.1158221435546875e+02" cType="1" res="2.7580065652728081e-02" rms="3.1254595518112183e-01" purity="5.4679214954376221e-01" nType="0">
                <Node pos="l" depth="5" NCoef="0" IVar="-1" Cut="0.0000000000000000e+00" cType="1" res="1.0046306066215038e-02" rms="3.3482852578163147e-01" purity="5.2943605184555054e-01" nType="-99"/>
                <Node pos="r" depth="5" NCoef="0" IVar="-1" Cut="0.0000000000000000e+00" cType="1" res="1.3830539770424366e-02" rms="2.9073584079742432e-01" purity="5.6260967254638672e-01" nType="-99"/>
              </Node>
            </Node>
            <Node pos="r" depth="3" NCoef="0" IVar="9" Cut="3.6006090044975281e-01" cType="1" res="-1.1395875364542007e-02" rms="2.3662471771240234e-01" purity="1.4590948820114136e-01" nType="0">
              <Node pos="l" depth="4" NCoef="0" IVar="1" Cut="4.0243902206420898e+00" cType="1" res="-1.6628783196210861e-02" rms="2.0323798060417175e-01" purity="8.7293364107608795e-02" nType="0">
                <Node pos="l" depth="5" NCoef="0" IVar="-1" Cut="0.0000000000000000e+00" cType="1" res="-1.2815561145544052e-02" rms="1.7563645541667938e-01" purity="5.0096485763788223e-02" nType="-99"/>
                <Node pos="r" depth="5" NCoef="0" IVar="-1" Cut="0.0000000000000000e+00" cType="1" res="-1.6443574801087379e-02" rms="2.6382687687873840e-01" purity="1.8909443914890289e-01" nType="-99"/>
              </Node>
              <Node pos="r" depth="4" NCoef="0" IVar="1" Cut="2.0731706619262695e+00" cType="1" res="-2.7937470003962517e-03" rms="2.8286600112915039e-01" purity="2.4226574599742889e-01" nType="0">
                <Node pos="l" depth="5" NCoef="0" IVar="-1" Cut="0.0000000000000000e+00" cType="1" res="-8.3085149526596069e-03" rms="2.4124611914157867e-01" purity="9.5311500132083893e-02" nType="-99"/>
                <Node pos="r" depth="5" NCoef="0" IVar="-1" Cut="0.0000000000000000e+00" cType="1" res="4.2456900700926781e-03" rms="3.3549612760543823e-01" purity="4.6357259154319763e-01" nType="-99"/>
              </Node>
            </Node>
          </Node>
        </Node>
        <Node pos="r" depth="1" NCoef="0" IVar="2" Cut="2.0731706619262695e+00" cType="1" res="5.2864546887576580e-03" rms="3.1823983788490295e-01" purity="6.6972792148590088e-01" nType="0">
          <Node pos="l" depth="2" NCoef="0" IVar="8" Cut="4.7625139355659485e-01" cType="1" res="8.1851603463292122e-03" rms="3.1824734807014465e-01" purity="7.4134987592697144e-01" nType="0">
            <Node pos="l" depth="3" NCoef="0" IVar="4" Cut="7.1102210998535156e+01" cType="1" res="4.8934072256088257e-03" rms="3.1344181299209595e-01" purity="7.3039269447326660e-01" nType="0">
              <Node pos="l" depth="4" NCoef="0" IVar="-1" Cut="0.0000000000000000e+00" cType="1" res="-7.7822837047278881e-03" rms="4.1042217612266541e-01" purity="4.3988212943077087e-01" nType="-99"/>
              <Node pos="r" depth="4" NCoef="0" IVar="7" Cut="1.3962074518203735e+00" cType="1" res="7.5449338182806969e-03" rms="3.0400735139846802e-01" purity="7.5411403179168701e-01" nType="0">
                <Node pos="l" depth="5" NCoef="0" IVar="-1" Cut="0.0000000000000000e+00" cType="1" res="4.4544477714225650e-04" rms="3.1024533510208130e-01" purity="7.7208483219146729e-01" nType="-99"/>
                <Node pos="r" depth="5" NCoef="0" IVar="-1" Cut="0.0000000000000000e+00" cType="1" res="7.2172903455793858e-03" rms="2.9596218466758728e-01" purity="7.3204451799392700e-01" nType="-99"/>
              </Node>
            </Node>
            <Node pos="r" depth="3" NCoef="0" IVar="1" Cut="2.0731706619262695e+00" cType="1" res="1.7219936475157738e-02" rms="3.3091053366661072e-01" purity="7.7142375707626343e-01" nType="0">
              <Node pos="l" depth="4" NCoef="0" IVar="4" Cut="1.1760089111328125e+02" cType="1" res="2.9533199965953827e-02" rms="4.0076506137847900e-01" purity="6.1329555511474609e-01" nType="0">
                <Node pos="l" depth="5" NCoef="0" IVar="-1" Cut="0.0000000000000000e+00" cType="1" res="1.1661263182759285e-02" rms="4.1823285818099976e-01" purity="6.4843136072158813e-01" nType="-99"/>
                <Node pos="r" depth="5" NCoef="0" IVar="-1" Cut="0.0000000000000000e+00" cType="1" res="5.4609612561762333e-03" rms="3.7958389520645142e-01" purity="5.7345646619796753e-01" nType="-99"/>
              </Node>
              <Node pos="r" depth="4" NCoef="0" IVar="-1" Cut="0.0000000000000000e+00" cType="1" res="5.3110304288566113e-03" rms="2.7710759639739990e-01" purity="8.7214350700378418e-01" nType="-99"/>
            </Node>
          </Node>
          <Node pos="r" depth="2" NCoef="0" IVar="4" Cut="1.4035256958007812e+02" cType="1" res="-9.6066724509000778e-03" rms="3.1778445839881897e-01" purity="3.0174475908279419e-01" nType="0">
            <Node pos="l" depth="3" NCoef="0" IVar="4" Cut="9.3903495788574219e+01" cType="1" res="-2.5095259770750999e-03" rms="3.3693292737007141e-01" purity="3.7196558713912964e-01" nType="0">
              <Node pos="l" depth="4" NCoef="0" IVar="-1" Cut="0.0000000000000000e+00" cType="1" res="-8.7109012529253960e-03" rms="3.1114268302917480e-01" purity="2.0234739780426025e-01" nType="-99"/>
              <Node pos="r" depth="4" NCoef="0" IVar="4" Cut="1.1656116485595703e+02" cType="1" res="8.9714955538511276e-03" rms="3.5237762331962585e-01" purity="4.8337975144386292e-01" nType="0">
                <Node pos="l" depth="5" NCoef="0" IVar="-1" Cut="0.0000000000000000e+00" cType="1" res="3.9460672996938229e-03" rms="3.6061698198318481e-01" purity="4.7470223903656006e-01" nType="-99"/>
                <Node pos="r" depth="5" NCoef="0" IVar="-1" Cut="0.0000000000000000e+00" cType="1" res="2.6914745103567839e-03" rms="3.4371495246887207e-01" purity="4.9227783083915710e-01" nType="-99"/>
              </Node>
            </Node>
            <Node pos="r" depth="3" NCoef="0" IVar="-1" Cut="0.0000000000000000e+00" cType="1" res="-1.4910258352756500e-02" rms="2.6515743136405945e-01" purity="1.3223475217819214e-01" nType="-99"/>
          </Node>
        </Node>
      </Node>
    </BinaryTree>
    <BinaryTree type="DecisionTree" boostWeight="1.0000000000000000e+00" itree="84">
      <Node pos="s" depth="0" NCoef="0" IVar="5" Cut="4.0936363220214844e+01" cType="1" res="1.2816791422665119e-03" rms="3.0374419689178467e-01" purity="4.9908822774887085e-01" nType="0">
        <Node pos="l" depth="1" NCoef="0" IVar="4" Cut="1.1738538360595703e+02" cType="1" res="-2.3144695907831192e-02" rms="3.5180923342704773e-01" purity="3.1545162200927734e-01" nType="0">
          <Node pos="l" depth="2" NCoef="0" IVar="-1" Cut="0.0000000000000000e+00" cType="1" res="-1.3826963491737843e-02" rms="3.5882019996643066e-01" purity="3.3993637561798096e-01" nType="-99"/>
          <Node pos="r" depth="2" NCoef="0" IVar="-1" Cut="0.0000000000000000e+00" cType="1" res="-2.5910965632647276e-03" rms="3.4297353029251099e-01" purity="2.8806006908416748e-01" nType="-99"/>
        </Node>
        <Node pos="r" depth="1" NCoef="0" IVar="2" Cut="1.0975610017776489e+00" cType="1" res="2.4601288605481386e-03" rms="3.0118134617805481e-01" purity="5.0794780254364014e-01" nType="0">
          <Node pos="l" depth="2" NCoef="0" IVar="9" Cut="4.4258615374565125e-01" cType="1" res="5.9390817768871784e-03" rms="3.1425127387046814e-01" purity="6.1686098575592041e-01" nType="0">
            <Node pos="l" depth="3" NCoef="0" IVar="9" Cut="7.5733877718448639e-02" cType="1" res="1.6637552762404084e-03" rms="3.1598076224327087e-01" purity="5.6139230728149414e-01" nType="0">
              <Node pos="l" depth="4" NCoef="0" IVar="-1" Cut="0.0000000000000000e+00" cType="1" res="-2.5891395285725594e-02" rms="2.3625707626342773e-01" purity="8.3252258598804474e-02" nType="-99"/>
              <Node pos="r" depth="4" NCoef="0" IVar="7" Cut="3.3654220104217529e+00" cType="1" res="3.7878879811614752e-03" rms="3.1917348504066467e-01" purity="5.8447939157485962e-01" nType="0">
                <Node pos="l" depth="5" NCoef="0" IVar="-1" Cut="0.0000000000000000e+00" cType="1" res="4.1005352977663279e-04" rms="3.1918644905090332e-01" purity="5.8899974822998047e-01" nType="-99"/>
                <Node pos="r" depth="5" NCoef="0" IVar="-1" Cut="0.0000000000000000e+00" cType="1" res="2.2786606103181839e-02" rms="3.1455305218696594e-01" purity="5.0372081995010376e-01" nType="-99"/>
              </Node>
            </Node>
            <Node pos="r" depth="3" NCoef="0" IVar="6" Cut="1.6857312917709351e+00" cType="1" res="1.5732355415821075e-02" rms="3.1003117561340332e-01" purity="7.4392026662826538e-01" nType="0">
              <Node pos="l" depth="4" NCoef="0" IVar="9" Cut="5.4239159822463989e-01" cType="1" res="5.2156751044094563e-03" rms="3.3618459105491638e-01" purity="6.5820956230163574e-01" nType="0">
                <Node pos="l" depth="5" NCoef="0" IVar="-1" Cut="0.0000000000000000e+00" cType="1" res="-8.3579113706946373e-03" rms="3.4067735075950623e-01" purity="6.0070633888244629e-01" nType="-99"/>
                <Node pos="r" depth="5" NCoef="0" IVar="-1" Cut="0.0000000000000000e+00" cType="1" res="6.6785030066967010e-03" rms="3.3363622426986694e-01" purity="6.8270528316497803e-01" nType="-99"/>
              </Node>
              <Node pos="r" depth="4" NCoef="0" IVar="8" Cut="2.3659646511077881e-01" cType="1" res="2.3480936884880066e-02" rms="2.8900775313377380e-01" purity="8.0707103013992310e-01" nType="0">
                <Node pos="l" depth="5" NCoef="0" IVar="-1" Cut="0.0000000000000000e+00" cType="1" res="4.6100667677819729e-03" rms="3.5230416059494019e-01" purity="6.1820673942565918e-01" nType="-99"/>
                <Node pos="r" depth="5" NCoef="0" IVar="-1" Cut="0.0000000000000000e+00" cType="1" res="1.6106301918625832e-02" rms="2.5936025381088257e-01" purity="8.8238817453384399e-01" nType="-99"/>
              </Node>
            </Node>
          </Node>
          <Node pos="r" depth="2" NCoef="0" IVar="3" Cut="1.0975610017776489e+00" cType="1" res="-5.7065649889409542e-03" rms="2.6783007383346558e-01" purity="2.5227865576744080e-01" nType="0">
            <Node pos="l" depth="3" NCoef="0" IVar="9" Cut="2.2795017063617706e-01" cType="1" res="2.4064237368293107e-04" rms="2.8297030925750732e-01" purity="3.0747333168983459e-01" nType="0">
              <Node pos="l" depth="4" NCoef="0" IVar="9" Cut="1.5016731619834900e-01" cType="1" res="-1.1159705929458141e-02" rms="2.3809719085693359e-01" purity="1.4144459366798401e-01" nType="0">
                <Node pos="l" depth="5" NCoef="0" IVar="-1" Cut="0.0000000000000000e+00" cType="1" res="-1.7563434317708015e-02" rms="2.0885460078716278e-01" purity="7.7181980013847351e-02" nType="-99"/>
                <Node pos="r" depth="5" NCoef="0" IVar="-1" Cut="0.0000000000000000e+00" cType="1" res="-1.5933599788695574e-03" rms="2.6246926188468933e-01" purity="2.0219777524471283e-01" nType="-99"/>
              </Node>
              <Node pos="r" depth="4" NCoef="0" IVar="6" Cut="2.2221012115478516e+00" cType="1" res="5.5062910541892052e-03" rms="3.0130419135093689e-01" purity="3.8415947556495667e-01" nType="0">
                <Node pos="l" depth="5" NCoef="0" IVar="-1" Cut="0.0000000000000000e+00" cType="1" res="-3.2729487866163254e-03" rms="3.0009910464286804e-01" purity="2.7030578255653381e-01" nType="-99"/>
                <Node pos="r" depth="5" NCoef="0" IVar="-1" Cut="0.0000000000000000e+00" cType="1" res="9.0590640902519226e-03" rms="3.0211639404296875e-01" purity="5.1521718502044678e-01" nType="-99"/>
              </Node>
            </Node>
            <Node pos="r" depth="3" NCoef="0" IVar="5" Cut="1.2805596923828125e+02" cType="1" res="-2.0526234060525894e-02" rms="2.2504417598247528e-01" purity="1.1474074423313141e-01" nType="0">
              <Node pos="l" depth="4" NCoef="0" IVar="2" Cut="4.0487804412841797e+00" cType="1" res="-2.5436934083700180e-02" rms="2.2801823914051056e-01" purity="1.1480936408042908e-01" nType="0">
                <Node pos="l" depth="5" NCoef="0" IVar="-1" Cut="0.0000000000000000e+00" cType="1" res="-1.7673002555966377e-02" rms="2.9912674427032471e-01" purity="2.3963734507560730e-01" nType="-99"/>
                <Node pos="r" depth="5" NCoef="0" IVar="-1" Cut="0.0000000000000000e+00" cType="1" res="-2.0457953214645386e-02" rms="1.6724303364753723e-01" purity="3.5310082137584686e-02" nType="-99"/>
              </Node>
              <Node pos="r" depth="4" NCoef="0" IVar="-1" Cut="0.0000000000000000e+00" cType="1" res="-5.5285827256739140e-03" rms="2.1563050150871277e-01" purity="1.1454319208860397e-01" nType="-99"/>
            </Node>
          </Node>
        </Node>
      </Node>
    </BinaryTree>
    <BinaryTree type="DecisionTree" boostWeight="1.0000000000000000e+00" itree="85">
      <Node pos="s" depth="0" NCoef="0" IVar="6" Cut="1.7623558044433594e+00" cType="1" res="-2.1252167061902583e-04" rms="3.0185785889625549e-01" purity="4.9964600801467896e-01" nType="0">
        <Node pos="l" depth="1" NCoef="0" IVar="8" Cut="6.2931621074676514e-01" cType="1" res="-8.0773774534463882e-03" rms="3.0817565321922302e-01" purity="3.5902348160743713e-01" nType="0">
          <Node pos="l" depth="2" NCoef="0" IVar="9" Cut="5.9690290689468384e-01" cType="1" res="-1.1484554968774319e-02" rms="2.9846143722534180e-01" purity="3.3307307958602905e-01" nType="0">
            <Node pos="l" depth="3" NCoef="0" IVar="7" Cut="7.6366823911666870e-01" cType="1" res="-1.5338828787207603e-02" rms="2.9314494132995605e-01" purity="2.8343716263771057e-01" nType="0">
              <Node pos="l" depth="4" NCoef="0" IVar="5" Cut="1.0278737640380859e+02" cType="1" res="-3.4413781017065048e-02" rms="3.0850195884704590e-01" purity="3.0188190937042236e-01" nType="0">
                <Node pos="l" depth="5" NCoef="0" IVar="-1" Cut="0.0000000000000000e+00" cType="1" res="-2.4764478206634521e-02" rms="3.1462821364402771e-01" purity="3.9110341668128967e-01" nType="-99"/>
                <Node pos="r" depth="5" NCoef="0" IVar="-1" Cut="0.0000000000000000e+00" cType="1" res="-2.4045694153755903e-03" rms="2.9618844389915466e-01" purity="1.6309863328933716e-01" nType="-99"/>
              </Node>
              <Node pos="r" depth="4" NCoef="0" IVar="7" Cut="2.1792469024658203e+00" cType="1" res="-8.0186212435364723e-03" rms="2.8669667243957520e-01" purity="2.7635878324508667e-01" nType="0">
                <Node pos="l" depth="5" NCoef="0" IVar="-1" Cut="0.0000000000000000e+00" cType="1" res="-7.0667074760422111e-04" rms="3.0592438578605652e-01" purity="3.3403834700584412e-01" nType="-99"/>
                <Node pos="r" depth="5" NCoef="0" IVar="-1" Cut="0.0000000000000000e+00" cType="1" res="-1.1837119236588478e-02" rms="2.4928927421569824e-01" purity="1.7591656744480133e-01" nType="-99"/>
              </Node>
            </Node>
            <Node pos="r" depth="3" NCoef="0" IVar="8" Cut="2.4580992758274078e-01" cType="1" res="3.8305793423205614e-03" rms="3.1825074553489685e-01" purity="5.3030365705490112e-01" nType="0">
              <Node pos="l" depth="4" NCoef="0" IVar="-1" Cut="0.0000000000000000e+00" cType="1" res="6.4634350128471851e-03" rms="3.0636987090110779e-01" purity="3.8594362139701843e-01" nType="-99"/>
              <Node pos="r" depth="4" NCoef="0" IVar="-1" Cut="0.0000000000000000e+00" cType="1" res="-5.6848081294447184e-04" rms="3.2439762353897095e-01" purity="6.0862237215042114e-01" nType="-99"/>
            </Node>
          </Node>
          <Node pos="r" depth="2" NCoef="0" IVar="6" Cut="5.1581794023513794e-01" cType="1" res="6.9276853464543819e-03" rms="3.4734487533569336e-01" purity="4.7330799698829651e-01" nType="0">
            <Node pos="l" depth="3" NCoef="0" IVar="-1" Cut="0.0000000000000000e+00" cType="1" res="-4.1360110044479370e-03" rms="3.6007636785507202e-01" purity="3.7905749678611755e-01" nType="-99"/>
            <Node pos="r" depth="3" NCoef="0" IVar="7" Cut="5.7103103399276733e-01" cType="1" res="1.4139863662421703e-02" rms="3.4168413281440735e-01" purity="5.1226353645324707e-01" nType="0">
              <Node pos="l" depth="4" NCoef="0" IVar="-1" Cut="0.0000000000000000e+00" cType="1" res="1.1694538407027721e-02" rms="3.5074865818023682e-01" purity="5.9474229812622070e-01" nType="-99"/>
              <Node pos="r" depth="4" NCoef="0" IVar="-1" Cut="0.0000000000000000e+00" cType="1" res="-1.6137675265781581e-04" rms="3.3160260319709778e-01" purity="4.2856499552726746e-01" nType="-99"/>
            </Node>
          </Node>
        </Node>
        <Node pos="r" depth="1" NCoef="0" IVar="9" Cut="1.5331821143627167e-01" cType="1" res="4.5559722930192947e-03" rms="2.9786103963851929e-01" purity="5.8490604162216187e-01" nType="0">
          <Node pos="l" depth="2" NCoef="0" IVar="7" Cut="2.9530911445617676e+00" cType="1" res="-1.7091309651732445e-02" rms="2.8859588503837585e-01" purity="2.3334306478500366e-01" nType="0">
            <Node pos="l" depth="3" NCoef="0" IVar="7" Cut="1.7286338806152344e+00" cType="1" res="-2.6598889380693436e-02" rms="2.8995406627655029e-01" purity="1.8255363404750824e-01" nType="0">
              <Node pos="l" depth="4" NCoef="0" IVar="-1" Cut="0.0000000000000000e+00" cType="1" res="-6.9725378416478634e-03" rms="2.9289624094963074e-01" purity="1.7463883757591248e-01" nType="-99"/>
              <Node pos="r" depth="4" NCoef="0" IVar="-1" Cut="0.0000000000000000e+00" cType="1" res="-2.0838167518377304e-02" rms="2.8515568375587463e-01" purity="1.9284141063690186e-01" nType="-99"/>
            </Node>
            <Node pos="r" depth="3" NCoef="0" IVar="-1" Cut="0.0000000000000000e+00" cType="1" res="7.7363580930978060e-04" rms="2.8498646616935730e-01" purity="3.3312797546386719e-01" nType="-99"/>
          </Node>
          <Node pos="r" depth="2" NCoef="0" IVar="7" Cut="2.4366397857666016e+00" cType="1" res="7.3299496434628963e-03" rms="2.9891425371170044e-01" purity="6.2995684146881104e-01" nType="0">
            <Node pos="l" depth="3" NCoef="0" IVar="8" Cut="4.3625748157501221e-01" cType="1" res="4.1763549670577049e-03" rms="3.0131554603576660e-01" purity="6.3083690404891968e-01" nType="0">
              <Node pos="l" depth="4" NCoef="0" IVar="9" Cut="4.4462662935256958e-01" cType="1" res="-2.5795863475650549e-03" rms="3.0271852016448975e-01" purity="5.8539080619812012e-01" nType="0">
                <Node pos="l" depth="5" NCoef="0" IVar="-1" Cut="0.0000000000000000e+00" cType="1" res="-5.3833778947591782e-03" rms="3.0468642711639404e-01" purity="5.3124064207077026e-01" nType="-99"/>
                <Node pos="r" depth="5" NCoef="0" IVar="-1" Cut="0.0000000000000000e+00" cType="1" res="5.6751430965960026e-03" rms="2.9883190989494324e-01" purity="6.7666065692901611e-01" nType="-99"/>
              </Node>
              <Node pos="r" depth="4" NCoef="0" IVar="9" Cut="2.8496235609054565e-01" cType="1" res="1.9959069788455963e-02" rms="2.9741489887237549e-01" purity="7.3700469732284546e-01" nType="0">
                <Node pos="l" depth="5" NCoef="0" IVar="-1" Cut="0.0000000000000000e+00" cType="1" res="-1.2479625002015382e-04" rms="3.5255455970764160e-01" purity="5.4730665683746338e-01" nType="-99"/>
                <Node pos="r" depth="5" NCoef="0" IVar="-1" Cut="0.0000000000000000e+00" cType="1" res="1.7641933634877205e-02" rms="2.6184090971946716e-01" purity="8.4047418832778931e-01" nType="-99"/>
              </Node>
            </Node>
            <Node pos="r" depth="3" NCoef="0" IVar="8" Cut="1.4568765461444855e-01" cType="1" res="3.1048838049173355e-02" rms="2.7905520796775818e-01" purity="6.2333756685256958e-01" nType="0">
              <Node pos="l" depth="4" NCoef="0" IVar="-1" Cut="0.0000000000000000e+00" cType="1" res="-2.2496604360640049e-03" rms="3.1582385301589966e-01" purity="3.4259745478630066e-01" nType="-99"/>
              <Node pos="r" depth="4" NCoef="0" IVar="-1" Cut="0.0000000000000000e+00" cType="1" res="2.5084402412176132e-02" rms="2.5618577003479004e-01" purity="7.6743698120117188e-01" nType="-99"/>
            </Node>
          </Node>
        </Node>
      </Node>
    </BinaryTree>
    <BinaryTree type="DecisionTree" boostWeight="1.0000000000000000e+00" itree="86">
      <Node pos="s" depth="0" NCoef="0" IVar="1" Cut="4.0243902206420898e+00" cType="1" res="1.7123424913734198e-03" rms="3.0360096693038940e-01" purity="5.0030338764190674e-01" nType="0">
        <Node pos="l" depth="1" NCoef="0" IVar="8" Cut="5.0345158576965332e-01" cType="1" res="-2.7490463107824326e-03" rms="3.1115514039993286e-01" purity="3.6039367318153381e-01" nType="0">
          <Node pos="l" depth="2" NCoef="0" IVar="4" Cut="9.3315933227539062e+01" cType="1" res="-5.5327322334051132e-03" rms="3.0246350169181824e-01" purity="3.4680992364883423e-01" nType="0">
            <Node pos="l" depth="3" NCoef="0" IVar="9" Cut="5.7397526502609253e-01" cType="1" res="-1.4298424124717712e-02" rms="3.0512306094169617e-01" purity="2.5590851902961731e-01" nType="0">
              <Node pos="l" depth="4" NCoef="0" IVar="7" Cut="9.6759605407714844e-01" cType="1" res="-1.9743952900171280e-02" rms="2.9177626967430115e-01" purity="2.3349219560623169e-01" nType="0">
                <Node pos="l" depth="5" NCoef="0" IVar="-1" Cut="0.0000000000000000e+00" cType="1" res="-1.5936275944113731e-02" rms="3.1121474504470825e-01" purity="2.6518628001213074e-01" nType="-99"/>
                <Node pos="r" depth="5" NCoef="0" IVar="-1" Cut="0.0000000000000000e+00" cType="1" res="-6.3483980484306812e-03" rms="2.8040271997451782e-01" purity="2.1634803712368011e-01" nType="-99"/>
              </Node>
              <Node pos="r" depth="4" NCoef="0" IVar="-1" Cut="0.0000000000000000e+00" cType="1" res="2.3701991885900497e-03" rms="3.4959396719932556e-01" purity="3.3929845690727234e-01" nType="-99"/>
            </Node>
            <Node pos="r" depth="3" NCoef="0" IVar="7" Cut="1.7107580900192261e+00" cType="1" res="-1.3468754477798939e-03" rms="3.0109518766403198e-01" purity="3.9021781086921692e-01" nType="0">
              <Node pos="l" depth="4" NCoef="0" IVar="9" Cut="4.1006571054458618e-01" cType="1" res="-6.3126864843070507e-03" rms="3.1341519951820374e-01" purity="4.1907608509063721e-01" nType="0">
                <Node pos="l" depth="5" NCoef="0" IVar="-1" Cut="0.0000000000000000e+00" cType="1" res="-8.7220473214983940e-03" rms="3.0939126014709473e-01" purity="2.8360292315483093e-01" nType="-99"/>
                <Node pos="r" depth="5" NCoef="0" IVar="-1" Cut="0.0000000000000000e+00" cType="1" res="3.4176835324615240e-03" rms="3.1809982657432556e-01" purity="5.9726500511169434e-01" nType="-99"/>
              </Node>
              <Node pos="r" depth="4" NCoef="0" IVar="8" Cut="1.8436163663864136e-01" cType="1" res="7.0330644957721233e-03" rms="2.7887377142906189e-01" purity="3.4151875972747803e-01" nType="0">
                <Node pos="l" depth="5" NCoef="0" IVar="-1" Cut="0.0000000000000000e+00" cType="1" res="-8.9693320915102959e-03" rms="2.6695013046264648e-01" purity="1.9429016113281250e-01" nType="-99"/>
                <Node pos="r" depth="5" NCoef="0" IVar="-1" Cut="0.0000000000000000e+00" cType="1" res="1.0848505422472954e-02" rms="2.8585171699523926e-01" purity="4.4403976202011108e-01" nType="-99"/>
              </Node>
            </Node>
          </Node>
          <Node pos="r" depth="2" NCoef="0" IVar="0" Cut="4.0243902206420898e+00" cType="1" res="7.9331258311867714e-03" rms="3.4225723147392273e-01" purity="4.1252025961875916e-01" nType="0">
            <Node pos="l" depth="3" NCoef="0" IVar="2" Cut="2.0731706619262695e+00" cType="1" res="-3.0750422738492489e-03" rms="3.0981343984603882e-01" purity="2.4897527694702148e-01" nType="0">
              <Node pos="l" depth="4" NCoef="0" IVar="5" Cut="8.0736877441406250e+01" cType="1" res="-7.9536903649568558e-03" rms="3.2938972115516663e-01" purity="3.2046136260032654e-01" nType="0">
                <Node pos="l" depth="5" NCoef="0" IVar="-1" Cut="0.0000000000000000e+00" cType="1" res="-1.1986838217126206e-04" rms="3.4769710898399353e-01" purity="3.3942526578903198e-01" nType="-99"/>
                <Node pos="r" depth="5" NCoef="0" IVar="-1" Cut="0.0000000000000000e+00" cType="1" res="-7.1660745888948441e-03" rms="3.0989447236061096e-01" purity="3.0157220363616943e-01" nType="-99"/>
              </Node>
              <Node pos="r" depth="4" NCoef="0" IVar="-1" Cut="0.0000000000000000e+00" cType="1" res="5.4266359657049179e-03" rms="2.6448428630828857e-01" purity="1.0111884772777557e-01" nType="-99"/>
            </Node>
            <Node pos="r" depth="3" NCoef="0" IVar="5" Cut="8.4405761718750000e+01" cType="1" res="0.0000000000000000e+00" rms="0.0000000000000000e+00" purity="6.0531961917877197e-01" nType="0">
              <Node pos="l" depth="4" NCoef="0" IVar="-1" Cut="0.0000000000000000e+00" cType="1" res="9.2751579359173775e-03" rms="3.7627926468849182e-01" purity="6.5756601095199585e-01" nType="-99"/>
              <Node pos="r" depth="4" NCoef="0" IVar="-1" Cut="0.0000000000000000e+00" cType="1" res="3.6524857860058546e-03" rms="3.7663090229034424e-01" purity="5.2794641256332397e-01" nType="-99"/>
            </Node>
          </Node>
        </Node>
        <Node pos="r" depth="1" NCoef="0" IVar="9" Cut="3.6029380559921265e-01" cType="1" res="8.6677325889468193e-03" rms="2.9129722714424133e-01" purity="7.1842527389526367e-01" nType="0">
          <Node pos="l" depth="2" NCoef="0" IVar="5" Cut="5.5987907409667969e+01" cType="1" res="2.4035379756242037e-03" rms="3.1198123097419739e-01" purity="6.2396544218063354e-01" nType="0">
            <Node pos="l" depth="3" NCoef="0" IVar="-1" Cut="0.0000000000000000e+00" cType="1" res="-9.9711641669273376e-03" rms="3.7263143062591553e-01" purity="4.8239582777023315e-01" nType="-99"/>
            <Node pos="r" depth="3" NCoef="0" IVar="5" Cut="8.8967224121093750e+01" cType="1" res="5.8430540375411510e-03" rms="3.0401214957237244e-01" purity="6.4031279087066650e-01" nType="0">
              <Node pos="l" depth="4" NCoef="0" IVar="7" Cut="1.3647741079330444e+00" cType="1" res="1.5394165180623531e-02" rms="2.8275576233863831e-01" purity="7.7205741405487061e-01" nType="0">
                <Node pos="l" depth="5" NCoef="0" IVar="-1" Cut="0.0000000000000000e+00" cType="1" res="8.4913539467379451e-04" rms="3.0499723553657532e-01" purity="7.4419212341308594e-01" nType="-99"/>
                <Node pos="r" depth="5" NCoef="0" IVar="-1" Cut="0.0000000000000000e+00" cType="1" res="1.3739330694079399e-02" rms="2.6459437608718872e-01" purity="7.9273283481597900e-01" nType="-99"/>
              </Node>
              <Node pos="r" depth="4" NCoef="0" IVar="0" Cut="2.0731706619262695e+00" cType="1" res="-5.0437557511031628e-03" rms="3.2621723413467407e-01" purity="4.9014410376548767e-01" nType="0">
                <Node pos="l" depth="5" NCoef="0" IVar="-1" Cut="0.0000000000000000e+00" cType="1" res="-7.7814273536205292e-03" rms="2.9212355613708496e-01" purity="2.1820622682571411e-01" nType="-99"/>
                <Node pos="r" depth="5" NCoef="0" IVar="-1" Cut="0.0000000000000000e+00" cType="1" res="8.0075277946889400e-04" rms="3.4783017635345459e-01" purity="6.7963546514511108e-01" nType="-99"/>
              </Node>
            </Node>
          </Node>
          <Node pos="r" depth="2" NCoef="0" IVar="7" Cut="7.3011571168899536e-01" cType="1" res="1.5547208487987518e-02" rms="2.6657044887542725e-01" purity="8.2216310501098633e-01" nType="0">
            <Node pos="l" depth="3" NCoef="0" IVar="-1" Cut="0.0000000000000000e+00" cType="1" res="5.3930245339870453e-03" rms="2.6375982165336609e-01" purity="8.3880221843719482e-01" nType="-99"/>
            <Node pos="r" depth="3" NCoef="0" IVar="-1" Cut="0.0000000000000000e+00" cType="1" res="1.2202129699289799e-02" rms="2.6932829618453979e-01" purity="8.0460721254348755e-01" nType="-99"/>
          </Node>
        </Node>
      </Node>
    </BinaryTree>
    <BinaryTree type="DecisionTree" boostWeight="1.0000000000000000e+00" itree="87">
      <Node pos="s" depth="0" NCoef="0" IVar="4" Cut="1.8061422729492188e+02" cType="1" res="-1.3026904780417681e-03" rms="3.0142909288406372e-01" purity="4.9721679091453552e-01" nType="0">
        <Node pos="l" depth="1" NCoef="0" IVar="4" Cut="9.0638458251953125e+01" cType="1" res="4.5396405039355159e-04" rms="3.0477738380432129e-01" purity="5.3853362798690796e-01" nType="0">
          <Node pos="l" depth="2" NCoef="0" IVar="8" Cut="6.6933405399322510e-01" cType="1" res="-8.3576003089547157e-03" rms="3.2678800821304321e-01" purity="3.3959817886352539e-01" nType="0">
            <Node pos="l" depth="3" NCoef="0" IVar="6" Cut="1.9156044721603394e+00" cType="1" res="-1.1720550246536732e-02" rms="3.2170119881629944e-01" purity="3.3430904150009155e-01" nType="0">
              <Node pos="l" depth="4" NCoef="0" IVar="0" Cut="1.0975610017776489e+00" cType="1" res="-2.0366661250591278e-02" rms="3.0885264277458191e-01" purity="2.3620761930942535e-01" nType="0">
                <Node pos="l" depth="5" NCoef="0" IVar="-1" Cut="0.0000000000000000e+00" cType="1" res="-6.6068680025637150e-03" rms="2.5368294119834900e-01" purity="9.8170861601829529e-02" nType="-99"/>
                <Node pos="r" depth="5" NCoef="0" IVar="-1" Cut="0.0000000000000000e+00" cType="1" res="-1.1613104492425919e-02" rms="3.5928499698638916e-01" purity="3.8729128241539001e-01" nType="-99"/>
              </Node>
              <Node pos="r" depth="4" NCoef="0" IVar="9" Cut="3.6768558621406555e-01" cType="1" res="-4.6628299169242382e-03" rms="3.3165365457534790e-01" purity="4.1438812017440796e-01" nType="0">
                <Node pos="l" depth="5" NCoef="0" IVar="-1" Cut="0.0000000000000000e+00" cType="1" res="-7.6158922165632248e-03" rms="3.2187461853027344e-01" purity="3.1043404340744019e-01" nType="-99"/>
                <Node pos="r" depth="5" NCoef="0" IVar="-1" Cut="0.0000000000000000e+00" cType="1" res="3.1864042393863201e-03" rms="3.4058827161788940e-01" purity="5.1754420995712280e-01" nType="-99"/>
              </Node>
            </Node>
            <Node pos="r" depth="3" NCoef="0" IVar="-1" Cut="0.0000000000000000e+00" cType="1" res="1.0171479545533657e-02" rms="3.7729114294052124e-01" purity="3.9911121129989624e-01" nType="-99"/>
          </Node>
          <Node pos="r" depth="2" NCoef="0" IVar="9" Cut="3.9789646863937378e-01" cType="1" res="3.9319428615272045e-03" rms="2.9556664824485779e-01" purity="6.1705464124679565e-01" nType="0">
            <Node pos="l" depth="3" NCoef="0" IVar="7" Cut="7.9788702726364136e-01" cType="1" res="-8.1752013647928834e-04" rms="3.0572080612182617e-01" purity="5.4037690162658691e-01" nType="0">
              <Node pos="l" depth="4" NCoef="0" IVar="8" Cut="4.9992948770523071e-01" cType="1" res="-1.5215007588267326e-02" rms="3.2979387044906616e-01" purity="5.2468144893646240e-01" nType="0">
                <Node pos="l" depth="5" NCoef="0" IVar="-1" Cut="0.0000000000000000e+00" cType="1" res="-1.5983926132321358e-02" rms="3.2535070180892944e-01" purity="4.1560643911361694e-01" nType="-99"/>
                <Node pos="r" depth="5" NCoef="0" IVar="-1" Cut="0.0000000000000000e+00" cType="1" res="3.6196596920490265e-03" rms="3.3392772078514099e-01" purity="6.6406178474426270e-01" nType="-99"/>
              </Node>
              <Node pos="r" depth="4" NCoef="0" IVar="9" Cut="8.7466411292552948e-02" cType="1" res="5.0773127004504204e-03" rms="2.9509612917900085e-01" purity="5.4680317640304565e-01" nType="0">
                <Node pos="l" depth="5" NCoef="0" IVar="-1" Cut="0.0000000000000000e+00" cType="1" res="-1.4837352558970451e-02" rms="2.7741235494613647e-01" purity="1.2464684993028641e-01" nType="-99"/>
                <Node pos="r" depth="5" NCoef="0" IVar="-1" Cut="0.0000000000000000e+00" cType="1" res="3.6976390983909369e-03" rms="2.9628452658653259e-01" purity="5.7976645231246948e-01" nType="-99"/>
              </Node>
            </Node>
            <Node pos="r" depth="3" NCoef="0" IVar="0" Cut="1.0975610017776489e+00" cType="1" res="1.2049446813762188e-02" rms="2.7716410160064697e-01" purity="7.4810779094696045e-01" nType="0">
              <Node pos="l" depth="4" NCoef="0" IVar="6" Cut="2.0688517093658447e+00" cType="1" res="0.0000000000000000e+00" rms="0.0000000000000000e+00" purity="3.7045231461524963e-01" nType="0">
                <Node pos="l" depth="5" NCoef="0" IVar="-1" Cut="0.0000000000000000e+00" cType="1" res="-6.8108155392110348e-03" rms="3.2131779193878174e-01" purity="2.8026506304740906e-01" nType="-99"/>
                <Node pos="r" depth="5" NCoef="0" IVar="-1" Cut="0.0000000000000000e+00" cType="1" res="6.4020184800028801e-03" rms="3.1987139582633972e-01" purity="4.9750775098800659e-01" nType="-99"/>
              </Node>
              <Node pos="r" depth="4" NCoef="0" IVar="7" Cut="7.2390317916870117e-01" cType="1" res="1.6264710575342178e-02" rms="2.6350694894790649e-01" purity="8.5304355621337891e-01" nType="0">
                <Node pos="l" depth="5" NCoef="0" IVar="-1" Cut="0.0000000000000000e+00" cType="1" res="7.0707416161894798e-03" rms="2.5701141357421875e-01" purity="8.7242639064788818e-01" nType="-99"/>
                <Node pos="r" depth="5" NCoef="0" IVar="-1" Cut="0.0000000000000000e+00" cType="1" res="1.2668588198721409e-02" rms="2.7089348435401917e-01" purity="8.2995301485061646e-01" nType="-99"/>
              </Node>
            </Node>
          </Node>
        </Node>
        <Node pos="r" depth="1" NCoef="0" IVar="1" Cut="1.0975610017776489e+00" cType="1" res="-1.4814199879765511e-02" rms="2.7393627166748047e-01" purity="1.7942370474338531e-01" nType="0">
          <Node pos="l" depth="2" NCoef="0" IVar="4" Cut="1.9753804016113281e+02" cType="1" res="-6.8252286873757839e-03" rms="2.6980254054069519e-01" purity="1.7506319284439087e-01" nType="0">
            <Node pos="l" depth="3" NCoef="0" IVar="-1" Cut="0.0000000000000000e+00" cType="1" res="-1.0566341690719128e-02" rms="2.7096530795097351e-01" purity="1.5643475949764252e-01" nType="-99"/>
            <Node pos="r" depth="3" NCoef="0" IVar="6" Cut="2.2987234592437744e+00" cType="1" res="-2.4666709359735250e-03" rms="2.6920941472053528e-01" purity="1.8257626891136169e-01" nType="0">
              <Node pos="l" depth="4" NCoef="0" IVar="-1" Cut="0.0000000000000000e+00" cType="1" res="-6.9737625308334827e-03" rms="2.4841022491455078e-01" purity="8.8326118886470795e-02" nType="-99"/>
              <Node pos="r" depth="4" NCoef="0" IVar="-1" Cut="0.0000000000000000e+00" cType="1" res="3.2270667143166065e-03" rms="2.9645422101020813e-01" purity="3.1879082322120667e-01" nType="-99"/>
            </Node>
          </Node>
          <Node pos="r" depth="2" NCoef="0" IVar="5" Cut="9.1770782470703125e+01" cType="1" res="-2.8803084045648575e-02" rms="2.8048059344291687e-01" purity="1.8705904483795166e-01" nType="0">
            <Node pos="l" depth="3" NCoef="0" IVar="-1" Cut="0.0000000000000000e+00" cType="1" res="-1.0402259416878223e-02" rms="3.1331390142440796e-01" purity="2.3304902017116547e-01" nType="-99"/>
            <Node pos="r" depth="3" NCoef="0" IVar="-1" Cut="0.0000000000000000e+00" cType="1" res="-1.7980910837650299e-02" rms="2.4474211037158966e-01" purity="1.4282567799091339e-01" nType="-99"/>
          </Node>
        </Node>
      </Node>
    </BinaryTree>
    <BinaryTree type="DecisionTree" boostWeight="1.0000000000000000e+00" itree="88">
      <Node pos="s" depth="0" NCoef="0" IVar="0" Cut="3.0487804412841797e+00" cType="1" res="9.1538100969046354e-04" rms="3.0151724815368652e-01" purity="5.0162208080291748e-01" nType="0">
        <Node pos="l" depth="1" NCoef="0" IVar="8" Cut="3.6106178164482117e-01" cType="1" res="-6.0413931496441364e-03" rms="2.7972087264060974e-01" purity="2.8139090538024902e-01" nType="0">
          <Node pos="l" depth="2" NCoef="0" IVar="7" Cut="2.2910032272338867e+00" cType="1" res="-1.0251734405755997e-02" rms="2.6081028580665588e-01" purity="2.2343356907367706e-01" nType="0">
            <Node pos="l" depth="3" NCoef="0" IVar="8" Cut="3.1712615489959717e-01" cType="1" res="-1.5157023444771767e-02" rms="2.7049899101257324e-01" purity="2.1978844702243805e-01" nType="0">
              <Node pos="l" depth="4" NCoef="0" IVar="1" Cut="2.0731706619262695e+00" cType="1" res="-1.9457403570413589e-02" rms="2.6320135593414307e-01" purity="1.8736183643341064e-01" nType="0">
                <Node pos="l" depth="5" NCoef="0" IVar="-1" Cut="0.0000000000000000e+00" cType="1" res="-1.0735178366303444e-02" rms="2.2351953387260437e-01" purity="8.3096474409103394e-02" nType="-99"/>
                <Node pos="r" depth="5" NCoef="0" IVar="-1" Cut="0.0000000000000000e+00" cType="1" res="-1.3248377479612827e-02" rms="3.1383308768272400e-01" purity="3.4600624442100525e-01" nType="-99"/>
              </Node>
              <Node pos="r" depth="4" NCoef="0" IVar="-1" Cut="0.0000000000000000e+00" cType="1" res="1.5003770822659135e-03" rms="2.9866701364517212e-01" purity="3.5666203498840332e-01" nType="-99"/>
            </Node>
            <Node pos="r" depth="3" NCoef="0" IVar="8" Cut="1.3222603499889374e-01" cType="1" res="8.5229781689122319e-04" rms="2.3704738914966583e-01" purity="2.3168489336967468e-01" nType="0">
              <Node pos="l" depth="4" NCoef="0" IVar="-1" Cut="0.0000000000000000e+00" cType="1" res="-2.0290037617087364e-02" rms="2.0060473680496216e-01" purity="8.8649250566959381e-02" nType="-99"/>
              <Node pos="r" depth="4" NCoef="0" IVar="9" Cut="2.0566070079803467e-01" cType="1" res="1.5649622306227684e-02" rms="2.5397357344627380e-01" purity="3.1169492006301880e-01" nType="0">
                <Node pos="l" depth="5" NCoef="0" IVar="-1" Cut="0.0000000000000000e+00" cType="1" res="-2.7924110181629658e-03" rms="2.3033456504344940e-01" purity="2.1288686990737915e-01" nType="-99"/>
                <Node pos="r" depth="5" NCoef="0" IVar="-1" Cut="0.0000000000000000e+00" cType="1" res="2.2263437509536743e-02" rms="2.8274273872375488e-01" purity="4.5764413475990295e-01" nType="-99"/>
              </Node>
            </Node>
          </Node>
          <Node pos="r" depth="2" NCoef="0" IVar="9" Cut="3.9784601330757141e-01" cType="1" res="-8.9353132352698594e-05" rms="3.0435752868652344e-01" purity="3.6332356929779053e-01" nType="0">
            <Node pos="l" depth="3" NCoef="0" IVar="9" Cut="1.9413448870182037e-01" cType="1" res="-8.0143017694354057e-03" rms="2.9094591736793518e-01" purity="2.7969619631767273e-01" nType="0">
              <Node pos="l" depth="4" NCoef="0" IVar="6" Cut="2.0688560009002686e+00" cType="1" res="-1.7941204831004143e-02" rms="2.3814642429351807e-01" purity="1.0675194859504700e-01" nType="0">
                <Node pos="l" depth="5" NCoef="0" IVar="-1" Cut="0.0000000000000000e+00" cType="1" res="-6.1903144232928753e-03" rms="2.2842366993427277e-01" purity="8.2591444253921509e-02" nType="-99"/>
                <Node pos="r" depth="5" NCoef="0" IVar="-1" Cut="0.0000000000000000e+00" cType="1" res="-1.8162170425057411e-02" rms="2.4943742156028748e-01" purity="1.3776956498622894e-01" nType="-99"/>
              </Node>
              <Node pos="r" depth="4" NCoef="0" IVar="7" Cut="1.0658189058303833e+00" cType="1" res="-2.2999604698270559e-03" rms="3.1723991036415100e-01" purity="3.7925013899803162e-01" nType="0">
                <Node pos="l" depth="5" NCoef="0" IVar="-1" Cut="0.0000000000000000e+00" cType="1" res="-6.6954120993614197e-03" rms="3.2880923151969910e-01" purity="3.4023550152778625e-01" nType="-99"/>
                <Node pos="r" depth="5" NCoef="0" IVar="-1" Cut="0.0000000000000000e+00" cType="1" res="9.2793712392449379e-03" rms="2.9533404111862183e-01" purity="4.4537883996963501e-01" nType="-99"/>
              </Node>
            </Node>
            <Node pos="r" depth="3" NCoef="0" IVar="6" Cut="1.3026198148727417e+00" cType="1" res="1.6917934641242027e-02" rms="3.3067119121551514e-01" purity="5.4279160499572754e-01" nType="0">
              <Node pos="l" depth="4" NCoef="0" IVar="-1" Cut="0.0000000000000000e+00" cType="1" res="-4.0410074871033430e-04" rms="3.6667728424072266e-01" purity="3.6100316047668457e-01" nType="-99"/>
              <Node pos="r" depth="4" NCoef="0" IVar="-1" Cut="0.0000000000000000e+00" cType="1" res="1.4362797141075134e-02" rms="2.9738196730613708e-01" purity="6.9068843126296997e-01" nType="-99"/>
            </Node>
          </Node>
        </Node>
        <Node pos="r" depth="1" NCoef="0" IVar="6" Cut="3.8312369585037231e-01" cType="1" res="6.4416090026497841e-03" rms="3.1765922904014587e-01" purity="6.7656630277633667e-01" nType="0">
          <Node pos="l" depth="2" NCoef="0" IVar="-1" Cut="0.0000000000000000e+00" cType="1" res="-6.0016941279172897e-03" rms="3.5097026824951172e-01" purity="4.5828083157539368e-01" nType="-99"/>
          <Node pos="r" depth="2" NCoef="0" IVar="8" Cut="3.9579576253890991e-01" cType="1" res="7.7128866687417030e-03" rms="3.1558322906494141e-01" purity="6.8915998935699463e-01" nType="0">
            <Node pos="l" depth="3" NCoef="0" IVar="4" Cut="7.1023567199707031e+01" cType="1" res="2.9478524811565876e-03" rms="3.1579628586769104e-01" purity="6.4109945297241211e-01" nType="0">
              <Node pos="l" depth="4" NCoef="0" IVar="-1" Cut="0.0000000000000000e+00" cType="1" res="-8.3634816110134125e-03" rms="3.7239721417427063e-01" purity="3.4927114844322205e-01" nType="-99"/>
              <Node pos="r" depth="4" NCoef="0" IVar="4" Cut="1.6269441223144531e+02" cType="1" res="5.4346220567822456e-03" rms="3.1014105677604675e-01" purity="6.6705220937728882e-01" nType="0">
                <Node pos="l" depth="5" NCoef="0" IVar="-1" Cut="0.0000000000000000e+00" cType="1" res="4.1625462472438812e-03" rms="3.0464282631874084e-01" purity="7.3403328657150269e-01" nType="-99"/>
                <Node pos="r" depth="5" NCoef="0" IVar="-1" Cut="0.0000000000000000e+00" cType="1" res="-5.1050712354481220e-03" rms="3.4061345458030701e-01" purity="2.6609107851982117e-01" nType="-99"/>
              </Node>
            </Node>
            <Node pos="r" depth="3" NCoef="0" IVar="9" Cut="3.7002429366111755e-01" cType="1" res="1.4455522410571575e-02" rms="3.1515839695930481e-01" purity="7.5716674327850342e-01" nType="0">
              <Node pos="l" depth="4" NCoef="0" IVar="7" Cut="5.8393704891204834e-01" cType="1" res="8.0253593623638153e-03" rms="3.5375082492828369e-01" purity="6.5953838825225830e-01" nType="0">
                <Node pos="l" depth="5" NCoef="0" IVar="-1" Cut="0.0000000000000000e+00" cType="1" res="-2.4130439851433039e-03" rms="3.5817673802375793e-01" purity="6.7715239524841309e-01" nType="-99"/>
                <Node pos="r" depth="5" NCoef="0" IVar="-1" Cut="0.0000000000000000e+00" cType="1" res="5.8178198523819447e-03" rms="3.5132968425750732e-01" purity="6.5082168579101562e-01" nType="-99"/>
              </Node>
              <Node pos="r" depth="4" NCoef="0" IVar="-1" Cut="0.0000000000000000e+00" cType="1" res="1.3404791243374348e-02" rms="2.5729221105575562e-01" purity="8.8198757171630859e-01" nType="-99"/>
            </Node>
          </Node>
        </Node>
      </Node>
    </BinaryTree>
    <BinaryTree type="DecisionTree" boostWeight="1.0000000000000000e+00" itree="89">
      <Node pos="s" depth="0" NCoef="0" IVar="5" Cut="3.3720405578613281e+01" cType="1" res="9.0975832426920533e-04" rms="3.0273091793060303e-01" purity="4.9950921535491943e-01" nType="0">
        <Node pos="l" depth="1" NCoef="0" IVar="-1" Cut="0.0000000000000000e+00" cType="1" res="-1.3737338595092297e-02" rms="3.4118521213531494e-01" purity="2.8770932555198669e-01" nType="-99"/>
        <Node pos="r" depth="1" NCoef="0" IVar="6" Cut="7.6624196767807007e-01" cType="1" res="1.7435505287721753e-03" rms="3.0171218514442444e-01" purity="5.0451892614364624e-01" nType="0">
          <Node pos="l" depth="2" NCoef="0" IVar="9" Cut="7.1434348821640015e-01" cType="1" res="-1.0728221386671066e-02" rms="3.0863347649574280e-01" purity="3.0339708924293518e-01" nType="0">
            <Node pos="l" depth="3" NCoef="0" IVar="7" Cut="7.9788815975189209e-01" cType="1" res="-1.5604956075549126e-02" rms="3.0239066481590271e-01" purity="2.5817683339118958e-01" nType="0">
              <Node pos="l" depth="4" NCoef="0" IVar="-1" Cut="0.0000000000000000e+00" cType="1" res="-1.6152182593941689e-02" rms="3.3834329247474670e-01" purity="2.3434163630008698e-01" nType="-99"/>
              <Node pos="r" depth="4" NCoef="0" IVar="1" Cut="4.0243902206420898e+00" cType="1" res="-7.3006949387490749e-03" rms="2.8432500362396240e-01" purity="2.6891416311264038e-01" nType="0">
                <Node pos="l" depth="5" NCoef="0" IVar="-1" Cut="0.0000000000000000e+00" cType="1" res="-7.4554043821990490e-03" rms="2.6620277762413025e-01" purity="1.6840891540050507e-01" nType="-99"/>
                <Node pos="r" depth="5" NCoef="0" IVar="-1" Cut="0.0000000000000000e+00" cType="1" res="1.5729886945337057e-03" rms="3.2081231474876404e-01" purity="4.9314847588539124e-01" nType="-99"/>
              </Node>
            </Node>
            <Node pos="r" depth="3" NCoef="0" IVar="-1" Cut="0.0000000000000000e+00" cType="1" res="5.7492335326969624e-03" rms="3.3736246824264526e-01" purity="5.3204143047332764e-01" nType="-99"/>
          </Node>
          <Node pos="r" depth="2" NCoef="0" IVar="4" Cut="1.7462612915039062e+02" cType="1" res="3.8088713772594929e-03" rms="3.0050069093704224e-01" purity="5.3782457113265991e-01" nType="0">
            <Node pos="l" depth="3" NCoef="0" IVar="8" Cut="9.8203949630260468e-02" cType="1" res="6.0153715312480927e-03" rms="3.0275902152061462e-01" purity="5.8348000049591064e-01" nType="0">
              <Node pos="l" depth="4" NCoef="0" IVar="-1" Cut="0.0000000000000000e+00" cType="1" res="-1.1949039995670319e-02" rms="2.7315837144851685e-01" purity="1.7515897750854492e-01" nType="-99"/>
              <Node pos="r" depth="4" NCoef="0" IVar="7" Cut="3.2202782630920410e+00" cType="1" res="7.2408379055559635e-03" rms="3.0398443341255188e-01" purity="6.0211282968521118e-01" nType="0">
                <Node pos="l" depth="5" NCoef="0" IVar="-1" Cut="0.0000000000000000e+00" cType="1" res="2.8322115540504456e-03" rms="3.0438748002052307e-01" purity="6.0675954818725586e-01" nType="-99"/>
                <Node pos="r" depth="5" NCoef="0" IVar="-1" Cut="0.0000000000000000e+00" cType="1" res="1.8867900595068932e-02" rms="2.9255783557891846e-01" purity="4.9453657865524292e-01" nType="-99"/>
              </Node>
            </Node>
            <Node pos="r" depth="3" NCoef="0" IVar="6" Cut="2.8519139289855957e+00" cType="1" res="-1.2230749242007732e-02" rms="2.8302782773971558e-01" purity="2.0594373345375061e-01" nType="0">
              <Node pos="l" depth="4" NCoef="0" IVar="0" Cut="4.0243902206420898e+00" cType="1" res="-1.6808351501822472e-02" rms="2.7317661046981812e-01" purity="1.5273733437061310e-01" nType="0">
                <Node pos="l" depth="5" NCoef="0" IVar="-1" Cut="0.0000000000000000e+00" cType="1" res="-8.5692061111330986e-03" rms="2.2778084874153137e-01" purity="9.8909139633178711e-02" nType="-99"/>
                <Node pos="r" depth="5" NCoef="0" IVar="-1" Cut="0.0000000000000000e+00" cType="1" res="-1.0446908883750439e-02" rms="3.4037852287292480e-01" purity="2.5072082877159119e-01" nType="-99"/>
              </Node>
              <Node pos="r" depth="4" NCoef="0" IVar="-1" Cut="0.0000000000000000e+00" cType="1" res="1.6842531040310860e-03" rms="3.1546941399574280e-01" purity="3.9786535501480103e-01" nType="-99"/>
            </Node>
          </Node>
        </Node>
      </Node>
    </BinaryTree>
    <BinaryTree type="DecisionTree" boostWeight="1.0000000000000000e+00" itree="90">
      <Node pos="s" depth="0" NCoef="0" IVar="8" Cut="9.6035254001617432e-01" cType="1" res="9.0059777721762657e-04" rms="3.0225169658660889e-01" purity="5.0170379877090454e-01" nType="0">
        <Node pos="l" depth="1" NCoef="0" IVar="8" Cut="7.0385046303272247e-02" cType="1" res="1.7428039573132992e-03" rms="3.0099955201148987e-01" purity="5.0684213638305664e-01" nType="0">
          <Node pos="l" depth="2" NCoef="0" IVar="-1" Cut="0.0000000000000000e+00" cType="1" res="-2.5440568104386330e-02" rms="2.2134506702423096e-01" purity="7.9962179064750671e-02" nType="-99"/>
          <Node pos="r" depth="2" NCoef="0" IVar="4" Cut="9.9119125366210938e+01" cType="1" res="2.7328417636454105e-03" rms="3.0285859107971191e-01" purity="5.1873087882995605e-01" nType="0">
            <Node pos="l" depth="3" NCoef="0" IVar="6" Cut="5.3636944293975830e-01" cType="1" res="-5.3908233530819416e-03" rms="3.2714825868606567e-01" purity="4.0466985106468201e-01" nType="0">
              <Node pos="l" depth="4" NCoef="0" IVar="-1" Cut="0.0000000000000000e+00" cType="1" res="-1.6009870916604996e-02" rms="3.0685567855834961e-01" purity="2.0989711582660675e-01" nType="-99"/>
              <Node pos="r" depth="4" NCoef="0" IVar="9" Cut="6.7646414041519165e-01" cType="1" res="-2.4193127173930407e-03" rms="3.2913461327552795e-01" purity="4.2577278614044189e-01" nType="0">
                <Node pos="l" depth="5" NCoef="0" IVar="-1" Cut="0.0000000000000000e+00" cType="1" res="-2.0929630845785141e-03" rms="3.2571846246719360e-01" purity="4.1982039809226990e-01" nType="-99"/>
                <Node pos="r" depth="5" NCoef="0" IVar="-1" Cut="0.0000000000000000e+00" cType="1" res="7.2840126231312752e-03" rms="3.5703152418136597e-01" purity="4.7799938917160034e-01" nType="-99"/>
              </Node>
            </Node>
            <Node pos="r" depth="3" NCoef="0" IVar="4" Cut="1.3223930358886719e+02" cType="1" res="6.5758740529417992e-03" rms="2.9058247804641724e-01" purity="5.7268929481506348e-01" nType="0">
              <Node pos="l" depth="4" NCoef="0" IVar="4" Cut="1.1042845916748047e+02" cType="1" res="1.3469878584146500e-02" rms="2.8102692961692810e-01" purity="7.4110996723175049e-01" nType="0">
                <Node pos="l" depth="5" NCoef="0" IVar="-1" Cut="0.0000000000000000e+00" cType="1" res="2.4422816932201385e-03" rms="2.9681807756423950e-01" purity="6.9523125886917114e-01" nType="-99"/>
                <Node pos="r" depth="5" NCoef="0" IVar="-1" Cut="0.0000000000000000e+00" cType="1" res="9.5510212704539299e-03" rms="2.7371078729629517e-01" purity="7.6127588748931885e-01" nType="-99"/>
              </Node>
              <Node pos="r" depth="4" NCoef="0" IVar="8" Cut="4.3939611315727234e-01" cType="1" res="-2.8144714888185263e-03" rms="3.0286154150962830e-01" purity="3.4328293800354004e-01" nType="0">
                <Node pos="l" depth="5" NCoef="0" IVar="-1" Cut="0.0000000000000000e+00" cType="1" res="-3.9307922124862671e-03" rms="2.9601883888244629e-01" purity="2.9232677817344666e-01" nType="-99"/>
                <Node pos="r" depth="5" NCoef="0" IVar="-1" Cut="0.0000000000000000e+00" cType="1" res="4.0047029033303261e-03" rms="3.1909543275833130e-01" purity="4.7121685743331909e-01" nType="-99"/>
              </Node>
            </Node>
          </Node>
        </Node>
        <Node pos="r" depth="1" NCoef="0" IVar="-1" Cut="0.0000000000000000e+00" cType="1" res="-1.2388693168759346e-02" rms="3.4246230125427246e-01" purity="3.1908589601516724e-01" nType="-99"/>
      </Node>
    </BinaryTree>
    <BinaryTree type="DecisionTree" boostWeight="1.0000000000000000e+00" itree="91">
      <Node pos="s" depth="0" NCoef="0" IVar="8" Cut="3.7759494781494141e-01" cType="1" res="-2.4712737649679184e-04" rms="3.0172580480575562e-01" purity="4.9981436133384705e-01" nType="0">
        <Node pos="l" depth="1" NCoef="0" IVar="4" Cut="4.6891128540039062e+01" cType="1" res="-4.6124542132019997e-03" rms="2.9325145483016968e-01" purity="4.3172866106033325e-01" nType="0">
          <Node pos="l" depth="2" NCoef="0" IVar="-1" Cut="0.0000000000000000e+00" cType="1" res="-1.8602240830659866e-02" rms="2.7564501762390137e-01" purity="1.2917986512184143e-01" nType="-99"/>
          <Node pos="r" depth="2" NCoef="0" IVar="8" Cut="6.4637832343578339e-02" cType="1" res="-3.3432091586291790e-03" rms="2.9387551546096802e-01" purity="4.4404044747352600e-01" nType="0">
            <Node pos="l" depth="3" NCoef="0" IVar="-1" Cut="0.0000000000000000e+00" cType="1" res="-2.6162501424551010e-02" rms="2.1230387687683105e-01" purity="8.0241851508617401e-02" nType="-99"/>
            <Node pos="r" depth="3" NCoef="0" IVar="7" Cut="3.6020231246948242e+00" cType="1" res="-2.0639831200242043e-03" rms="2.9679223895072937e-01" purity="4.5957204699516296e-01" nType="0">
              <Node pos="l" depth="4" NCoef="0" IVar="9" Cut="2.9787313938140869e-01" cType="1" res="-3.6074679810553789e-03" rms="2.9772111773490906e-01" purity="4.6576404571533203e-01" nType="0">
                <Node pos="l" depth="5" NCoef="0" IVar="-1" Cut="0.0000000000000000e+00" cType="1" res="-6.8868375383317471e-03" rms="2.7007010579109192e-01" purity="3.3391845226287842e-01" nType="-99"/>
                <Node pos="r" depth="5" NCoef="0" IVar="-1" Cut="0.0000000000000000e+00" cType="1" res="9.7607210045680404e-04" rms="3.1469571590423584e-01" purity="5.5373698472976685e-01" nType="-99"/>
              </Node>
              <Node pos="r" depth="4" NCoef="0" IVar="-1" Cut="0.0000000000000000e+00" cType="1" res="1.6616031527519226e-02" rms="2.7377665042877197e-01" purity="3.2544204592704773e-01" nType="-99"/>
            </Node>
          </Node>
        </Node>
        <Node pos="r" depth="1" NCoef="0" IVar="8" Cut="9.6055418252944946e-01" cType="1" res="5.6351991370320320e-03" rms="3.1268578767776489e-01" purity="5.9156066179275513e-01" nType="0">
          <Node pos="l" depth="2" NCoef="0" IVar="6" Cut="9.9611449241638184e-01" cType="1" res="7.9800765961408615e-03" rms="3.1062325835227966e-01" purity="6.1036902666091919e-01" nType="0">
            <Node pos="l" depth="3" NCoef="0" IVar="8" Cut="6.6196477413177490e-01" cType="1" res="-6.4209392294287682e-03" rms="3.3714801073074341e-01" purity="4.1704738140106201e-01" nType="0">
              <Node pos="l" depth="4" NCoef="0" IVar="7" Cut="8.8563132286071777e-01" cType="1" res="-1.7406176775693893e-02" rms="3.2798054814338684e-01" purity="3.8498041033744812e-01" nType="0">
                <Node pos="l" depth="5" NCoef="0" IVar="-1" Cut="0.0000000000000000e+00" cType="1" res="-1.6924802213907242e-02" rms="3.4569668769836426e-01" purity="3.7141236662864685e-01" nType="-99"/>
                <Node pos="r" depth="5" NCoef="0" IVar="-1" Cut="0.0000000000000000e+00" cType="1" res="1.5375426737591624e-03" rms="3.0965852737426758e-01" purity="3.9721858501434326e-01" nType="-99"/>
              </Node>
              <Node pos="r" depth="4" NCoef="0" IVar="-1" Cut="0.0000000000000000e+00" cType="1" res="7.4999416247010231e-03" rms="3.5605689883232117e-01" purity="4.9079766869544983e-01" nType="-99"/>
            </Node>
            <Node pos="r" depth="3" NCoef="0" IVar="8" Cut="4.2025050520896912e-01" cType="1" res="1.1460263282060623e-02" rms="3.0376362800598145e-01" purity="6.5708762407302856e-01" nType="0">
              <Node pos="l" depth="4" NCoef="0" IVar="7" Cut="1.0354597568511963e+00" cType="1" res="-6.2490644631907344e-04" rms="2.9199090600013733e-01" purity="6.5633898973464966e-01" nType="0">
                <Node pos="l" depth="5" NCoef="0" IVar="-1" Cut="0.0000000000000000e+00" cType="1" res="-6.1810454353690147e-03" rms="3.0604135990142822e-01" purity="6.5898221731185913e-01" nType="-99"/>
                <Node pos="r" depth="5" NCoef="0" IVar="-1" Cut="0.0000000000000000e+00" cType="1" res="7.9264445230364799e-03" rms="2.7186143398284912e-01" purity="6.5289849042892456e-01" nType="-99"/>
              </Node>
              <Node pos="r" depth="4" NCoef="0" IVar="0" Cut="1.0975610017776489e+00" cType="1" res="1.4862353913486004e-02" rms="3.0691051483154297e-01" purity="6.5729832649230957e-01" nType="0">
                <Node pos="l" depth="5" NCoef="0" IVar="-1" Cut="0.0000000000000000e+00" cType="1" res="2.3794425651431084e-03" rms="3.0339843034744263e-01" purity="2.9665669798851013e-01" nType="-99"/>
                <Node pos="r" depth="5" NCoef="0" IVar="-1" Cut="0.0000000000000000e+00" cType="1" res="8.7723545730113983e-03" rms="3.0801406502723694e-01" purity="7.7868360280990601e-01" nType="-99"/>
              </Node>
            </Node>
          </Node>
          <Node pos="r" depth="2" NCoef="0" IVar="-1" Cut="0.0000000000000000e+00" cType="1" res="-1.2253713794052601e-02" rms="3.3952113986015320e-01" purity="3.1721222400665283e-01" nType="-99"/>
        </Node>
      </Node>
    </BinaryTree>
    <BinaryTree type="DecisionTree" boostWeight="1.0000000000000000e+00" itree="92">
      <Node pos="s" depth="0" NCoef="0" IVar="5" Cut="6.6192222595214844e+01" cType="1" res="-2.6085236459039152e-04" rms="3.0059942603111267e-01" purity="5.0010341405868530e-01" nType="0">
        <Node pos="l" depth="1" NCoef="0" IVar="7" Cut="1.5957754850387573e+00" cType="1" res="-1.0575970634818077e-02" rms="3.3859175443649292e-01" purity="4.1743612289428711e-01" nType="0">
          <Node pos="l" depth="2" NCoef="0" IVar="0" Cut="4.0243902206420898e+00" cType="1" res="-4.8126252368092537e-03" rms="3.5319137573242188e-01" purity="4.7116822004318237e-01" nType="0">
            <Node pos="l" depth="3" NCoef="0" IVar="9" Cut="4.3627938628196716e-01" cType="1" res="-1.5546854585409164e-02" rms="3.2782369852066040e-01" purity="2.9554215073585510e-01" nType="0">
              <Node pos="l" depth="4" NCoef="0" IVar="9" Cut="2.9842758178710938e-01" cType="1" res="-2.4332197383046150e-02" rms="3.0927526950836182e-01" purity="2.5641217827796936e-01" nType="0">
                <Node pos="l" depth="5" NCoef="0" IVar="-1" Cut="0.0000000000000000e+00" cType="1" res="-1.8018821254372597e-02" rms="2.7827540040016174e-01" purity="1.7184443771839142e-01" nType="-99"/>
                <Node pos="r" depth="5" NCoef="0" IVar="-1" Cut="0.0000000000000000e+00" cType="1" res="-7.2964746505022049e-03" rms="3.3427259325981140e-01" purity="3.3161535859107971e-01" nType="-99"/>
              </Node>
              <Node pos="r" depth="4" NCoef="0" IVar="-1" Cut="0.0000000000000000e+00" cType="1" res="1.0973666940117255e-04" rms="3.5831040143966675e-01" purity="3.6609902977943420e-01" nType="-99"/>
            </Node>
            <Node pos="r" depth="3" NCoef="0" IVar="4" Cut="1.1168124389648438e+02" cType="1" res="0.0000000000000000e+00" rms="0.0000000000000000e+00" purity="6.4978629350662231e-01" nType="0">
              <Node pos="l" depth="4" NCoef="0" IVar="-1" Cut="0.0000000000000000e+00" cType="1" res="-3.5229932982474566e-03" rms="3.8703149557113647e-01" purity="6.5145945549011230e-01" nType="-99"/>
              <Node pos="r" depth="4" NCoef="0" IVar="-1" Cut="0.0000000000000000e+00" cType="1" res="7.5064026750624180e-03" rms="3.6786571145057678e-01" purity="6.4841246604919434e-01" nType="-99"/>
            </Node>
          </Node>
          <Node pos="r" depth="2" NCoef="0" IVar="8" Cut="3.0147787928581238e-01" cType="1" res="-2.5617405772209167e-02" rms="2.9660177230834961e-01" purity="2.7720373868942261e-01" nType="0">
            <Node pos="l" depth="3" NCoef="0" IVar="-1" Cut="0.0000000000000000e+00" cType="1" res="-1.8748583272099495e-02" rms="2.8134313225746155e-01" purity="2.3508587479591370e-01" nType="-99"/>
            <Node pos="r" depth="3" NCoef="0" IVar="-1" Cut="0.0000000000000000e+00" cType="1" res="-2.9419991187751293e-03" rms="3.1870719790458679e-01" purity="3.4496825933456421e-01" nType="-99"/>
          </Node>
        </Node>
        <Node pos="r" depth="1" NCoef="0" IVar="5" Cut="8.9072105407714844e+01" cType="1" res="2.1370165050029755e-03" rms="2.9100573062896729e-01" purity="5.1932042837142944e-01" nType="0">
          <Node pos="l" depth="2" NCoef="0" IVar="3" Cut="4.0243902206420898e+00" cType="1" res="9.0200677514076233e-03" rms="2.8901305794715881e-01" purity="6.9930881261825562e-01" nType="0">
            <Node pos="l" depth="3" NCoef="0" IVar="7" Cut="7.2569602727890015e-01" cType="1" res="1.1904916726052761e-02" rms="2.8654509782791138e-01" purity="7.3484534025192261e-01" nType="0">
              <Node pos="l" depth="4" NCoef="0" IVar="9" Cut="2.8958266973495483e-01" cType="1" res="2.5665163993835449e-03" rms="2.8008925914764404e-01" purity="7.7029013633728027e-01" nType="0">
                <Node pos="l" depth="5" NCoef="0" IVar="-1" Cut="0.0000000000000000e+00" cType="1" res="-1.1396484449505806e-02" rms="3.2845404744148254e-01" purity="4.7197490930557251e-01" nType="-99"/>
                <Node pos="r" depth="5" NCoef="0" IVar="-1" Cut="0.0000000000000000e+00" cType="1" res="5.3105521947145462e-03" rms="2.6839169859886169e-01" purity="8.3303165435791016e-01" nType="-99"/>
              </Node>
              <Node pos="r" depth="4" NCoef="0" IVar="8" Cut="1.6050836443901062e-01" cType="1" res="1.7316259443759918e-02" rms="2.9008281230926514e-01" purity="7.1430605649948120e-01" nType="0">
                <Node pos="l" depth="5" NCoef="0" IVar="-1" Cut="0.0000000000000000e+00" cType="1" res="-2.2830802481621504e-03" rms="3.3430284261703491e-01" purity="4.9490591883659363e-01" nType="-99"/>
                <Node pos="r" depth="5" NCoef="0" IVar="-1" Cut="0.0000000000000000e+00" cType="1" res="1.0760735720396042e-02" rms="2.8263816237449646e-01" purity="7.4744898080825806e-01" nType="-99"/>
              </Node>
            </Node>
            <Node pos="r" depth="3" NCoef="0" IVar="-1" Cut="0.0000000000000000e+00" cType="1" res="-1.2446201406419277e-02" rms="3.1682541966438293e-01" purity="2.4034975469112396e-01" nType="-99"/>
          </Node>
          <Node pos="r" depth="2" NCoef="0" IVar="8" Cut="7.1179610490798950e-01" cType="1" res="-3.0321546364575624e-03" rms="2.9238680005073547e-01" purity="3.8414907455444336e-01" nType="0">
            <Node pos="l" depth="3" NCoef="0" IVar="8" Cut="3.1256493926048279e-01" cType="1" res="-1.7006108537316322e-03" rms="2.8975763916969299e-01" purity="3.9005914330482483e-01" nType="0">
              <Node pos="l" depth="4" NCoef="0" IVar="7" Cut="2.2254076004028320e+00" cType="1" res="-8.6581502109766006e-03" rms="2.7610397338867188e-01" purity="2.6775082945823669e-01" nType="0">
                <Node pos="l" depth="5" NCoef="0" IVar="-1" Cut="0.0000000000000000e+00" cType="1" res="-7.1207471191883087e-03" rms="2.9045775532722473e-01" purity="2.5591892004013062e-01" nType="-99"/>
                <Node pos="r" depth="5" NCoef="0" IVar="-1" Cut="0.0000000000000000e+00" cType="1" res="-6.4427446341142058e-04" rms="2.4560913443565369e-01" purity="2.9077181220054626e-01" nType="-99"/>
              </Node>
              <Node pos="r" depth="4" NCoef="0" IVar="0" Cut="1.0975610017776489e+00" cType="1" res="5.8824848383665085e-03" rms="3.0375972390174866e-01" purity="5.2336430549621582e-01" nType="0">
                <Node pos="l" depth="5" NCoef="0" IVar="-1" Cut="0.0000000000000000e+00" cType="1" res="-5.7901972904801369e-03" rms="2.6554900407791138e-01" purity="1.8810656666755676e-01" nType="-99"/>
                <Node pos="r" depth="5" NCoef="0" IVar="-1" Cut="0.0000000000000000e+00" cType="1" res="5.9853522107005119e-03" rms="3.1985345482826233e-01" purity="6.8068337440490723e-01" nType="-99"/>
              </Node>
            </Node>
            <Node pos="r" depth="3" NCoef="0" IVar="-1" Cut="0.0000000000000000e+00" cType="1" res="-1.1838439851999283e-02" rms="3.3424451947212219e-01" purity="2.8064766526222229e-01" nType="-99"/>
          </Node>
        </Node>
      </Node>
    </BinaryTree>
    <BinaryTree type="DecisionTree" boostWeight="1.0000000000000000e+00" itree="93">
      <Node pos="s" depth="0" NCoef="0" IVar="4" Cut="4.6891162872314453e+01" cType="1" res="-8.6587184341624379e-04" rms="2.9935362935066223e-01" purity="5.0024342536926270e-01" nType="0">
        <Node pos="l" depth="1" NCoef="0" IVar="4" Cut="3.7549491882324219e+01" cType="1" res="-2.4223441258072853e-02" rms="3.1063768267631531e-01" purity="1.7894966900348663e-01" nType="0">
          <Node pos="l" depth="2" NCoef="0" IVar="-1" Cut="0.0000000000000000e+00" cType="1" res="-1.9658450037240982e-02" rms="2.9446399211883545e-01" purity="1.3528247177600861e-01" nType="-99"/>
          <Node pos="r" depth="2" NCoef="0" IVar="-1" Cut="0.0000000000000000e+00" cType="1" res="-3.5930830053985119e-03" rms="3.2483139634132385e-01" purity="2.2143739461898804e-01" nType="-99"/>
        </Node>
        <Node pos="r" depth="1" NCoef="0" IVar="1" Cut="1.0975610017776489e+00" cType="1" res="1.5000176790636033e-04" rms="2.9881176352500916e-01" purity="5.1421719789505005e-01" nType="0">
          <Node pos="l" depth="2" NCoef="0" IVar="5" Cut="9.5056190490722656e+01" cType="1" res="-5.9863771311938763e-03" rms="3.0935674905776978e-01" purity="2.6411744952201843e-01" nType="0">
            <Node pos="l" depth="3" NCoef="0" IVar="3" Cut="4.0243902206420898e+00" cType="1" res="-1.9603825639933348e-03" rms="3.3898127079010010e-01" purity="3.5448861122131348e-01" nType="0">
              <Node pos="l" depth="4" NCoef="0" IVar="5" Cut="7.2792243957519531e+01" cType="1" res="1.4158813282847404e-03" rms="3.4594905376434326e-01" purity="3.9093545079231262e-01" nType="0">
                <Node pos="l" depth="5" NCoef="0" IVar="-1" Cut="0.0000000000000000e+00" cType="1" res="-3.1590100843459368e-03" rms="3.4342104196548462e-01" purity="2.7380326390266418e-01" nType="-99"/>
                <Node pos="r" depth="5" NCoef="0" IVar="-1" Cut="0.0000000000000000e+00" cType="1" res="3.6969110369682312e-03" rms="3.4804701805114746e-01" purity="4.9881544709205627e-01" nType="-99"/>
              </Node>
              <Node pos="r" depth="4" NCoef="0" IVar="-1" Cut="0.0000000000000000e+00" cType="1" res="-1.1695702560245991e-02" rms="2.9255115985870361e-01" purity="1.3426211476325989e-01" nType="-99"/>
            </Node>
            <Node pos="r" depth="3" NCoef="0" IVar="3" Cut="4.0243902206420898e+00" cType="1" res="-1.0824321769177914e-02" rms="2.6940393447875977e-01" purity="1.5552054345607758e-01" nType="0">
              <Node pos="l" depth="4" NCoef="0" IVar="2" Cut="4.0243902206420898e+00" cType="1" res="-1.4500365592539310e-02" rms="2.7339395880699158e-01" purity="1.6928265988826752e-01" nType="0">
                <Node pos="l" depth="5" NCoef="0" IVar="-1" Cut="0.0000000000000000e+00" cType="1" res="-8.9496551081538200e-03" rms="3.0503484606742859e-01" purity="2.2825749218463898e-01" nType="-99"/>
                <Node pos="r" depth="5" NCoef="0" IVar="-1" Cut="0.0000000000000000e+00" cType="1" res="-5.8625987730920315e-03" rms="1.8580612540245056e-01" purity="4.0145736187696457e-02" nType="-99"/>
              </Node>
              <Node pos="r" depth="4" NCoef="0" IVar="2" Cut="1.0975610017776489e+00" cType="1" res="-5.6540455261711031e-05" rms="2.5705838203430176e-01" purity="1.1520884186029434e-01" nType="0">
                <Node pos="l" depth="5" NCoef="0" IVar="-1" Cut="0.0000000000000000e+00" cType="1" res="5.4883281700313091e-03" rms="3.1008374691009521e-01" purity="1.7732651531696320e-01" nType="-99"/>
                <Node pos="r" depth="5" NCoef="0" IVar="-1" Cut="0.0000000000000000e+00" cType="1" res="-1.3812631368637085e-02" rms="1.7857323586940765e-01" purity="4.5117851346731186e-02" nType="-99"/>
              </Node>
            </Node>
          </Node>
          <Node pos="r" depth="2" NCoef="0" IVar="6" Cut="5.3636950254440308e-01" cType="1" res="4.6955444850027561e-03" rms="2.9067054390907288e-01" purity="6.9947940111160278e-01" nType="0">
            <Node pos="l" depth="3" NCoef="0" IVar="7" Cut="1.0964553356170654e+00" cType="1" res="-1.7487909644842148e-02" rms="3.2638987898826599e-01" purity="4.6828445792198181e-01" nType="0">
              <Node pos="l" depth="4" NCoef="0" IVar="-1" Cut="0.0000000000000000e+00" cType="1" res="-1.0596572421491146e-02" rms="3.4292659163475037e-01" purity="5.0326335430145264e-01" nType="-99"/>
              <Node pos="r" depth="4" NCoef="0" IVar="-1" Cut="0.0000000000000000e+00" cType="1" res="-4.2075738310813904e-03" rms="3.0916994810104370e-01" purity="4.3408182263374329e-01" nType="-99"/>
            </Node>
            <Node pos="r" depth="3" NCoef="0" IVar="9" Cut="3.0366981029510498e-01" cType="1" res="6.5262126736342907e-03" rms="2.8744822740554810e-01" purity="7.1855854988098145e-01" nType="0">
              <Node pos="l" depth="4" NCoef="0" IVar="7" Cut="2.5832824707031250e+00" cType="1" res="-1.5316245844587684e-03" rms="3.1722795963287354e-01" purity="5.7188469171524048e-01" nType="0">
                <Node pos="l" depth="5" NCoef="0" IVar="-1" Cut="0.0000000000000000e+00" cType="1" res="-3.2437252812087536e-03" rms="3.3062618970870972e-01" purity="5.5193740129470825e-01" nType="-99"/>
                <Node pos="r" depth="5" NCoef="0" IVar="-1" Cut="0.0000000000000000e+00" cType="1" res="7.0418757386505604e-03" rms="2.7653262019157410e-01" purity="6.2660038471221924e-01" nType="-99"/>
              </Node>
              <Node pos="r" depth="4" NCoef="0" IVar="3" Cut="4.0243902206420898e+00" cType="1" res="1.1802230961620808e-02" rms="2.6601818203926086e-01" purity="8.1459593772888184e-01" nType="0">
                <Node pos="l" depth="5" NCoef="0" IVar="-1" Cut="0.0000000000000000e+00" cType="1" res="8.6213648319244385e-03" rms="2.5895318388938904e-01" purity="8.3917635679244995e-01" nType="-99"/>
                <Node pos="r" depth="5" NCoef="0" IVar="-1" Cut="0.0000000000000000e+00" cType="1" res="-4.8214881680905819e-03" rms="3.3377853035926819e-01" purity="5.4092240333557129e-01" nType="-99"/>
              </Node>
            </Node>
          </Node>
        </Node>
      </Node>
    </BinaryTree>
    <BinaryTree type="DecisionTree" boostWeight="1.0000000000000000e+00" itree="94">
      <Node pos="s" depth="0" NCoef="0" IVar="4" Cut="8.7656394958496094e+01" cType="1" res="1.3996572233736515e-03" rms="3.0205187201499939e-01" purity="5.0193619728088379e-01" nType="0">
        <Node pos="l" depth="1" NCoef="0" IVar="9" Cut="5.9996926784515381e-01" cType="1" res="-8.0490643158555031e-03" rms="3.2645034790039062e-01" purity="3.1908482313156128e-01" nType="0">
          <Node pos="l" depth="2" NCoef="0" IVar="4" Cut="6.0080455780029297e+01" cType="1" res="-1.1616899631917477e-02" rms="3.1977972388267517e-01" purity="2.9868516325950623e-01" nType="0">
            <Node pos="l" depth="3" NCoef="0" IVar="1" Cut="1.0975610017776489e+00" cType="1" res="-2.2243568673729897e-02" rms="3.0691093206405640e-01" purity="1.8346498906612396e-01" nType="0">
              <Node pos="l" depth="4" NCoef="0" IVar="5" Cut="9.5453796386718750e+01" cType="1" res="-1.2345018796622753e-02" rms="2.8624397516250610e-01" purity="1.5318785607814789e-01" nType="0">
                <Node pos="l" depth="5" NCoef="0" IVar="-1" Cut="0.0000000000000000e+00" cType="1" res="-7.8651476651430130e-03" rms="3.2203346490859985e-01" purity="2.2186966240406036e-01" nType="-99"/>
                <Node pos="r" depth="5" NCoef="0" IVar="-1" Cut="0.0000000000000000e+00" cType="1" res="-4.0491279214620590e-03" rms="2.4132905900478363e-01" purity="7.8755170106887817e-02" nType="-99"/>
              </Node>
              <Node pos="r" depth="4" NCoef="0" IVar="-1" Cut="0.0000000000000000e+00" cType="1" res="-1.5611605718731880e-02" rms="3.4619694948196411e-01" purity="2.4847146868705750e-01" nType="-99"/>
            </Node>
            <Node pos="r" depth="3" NCoef="0" IVar="7" Cut="2.0364491939544678e+00" cType="1" res="-6.0151373036205769e-03" rms="3.2621991634368896e-01" purity="3.5942253470420837e-01" nType="0">
              <Node pos="l" depth="4" NCoef="0" IVar="4" Cut="7.4204788208007812e+01" cType="1" res="-1.1344090104103088e-02" rms="3.3827894926071167e-01" purity="3.8197287917137146e-01" nType="0">
                <Node pos="l" depth="5" NCoef="0" IVar="-1" Cut="0.0000000000000000e+00" cType="1" res="-7.9520931467413902e-03" rms="3.3954629302024841e-01" purity="2.9776605963706970e-01" nType="-99"/>
                <Node pos="r" depth="5" NCoef="0" IVar="-1" Cut="0.0000000000000000e+00" cType="1" res="-2.4912904482334852e-03" rms="3.3730196952819824e-01" purity="4.3922373652458191e-01" nType="-99"/>
              </Node>
              <Node pos="r" depth="4" NCoef="0" IVar="-1" Cut="0.0000000000000000e+00" cType="1" res="4.6698637306690216e-03" rms="2.8827685117721558e-01" purity="2.9469597339630127e-01" nType="-99"/>
            </Node>
          </Node>
          <Node pos="r" depth="2" NCoef="0" IVar="6" Cut="1.3026130199432373e+00" cType="1" res="7.6097068376839161e-03" rms="3.5381928086280823e-01" purity="4.0861630439758301e-01" nType="0">
            <Node pos="l" depth="3" NCoef="0" IVar="-1" Cut="0.0000000000000000e+00" cType="1" res="-2.0707648945972323e-04" rms="3.6309441924095154e-01" purity="3.7435260415077209e-01" nType="-99"/>
            <Node pos="r" depth="3" NCoef="0" IVar="-1" Cut="0.0000000000000000e+00" cType="1" res="5.8133266866207123e-03" rms="3.4475514292716980e-01" purity="4.4062265753746033e-01" nType="-99"/>
          </Node>
        </Node>
        <Node pos="r" depth="1" NCoef="0" IVar="0" Cut="3.0487804412841797e+00" cType="1" res="4.1393656283617020e-03" rms="2.9454308748245239e-01" purity="5.5495488643646240e-01" nType="0">
          <Node pos="l" depth="2" NCoef="0" IVar="5" Cut="7.3408180236816406e+01" cType="1" res="-2.0755706354975700e-03" rms="2.7811586856842041e-01" purity="3.2818982005119324e-01" nType="0">
            <Node pos="l" depth="3" NCoef="0" IVar="7" Cut="1.3615651130676270e+00" cType="1" res="-1.1671926826238632e-02" rms="3.0031952261924744e-01" purity="2.8615522384643555e-01" nType="0">
              <Node pos="l" depth="4" NCoef="0" IVar="7" Cut="5.6454658508300781e-01" cType="1" res="-4.9503799527883530e-03" rms="3.2345655560493469e-01" purity="3.4153091907501221e-01" nType="0">
                <Node pos="l" depth="5" NCoef="0" IVar="-1" Cut="0.0000000000000000e+00" cType="1" res="-5.9199053794145584e-03" rms="3.2233527302742004e-01" purity="3.5891318321228027e-01" nType="-99"/>
                <Node pos="r" depth="5" NCoef="0" IVar="-1" Cut="0.0000000000000000e+00" cType="1" res="9.3184650177136064e-04" rms="3.2429188489913940e-01" purity="3.2608813047409058e-01" nType="-99"/>
              </Node>
              <Node pos="r" depth="4" NCoef="0" IVar="-1" Cut="0.0000000000000000e+00" cType="1" res="-1.2938164174556732e-02" rms="2.6140242815017700e-01" purity="2.0292995870113373e-01" nType="-99"/>
            </Node>
            <Node pos="r" depth="3" NCoef="0" IVar="5" Cut="9.6640052795410156e+01" cType="1" res="1.2589400867000222e-03" rms="2.6989358663558960e-01" purity="3.4279584884643555e-01" nType="0">
              <Node pos="l" depth="4" NCoef="0" IVar="7" Cut="1.8617150783538818e+00" cType="1" res="9.4181969761848450e-03" rms="2.9142594337463379e-01" purity="5.3083533048629761e-01" nType="0">
                <Node pos="l" depth="5" NCoef="0" IVar="-1" Cut="0.0000000000000000e+00" cType="1" res="4.4477262417785823e-04" rms="2.9426240921020508e-01" purity="5.4694503545761108e-01" nType="-99"/>
                <Node pos="r" depth="5" NCoef="0" IVar="-1" Cut="0.0000000000000000e+00" cType="1" res="1.3908375054597855e-02" rms="2.8404450416564941e-01" purity="4.9476751685142517e-01" nType="-99"/>
              </Node>
              <Node pos="r" depth="4" NCoef="0" IVar="2" Cut="1.0975610017776489e+00" cType="1" res="-4.5980024151504040e-03" rms="2.5314900279045105e-01" purity="2.0781585574150085e-01" nType="0">
                <Node pos="l" depth="5" NCoef="0" IVar="-1" Cut="0.0000000000000000e+00" cType="1" res="5.9816607972607017e-04" rms="2.9110154509544373e-01" purity="3.0269870162010193e-01" nType="-99"/>
                <Node pos="r" depth="5" NCoef="0" IVar="-1" Cut="0.0000000000000000e+00" cType="1" res="-1.1587035842239857e-02" rms="1.9657653570175171e-01" purity="9.1356605291366577e-02" nType="-99"/>
              </Node>
            </Node>
          </Node>
          <Node pos="r" depth="2" NCoef="0" IVar="5" Cut="1.3845375061035156e+02" cType="1" res="8.4289768710732460e-03" rms="3.0529248714447021e-01" purity="7.1147048473358154e-01" nType="0">
            <Node pos="l" depth="3" NCoef="0" IVar="4" Cut="1.0349508666992188e+02" cType="1" res="9.8317777737975121e-03" rms="3.0361437797546387e-01" purity="7.2936332225799561e-01" nType="0">
              <Node pos="l" depth="4" NCoef="0" IVar="-1" Cut="0.0000000000000000e+00" cType="1" res="-5.0230300985276699e-04" rms="3.0925071239471436e-01" purity="7.6713871955871582e-01" nType="-99"/>
              <Node pos="r" depth="4" NCoef="0" IVar="4" Cut="1.2850817871093750e+02" cType="1" res="1.2159002013504505e-02" rms="3.0234152078628540e-01" purity="7.2126412391662598e-01" nType="0">
                <Node pos="l" depth="5" NCoef="0" IVar="-1" Cut="0.0000000000000000e+00" cType="1" res="9.3649988994002342e-03" rms="2.6905995607376099e-01" purity="8.5125291347503662e-01" nType="-99"/>
                <Node pos="r" depth="5" NCoef="0" IVar="-1" Cut="0.0000000000000000e+00" cType="1" res="3.2493215985596180e-03" rms="3.3826616406440735e-01" purity="5.6371462345123291e-01" nType="-99"/>
              </Node>
            </Node>
            <Node pos="r" depth="3" NCoef="0" IVar="-1" Cut="0.0000000000000000e+00" cType="1" res="-3.6184187047183514e-03" rms="3.2430788874626160e-01" purity="4.9644041061401367e-01" nType="-99"/>
          </Node>
        </Node>
      </Node>
    </BinaryTree>
    <BinaryTree type="DecisionTree" boostWeight="1.0000000000000000e+00" itree="95">
      <Node pos="s" depth="0" NCoef="0" IVar="8" Cut="2.4027796089649200e-01" cType="1" res="1.3036214513704181e-03" rms="3.0154711008071899e-01" purity="5.0224679708480835e-01" nType="0">
        <Node pos="l" depth="1" NCoef="0" IVar="7" Cut="3.4575088024139404e+00" cType="1" res="-5.5917645804584026e-03" rms="2.8524512052536011e-01" purity="3.3343422412872314e-01" nType="0">
          <Node pos="l" depth="2" NCoef="0" IVar="8" Cut="1.8185229599475861e-01" cType="1" res="-9.8881879821419716e-03" rms="2.8713533282279968e-01" purity="3.3717015385627747e-01" nType="0">
            <Node pos="l" depth="3" NCoef="0" IVar="7" Cut="9.2762494087219238e-01" cType="1" res="-1.8501151353120804e-02" rms="2.7678370475769043e-01" purity="2.5933554768562317e-01" nType="0">
              <Node pos="l" depth="4" NCoef="0" IVar="-1" Cut="0.0000000000000000e+00" cType="1" res="2.2918530739843845e-03" rms="2.9393735527992249e-01" purity="2.5930157303810120e-01" nType="-99"/>
              <Node pos="r" depth="4" NCoef="0" IVar="9" Cut="4.1023063659667969e-01" cType="1" res="-2.6391554623842239e-02" rms="2.7003169059753418e-01" purity="2.5934752821922302e-01" nType="0">
                <Node pos="l" depth="5" NCoef="0" IVar="-1" Cut="0.0000000000000000e+00" cType="1" res="-2.2236401215195656e-02" rms="2.4698267877101898e-01" purity="2.2078384459018707e-01" nType="-99"/>
                <Node pos="r" depth="5" NCoef="0" IVar="-1" Cut="0.0000000000000000e+00" cType="1" res="-4.9843899905681610e-03" rms="3.0322721600532532e-01" purity="3.2230517268180847e-01" nType="-99"/>
              </Node>
            </Node>
            <Node pos="r" depth="3" NCoef="0" IVar="5" Cut="1.2420187377929688e+02" cType="1" res="1.0240558767691255e-03" rms="2.9938179254531860e-01" purity="4.3578317761421204e-01" nType="0">
              <Node pos="l" depth="4" NCoef="0" IVar="1" Cut="1.0975610017776489e+00" cType="1" res="6.0398206114768982e-03" rms="3.0718308687210083e-01" purity="4.9834060668945312e-01" nType="0">
                <Node pos="l" depth="5" NCoef="0" IVar="-1" Cut="0.0000000000000000e+00" cType="1" res="-1.4559130650013685e-03" rms="3.1602826714515686e-01" purity="2.4056674540042877e-01" nType="-99"/>
                <Node pos="r" depth="5" NCoef="0" IVar="-1" Cut="0.0000000000000000e+00" cType="1" res="6.4927055500447750e-03" rms="3.0009248852729797e-01" purity="6.9446521997451782e-01" nType="-99"/>
              </Node>
              <Node pos="r" depth="4" NCoef="0" IVar="-1" Cut="0.0000000000000000e+00" cType="1" res="-1.0987987741827965e-02" rms="2.6586708426475525e-01" purity="1.9170072674751282e-01" nType="-99"/>
            </Node>
          </Node>
          <Node pos="r" depth="2" NCoef="0" IVar="-1" Cut="0.0000000000000000e+00" cType="1" res="1.2889615260064602e-02" rms="2.7053788304328918e-01" purity="3.0847847461700439e-01" nType="-99"/>
        </Node>
        <Node pos="r" depth="1" NCoef="0" IVar="8" Cut="1.0394620895385742e+00" cType="1" res="4.0184026584029198e-03" rms="3.0768612027168274e-01" purity="5.6870996952056885e-01" nType="0">
          <Node pos="l" depth="2" NCoef="0" IVar="4" Cut="4.6891162872314453e+01" cType="1" res="4.8886686563491821e-03" rms="3.0646386742591858e-01" purity="5.7690793275833130e-01" nType="0">
            <Node pos="l" depth="3" NCoef="0" IVar="-1" Cut="0.0000000000000000e+00" cType="1" res="-7.7634486369788647e-03" rms="3.2548817992210388e-01" purity="1.9254775345325470e-01" nType="-99"/>
            <Node pos="r" depth="3" NCoef="0" IVar="7" Cut="1.7602900266647339e+00" cType="1" res="6.0408799909055233e-03" rms="3.0541780591011047e-01" purity="5.9649538993835449e-01" nType="0">
              <Node pos="l" depth="4" NCoef="0" IVar="8" Cut="4.7418549656867981e-01" cType="1" res="3.4932519774883986e-03" rms="3.1127047538757324e-01" purity="6.1264175176620483e-01" nType="0">
                <Node pos="l" depth="5" NCoef="0" IVar="-1" Cut="0.0000000000000000e+00" cType="1" res="-2.0169871859252453e-03" rms="3.0397072434425354e-01" purity="5.9728032350540161e-01" nType="-99"/>
                <Node pos="r" depth="5" NCoef="0" IVar="-1" Cut="0.0000000000000000e+00" cType="1" res="7.1352557279169559e-03" rms="3.2246795296669006e-01" purity="6.3775122165679932e-01" nType="-99"/>
              </Node>
              <Node pos="r" depth="4" NCoef="0" IVar="9" Cut="1.9684760272502899e-01" cType="1" res="1.6794733703136444e-02" rms="2.7910888195037842e-01" purity="5.2833986282348633e-01" nType="0">
                <Node pos="l" depth="5" NCoef="0" IVar="-1" Cut="0.0000000000000000e+00" cType="1" res="-3.2699140720069408e-03" rms="2.9863950610160828e-01" purity="2.9827046394348145e-01" nType="-99"/>
                <Node pos="r" depth="5" NCoef="0" IVar="-1" Cut="0.0000000000000000e+00" cType="1" res="2.0982766523957253e-02" rms="2.5830894708633423e-01" purity="7.3675167560577393e-01" nType="-99"/>
              </Node>
            </Node>
          </Node>
          <Node pos="r" depth="2" NCoef="0" IVar="-1" Cut="0.0000000000000000e+00" cType="1" res="-1.0839718393981457e-02" rms="3.4443193674087524e-01" purity="2.9770228266716003e-01" nType="-99"/>
        </Node>
      </Node>
    </BinaryTree>
    <BinaryTree type="DecisionTree" boostWeight="1.0000000000000000e+00" itree="96">
      <Node pos="s" depth="0" NCoef="0" IVar="5" Cut="4.0936363220214844e+01" cType="1" res="-3.2571065821684897e-04" rms="3.0066823959350586e-01" purity="5.0079512596130371e-01" nType="0">
        <Node pos="l" depth="1" NCoef="0" IVar="4" Cut="1.1084784698486328e+02" cType="1" res="-1.8475053831934929e-02" rms="3.4434536099433899e-01" purity="3.2901924848556519e-01" nType="0">
          <Node pos="l" depth="2" NCoef="0" IVar="-1" Cut="0.0000000000000000e+00" cType="1" res="-1.3336428441107273e-02" rms="3.4767970442771912e-01" purity="3.1982168555259705e-01" nType="-99"/>
          <Node pos="r" depth="2" NCoef="0" IVar="-1" Cut="0.0000000000000000e+00" cType="1" res="-1.5595311997458339e-03" rms="3.4076729416847229e-01" purity="3.3686798810958862e-01" nType="-99"/>
        </Node>
        <Node pos="r" depth="1" NCoef="0" IVar="1" Cut="3.0487804412841797e+00" cType="1" res="5.6880625197663903e-04" rms="2.9832172393798828e-01" purity="5.0926142930984497e-01" nType="0">
          <Node pos="l" depth="2" NCoef="0" IVar="3" Cut="3.0487804412841797e+00" cType="1" res="-3.0615634750574827e-03" rms="3.0919012427330017e-01" purity="3.2495337724685669e-01" nType="0">
            <Node pos="l" depth="3" NCoef="0" IVar="5" Cut="9.0304122924804688e+01" cType="1" res="-1.1730435071513057e-03" rms="3.1703695654869080e-01" purity="3.7384930253028870e-01" nType="0">
              <Node pos="l" depth="4" NCoef="0" IVar="5" Cut="7.8263198852539062e+01" cType="1" res="4.1643823496997356e-03" rms="3.4028601646423340e-01" purity="4.8888608813285828e-01" nType="0">
                <Node pos="l" depth="5" NCoef="0" IVar="-1" Cut="0.0000000000000000e+00" cType="1" res="-9.0188533067703247e-04" rms="3.4741973876953125e-01" purity="4.1090178489685059e-01" nType="-99"/>
                <Node pos="r" depth="5" NCoef="0" IVar="-1" Cut="0.0000000000000000e+00" cType="1" res="5.7331109419465065e-03" rms="3.2887497544288635e-01" purity="6.0774838924407959e-01" nType="-99"/>
              </Node>
              <Node pos="r" depth="4" NCoef="0" IVar="7" Cut="5.1591807603836060e-01" cType="1" res="-6.9214673712849617e-03" rms="2.8980991244316101e-01" purity="2.4995428323745728e-01" nType="0">
                <Node pos="l" depth="5" NCoef="0" IVar="-1" Cut="0.0000000000000000e+00" cType="1" res="-8.8911037892103195e-03" rms="3.1349858641624451e-01" purity="2.9614236950874329e-01" nType="-99"/>
                <Node pos="r" depth="5" NCoef="0" IVar="-1" Cut="0.0000000000000000e+00" cType="1" res="-1.7946239095181227e-03" rms="2.8172650933265686e-01" purity="2.3521144688129425e-01" nType="-99"/>
              </Node>
            </Node>
            <Node pos="r" depth="3" NCoef="0" IVar="5" Cut="1.3095986938476562e+02" cType="1" res="-9.5737772062420845e-03" rms="2.8035545349121094e-01" purity="1.5634486079216003e-01" nType="0">
              <Node pos="l" depth="4" NCoef="0" IVar="0" Cut="2.0731706619262695e+00" cType="1" res="-1.6943955793976784e-02" rms="2.8182452917098999e-01" purity="1.5126398205757141e-01" nType="0">
                <Node pos="l" depth="5" NCoef="0" IVar="-1" Cut="0.0000000000000000e+00" cType="1" res="-6.3628666102886200e-03" rms="2.1633490920066833e-01" purity="5.9000268578529358e-02" nType="-99"/>
                <Node pos="r" depth="5" NCoef="0" IVar="-1" Cut="0.0000000000000000e+00" cType="1" res="-1.1328808963298798e-02" rms="3.5188019275665283e-01" purity="2.7783212065696716e-01" nType="-99"/>
              </Node>
              <Node pos="r" depth="4" NCoef="0" IVar="-1" Cut="0.0000000000000000e+00" cType="1" res="1.0010975413024426e-02" rms="2.7395090460777283e-01" purity="1.7333222925662994e-01" nType="-99"/>
            </Node>
          </Node>
          <Node pos="r" depth="2" NCoef="0" IVar="4" Cut="1.7462590026855469e+02" cType="1" res="4.7427187673747540e-03" rms="2.8525781631469727e-01" purity="7.2116416692733765e-01" nType="0">
            <Node pos="l" depth="3" NCoef="0" IVar="6" Cut="2.6818411350250244e+00" cType="1" res="6.6386992111802101e-03" rms="2.8451478481292725e-01" purity="7.6423221826553345e-01" nType="0">
              <Node pos="l" depth="4" NCoef="0" IVar="2" Cut="3.0487804412841797e+00" cType="1" res="2.5187069550156593e-03" rms="3.0423375964164734e-01" purity="7.1033596992492676e-01" nType="0">
                <Node pos="l" depth="5" NCoef="0" IVar="-1" Cut="0.0000000000000000e+00" cType="1" res="2.6729532983154058e-03" rms="3.0460014939308167e-01" purity="7.7309024333953857e-01" nType="-99"/>
                <Node pos="r" depth="5" NCoef="0" IVar="-1" Cut="0.0000000000000000e+00" cType="1" res="-9.3261515721678734e-03" rms="3.0036726593971252e-01" purity="2.1743243932723999e-01" nType="-99"/>
              </Node>
              <Node pos="r" depth="4" NCoef="0" IVar="-1" Cut="0.0000000000000000e+00" cType="1" res="9.7784195095300674e-03" rms="2.4325950443744659e-01" purity="8.6489170789718628e-01" nType="-99"/>
            </Node>
            <Node pos="r" depth="3" NCoef="0" IVar="-1" Cut="0.0000000000000000e+00" cType="1" res="-8.4101306274533272e-03" rms="2.9301777482032776e-01" purity="2.0848937332630157e-01" nType="-99"/>
          </Node>
        </Node>
      </Node>
    </BinaryTree>
    <BinaryTree type="DecisionTree" boostWeight="1.0000000000000000e+00" itree="97">
      <Node pos="s" depth="0" NCoef="0" IVar="8" Cut="5.0340145826339722e-01" cType="1" res="-5.0423742504790425e-04" rms="3.0037659406661987e-01" purity="4.9984326958656311e-01" nType="0">
        <Node pos="l" depth="1" NCoef="0" IVar="7" Cut="8.5537922382354736e-01" cType="1" res="-2.9591456986963749e-03" rms="2.9159551858901978e-01" purity="4.8650315403938293e-01" nType="0">
          <Node pos="l" depth="2" NCoef="0" IVar="9" Cut="4.8106631636619568e-01" cType="1" res="-1.1486444622278214e-02" rms="3.0672082304954529e-01" purity="5.2110773324966431e-01" nType="0">
            <Node pos="l" depth="3" NCoef="0" IVar="9" Cut="1.8836823105812073e-01" cType="1" res="-2.5741983205080032e-02" rms="3.1001228094100952e-01" purity="4.1459459066390991e-01" nType="0">
              <Node pos="l" depth="4" NCoef="0" IVar="-1" Cut="0.0000000000000000e+00" cType="1" res="9.2531932750716805e-04" rms="2.6456826925277710e-01" purity="1.1839587986469269e-01" nType="-99"/>
              <Node pos="r" depth="4" NCoef="0" IVar="4" Cut="1.0571051788330078e+02" cType="1" res="-3.0010093003511429e-02" rms="3.1639698147773743e-01" purity="4.6147534251213074e-01" nType="0">
                <Node pos="l" depth="5" NCoef="0" IVar="-1" Cut="0.0000000000000000e+00" cType="1" res="-1.9880626350641251e-02" rms="3.1758111715316772e-01" purity="4.0048342943191528e-01" nType="-99"/>
                <Node pos="r" depth="5" NCoef="0" IVar="-1" Cut="0.0000000000000000e+00" cType="1" res="-1.1566658504307270e-02" rms="3.1548792123794556e-01" purity="4.9631196260452271e-01" nType="-99"/>
              </Node>
            </Node>
            <Node pos="r" depth="3" NCoef="0" IVar="6" Cut="1.5324879884719849e+00" cType="1" res="8.2802558317780495e-03" rms="3.0098244547843933e-01" purity="6.6879868507385254e-01" nType="0">
              <Node pos="l" depth="4" NCoef="0" IVar="-1" Cut="0.0000000000000000e+00" cType="1" res="-2.8572464361786842e-03" rms="3.3331182599067688e-01" purity="5.1825773715972900e-01" nType="-99"/>
              <Node pos="r" depth="4" NCoef="0" IVar="5" Cut="9.3781257629394531e+01" cType="1" res="1.4624455943703651e-02" rms="2.8569641709327698e-01" purity="7.3365318775177002e-01" nType="0">
                <Node pos="l" depth="5" NCoef="0" IVar="-1" Cut="0.0000000000000000e+00" cType="1" res="1.0848655365407467e-02" rms="2.8370794653892517e-01" purity="8.0141192674636841e-01" nType="-99"/>
                <Node pos="r" depth="5" NCoef="0" IVar="-1" Cut="0.0000000000000000e+00" cType="1" res="3.0134583357721567e-03" rms="2.8871133923530579e-01" purity="6.2262409925460815e-01" nType="-99"/>
              </Node>
            </Node>
          </Node>
          <Node pos="r" depth="2" NCoef="0" IVar="8" Cut="1.5976299345493317e-01" cType="1" res="1.7754228319972754e-03" rms="2.8273755311965942e-01" purity="4.6728980541229248e-01" nType="0">
            <Node pos="l" depth="3" NCoef="0" IVar="7" Cut="3.4980151653289795e+00" cType="1" res="-1.6899028792977333e-02" rms="2.6711428165435791e-01" purity="2.2638431191444397e-01" nType="0">
              <Node pos="l" depth="4" NCoef="0" IVar="9" Cut="2.6854363083839417e-01" cType="1" res="-2.4713559076189995e-02" rms="2.6701909303665161e-01" purity="2.1924762427806854e-01" nType="0">
                <Node pos="l" depth="5" NCoef="0" IVar="-1" Cut="0.0000000000000000e+00" cType="1" res="-3.0036786571145058e-02" rms="2.2090204060077667e-01" purity="1.2482660263776779e-01" nType="-99"/>
                <Node pos="r" depth="5" NCoef="0" IVar="-1" Cut="0.0000000000000000e+00" cType="1" res="-9.2859705910086632e-03" rms="2.8547969460487366e-01" purity="2.6267412304878235e-01" nType="-99"/>
              </Node>
              <Node pos="r" depth="4" NCoef="0" IVar="-1" Cut="0.0000000000000000e+00" cType="1" res="4.4249794445931911e-03" rms="2.6593446731567383e-01" purity="2.4869658052921295e-01" nType="-99"/>
            </Node>
            <Node pos="r" depth="3" NCoef="0" IVar="1" Cut="1.0975610017776489e+00" cType="1" res="6.7626312375068665e-03" rms="2.8656011819839478e-01" purity="5.3162616491317749e-01" nType="0">
              <Node pos="l" depth="4" NCoef="0" IVar="9" Cut="2.5899305939674377e-01" cType="1" res="-3.0464974697679281e-03" rms="2.9892447590827942e-01" purity="2.6016506552696228e-01" nType="0">
                <Node pos="l" depth="5" NCoef="0" IVar="-1" Cut="0.0000000000000000e+00" cType="1" res="-7.5459843501448631e-03" rms="2.5505933165550232e-01" purity="1.4950184524059296e-01" nType="-99"/>
                <Node pos="r" depth="5" NCoef="0" IVar="-1" Cut="0.0000000000000000e+00" cType="1" res="2.1023766603320837e-03" rms="3.3220466971397400e-01" purity="3.5645318031311035e-01" nType="-99"/>
              </Node>
              <Node pos="r" depth="4" NCoef="0" IVar="4" Cut="7.6852867126464844e+01" cType="1" res="1.3698745518922806e-02" rms="2.7727550268173218e-01" purity="7.2357845306396484e-01" nType="0">
                <Node pos="l" depth="5" NCoef="0" IVar="-1" Cut="0.0000000000000000e+00" cType="1" res="-3.3331038430333138e-03" rms="3.4801658987998962e-01" purity="3.6722913384437561e-01" nType="-99"/>
                <Node pos="r" depth="5" NCoef="0" IVar="-1" Cut="0.0000000000000000e+00" cType="1" res="9.1152489185333252e-03" rms="2.6871865987777710e-01" purity="7.6073068380355835e-01" nType="-99"/>
              </Node>
            </Node>
          </Node>
        </Node>
        <Node pos="r" depth="1" NCoef="0" IVar="7" Cut="1.5277663469314575e+00" cType="1" res="8.5129719227552414e-03" rms="3.3047869801521301e-01" purity="5.4884332418441772e-01" nType="0">
          <Node pos="l" depth="2" NCoef="0" IVar="4" Cut="1.5789553833007812e+02" cType="1" res="1.3177931308746338e-02" rms="3.3343631029129028e-01" purity="5.8750563859939575e-01" nType="0">
            <Node pos="l" depth="3" NCoef="0" IVar="9" Cut="1.9977957010269165e-01" cType="1" res="1.6886187717318535e-02" rms="3.3576223254203796e-01" purity="6.4900183677673340e-01" nType="0">
              <Node pos="l" depth="4" NCoef="0" IVar="-1" Cut="0.0000000000000000e+00" cType="1" res="1.3164345175027847e-02" rms="3.8158646225929260e-01" purity="4.1178917884826660e-01" nType="-99"/>
              <Node pos="r" depth="4" NCoef="0" IVar="8" Cut="6.1115497350692749e-01" cType="1" res="1.3483470305800438e-02" rms="3.2669106125831604e-01" purity="6.9181960821151733e-01" nType="0">
                <Node pos="l" depth="5" NCoef="0" IVar="-1" Cut="0.0000000000000000e+00" cType="1" res="2.8498312458395958e-03" rms="2.9748642444610596e-01" purity="7.2816157341003418e-01" nType="-99"/>
                <Node pos="r" depth="5" NCoef="0" IVar="-1" Cut="0.0000000000000000e+00" cType="1" res="8.4208007901906967e-03" rms="3.5145461559295654e-01" purity="6.5812522172927856e-01" nType="-99"/>
              </Node>
            </Node>
            <Node pos="r" depth="3" NCoef="0" IVar="-1" Cut="0.0000000000000000e+00" cType="1" res="-2.5019890163093805e-03" rms="3.2067292928695679e-01" purity="2.7449694275856018e-01" nType="-99"/>
          </Node>
          <Node pos="r" depth="2" NCoef="0" IVar="-1" Cut="0.0000000000000000e+00" cType="1" res="-1.1475628241896629e-02" rms="3.0602121353149414e-01" purity="2.6804715394973755e-01" nType="-99"/>
        </Node>
      </Node>
    </BinaryTree>
    <BinaryTree type="DecisionTree" boostWeight="1.0000000000000000e+00" itree="98">
      <Node pos="s" depth="0" NCoef="0" IVar="4" Cut="1.2813465881347656e+02" cType="1" res="5.3496722830459476e-04" rms="3.0079826712608337e-01" purity="5.0078111886978149e-01" nType="0">
        <Node pos="l" depth="1" NCoef="0" IVar="4" Cut="1.0831899261474609e+02" cType="1" res="3.4655313938856125e-03" rms="3.0539062619209290e-01" purity="5.6556737422943115e-01" nType="0">
          <Node pos="l" depth="2" NCoef="0" IVar="7" Cut="3.1363887786865234e+00" cType="1" res="-1.5480874571949244e-03" rms="3.1818935275077820e-01" purity="4.6153920888900757e-01" nType="0">
            <Node pos="l" depth="3" NCoef="0" IVar="9" Cut="4.7743991017341614e-01" cType="1" res="-2.9485307168215513e-03" rms="3.2042306661605835e-01" purity="4.7167643904685974e-01" nType="0">
              <Node pos="l" depth="4" NCoef="0" IVar="8" Cut="4.3579140305519104e-01" cType="1" res="-7.0441639982163906e-03" rms="3.1798002123832703e-01" purity="4.2798471450805664e-01" nType="0">
                <Node pos="l" depth="5" NCoef="0" IVar="-1" Cut="0.0000000000000000e+00" cType="1" res="-6.3640689477324486e-03" rms="3.0070313811302185e-01" purity="3.9626041054725647e-01" nType="-99"/>
                <Node pos="r" depth="5" NCoef="0" IVar="-1" Cut="0.0000000000000000e+00" cType="1" res="1.1592208174988627e-03" rms="3.4678751230239868e-01" purity="4.8527207970619202e-01" nType="-99"/>
              </Node>
              <Node pos="r" depth="4" NCoef="0" IVar="6" Cut="2.2220940589904785e+00" cType="1" res="5.3768814541399479e-03" rms="3.2517367601394653e-01" purity="5.6049096584320068e-01" nType="0">
                <Node pos="l" depth="5" NCoef="0" IVar="-1" Cut="0.0000000000000000e+00" cType="1" res="-7.8295666025951505e-04" rms="3.3633854985237122e-01" purity="5.0057828426361084e-01" nType="-99"/>
                <Node pos="r" depth="5" NCoef="0" IVar="-1" Cut="0.0000000000000000e+00" cType="1" res="8.5220364853739738e-03" rms="3.0383676290512085e-01" purity="6.6724669933319092e-01" nType="-99"/>
              </Node>
            </Node>
            <Node pos="r" depth="3" NCoef="0" IVar="-1" Cut="0.0000000000000000e+00" cType="1" res="9.9446205422282219e-03" rms="2.8315261006355286e-01" purity="3.1492847204208374e-01" nType="-99"/>
          </Node>
          <Node pos="r" depth="2" NCoef="0" IVar="1" Cut="1.0975610017776489e+00" cType="1" res="1.1994501575827599e-02" rms="2.8208318352699280e-01" purity="7.4253606796264648e-01" nType="0">
            <Node pos="l" depth="3" NCoef="0" IVar="5" Cut="8.8259391784667969e+01" cType="1" res="3.0589788220822811e-03" rms="3.3910134434700012e-01" purity="4.0526399016380310e-01" nType="0">
              <Node pos="l" depth="4" NCoef="0" IVar="-1" Cut="0.0000000000000000e+00" cType="1" res="4.8371432349085808e-03" rms="3.6560702323913574e-01" purity="5.0706654787063599e-01" nType="-99"/>
              <Node pos="r" depth="4" NCoef="0" IVar="-1" Cut="0.0000000000000000e+00" cType="1" res="-3.4147328697144985e-03" rms="3.0948606133460999e-01" purity="3.0173355340957642e-01" nType="-99"/>
            </Node>
            <Node pos="r" depth="3" NCoef="0" IVar="7" Cut="1.4152173995971680e+00" cType="1" res="1.5095751732587814e-02" rms="2.5930833816528320e-01" purity="8.5959309339523315e-01" nType="0">
              <Node pos="l" depth="4" NCoef="0" IVar="-1" Cut="0.0000000000000000e+00" cType="1" res="7.8764744102954865e-03" rms="2.5505694746971130e-01" purity="8.7306976318359375e-01" nType="-99"/>
              <Node pos="r" depth="4" NCoef="0" IVar="-1" Cut="0.0000000000000000e+00" cType="1" res="1.2060656212270260e-02" rms="2.6637619733810425e-01" purity="8.3639073371887207e-01" nType="-99"/>
            </Node>
          </Node>
        </Node>
        <Node pos="r" depth="1" NCoef="0" IVar="0" Cut="2.0731706619262695e+00" cType="1" res="-5.2043423056602478e-03" rms="2.9150962829589844e-01" purity="3.7390157580375671e-01" nType="0">
          <Node pos="l" depth="2" NCoef="0" IVar="5" Cut="7.3911415100097656e+01" cType="1" res="-1.3947619125247002e-02" rms="2.3138998448848724e-01" purity="1.3569784164428711e-01" nType="0">
            <Node pos="l" depth="3" NCoef="0" IVar="-1" Cut="0.0000000000000000e+00" cType="1" res="-1.7921296879649162e-02" rms="2.3024250566959381e-01" purity="9.5042116940021515e-02" nType="-99"/>
            <Node pos="r" depth="3" NCoef="0" IVar="6" Cut="1.2259870767593384e+00" cType="1" res="-1.0247101075947285e-02" rms="2.3168554902076721e-01" purity="1.5020027756690979e-01" nType="0">
              <Node pos="l" depth="4" NCoef="0" IVar="-1" Cut="0.0000000000000000e+00" cType="1" res="-2.1764908451586962e-03" rms="2.2533588111400604e-01" purity="8.0292694270610809e-02" nType="-99"/>
              <Node pos="r" depth="4" NCoef="0" IVar="3" Cut="1.0975610017776489e+00" cType="1" res="-1.3856593519449234e-02" rms="2.3441252112388611e-01" purity="1.8182699382305145e-01" nType="0">
                <Node pos="l" depth="5" NCoef="0" IVar="-1" Cut="0.0000000000000000e+00" cType="1" res="-4.7744782641530037e-03" rms="2.5158685445785522e-01" purity="2.2811271250247955e-01" nType="-99"/>
                <Node pos="r" depth="5" NCoef="0" IVar="-1" Cut="0.0000000000000000e+00" cType="1" res="-2.0581305027008057e-02" rms="2.0016199350357056e-01" purity="1.0030417144298553e-01" nType="-99"/>
              </Node>
            </Node>
          </Node>
          <Node pos="r" depth="2" NCoef="0" IVar="1" Cut="2.0731706619262695e+00" cType="1" res="1.0717561235651374e-03" rms="3.2779470086097717e-01" purity="5.4488897323608398e-01" nType="0">
            <Node pos="l" depth="3" NCoef="0" IVar="4" Cut="1.9055375671386719e+02" cType="1" res="-5.8622434735298157e-03" rms="3.5035610198974609e-01" purity="3.5140675306320190e-01" nType="0">
              <Node pos="l" depth="4" NCoef="0" IVar="5" Cut="8.8005332946777344e+01" cType="1" res="-1.4954604208469391e-02" rms="3.5695722699165344e-01" purity="3.7370344996452332e-01" nType="0">
                <Node pos="l" depth="5" NCoef="0" IVar="-1" Cut="0.0000000000000000e+00" cType="1" res="-2.4054050445556641e-03" rms="3.8472488522529602e-01" purity="4.5689865946769714e-01" nType="-99"/>
                <Node pos="r" depth="5" NCoef="0" IVar="-1" Cut="0.0000000000000000e+00" cType="1" res="-9.5301587134599686e-03" rms="3.2757288217544556e-01" purity="2.9291328787803650e-01" nType="-99"/>
              </Node>
              <Node pos="r" depth="4" NCoef="0" IVar="-1" Cut="0.0000000000000000e+00" cType="1" res="5.2408282645046711e-03" rms="3.3612409234046936e-01" purity="3.0709481239318848e-01" nType="-99"/>
            </Node>
            <Node pos="r" depth="3" NCoef="0" IVar="5" Cut="9.9141601562500000e+01" cType="1" res="8.1224711611866951e-03" rms="3.0297392606735229e-01" purity="7.4162793159484863e-01" nType="0">
              <Node pos="l" depth="4" NCoef="0" IVar="-1" Cut="0.0000000000000000e+00" cType="1" res="6.1917346902191639e-03" rms="2.9119443893432617e-01" purity="7.9931533336639404e-01" nType="-99"/>
              <Node pos="r" depth="4" NCoef="0" IVar="-1" Cut="0.0000000000000000e+00" cType="1" res="-8.6345750605687499e-04" rms="3.3088901638984680e-01" purity="5.9458792209625244e-01" nType="-99"/>
            </Node>
          </Node>
        </Node>
      </Node>
    </BinaryTree>
    <BinaryTree type="DecisionTree" boostWeight="1.0000000000000000e+00" itree="99">
      <Node pos="s" depth="0" NCoef="0" IVar="0" Cut="1.0975610017776489e+00" cType="1" res="2.2648154117632657e-04" rms="3.0104967951774597e-01" purity="5.0016510486602783e-01" nType="0">
        <Node pos="l" depth="1" NCoef="0" IVar="8" Cut="4.8032593727111816e-01" cType="1" res="0.0000000000000000e+00" rms="0.0000000000000000e+00" purity="1.7911572754383087e-01" nType="0">
          <Node pos="l" depth="2" NCoef="0" IVar="6" Cut="1.1493632793426514e+00" cType="1" res="0.0000000000000000e+00" rms="0.0000000000000000e+00" purity="1.6458685696125031e-01" nType="0">
            <Node pos="l" depth="3" NCoef="0" IVar="2" Cut="2.0731706619262695e+00" cType="1" res="0.0000000000000000e+00" rms="0.0000000000000000e+00" purity="6.6795207560062408e-02" nType="0">
              <Node pos="l" depth="4" NCoef="0" IVar="5" Cut="9.5454010009765625e+01" cType="1" res="0.0000000000000000e+00" rms="0.0000000000000000e+00" purity="9.0591497719287872e-02" nType="0">
                <Node pos="l" depth="5" NCoef="0" IVar="-1" Cut="0.0000000000000000e+00" cType="1" res="-2.4753775447607040e-02" rms="2.6178899407386780e-01" purity="1.2629370391368866e-01" nType="-99"/>
                <Node pos="r" depth="5" NCoef="0" IVar="-1" Cut="0.0000000000000000e+00" cType="1" res="-1.2269312515854836e-02" rms="2.0728737115859985e-01" purity="5.5878449231386185e-02" nType="-99"/>
              </Node>
              <Node pos="r" depth="4" NCoef="0" IVar="-1" Cut="0.0000000000000000e+00" cType="1" res="-5.3823888301849365e-03" rms="1.6254696249961853e-01" purity="2.9859699308872223e-02" nType="-99"/>
            </Node>
            <Node pos="r" depth="3" NCoef="0" IVar="4" Cut="1.2849095153808594e+02" cType="1" res="0.0000000000000000e+00" rms="0.0000000000000000e+00" purity="1.9921049475669861e-01" nType="0">
              <Node pos="l" depth="4" NCoef="0" IVar="5" Cut="1.0240434265136719e+02" cType="1" res="0.0000000000000000e+00" rms="0.0000000000000000e+00" purity="2.5116702914237976e-01" nType="0">
                <Node pos="l" depth="5" NCoef="0" IVar="-1" Cut="0.0000000000000000e+00" cType="1" res="2.4289388675242662e-03" rms="3.2592079043388367e-01" purity="3.4458884596824646e-01" nType="-99"/>
                <Node pos="r" depth="5" NCoef="0" IVar="-1" Cut="0.0000000000000000e+00" cType="1" res="-8.8935336098074913e-03" rms="2.3590435087680817e-01" purity="1.1990882456302643e-01" nType="-99"/>
              </Node>
              <Node pos="r" depth="4" NCoef="0" IVar="1" Cut="2.0731706619262695e+00" cType="1" res="0.0000000000000000e+00" rms="0.0000000000000000e+00" purity="1.0603369027376175e-01" nType="0">
                <Node pos="l" depth="5" NCoef="0" IVar="-1" Cut="0.0000000000000000e+00" cType="1" res="-7.7968388795852661e-03" rms="1.9690136611461639e-01" purity="5.3972005844116211e-02" nType="-99"/>
                <Node pos="r" depth="5" NCoef="0" IVar="-1" Cut="0.0000000000000000e+00" cType="1" res="-1.4190603047609329e-02" rms="2.6047116518020630e-01" purity="1.8422259390354156e-01" nType="-99"/>
              </Node>
            </Node>
          </Node>
          <Node pos="r" depth="2" NCoef="0" IVar="6" Cut="8.4286367893218994e-01" cType="1" res="0.0000000000000000e+00" rms="0.0000000000000000e+00" purity="2.3175549507141113e-01" nType="0">
            <Node pos="l" depth="3" NCoef="0" IVar="-1" Cut="0.0000000000000000e+00" cType="1" res="1.2741210870444775e-02" rms="3.4182447195053101e-01" purity="1.8734049797058105e-01" nType="-99"/>
            <Node pos="r" depth="3" NCoef="0" IVar="1" Cut="1.0975610017776489e+00" cType="1" res="0.0000000000000000e+00" rms="0.0000000000000000e+00" purity="2.5041419267654419e-01" nType="0">
              <Node pos="l" depth="4" NCoef="0" IVar="-1" Cut="0.0000000000000000e+00" cType="1" res="-1.0506181046366692e-02" rms="2.2883416712284088e-01" purity="7.1892559528350830e-02" nType="-99"/>
              <Node pos="r" depth="4" NCoef="0" IVar="-1" Cut="0.0000000000000000e+00" cType="1" res="4.8310579732060432e-03" rms="3.4797215461730957e-01" purity="4.4188559055328369e-01" nType="-99"/>
            </Node>
          </Node>
        </Node>
        <Node pos="r" depth="1" NCoef="0" IVar="4" Cut="7.1102272033691406e+01" cType="1" res="3.4557392355054617e-03" rms="3.1609722971916199e-01" purity="6.6002160310745239e-01" nType="0">
          <Node pos="l" depth="2" NCoef="0" IVar="6" Cut="1.6857229471206665e+00" cType="1" res="-1.4280975796282291e-02" rms="3.7710472941398621e-01" purity="3.8235479593276978e-01" nType="0">
            <Node pos="l" depth="3" NCoef="0" IVar="-1" Cut="0.0000000000000000e+00" cType="1" res="-1.2838979251682758e-02" rms="3.6456882953643799e-01" purity="2.8967437148094177e-01" nType="-99"/>
            <Node pos="r" depth="3" NCoef="0" IVar="-1" Cut="0.0000000000000000e+00" cType="1" res="-9.1084752057213336e-05" rms="3.8395717740058899e-01" purity="4.3945536017417908e-01" nType="-99"/>
          </Node>
          <Node pos="r" depth="2" NCoef="0" IVar="8" Cut="8.3380943536758423e-01" cType="1" res="5.2398126572370529e-03" rms="3.0923902988433838e-01" purity="6.8795108795166016e-01" nType="0">
            <Node pos="l" depth="3" NCoef="0" IVar="7" Cut="4.8404043912887573e-01" cType="1" res="6.4647160470485687e-03" rms="3.0583715438842773e-01" purity="6.9621950387954712e-01" nType="0">
              <Node pos="l" depth="4" NCoef="0" IVar="9" Cut="3.9790335297584534e-01" cType="1" res="-2.0040690433233976e-03" rms="3.0863779783248901e-01" purity="7.3792034387588501e-01" nType="0">
                <Node pos="l" depth="5" NCoef="0" IVar="-1" Cut="0.0000000000000000e+00" cType="1" res="-5.8374586515128613e-03" rms="3.4985604882240295e-01" purity="5.9209263324737549e-01" nType="-99"/>
                <Node pos="r" depth="5" NCoef="0" IVar="-1" Cut="0.0000000000000000e+00" cType="1" res="3.9046469610184431e-03" rms="2.7449300885200500e-01" purity="8.4401363134384155e-01" nType="-99"/>
              </Node>
              <Node pos="r" depth="4" NCoef="0" IVar="8" Cut="2.8496038913726807e-01" cType="1" res="9.2404158785939217e-03" rms="3.0486246943473816e-01" purity="6.8255180120468140e-01" nType="0">
                <Node pos="l" depth="5" NCoef="0" IVar="-1" Cut="0.0000000000000000e+00" cType="1" res="3.9237705641426146e-04" rms="3.1331413984298706e-01" purity="5.6915366649627686e-01" nType="-99"/>
                <Node pos="r" depth="5" NCoef="0" IVar="-1" Cut="0.0000000000000000e+00" cType="1" res="7.4939182959496975e-03" rms="2.9879277944564819e-01" purity="7.6031398773193359e-01" nType="-99"/>
              </Node>
            </Node>
            <Node pos="r" depth="3" NCoef="0" IVar="-1" Cut="0.0000000000000000e+00" cType="1" res="-7.5763748027384281e-03" rms="3.7287133932113647e-01" purity="5.1367413997650146e-01" nType="-99"/>
          </Node>
        </Node>
      </Node>
    </BinaryTree>
    <BinaryTree type="DecisionTree" boostWeight="1.0000000000000000e+00" itree="100">
      <Node pos="s" depth="0" NCoef="0" IVar="5" Cut="7.3408187866210938e+01" cType="1" res="-7.3933223029598594e-04" rms="3.0016976594924927e-01" purity="4.9888747930526733e-01" nType="0">
        <Node pos="l" depth="1" NCoef="0" IVar="9" Cut="1.6791248321533203e-01" cType="1" res="-8.2237701863050461e-03" rms="3.2984045147895813e-01" purity="4.7558751702308655e-01" nType="0">
          <Node pos="l" depth="2" NCoef="0" IVar="-1" Cut="0.0000000000000000e+00" cType="1" res="-1.4276916161179543e-02" rms="2.8151449561119080e-01" purity="2.2604203224182129e-01" nType="-99"/>
          <Node pos="r" depth="2" NCoef="0" IVar="8" Cut="6.0176509618759155e-01" cType="1" res="-5.3710076026618481e-03" rms="3.3587309718132019e-01" purity="5.1007485389709473e-01" nType="0">
            <Node pos="l" depth="3" NCoef="0" IVar="9" Cut="5.6648176908493042e-01" cType="1" res="-8.1468764692544937e-03" rms="3.2891961932182312e-01" purity="5.0191140174865723e-01" nType="0">
              <Node pos="l" depth="4" NCoef="0" IVar="7" Cut="6.5385091304779053e-01" cType="1" res="-1.0980167426168919e-02" rms="3.2606238126754761e-01" purity="4.9101245403289795e-01" nType="0">
                <Node pos="l" depth="5" NCoef="0" IVar="-1" Cut="0.0000000000000000e+00" cType="1" res="-1.0560745373368263e-02" rms="3.3179861307144165e-01" purity="5.4503351449966431e-01" nType="-99"/>
                <Node pos="r" depth="5" NCoef="0" IVar="-1" Cut="0.0000000000000000e+00" cType="1" res="-2.3039381485432386e-03" rms="3.2324287295341492e-01" purity="4.6637034416198730e-01" nType="-99"/>
              </Node>
              <Node pos="r" depth="4" NCoef="0" IVar="-1" Cut="0.0000000000000000e+00" cType="1" res="3.9847553707659245e-03" rms="3.4590387344360352e-01" purity="5.7082498073577881e-01" nType="-99"/>
            </Node>
            <Node pos="r" depth="3" NCoef="0" IVar="-1" Cut="0.0000000000000000e+00" cType="1" res="2.8352462686598301e-03" rms="3.6618009209632874e-01" purity="5.4800695180892944e-01" nType="-99"/>
          </Node>
        </Node>
        <Node pos="r" depth="1" NCoef="0" IVar="5" Cut="1.2198391723632812e+02" cType="1" res="1.9970878493040800e-03" rms="2.8851267695426941e-01" purity="5.0740629434585571e-01" nType="0">
          <Node pos="l" depth="2" NCoef="0" IVar="3" Cut="4.0243902206420898e+00" cType="1" res="5.5567035451531410e-03" rms="2.9105451703071594e-01" purity="5.8498603105545044e-01" nType="0">
            <Node pos="l" depth="3" NCoef="0" IVar="7" Cut="1.7226350307464600e+00" cType="1" res="7.8207822516560555e-03" rms="2.8982898592948914e-01" purity="6.3482165336608887e-01" nType="0">
              <Node pos="l" depth="4" NCoef="0" IVar="9" Cut="4.6004489064216614e-01" cType="1" res="3.3930402714759111e-03" rms="2.9393723607063293e-01" purity="6.5887707471847534e-01" nType="0">
                <Node pos="l" depth="5" NCoef="0" IVar="-1" Cut="0.0000000000000000e+00" cType="1" res="-1.5356797957792878e-03" rms="2.9989194869995117e-01" purity="5.9070092439651489e-01" nType="-99"/>
                <Node pos="r" depth="5" NCoef="0" IVar="-1" Cut="0.0000000000000000e+00" cType="1" res="7.5602810829877853e-03" rms="2.8336706757545471e-01" purity="7.7310073375701904e-01" nType="-99"/>
              </Node>
              <Node pos="r" depth="4" NCoef="0" IVar="9" Cut="1.8770426511764526e-01" cType="1" res="1.7924716696143150e-02" rms="2.7996662259101868e-01" purity="5.7992804050445557e-01" nType="0">
                <Node pos="l" depth="5" NCoef="0" IVar="-1" Cut="0.0000000000000000e+00" cType="1" res="-2.7307393029332161e-03" rms="2.9121789336204529e-01" purity="3.5150364041328430e-01" nType="-99"/>
                <Node pos="r" depth="5" NCoef="0" IVar="-1" Cut="0.0000000000000000e+00" cType="1" res="1.5805205330252647e-02" rms="2.7325606346130371e-01" purity="6.9671976566314697e-01" nType="-99"/>
              </Node>
            </Node>
            <Node pos="r" depth="3" NCoef="0" IVar="5" Cut="9.7103828430175781e+01" cType="1" res="-1.1702410876750946e-02" rms="2.9967057704925537e-01" purity="2.0508834719657898e-01" nType="0">
              <Node pos="l" depth="4" NCoef="0" IVar="-1" Cut="0.0000000000000000e+00" cType="1" res="-1.1709642596542835e-02" rms="3.0900430679321289e-01" purity="2.2825908660888672e-01" nType="-99"/>
              <Node pos="r" depth="4" NCoef="0" IVar="-1" Cut="0.0000000000000000e+00" cType="1" res="-5.3845840739086270e-04" rms="2.9150009155273438e-01" purity="1.8645617365837097e-01" nType="-99"/>
            </Node>
          </Node>
          <Node pos="r" depth="2" NCoef="0" IVar="3" Cut="4.0243902206420898e+00" cType="1" res="-8.2903131842613220e-03" rms="2.8078392148017883e-01" purity="2.8319850564002991e-01" nType="0">
            <Node pos="l" depth="3" NCoef="0" IVar="9" Cut="3.5861924290657043e-01" cType="1" res="-1.2723047286272049e-02" rms="2.8109100461006165e-01" purity="2.9930087924003601e-01" nType="0">
              <Node pos="l" depth="4" NCoef="0" IVar="2" Cut="4.0243902206420898e+00" cType="1" res="-1.7819372937083244e-02" rms="2.7076563239097595e-01" purity="1.8622560799121857e-01" nType="0">
                <Node pos="l" depth="5" NCoef="0" IVar="-1" Cut="0.0000000000000000e+00" cType="1" res="-1.2374650686979294e-02" rms="2.9683795571327209e-01" purity="2.4259833991527557e-01" nType="-99"/>
                <Node pos="r" depth="5" NCoef="0" IVar="-1" Cut="0.0000000000000000e+00" cType="1" res="-1.5060442965477705e-03" rms="1.9207787513732910e-01" purity="4.8977352678775787e-02" nType="-99"/>
              </Node>
              <Node pos="r" depth="4" NCoef="0" IVar="0" Cut="1.0975610017776489e+00" cType="1" res="-5.2781505510210991e-03" rms="2.9536896944046021e-01" purity="4.6448534727096558e-01" nType="0">
                <Node pos="l" depth="5" NCoef="0" IVar="-1" Cut="0.0000000000000000e+00" cType="1" res="-1.3926436193287373e-02" rms="2.4152989685535431e-01" purity="1.3570097088813782e-01" nType="-99"/>
                <Node pos="r" depth="5" NCoef="0" IVar="-1" Cut="0.0000000000000000e+00" cType="1" res="1.7347228713333607e-03" rms="3.2035639882087708e-01" purity="6.4220494031906128e-01" nType="-99"/>
              </Node>
            </Node>
            <Node pos="r" depth="3" NCoef="0" IVar="5" Cut="1.3867370605468750e+02" cType="1" res="6.1812656931579113e-03" rms="2.7928969264030457e-01" purity="2.3062892258167267e-01" nType="0">
              <Node pos="l" depth="4" NCoef="0" IVar="-1" Cut="0.0000000000000000e+00" cType="1" res="-5.5691301822662354e-03" rms="2.6505222916603088e-01" purity="1.8966747820377350e-01" nType="-99"/>
              <Node pos="r" depth="4" NCoef="0" IVar="-1" Cut="0.0000000000000000e+00" cType="1" res="1.1956101283431053e-02" rms="2.9211705923080444e-01" purity="2.7180451154708862e-01" nType="-99"/>
            </Node>
          </Node>
        </Node>
      </Node>
    </BinaryTree>
    <BinaryTree type="DecisionTree" boostWeight="1.0000000000000000e+00" itree="101">
      <Node pos="s" depth="0" NCoef="0" IVar="4" Cut="1.2813465881347656e+02" cType="1" res="3.2689992804080248e-04" rms="3.0082520842552185e-01" purity="5.0022292137145996e-01" nType="0">
        <Node pos="l" depth="1" NCoef="0" IVar="4" Cut="1.0548822021484375e+02" cType="1" res="3.7276726216077805e-03" rms="3.0522471666336060e-01" purity="5.6636160612106323e-01" nType="0">
          <Node pos="l" depth="2" NCoef="0" IVar="8" Cut="7.2695994377136230e-01" cType="1" res="-4.8417763900943100e-04" rms="3.2088962197303772e-01" purity="4.4425132870674133e-01" nType="0">
            <Node pos="l" depth="3" NCoef="0" IVar="5" Cut="5.9119750976562500e+01" cType="1" res="-2.0001390948891640e-03" rms="3.1704577803611755e-01" purity="4.4415771961212158e-01" nType="0">
              <Node pos="l" depth="4" NCoef="0" IVar="6" Cut="1.9155920743942261e+00" cType="1" res="-1.7057744786143303e-02" rms="3.5221737623214722e-01" purity="3.4373590350151062e-01" nType="0">
                <Node pos="l" depth="5" NCoef="0" IVar="-1" Cut="0.0000000000000000e+00" cType="1" res="-1.2363624759018421e-02" rms="3.3437550067901611e-01" purity="2.6233687996864319e-01" nType="-99"/>
                <Node pos="r" depth="5" NCoef="0" IVar="-1" Cut="0.0000000000000000e+00" cType="1" res="-2.3538896348327398e-03" rms="3.6573582887649536e-01" purity="4.0983504056930542e-01" nType="-99"/>
              </Node>
              <Node pos="r" depth="4" NCoef="0" IVar="9" Cut="6.0001760721206665e-01" cType="1" res="3.0881728162057698e-04" rms="3.1123691797256470e-01" purity="4.5955654978752136e-01" nType="0">
                <Node pos="l" depth="5" NCoef="0" IVar="-1" Cut="0.0000000000000000e+00" cType="1" res="-1.1503777932375669e-03" rms="3.0801245570182800e-01" purity="4.4278287887573242e-01" nType="-99"/>
                <Node pos="r" depth="5" NCoef="0" IVar="-1" Cut="0.0000000000000000e+00" cType="1" res="5.6643271818757057e-03" rms="3.2592093944549561e-01" purity="5.3978615999221802e-01" nType="-99"/>
              </Node>
            </Node>
            <Node pos="r" depth="3" NCoef="0" IVar="-1" Cut="0.0000000000000000e+00" cType="1" res="8.8511761277914047e-03" rms="3.7687262892723083e-01" purity="4.4576707482337952e-01" nType="-99"/>
          </Node>
          <Node pos="r" depth="2" NCoef="0" IVar="5" Cut="6.3161113739013672e+01" cType="1" res="9.6305022016167641e-03" rms="2.8170311450958252e-01" purity="7.3749691247940063e-01" nType="0">
            <Node pos="l" depth="3" NCoef="0" IVar="-1" Cut="0.0000000000000000e+00" cType="1" res="-2.5392533279955387e-03" rms="3.4753397107124329e-01" purity="6.3540649414062500e-01" nType="-99"/>
            <Node pos="r" depth="3" NCoef="0" IVar="8" Cut="1.9767059385776520e-01" cType="1" res="1.2312737293541431e-02" rms="2.6893496513366699e-01" purity="7.5470143556594849e-01" nType="0">
              <Node pos="l" depth="4" NCoef="0" IVar="-1" Cut="0.0000000000000000e+00" cType="1" res="2.7216938906349242e-04" rms="2.9575625061988831e-01" purity="5.1232254505157471e-01" nType="-99"/>
              <Node pos="r" depth="4" NCoef="0" IVar="7" Cut="1.6439143419265747e+00" cType="1" res="1.4577441848814487e-02" rms="2.6339635252952576e-01" purity="8.0137634277343750e-01" nType="0">
                <Node pos="l" depth="5" NCoef="0" IVar="-1" Cut="0.0000000000000000e+00" cType="1" res="6.9354604929685593e-03" rms="2.6782312989234924e-01" purity="8.0488049983978271e-01" nType="-99"/>
                <Node pos="r" depth="5" NCoef="0" IVar="-1" Cut="0.0000000000000000e+00" cType="1" res="1.4359448105096817e-02" rms="2.5042995810508728e-01" purity="7.9164391756057739e-01" nType="-99"/>
              </Node>
            </Node>
          </Node>
        </Node>
        <Node pos="r" depth="1" NCoef="0" IVar="9" Cut="5.6683534383773804e-01" cType="1" res="-6.3927485607564449e-03" rms="2.9182082414627075e-01" purity="3.6953821778297424e-01" nType="0">
          <Node pos="l" depth="2" NCoef="0" IVar="9" Cut="1.5221814811229706e-01" cType="1" res="-4.1075660847127438e-03" rms="2.8989160060882568e-01" purity="3.6464372277259827e-01" nType="0">
            <Node pos="l" depth="3" NCoef="0" IVar="6" Cut="1.7623621225357056e+00" cType="1" res="-1.5605549328029156e-02" rms="2.2922426462173462e-01" purity="1.0873544961214066e-01" nType="0">
              <Node pos="l" depth="4" NCoef="0" IVar="-1" Cut="0.0000000000000000e+00" cType="1" res="-5.3959484212100506e-03" rms="2.1274226903915405e-01" purity="7.2669446468353271e-02" nType="-99"/>
              <Node pos="r" depth="4" NCoef="0" IVar="-1" Cut="0.0000000000000000e+00" cType="1" res="-1.5518361702561378e-02" rms="2.4251553416252136e-01" purity="1.4061333239078522e-01" nType="-99"/>
            </Node>
            <Node pos="r" depth="3" NCoef="0" IVar="6" Cut="2.8350932598114014e+00" cType="1" res="-1.1844800319522619e-03" rms="3.0331736803054810e-01" purity="4.2970225214958191e-01" nType="0">
              <Node pos="l" depth="4" NCoef="0" IVar="3" Cut="1.0975610017776489e+00" cType="1" res="-4.0202508680522442e-03" rms="3.0718407034873962e-01" purity="3.6464375257492065e-01" nType="0">
                <Node pos="l" depth="5" NCoef="0" IVar="-1" Cut="0.0000000000000000e+00" cType="1" res="-3.7528129760175943e-03" rms="3.0978164076805115e-01" purity="4.0581208467483521e-01" nType="-99"/>
                <Node pos="r" depth="5" NCoef="0" IVar="-1" Cut="0.0000000000000000e+00" cType="1" res="2.9111462645232677e-03" rms="3.0032682418823242e-01" purity="2.6072320342063904e-01" nType="-99"/>
              </Node>
              <Node pos="r" depth="4" NCoef="0" IVar="6" Cut="2.9920804500579834e+00" cType="1" res="8.2822386175394058e-03" rms="2.8983515501022339e-01" purity="6.4688843488693237e-01" nType="0">
                <Node pos="l" depth="5" NCoef="0" IVar="-1" Cut="0.0000000000000000e+00" cType="1" res="1.7683411715552211e-03" rms="2.9406383633613586e-01" purity="6.2746882438659668e-01" nType="-99"/>
                <Node pos="r" depth="5" NCoef="0" IVar="-1" Cut="0.0000000000000000e+00" cType="1" res="6.0635590925812721e-03" rms="2.8587031364440918e-01" purity="6.6454309225082397e-01" nType="-99"/>
              </Node>
            </Node>
          </Node>
          <Node pos="r" depth="2" NCoef="0" IVar="-1" Cut="0.0000000000000000e+00" cType="1" res="-1.5777757391333580e-02" rms="3.1264245510101318e-01" purity="4.2794474959373474e-01" nType="-99"/>
        </Node>
      </Node>
    </BinaryTree>
    <BinaryTree type="DecisionTree" boostWeight="1.0000000000000000e+00" itree="102">
      <Node pos="s" depth="0" NCoef="0" IVar="9" Cut="3.4186679124832153e-01" cType="1" res="1.7977476818487048e-04" rms="3.0081483721733093e-01" purity="5.0013190507888794e-01" nType="0">
        <Node pos="l" depth="1" NCoef="0" IVar="9" Cut="5.8516893535852432e-02" cType="1" res="-5.3879627957940102e-03" rms="2.9799407720565796e-01" purity="3.8082197308540344e-01" nType="0">
          <Node pos="l" depth="2" NCoef="0" IVar="-1" Cut="0.0000000000000000e+00" cType="1" res="-2.8111249208450317e-02" rms="2.0152145624160767e-01" purity="5.5811788886785507e-02" nType="-99"/>
          <Node pos="r" depth="2" NCoef="0" IVar="7" Cut="3.0937354564666748e+00" cType="1" res="-4.1261478327214718e-03" rms="3.0145832896232605e-01" purity="3.9508321881294250e-01" nType="0">
            <Node pos="l" depth="3" NCoef="0" IVar="6" Cut="2.4519731998443604e+00" cType="1" res="-7.1626980789005756e-03" rms="3.0463278293609619e-01" purity="3.9505097270011902e-01" nType="0">
              <Node pos="l" depth="4" NCoef="0" IVar="7" Cut="9.0548491477966309e-01" cType="1" res="-2.6272116228938103e-03" rms="3.0967885255813599e-01" purity="2.9964956641197205e-01" nType="0">
                <Node pos="l" depth="5" NCoef="0" IVar="-1" Cut="0.0000000000000000e+00" cType="1" res="4.8868004232645035e-03" rms="3.3372613787651062e-01" purity="3.1002768874168396e-01" nType="-99"/>
                <Node pos="r" depth="5" NCoef="0" IVar="-1" Cut="0.0000000000000000e+00" cType="1" res="-5.1971068605780602e-03" rms="2.9455694556236267e-01" purity="2.9361423850059509e-01" nType="-99"/>
              </Node>
              <Node pos="r" depth="4" NCoef="0" IVar="7" Cut="1.8864219188690186e+00" cType="1" res="-1.3979131355881691e-02" rms="2.9675740003585815e-01" purity="5.3843075037002563e-01" nType="0">
                <Node pos="l" depth="5" NCoef="0" IVar="-1" Cut="0.0000000000000000e+00" cType="1" res="-1.2513048015534878e-02" rms="3.1516158580780029e-01" purity="4.6974727511405945e-01" nType="-99"/>
                <Node pos="r" depth="5" NCoef="0" IVar="-1" Cut="0.0000000000000000e+00" cType="1" res="4.3592653237283230e-03" rms="2.6114708185195923e-01" purity="6.5485447645187378e-01" nType="-99"/>
              </Node>
            </Node>
            <Node pos="r" depth="3" NCoef="0" IVar="8" Cut="1.3291777670383453e-01" cType="1" res="1.9324950873851776e-02" rms="2.7458488941192627e-01" purity="3.9533218741416931e-01" nType="0">
              <Node pos="l" depth="4" NCoef="0" IVar="-1" Cut="0.0000000000000000e+00" cType="1" res="-1.4709318056702614e-03" rms="2.6579740643501282e-01" purity="2.3757559061050415e-01" nType="-99"/>
              <Node pos="r" depth="4" NCoef="0" IVar="-1" Cut="0.0000000000000000e+00" cType="1" res="1.7815804108977318e-02" rms="2.7985948324203491e-01" purity="5.1333695650100708e-01" nType="-99"/>
            </Node>
          </Node>
        </Node>
        <Node pos="r" depth="1" NCoef="0" IVar="6" Cut="1.9922282695770264e+00" cType="1" res="6.0316277667880058e-03" rms="3.0364125967025757e-01" purity="6.2553012371063232e-01" nType="0">
          <Node pos="l" depth="2" NCoef="0" IVar="9" Cut="5.5299055576324463e-01" cType="1" res="-2.1809716708958149e-03" rms="3.2486030459403992e-01" purity="5.1231151819229126e-01" nType="0">
            <Node pos="l" depth="3" NCoef="0" IVar="7" Cut="4.1094961762428284e-01" cType="1" res="-7.9357456415891647e-03" rms="3.2950094342231750e-01" purity="4.7436290979385376e-01" nType="0">
              <Node pos="l" depth="4" NCoef="0" IVar="-1" Cut="0.0000000000000000e+00" cType="1" res="-1.0590831749141216e-02" rms="3.4173718094825745e-01" purity="4.9771508574485779e-01" nType="-99"/>
              <Node pos="r" depth="4" NCoef="0" IVar="9" Cut="3.7791243195533752e-01" cType="1" res="-2.6617911644279957e-03" rms="3.2516878843307495e-01" purity="4.6661674976348877e-01" nType="0">
                <Node pos="l" depth="5" NCoef="0" IVar="-1" Cut="0.0000000000000000e+00" cType="1" res="-9.3384282663464546e-03" rms="3.1810215115547180e-01" purity="3.8464912772178650e-01" nType="-99"/>
                <Node pos="r" depth="5" NCoef="0" IVar="-1" Cut="0.0000000000000000e+00" cType="1" res="1.0211706394329667e-03" rms="3.2690340280532837e-01" purity="4.8904076218605042e-01" nType="-99"/>
              </Node>
            </Node>
            <Node pos="r" depth="3" NCoef="0" IVar="7" Cut="8.7301087379455566e-01" cType="1" res="5.1144999451935291e-03" rms="3.1873089075088501e-01" purity="5.6041985750198364e-01" nType="0">
              <Node pos="l" depth="4" NCoef="0" IVar="6" Cut="7.2885960340499878e-01" cType="1" res="1.1626791208982468e-02" rms="3.2834383845329285e-01" purity="6.1536365747451782e-01" nType="0">
                <Node pos="l" depth="5" NCoef="0" IVar="-1" Cut="0.0000000000000000e+00" cType="1" res="3.1044890056364238e-04" rms="3.6050468683242798e-01" purity="5.1860553026199341e-01" nType="-99"/>
                <Node pos="r" depth="5" NCoef="0" IVar="-1" Cut="0.0000000000000000e+00" cType="1" res="8.2314508035778999e-03" rms="3.1009244918823242e-01" purity="6.6584742069244385e-01" nType="-99"/>
              </Node>
              <Node pos="r" depth="4" NCoef="0" IVar="-1" Cut="0.0000000000000000e+00" cType="1" res="-3.9935610257089138e-03" rms="2.9747959971427917e-01" purity="4.4711518287658691e-01" nType="-99"/>
            </Node>
          </Node>
          <Node pos="r" depth="2" NCoef="0" IVar="8" Cut="4.0104806423187256e-01" cType="1" res="1.3001991435885429e-02" rms="2.8420627117156982e-01" purity="7.2162330150604248e-01" nType="0">
            <Node pos="l" depth="3" NCoef="0" IVar="7" Cut="8.8428115844726562e-01" cType="1" res="6.5292916260659695e-03" rms="3.0552464723587036e-01" purity="6.5028810501098633e-01" nType="0">
              <Node pos="l" depth="4" NCoef="0" IVar="9" Cut="5.1933085918426514e-01" cType="1" res="-5.4721347987651825e-03" rms="3.1505161523818970e-01" purity="6.5286123752593994e-01" nType="0">
                <Node pos="l" depth="5" NCoef="0" IVar="-1" Cut="0.0000000000000000e+00" cType="1" res="-1.0249494574964046e-02" rms="3.2399699091911316e-01" purity="6.1530911922454834e-01" nType="-99"/>
                <Node pos="r" depth="5" NCoef="0" IVar="-1" Cut="0.0000000000000000e+00" cType="1" res="6.1043701134622097e-03" rms="3.0347681045532227e-01" purity="6.9592690467834473e-01" nType="-99"/>
              </Node>
              <Node pos="r" depth="4" NCoef="0" IVar="8" Cut="1.8600381910800934e-01" cType="1" res="1.7370751127600670e-02" rms="2.9623785614967346e-01" purity="6.4796364307403564e-01" nType="0">
                <Node pos="l" depth="5" NCoef="0" IVar="-1" Cut="0.0000000000000000e+00" cType="1" res="-2.4594152346253395e-03" rms="3.2339036464691162e-01" purity="3.7268802523612976e-01" nType="-99"/>
                <Node pos="r" depth="5" NCoef="0" IVar="-1" Cut="0.0000000000000000e+00" cType="1" res="1.4214032329618931e-02" rms="2.8390029072761536e-01" purity="7.6016390323638916e-01" nType="-99"/>
              </Node>
            </Node>
            <Node pos="r" depth="3" NCoef="0" IVar="-1" Cut="0.0000000000000000e+00" cType="1" res="1.8451677635312080e-02" rms="2.2919650375843048e-01" purity="8.8016933202743530e-01" nType="-99"/>
          </Node>
        </Node>
      </Node>
    </BinaryTree>
    <BinaryTree type="DecisionTree" boostWeight="1.0000000000000000e+00" itree="103">
      <Node pos="s" depth="0" NCoef="0" IVar="9" Cut="2.4008989334106445e-01" cType="1" res="-2.0859201322309673e-04" rms="3.0017274618148804e-01" purity="4.9930816888809204e-01" nType="0">
        <Node pos="l" depth="1" NCoef="0" IVar="9" Cut="5.8710645884275436e-02" cType="1" res="-6.7562116310000420e-03" rms="2.8927972912788391e-01" purity="2.8428590297698975e-01" nType="0">
          <Node pos="l" depth="2" NCoef="0" IVar="-1" Cut="0.0000000000000000e+00" cType="1" res="-3.2419458031654358e-02" rms="1.9292210042476654e-01" purity="4.4735535979270935e-02" nType="-99"/>
          <Node pos="r" depth="2" NCoef="0" IVar="7" Cut="3.5594084262847900e+00" cType="1" res="-4.3726270087063313e-03" rms="2.9542538523674011e-01" purity="3.0321216583251953e-01" nType="0">
            <Node pos="l" depth="3" NCoef="0" IVar="8" Cut="2.4091862142086029e-01" cType="1" res="-7.9333996400237083e-03" rms="2.9644232988357544e-01" purity="2.9926779866218567e-01" nType="0">
              <Node pos="l" depth="4" NCoef="0" IVar="5" Cut="1.0254383087158203e+02" cType="1" res="-2.5805285200476646e-02" rms="2.3543475568294525e-01" purity="2.1322265267372131e-01" nType="0">
                <Node pos="l" depth="5" NCoef="0" IVar="-1" Cut="0.0000000000000000e+00" cType="1" res="-2.1967066451907158e-02" rms="2.5076690316200256e-01" purity="3.2176756858825684e-01" nType="-99"/>
                <Node pos="r" depth="5" NCoef="0" IVar="-1" Cut="0.0000000000000000e+00" cType="1" res="-1.2706856243312359e-02" rms="2.1596966683864594e-01" purity="8.9466430246829987e-02" nType="-99"/>
              </Node>
              <Node pos="r" depth="4" NCoef="0" IVar="7" Cut="2.5176045894622803e+00" cType="1" res="-1.4713194686919451e-03" rms="3.1536245346069336e-01" purity="3.3037984371185303e-01" nType="0">
                <Node pos="l" depth="5" NCoef="0" IVar="-1" Cut="0.0000000000000000e+00" cType="1" res="-3.2475844491273165e-03" rms="3.2008624076843262e-01" purity="2.9762387275695801e-01" nType="-99"/>
                <Node pos="r" depth="5" NCoef="0" IVar="-1" Cut="0.0000000000000000e+00" cType="1" res="1.2376184575259686e-02" rms="2.8970807790756226e-01" purity="4.9067699909210205e-01" nType="-99"/>
              </Node>
            </Node>
            <Node pos="r" depth="3" NCoef="0" IVar="-1" Cut="0.0000000000000000e+00" cType="1" res="1.7494874075055122e-02" rms="2.8209376335144043e-01" purity="3.4394767880439758e-01" nType="-99"/>
          </Node>
        </Node>
        <Node pos="r" depth="1" NCoef="0" IVar="7" Cut="1.2702356576919556e+00" cType="1" res="2.4973307736217976e-03" rms="3.0451962351799011e-01" purity="5.8816999197006226e-01" nType="0">
          <Node pos="l" depth="2" NCoef="0" IVar="9" Cut="4.6827673912048340e-01" cType="1" res="-1.2626685202121735e-03" rms="3.1415179371833801e-01" purity="6.0667198896408081e-01" nType="0">
            <Node pos="l" depth="3" NCoef="0" IVar="8" Cut="4.8142701387405396e-01" cType="1" res="-7.0949336513876915e-03" rms="3.1836670637130737e-01" purity="5.6832325458526611e-01" nType="0">
              <Node pos="l" depth="4" NCoef="0" IVar="9" Cut="4.0705537796020508e-01" cType="1" res="-1.6140339896082878e-02" rms="3.1992533802986145e-01" purity="4.9226006865501404e-01" nType="0">
                <Node pos="l" depth="5" NCoef="0" IVar="-1" Cut="0.0000000000000000e+00" cType="1" res="-1.0715453885495663e-02" rms="3.2806149125099182e-01" purity="4.2319765686988831e-01" nType="-99"/>
                <Node pos="r" depth="5" NCoef="0" IVar="-1" Cut="0.0000000000000000e+00" cType="1" res="-1.2751332251355052e-03" rms="3.0114412307739258e-01" purity="6.4147019386291504e-01" nType="-99"/>
              </Node>
              <Node pos="r" depth="4" NCoef="0" IVar="6" Cut="2.0688452720642090e+00" cType="1" res="6.9556082598865032e-03" rms="3.1541633605957031e-01" purity="6.8647485971450806e-01" nType="0">
                <Node pos="l" depth="5" NCoef="0" IVar="-1" Cut="0.0000000000000000e+00" cType="1" res="-1.3853885466232896e-03" rms="3.4780225157737732e-01" purity="5.5942881107330322e-01" nType="-99"/>
                <Node pos="r" depth="5" NCoef="0" IVar="-1" Cut="0.0000000000000000e+00" cType="1" res="9.2675872147083282e-03" rms="2.8074467182159424e-01" purity="8.0754733085632324e-01" nType="-99"/>
              </Node>
            </Node>
            <Node pos="r" depth="3" NCoef="0" IVar="4" Cut="1.4554333496093750e+02" cType="1" res="6.5235760994255543e-03" rms="3.0826306343078613e-01" purity="6.5786880254745483e-01" nType="0">
              <Node pos="l" depth="4" NCoef="0" IVar="9" Cut="5.7680553197860718e-01" cType="1" res="9.6701001748442650e-03" rms="3.0332872271537781e-01" purity="6.8834900856018066e-01" nType="0">
                <Node pos="l" depth="5" NCoef="0" IVar="-1" Cut="0.0000000000000000e+00" cType="1" res="1.1591051006689668e-03" rms="2.9023951292037964e-01" purity="7.2456645965576172e-01" nType="-99"/>
                <Node pos="r" depth="5" NCoef="0" IVar="-1" Cut="0.0000000000000000e+00" cType="1" res="7.3276357725262642e-03" rms="3.1350675225257874e-01" purity="6.5868514776229858e-01" nType="-99"/>
              </Node>
              <Node pos="r" depth="4" NCoef="0" IVar="-1" Cut="0.0000000000000000e+00" cType="1" res="-7.5888894498348236e-03" rms="3.4564778208732605e-01" purity="4.0313720703125000e-01" nType="-99"/>
            </Node>
          </Node>
          <Node pos="r" depth="2" NCoef="0" IVar="8" Cut="2.4634936451911926e-01" cType="1" res="1.0181332938373089e-02" rms="2.8366538882255554e-01" purity="5.5035895109176636e-01" nType="0">
            <Node pos="l" depth="3" NCoef="0" IVar="7" Cut="2.5353090763092041e+00" cType="1" res="-4.1424599476158619e-03" rms="2.9553616046905518e-01" purity="3.8347581028938293e-01" nType="0">
              <Node pos="l" depth="4" NCoef="0" IVar="6" Cut="2.0688471794128418e+00" cType="1" res="-1.5765439718961716e-02" rms="2.9777601361274719e-01" purity="3.6769607663154602e-01" nType="0">
                <Node pos="l" depth="5" NCoef="0" IVar="-1" Cut="0.0000000000000000e+00" cType="1" res="-3.2954479102045298e-03" rms="2.8610968589782715e-01" purity="3.0152007937431335e-01" nType="-99"/>
                <Node pos="r" depth="5" NCoef="0" IVar="-1" Cut="0.0000000000000000e+00" cType="1" res="-1.1848721653223038e-02" rms="3.0892062187194824e-01" purity="4.3526837229728699e-01" nType="-99"/>
              </Node>
              <Node pos="r" depth="4" NCoef="0" IVar="-1" Cut="0.0000000000000000e+00" cType="1" res="1.0645619593560696e-02" rms="2.8919130563735962e-01" purity="4.1692212224006653e-01" nType="-99"/>
            </Node>
            <Node pos="r" depth="3" NCoef="0" IVar="6" Cut="1.9922279119491577e+00" cType="1" res="2.3537395521998405e-02" rms="2.7145037055015564e-01" purity="7.0596718788146973e-01" nType="0">
              <Node pos="l" depth="4" NCoef="0" IVar="-1" Cut="0.0000000000000000e+00" cType="1" res="1.1016780626960099e-04" rms="3.1792438030242920e-01" purity="4.7360908985137939e-01" nType="-99"/>
              <Node pos="r" depth="4" NCoef="0" IVar="-1" Cut="0.0000000000000000e+00" cType="1" res="2.1247843280434608e-02" rms="2.4384993314743042e-01" purity="8.2312983274459839e-01" nType="-99"/>
            </Node>
          </Node>
        </Node>
      </Node>
    </BinaryTree>
    <BinaryTree type="DecisionTree" boostWeight="1.0000000000000000e+00" itree="104">
      <Node pos="s" depth="0" NCoef="0" IVar="8" Cut="9.9592798948287964e-01" cType="1" res="7.9255830496549606e-04" rms="3.0006784200668335e-01" purity="5.0096160173416138e-01" nType="0">
        <Node pos="l" depth="1" NCoef="0" IVar="8" Cut="4.3740665912628174e-01" cType="1" res="1.4510183827951550e-03" rms="2.9912933707237244e-01" purity="5.0571018457412720e-01" nType="0">
          <Node pos="l" depth="2" NCoef="0" IVar="8" Cut="6.4270786941051483e-02" cType="1" res="-1.6636918298900127e-03" rms="2.9179158806800842e-01" purity="4.6486300230026245e-01" nType="0">
            <Node pos="l" depth="3" NCoef="0" IVar="-1" Cut="0.0000000000000000e+00" cType="1" res="-2.8841607272624969e-02" rms="2.0750923454761505e-01" purity="6.8368501961231232e-02" nType="-99"/>
            <Node pos="r" depth="3" NCoef="0" IVar="7" Cut="2.8301613330841064e+00" cType="1" res="-5.5740907555446029e-04" rms="2.9412323236465454e-01" purity="4.7809180617332458e-01" nType="0">
              <Node pos="l" depth="4" NCoef="0" IVar="9" Cut="4.8076745867729187e-01" cType="1" res="-3.2071734312921762e-03" rms="2.9630142450332642e-01" purity="4.8725202679634094e-01" nType="0">
                <Node pos="l" depth="5" NCoef="0" IVar="-1" Cut="0.0000000000000000e+00" cType="1" res="-3.6709264386445284e-03" rms="2.9023942351341248e-01" purity="4.4223234057426453e-01" nType="-99"/>
                <Node pos="r" depth="5" NCoef="0" IVar="-1" Cut="0.0000000000000000e+00" cType="1" res="2.6774771977216005e-03" rms="3.1064748764038086e-01" purity="5.9888809919357300e-01" nType="-99"/>
              </Node>
              <Node pos="r" depth="4" NCoef="0" IVar="9" Cut="1.4032904803752899e-01" cType="1" res="1.8250616267323494e-02" rms="2.7744621038436890e-01" purity="4.1307249665260315e-01" nType="0">
                <Node pos="l" depth="5" NCoef="0" IVar="-1" Cut="0.0000000000000000e+00" cType="1" res="-2.7647744864225388e-03" rms="2.6780971884727478e-01" purity="2.3254485428333282e-01" nType="-99"/>
                <Node pos="r" depth="5" NCoef="0" IVar="-1" Cut="0.0000000000000000e+00" cType="1" res="1.7218204215168953e-02" rms="2.8299760818481445e-01" purity="5.4251682758331299e-01" nType="-99"/>
              </Node>
            </Node>
          </Node>
          <Node pos="r" depth="2" NCoef="0" IVar="7" Cut="1.7460194826126099e+00" cType="1" res="8.9031774550676346e-03" rms="3.1587001681327820e-01" purity="6.0343992710113525e-01" nType="0">
            <Node pos="l" depth="3" NCoef="0" IVar="9" Cut="1.9486688077449799e-01" cType="1" res="1.1766063980758190e-02" rms="3.1689089536666870e-01" purity="6.3470160961151123e-01" nType="0">
              <Node pos="l" depth="4" NCoef="0" IVar="-1" Cut="0.0000000000000000e+00" cType="1" res="1.2705345638096333e-02" rms="3.4874349832534790e-01" purity="3.2020992040634155e-01" nType="-99"/>
              <Node pos="r" depth="4" NCoef="0" IVar="4" Cut="1.1113233184814453e+02" cType="1" res="8.7957475334405899e-03" rms="3.1137952208518982e-01" purity="6.8511569499969482e-01" nType="0">
                <Node pos="l" depth="5" NCoef="0" IVar="-1" Cut="0.0000000000000000e+00" cType="1" res="6.4610788831487298e-04" rms="3.3715078234672546e-01" purity="6.0778445005416870e-01" nType="-99"/>
                <Node pos="r" depth="5" NCoef="0" IVar="-1" Cut="0.0000000000000000e+00" cType="1" res="7.9204011708498001e-03" rms="2.8820517659187317e-01" purity="7.4903881549835205e-01" nType="-99"/>
              </Node>
            </Node>
            <Node pos="r" depth="3" NCoef="0" IVar="-1" Cut="0.0000000000000000e+00" cType="1" res="-9.8973177373409271e-03" rms="3.0372253060340881e-01" purity="2.8452789783477783e-01" nType="-99"/>
          </Node>
        </Node>
        <Node pos="r" depth="1" NCoef="0" IVar="-1" Cut="0.0000000000000000e+00" cType="1" res="-1.1246748268604279e-02" rms="3.3434274792671204e-01" purity="3.1136935949325562e-01" nType="-99"/>
      </Node>
    </BinaryTree>
    <BinaryTree type="DecisionTree" boostWeight="1.0000000000000000e+00" itree="105">
      <Node pos="s" depth="0" NCoef="0" IVar="4" Cut="7.5906692504882812e+01" cType="1" res="1.0821862379088998e-03" rms="3.0106392502784729e-01" purity="5.0103467702865601e-01" nType="0">
        <Node pos="l" depth="1" NCoef="0" IVar="8" Cut="5.5419826507568359e-01" cType="1" res="-7.6175541616976261e-03" rms="3.2805752754211426e-01" purity="2.5789240002632141e-01" nType="0">
          <Node pos="l" depth="2" NCoef="0" IVar="1" Cut="1.0975610017776489e+00" cType="1" res="-1.2864711694419384e-02" rms="3.1680610775947571e-01" purity="2.3879550397396088e-01" nType="0">
            <Node pos="l" depth="3" NCoef="0" IVar="4" Cut="4.6510192871093750e+01" cType="1" res="-5.6984680704772472e-03" rms="2.9876998066902161e-01" purity="1.7589704692363739e-01" nType="0">
              <Node pos="l" depth="4" NCoef="0" IVar="-1" Cut="0.0000000000000000e+00" cType="1" res="-8.5868015885353088e-03" rms="2.7562326192855835e-01" purity="1.3716842234134674e-01" nType="-99"/>
              <Node pos="r" depth="4" NCoef="0" IVar="0" Cut="3.0487804412841797e+00" cType="1" res="-1.5903437742963433e-03" rms="3.0800387263298035e-01" purity="1.9238267838954926e-01" nType="0">
                <Node pos="l" depth="5" NCoef="0" IVar="-1" Cut="0.0000000000000000e+00" cType="1" res="3.9459499530494213e-03" rms="2.5580015778541565e-01" purity="9.9520966410636902e-02" nType="-99"/>
                <Node pos="r" depth="5" NCoef="0" IVar="-1" Cut="0.0000000000000000e+00" cType="1" res="-3.9372593164443970e-03" rms="3.7243941426277161e-01" purity="3.3123025298118591e-01" nType="-99"/>
              </Node>
            </Node>
            <Node pos="r" depth="3" NCoef="0" IVar="6" Cut="2.0688488483428955e+00" cType="1" res="-2.6339216157793999e-02" rms="3.4779867529869080e-01" purity="3.5706183314323425e-01" nType="0">
              <Node pos="l" depth="4" NCoef="0" IVar="-1" Cut="0.0000000000000000e+00" cType="1" res="-1.5086864121258259e-02" rms="3.3492344617843628e-01" purity="2.5373265147209167e-01" nType="-99"/>
              <Node pos="r" depth="4" NCoef="0" IVar="-1" Cut="0.0000000000000000e+00" cType="1" res="-5.4506789892911911e-03" rms="3.5844665765762329e-01" purity="4.4803869724273682e-01" nType="-99"/>
            </Node>
          </Node>
          <Node pos="r" depth="2" NCoef="0" IVar="-1" Cut="0.0000000000000000e+00" cType="1" res="6.9451592862606049e-03" rms="3.8099706172943115e-01" purity="3.5910993814468384e-01" nType="-99"/>
        </Node>
        <Node pos="r" depth="1" NCoef="0" IVar="4" Cut="1.2686080169677734e+02" cType="1" res="2.6225612964481115e-03" rms="2.9600140452384949e-01" purity="5.4408544301986694e-01" nType="0">
          <Node pos="l" depth="2" NCoef="0" IVar="5" Cut="4.4708328247070312e+01" cType="1" res="6.3704415224492550e-03" rms="2.9867497086524963e-01" purity="6.5462088584899902e-01" nType="0">
            <Node pos="l" depth="3" NCoef="0" IVar="-1" Cut="0.0000000000000000e+00" cType="1" res="-4.9657016061246395e-03" rms="3.6834591627120972e-01" purity="4.8623523116111755e-01" nType="-99"/>
            <Node pos="r" depth="3" NCoef="0" IVar="8" Cut="1.1945274472236633e-01" cType="1" res="7.5495694763958454e-03" rms="2.9404884576797485e-01" purity="6.6446501016616821e-01" nType="0">
              <Node pos="l" depth="4" NCoef="0" IVar="-1" Cut="0.0000000000000000e+00" cType="1" res="-4.4747111387550831e-03" rms="2.9026496410369873e-01" purity="2.6392370462417603e-01" nType="-99"/>
              <Node pos="r" depth="4" NCoef="0" IVar="7" Cut="2.6886262893676758e+00" cType="1" res="8.6858896538615227e-03" rms="2.9427900910377502e-01" purity="6.9256454706192017e-01" nType="0">
                <Node pos="l" depth="5" NCoef="0" IVar="-1" Cut="0.0000000000000000e+00" cType="1" res="3.6819602828472853e-03" rms="2.9573303461074829e-01" purity="6.9704633951187134e-01" nType="-99"/>
                <Node pos="r" depth="5" NCoef="0" IVar="-1" Cut="0.0000000000000000e+00" cType="1" res="1.3720336370170116e-02" rms="2.7831214666366577e-01" purity="6.4679366350173950e-01" nType="-99"/>
              </Node>
            </Node>
          </Node>
          <Node pos="r" depth="2" NCoef="0" IVar="9" Cut="5.6683433055877686e-01" cType="1" res="-2.6865229010581970e-03" rms="2.9208996891975403e-01" purity="3.8750571012496948e-01" nType="0">
            <Node pos="l" depth="3" NCoef="0" IVar="6" Cut="2.9883432388305664e+00" cType="1" res="-3.6153511609882116e-04" rms="2.9044386744499207e-01" purity="3.8330408930778503e-01" nType="0">
              <Node pos="l" depth="4" NCoef="0" IVar="0" Cut="2.0731706619262695e+00" cType="1" res="-2.4724034592509270e-03" rms="2.9136985540390015e-01" purity="3.5042053461074829e-01" nType="0">
                <Node pos="l" depth="5" NCoef="0" IVar="-1" Cut="0.0000000000000000e+00" cType="1" res="-6.8449373356997967e-03" rms="2.2872607409954071e-01" purity="1.2352132052183151e-01" nType="-99"/>
                <Node pos="r" depth="5" NCoef="0" IVar="-1" Cut="0.0000000000000000e+00" cType="1" res="7.7536120079457760e-04" rms="3.3021667599678040e-01" purity="5.1887774467468262e-01" nType="-99"/>
              </Node>
              <Node pos="r" depth="4" NCoef="0" IVar="-1" Cut="0.0000000000000000e+00" cType="1" res="7.8984992578625679e-03" rms="2.8281167149543762e-01" purity="6.3264983892440796e-01" nType="-99"/>
            </Node>
            <Node pos="r" depth="3" NCoef="0" IVar="-1" Cut="0.0000000000000000e+00" cType="1" res="-1.4397656545042992e-02" rms="3.0988094210624695e-01" purity="4.3816021084785461e-01" nType="-99"/>
          </Node>
        </Node>
      </Node>
    </BinaryTree>
    <BinaryTree type="DecisionTree" boostWeight="1.0000000000000000e+00" itree="106">
      <Node pos="s" depth="0" NCoef="0" IVar="1" Cut="1.0975610017776489e+00" cType="1" res="-1.4122651191428304e-03" rms="2.9798793792724609e-01" purity="5.0021523237228394e-01" nType="0">
        <Node pos="l" depth="1" NCoef="0" IVar="8" Cut="7.5504189729690552e-01" cType="1" res="-6.7117144353687763e-03" rms="3.0659162998199463e-01" purity="2.5351482629776001e-01" nType="0">
          <Node pos="l" depth="2" NCoef="0" IVar="0" Cut="4.0243902206420898e+00" cType="1" res="-8.3754519000649452e-03" rms="3.0455166101455688e-01" purity="2.5501701235771179e-01" nType="0">
            <Node pos="l" depth="3" NCoef="0" IVar="0" Cut="3.0487804412841797e+00" cType="1" res="-4.2823795229196548e-03" rms="2.5802582502365112e-01" purity="1.5041881799697876e-01" nType="0">
              <Node pos="l" depth="4" NCoef="0" IVar="6" Cut="2.2987272739410400e+00" cType="1" res="-6.2165926210582256e-03" rms="2.4052618443965912e-01" purity="1.0900089889764786e-01" nType="0">
                <Node pos="l" depth="5" NCoef="0" IVar="-1" Cut="0.0000000000000000e+00" cType="1" res="-8.5933851078152657e-03" rms="2.2189022600650787e-01" purity="6.9473974406719208e-02" nType="-99"/>
                <Node pos="r" depth="5" NCoef="0" IVar="-1" Cut="0.0000000000000000e+00" cType="1" res="-3.4493728890083730e-04" rms="2.7036938071250916e-01" purity="1.7916108667850494e-01" nType="-99"/>
              </Node>
              <Node pos="r" depth="4" NCoef="0" IVar="-1" Cut="0.0000000000000000e+00" cType="1" res="3.4515883307904005e-03" rms="3.5777649283409119e-01" purity="4.4304329156875610e-01" nType="-99"/>
            </Node>
            <Node pos="r" depth="3" NCoef="0" IVar="6" Cut="2.2987215518951416e+00" cType="1" res="0.0000000000000000e+00" rms="0.0000000000000000e+00" purity="4.0691909193992615e-01" nType="0">
              <Node pos="l" depth="4" NCoef="0" IVar="4" Cut="1.3458195495605469e+02" cType="1" res="0.0000000000000000e+00" rms="0.0000000000000000e+00" purity="3.3728814125061035e-01" nType="0">
                <Node pos="l" depth="5" NCoef="0" IVar="-1" Cut="0.0000000000000000e+00" cType="1" res="-5.1886746659874916e-03" rms="3.6980238556861877e-01" purity="3.9199391007423401e-01" nType="-99"/>
                <Node pos="r" depth="5" NCoef="0" IVar="-1" Cut="0.0000000000000000e+00" cType="1" res="4.1358405724167824e-03" rms="3.5564807057380676e-01" purity="2.2975367307662964e-01" nType="-99"/>
              </Node>
              <Node pos="r" depth="4" NCoef="0" IVar="6" Cut="2.6687595844268799e+00" cType="1" res="0.0000000000000000e+00" rms="0.0000000000000000e+00" purity="4.9948823451995850e-01" nType="0">
                <Node pos="l" depth="5" NCoef="0" IVar="-1" Cut="0.0000000000000000e+00" cType="1" res="-1.6078678891062737e-02" rms="3.5808023810386658e-01" purity="4.1062641143798828e-01" nType="-99"/>
                <Node pos="r" depth="5" NCoef="0" IVar="-1" Cut="0.0000000000000000e+00" cType="1" res="-4.3668653815984726e-03" rms="3.5469719767570496e-01" purity="5.4764026403427124e-01" nType="-99"/>
              </Node>
            </Node>
          </Node>
          <Node pos="r" depth="2" NCoef="0" IVar="-1" Cut="0.0000000000000000e+00" cType="1" res="7.4891275726258755e-03" rms="3.3264169096946716e-01" purity="2.3276843130588531e-01" nType="-99"/>
        </Node>
        <Node pos="r" depth="1" NCoef="0" IVar="4" Cut="5.8666416168212891e+01" cType="1" res="2.6778783649206161e-03" rms="2.9110786318778992e-01" purity="6.9061988592147827e-01" nType="0">
          <Node pos="l" depth="2" NCoef="0" IVar="-1" Cut="0.0000000000000000e+00" cType="1" res="-9.3221357092261314e-03" rms="3.5877782106399536e-01" purity="2.8349405527114868e-01" nType="-99"/>
          <Node pos="r" depth="2" NCoef="0" IVar="9" Cut="2.8647595643997192e-01" cType="1" res="3.9848620072007179e-03" rms="2.8766453266143799e-01" purity="7.0869731903076172e-01" nType="0">
            <Node pos="l" depth="3" NCoef="0" IVar="7" Cut="2.8301610946655273e+00" cType="1" res="-5.0134714692831039e-03" rms="3.1770172715187073e-01" purity="5.3649425506591797e-01" nType="0">
              <Node pos="l" depth="4" NCoef="0" IVar="8" Cut="2.2646333277225494e-01" cType="1" res="-8.9916568249464035e-03" rms="3.2804375886917114e-01" purity="5.2235877513885498e-01" nType="0">
                <Node pos="l" depth="5" NCoef="0" IVar="-1" Cut="0.0000000000000000e+00" cType="1" res="-1.8965719267725945e-02" rms="2.8678581118583679e-01" purity="2.1259698271751404e-01" nType="-99"/>
                <Node pos="r" depth="5" NCoef="0" IVar="-1" Cut="0.0000000000000000e+00" cType="1" res="-2.1120435558259487e-03" rms="3.3429542183876038e-01" purity="5.7434135675430298e-01" nType="-99"/>
              </Node>
              <Node pos="r" depth="4" NCoef="0" IVar="-1" Cut="0.0000000000000000e+00" cType="1" res="4.4231368228793144e-03" rms="2.7796030044555664e-01" purity="5.8607065677642822e-01" nType="-99"/>
            </Node>
            <Node pos="r" depth="3" NCoef="0" IVar="8" Cut="2.3859056830406189e-01" cType="1" res="8.9351283386349678e-03" rms="2.6958951354026794e-01" purity="8.0343163013458252e-01" nType="0">
              <Node pos="l" depth="4" NCoef="0" IVar="8" Cut="1.4559614658355713e-01" cType="1" res="-3.0358335934579372e-03" rms="3.1497368216514587e-01" purity="6.0471719503402710e-01" nType="0">
                <Node pos="l" depth="5" NCoef="0" IVar="-1" Cut="0.0000000000000000e+00" cType="1" res="-7.6235630549490452e-03" rms="3.2283857464790344e-01" purity="4.2715683579444885e-01" nType="-99"/>
                <Node pos="r" depth="5" NCoef="0" IVar="-1" Cut="0.0000000000000000e+00" cType="1" res="2.2665311116725206e-03" rms="3.1064882874488831e-01" purity="6.9409006834030151e-01" nType="-99"/>
              </Node>
              <Node pos="r" depth="4" NCoef="0" IVar="7" Cut="7.2948420047760010e-01" cType="1" res="1.2187689542770386e-02" rms="2.5577470660209656e-01" purity="8.5742318630218506e-01" nType="0">
                <Node pos="l" depth="5" NCoef="0" IVar="-1" Cut="0.0000000000000000e+00" cType="1" res="3.0203384812921286e-03" rms="2.6546114683151245e-01" purity="8.4625113010406494e-01" nType="-99"/>
                <Node pos="r" depth="5" NCoef="0" IVar="-1" Cut="0.0000000000000000e+00" cType="1" res="1.3286506757140160e-02" rms="2.4472306668758392e-01" purity="8.6938863992691040e-01" nType="-99"/>
              </Node>
            </Node>
          </Node>
        </Node>
      </Node>
    </BinaryTree>
    <BinaryTree type="DecisionTree" boostWeight="1.0000000000000000e+00" itree="107">
      <Node pos="s" depth="0" NCoef="0" IVar="5" Cut="4.1105514526367188e+01" cType="1" res="-6.3595082610845566e-04" rms="3.0039155483245850e-01" purity="4.9755647778511047e-01" nType="0">
        <Node pos="l" depth="1" NCoef="0" IVar="4" Cut="1.1159059143066406e+02" cType="1" res="-2.0117742940783501e-02" rms="3.4114170074462891e-01" purity="3.1852915883064270e-01" nType="0">
          <Node pos="l" depth="2" NCoef="0" IVar="-1" Cut="0.0000000000000000e+00" cType="1" res="-1.3018896803259850e-02" rms="3.4680399298667908e-01" purity="3.1318908929824829e-01" nType="-99"/>
          <Node pos="r" depth="2" NCoef="0" IVar="-1" Cut="0.0000000000000000e+00" cType="1" res="-3.0390336178243160e-03" rms="3.3550283312797546e-01" purity="3.2324478030204773e-01" nType="-99"/>
        </Node>
        <Node pos="r" depth="1" NCoef="0" IVar="9" Cut="9.2729610204696655e-01" cType="1" res="3.2498541986569762e-04" rms="2.9820457100868225e-01" purity="5.0638699531555176e-01" nType="0">
          <Node pos="l" depth="2" NCoef="0" IVar="9" Cut="4.2978897690773010e-01" cType="1" res="9.2953006969764829e-04" rms="2.9785782098770142e-01" purity="5.0911742448806763e-01" nType="0">
            <Node pos="l" depth="3" NCoef="0" IVar="9" Cut="7.3481716215610504e-02" cType="1" res="-2.9649040661752224e-03" rms="2.9556345939636230e-01" purity="4.4771325588226318e-01" nType="0">
              <Node pos="l" depth="4" NCoef="0" IVar="-1" Cut="0.0000000000000000e+00" cType="1" res="-2.3366497829556465e-02" rms="2.0726191997528076e-01" purity="5.8693706989288330e-02" nType="-99"/>
              <Node pos="r" depth="4" NCoef="0" IVar="7" Cut="3.2346725463867188e+00" cType="1" res="-1.6979351639747620e-03" rms="2.9938903450965881e-01" purity="4.6793967485427856e-01" nType="0">
                <Node pos="l" depth="5" NCoef="0" IVar="-1" Cut="0.0000000000000000e+00" cType="1" res="-1.6124892281368375e-03" rms="3.0089646577835083e-01" purity="4.7298508882522583e-01" nType="-99"/>
                <Node pos="r" depth="5" NCoef="0" IVar="-1" Cut="0.0000000000000000e+00" cType="1" res="9.4493934884667397e-03" rms="2.7699279785156250e-01" purity="3.9828619360923767e-01" nType="-99"/>
              </Node>
            </Node>
            <Node pos="r" depth="3" NCoef="0" IVar="6" Cut="1.6091092824935913e+00" cType="1" res="1.0075457394123077e-02" rms="3.0298104882240295e-01" purity="6.5332275629043579e-01" nType="0">
              <Node pos="l" depth="4" NCoef="0" IVar="4" Cut="9.3912330627441406e+01" cType="1" res="5.7918962556868792e-04" rms="3.3026421070098877e-01" purity="5.4001837968826294e-01" nType="0">
                <Node pos="l" depth="5" NCoef="0" IVar="-1" Cut="0.0000000000000000e+00" cType="1" res="-5.3053610026836395e-03" rms="3.5169485211372375e-01" purity="3.8740766048431396e-01" nType="-99"/>
                <Node pos="r" depth="5" NCoef="0" IVar="-1" Cut="0.0000000000000000e+00" cType="1" res="3.8765191566199064e-03" rms="3.1768310070037842e-01" purity="6.2351739406585693e-01" nType="-99"/>
              </Node>
              <Node pos="r" depth="4" NCoef="0" IVar="8" Cut="3.2237309217453003e-01" cType="1" res="1.5732450410723686e-02" rms="2.8534156084060669e-01" purity="7.2081899642944336e-01" nType="0">
                <Node pos="l" depth="5" NCoef="0" IVar="-1" Cut="0.0000000000000000e+00" cType="1" res="3.5224440507590771e-03" rms="3.2057410478591919e-01" purity="5.9194815158843994e-01" nType="-99"/>
                <Node pos="r" depth="5" NCoef="0" IVar="-1" Cut="0.0000000000000000e+00" cType="1" res="1.6035642474889755e-02" rms="2.4004741013050079e-01" purity="8.6354494094848633e-01" nType="-99"/>
              </Node>
            </Node>
          </Node>
          <Node pos="r" depth="2" NCoef="0" IVar="-1" Cut="0.0000000000000000e+00" cType="1" res="-1.1352491565048695e-02" rms="3.1126964092254639e-01" purity="3.9260482788085938e-01" nType="-99"/>
        </Node>
      </Node>
    </BinaryTree>
    <BinaryTree type="DecisionTree" boostWeight="1.0000000000000000e+00" itree="108">
      <Node pos="s" depth="0" NCoef="0" IVar="3" Cut="4.0243902206420898e+00" cType="1" res="4.5862677507102489e-04" rms="3.0061489343643188e-01" purity="4.9962028861045837e-01" nType="0">
        <Node pos="l" depth="1" NCoef="0" IVar="5" Cut="1.2752788543701172e+02" cType="1" res="1.9054336007684469e-03" rms="3.0125692486763000e-01" purity="5.4393303394317627e-01" nType="0">
          <Node pos="l" depth="2" NCoef="0" IVar="7" Cut="3.7066409587860107e+00" cType="1" res="3.6537132691591978e-03" rms="3.0412113666534424e-01" purity="5.8342868089675903e-01" nType="0">
            <Node pos="l" depth="3" NCoef="0" IVar="1" Cut="1.0975610017776489e+00" cType="1" res="2.7991905808448792e-03" rms="3.0428782105445862e-01" purity="5.9056973457336426e-01" nType="0">
              <Node pos="l" depth="4" NCoef="0" IVar="8" Cut="5.8008873462677002e-01" cType="1" res="-3.0625381041318178e-03" rms="3.3213523030281067e-01" purity="3.2773724198341370e-01" nType="0">
                <Node pos="l" depth="5" NCoef="0" IVar="-1" Cut="0.0000000000000000e+00" cType="1" res="-2.6617895346134901e-03" rms="3.2722425460815430e-01" purity="3.2641333341598511e-01" nType="-99"/>
                <Node pos="r" depth="5" NCoef="0" IVar="-1" Cut="0.0000000000000000e+00" cType="1" res="4.8591070808470249e-03" rms="3.5576653480529785e-01" purity="3.3449748158454895e-01" nType="-99"/>
              </Node>
              <Node pos="r" depth="4" NCoef="0" IVar="5" Cut="6.8596885681152344e+01" cType="1" res="6.4873648807406425e-03" rms="2.8531524538993835e-01" purity="7.5594288110733032e-01" nType="0">
                <Node pos="l" depth="5" NCoef="0" IVar="-1" Cut="0.0000000000000000e+00" cType="1" res="-1.7691465327516198e-03" rms="3.4174224734306335e-01" purity="6.3943761587142944e-01" nType="-99"/>
                <Node pos="r" depth="5" NCoef="0" IVar="-1" Cut="0.0000000000000000e+00" cType="1" res="5.8676130138337612e-03" rms="2.6681578159332275e-01" purity="7.8943485021591187e-01" nType="-99"/>
              </Node>
            </Node>
            <Node pos="r" depth="3" NCoef="0" IVar="-1" Cut="0.0000000000000000e+00" cType="1" res="1.7296932637691498e-02" rms="2.9663494229316711e-01" purity="3.3220076560974121e-01" nType="-99"/>
          </Node>
          <Node pos="r" depth="2" NCoef="0" IVar="0" Cut="4.0243902206420898e+00" cType="1" res="-8.9973034337162971e-03" rms="2.8249704837799072e-01" purity="2.9762768745422363e-01" nType="0">
            <Node pos="l" depth="3" NCoef="0" IVar="9" Cut="4.1870662569999695e-01" cType="1" res="-2.3030808661133051e-03" rms="2.5056388974189758e-01" purity="2.1155932545661926e-01" nType="0">
              <Node pos="l" depth="4" NCoef="0" IVar="6" Cut="2.2987306118011475e+00" cType="1" res="-1.0454735718667507e-02" rms="2.3084926605224609e-01" purity="1.4256173372268677e-01" nType="0">
                <Node pos="l" depth="5" NCoef="0" IVar="-1" Cut="0.0000000000000000e+00" cType="1" res="-3.6552266683429480e-03" rms="2.1637789905071259e-01" purity="7.0769630372524261e-02" nType="-99"/>
                <Node pos="r" depth="5" NCoef="0" IVar="-1" Cut="0.0000000000000000e+00" cType="1" res="-1.1868750676512718e-02" rms="2.5059595704078674e-01" purity="2.5004285573959351e-01" nType="-99"/>
              </Node>
              <Node pos="r" depth="4" NCoef="0" IVar="-1" Cut="0.0000000000000000e+00" cType="1" res="9.2689953744411469e-03" rms="2.9081928730010986e-01" purity="3.7380298972129822e-01" nType="-99"/>
            </Node>
            <Node pos="r" depth="3" NCoef="0" IVar="9" Cut="2.9711696505546570e-01" cType="1" res="0.0000000000000000e+00" rms="0.0000000000000000e+00" purity="4.3445807695388794e-01" nType="0">
              <Node pos="l" depth="4" NCoef="0" IVar="-1" Cut="0.0000000000000000e+00" cType="1" res="-6.1763040721416473e-03" rms="3.2913729548454285e-01" purity="2.6622438430786133e-01" nType="-99"/>
              <Node pos="r" depth="4" NCoef="0" IVar="-1" Cut="0.0000000000000000e+00" cType="1" res="-1.0353259742259979e-02" rms="3.2439932227134705e-01" purity="5.7698875665664673e-01" nType="-99"/>
            </Node>
          </Node>
        </Node>
        <Node pos="r" depth="1" NCoef="0" IVar="5" Cut="9.5148094177246094e+01" cType="1" res="-8.5424156859517097e-03" rms="2.9643079638481140e-01" purity="2.2393673658370972e-01" nType="0">
          <Node pos="l" depth="2" NCoef="0" IVar="9" Cut="3.7299114465713501e-01" cType="1" res="-2.2556476294994354e-02" rms="3.1452640891075134e-01" purity="2.3639558255672455e-01" nType="0">
            <Node pos="l" depth="3" NCoef="0" IVar="-1" Cut="0.0000000000000000e+00" cType="1" res="-1.6884900629520416e-02" rms="2.8578042984008789e-01" purity="1.5758417546749115e-01" nType="-99"/>
            <Node pos="r" depth="3" NCoef="0" IVar="-1" Cut="0.0000000000000000e+00" cType="1" res="-3.3991404343396425e-03" rms="3.5216391086578369e-01" purity="3.5241758823394775e-01" nType="-99"/>
          </Node>
          <Node pos="r" depth="2" NCoef="0" IVar="4" Cut="1.1710648345947266e+02" cType="1" res="1.1365787358954549e-03" rms="2.8285360336303711e-01" purity="2.1533183753490448e-01" nType="0">
            <Node pos="l" depth="3" NCoef="0" IVar="9" Cut="3.5738664865493774e-01" cType="1" res="1.5489513985812664e-02" rms="3.0712068080902100e-01" purity="2.2581380605697632e-01" nType="0">
              <Node pos="l" depth="4" NCoef="0" IVar="-1" Cut="0.0000000000000000e+00" cType="1" res="2.0010011270642281e-02" rms="3.1236448884010315e-01" purity="1.8404895067214966e-01" nType="-99"/>
              <Node pos="r" depth="4" NCoef="0" IVar="-1" Cut="0.0000000000000000e+00" cType="1" res="-1.7877018544822931e-03" rms="2.9990902543067932e-01" purity="2.7335402369499207e-01" nType="-99"/>
            </Node>
            <Node pos="r" depth="3" NCoef="0" IVar="-1" Cut="0.0000000000000000e+00" cType="1" res="-9.7429426386952400e-03" rms="2.5202828645706177e-01" purity="2.0361737906932831e-01" nType="-99"/>
          </Node>
        </Node>
      </Node>
    </BinaryTree>
    <BinaryTree type="DecisionTree" boostWeight="1.0000000000000000e+00" itree="109">
      <Node pos="s" depth="0" NCoef="0" IVar="8" Cut="2.5180906057357788e-01" cType="1" res="1.9981668447144330e-04" rms="2.9991132020950317e-01" purity="5.0006902217864990e-01" nType="0">
        <Node pos="l" depth="1" NCoef="0" IVar="7" Cut="3.1363890171051025e+00" cType="1" res="-6.3230288214981556e-03" rms="2.8562504053115845e-01" purity="3.3415618538856506e-01" nType="0">
          <Node pos="l" depth="2" NCoef="0" IVar="8" Cut="2.0280525088310242e-01" cType="1" res="-9.7340494394302368e-03" rms="2.8926178812980652e-01" purity="3.3272361755371094e-01" nType="0">
            <Node pos="l" depth="3" NCoef="0" IVar="7" Cut="9.9446475505828857e-01" cType="1" res="-1.4191307127475739e-02" rms="2.8247746825218201e-01" purity="2.6840570569038391e-01" nType="0">
              <Node pos="l" depth="4" NCoef="0" IVar="6" Cut="2.1454677581787109e+00" cType="1" res="-9.6623756689950824e-04" rms="2.9539439082145691e-01" purity="2.6508444547653198e-01" nType="0">
                <Node pos="l" depth="5" NCoef="0" IVar="-1" Cut="0.0000000000000000e+00" cType="1" res="5.5993054993450642e-03" rms="2.8705349564552307e-01" purity="2.2512851655483246e-01" nType="-99"/>
                <Node pos="r" depth="5" NCoef="0" IVar="-1" Cut="0.0000000000000000e+00" cType="1" res="-6.7480332218110561e-03" rms="3.0518284440040588e-01" purity="3.1549042463302612e-01" nType="-99"/>
              </Node>
              <Node pos="r" depth="4" NCoef="0" IVar="9" Cut="2.5515556335449219e-01" cType="1" res="-2.0199336111545563e-02" rms="2.7620100975036621e-01" purity="2.6991450786590576e-01" nType="0">
                <Node pos="l" depth="5" NCoef="0" IVar="-1" Cut="0.0000000000000000e+00" cType="1" res="-3.0875662341713905e-02" rms="2.1463686227798462e-01" purity="1.2608285248279572e-01" nType="-99"/>
                <Node pos="r" depth="5" NCoef="0" IVar="-1" Cut="0.0000000000000000e+00" cType="1" res="-6.9842757657170296e-03" rms="2.9526251554489136e-01" purity="3.2253745198249817e-01" nType="-99"/>
              </Node>
            </Node>
            <Node pos="r" depth="3" NCoef="0" IVar="7" Cut="9.9446296691894531e-01" cType="1" res="-2.0530244801193476e-03" rms="3.0043873190879822e-01" purity="4.4356027245521545e-01" nType="0">
              <Node pos="l" depth="4" NCoef="0" IVar="-1" Cut="0.0000000000000000e+00" cType="1" res="-7.5466884300112724e-03" rms="3.1185868382453918e-01" purity="3.8884744048118591e-01" nType="-99"/>
              <Node pos="r" depth="4" NCoef="0" IVar="0" Cut="1.0975610017776489e+00" cType="1" res="4.8052575439214706e-03" rms="2.9369020462036133e-01" purity="4.7390121221542358e-01" nType="0">
                <Node pos="l" depth="5" NCoef="0" IVar="-1" Cut="0.0000000000000000e+00" cType="1" res="-4.8965029418468475e-03" rms="2.5455749034881592e-01" purity="1.7368859052658081e-01" nType="-99"/>
                <Node pos="r" depth="5" NCoef="0" IVar="-1" Cut="0.0000000000000000e+00" cType="1" res="5.4694949649274349e-03" rms="3.1284761428833008e-01" purity="6.3834196329116821e-01" nType="-99"/>
              </Node>
            </Node>
          </Node>
          <Node pos="r" depth="2" NCoef="0" IVar="8" Cut="1.0453454405069351e-01" cType="1" res="8.7858736515045166e-03" rms="2.6840490102767944e-01" purity="3.4050166606903076e-01" nType="0">
            <Node pos="l" depth="3" NCoef="0" IVar="-1" Cut="0.0000000000000000e+00" cType="1" res="-4.9547883681952953e-03" rms="2.6440113782882690e-01" purity="1.6487900912761688e-01" nType="-99"/>
            <Node pos="r" depth="3" NCoef="0" IVar="-1" Cut="0.0000000000000000e+00" cType="1" res="9.9625671282410622e-03" rms="2.7033397555351257e-01" purity="4.4843006134033203e-01" nType="-99"/>
          </Node>
        </Node>
        <Node pos="r" depth="1" NCoef="0" IVar="7" Cut="6.3332229852676392e-01" cType="1" res="3.0401649419218302e-03" rms="3.0588030815124512e-01" purity="5.7231521606445312e-01" nType="0">
          <Node pos="l" depth="2" NCoef="0" IVar="8" Cut="4.9112907052040100e-01" cType="1" res="-3.4207361750304699e-03" rms="3.1766611337661743e-01" purity="6.0044372081756592e-01" nType="0">
            <Node pos="l" depth="3" NCoef="0" IVar="9" Cut="4.7792291641235352e-01" cType="1" res="-1.0056696832180023e-02" rms="3.0820655822753906e-01" purity="5.8789330720901489e-01" nType="0">
              <Node pos="l" depth="4" NCoef="0" IVar="8" Cut="4.1524717211723328e-01" cType="1" res="-1.9295398145914078e-02" rms="3.1934967637062073e-01" purity="4.8136812448501587e-01" nType="0">
                <Node pos="l" depth="5" NCoef="0" IVar="-1" Cut="0.0000000000000000e+00" cType="1" res="-1.2535483576357365e-02" rms="3.1799262762069702e-01" purity="4.2207786440849304e-01" nType="-99"/>
                <Node pos="r" depth="5" NCoef="0" IVar="-1" Cut="0.0000000000000000e+00" cType="1" res="-3.7631741724908352e-03" rms="3.2150810956954956e-01" purity="5.8995765447616577e-01" nType="-99"/>
              </Node>
              <Node pos="r" depth="4" NCoef="0" IVar="-1" Cut="0.0000000000000000e+00" cType="1" res="1.2335267383605242e-03" rms="2.9218828678131104e-01" purity="7.3033231496810913e-01" nType="-99"/>
            </Node>
            <Node pos="r" depth="3" NCoef="0" IVar="6" Cut="7.6625174283981323e-01" cType="1" res="5.6261108256876469e-03" rms="3.2991105318069458e-01" purity="6.1755388975143433e-01" nType="0">
              <Node pos="l" depth="4" NCoef="0" IVar="-1" Cut="0.0000000000000000e+00" cType="1" res="-6.8795960396528244e-03" rms="3.8404822349548340e-01" purity="3.7748149037361145e-01" nType="-99"/>
              <Node pos="r" depth="4" NCoef="0" IVar="8" Cut="5.8679044246673584e-01" cType="1" res="1.0705928318202496e-02" rms="3.1668111681938171e-01" purity="6.6978961229324341e-01" nType="0">
                <Node pos="l" depth="5" NCoef="0" IVar="-1" Cut="0.0000000000000000e+00" cType="1" res="3.0884650186635554e-04" rms="2.9006633162498474e-01" purity="7.2379964590072632e-01" nType="-99"/>
                <Node pos="r" depth="5" NCoef="0" IVar="-1" Cut="0.0000000000000000e+00" cType="1" res="8.1765269860625267e-03" rms="3.3592119812965393e-01" purity="6.2731283903121948e-01" nType="-99"/>
              </Node>
            </Node>
          </Node>
          <Node pos="r" depth="2" NCoef="0" IVar="9" Cut="2.2163361310958862e-01" cType="1" res="7.0185130462050438e-03" rms="2.9832205176353455e-01" purity="5.5499488115310669e-01" nType="0">
            <Node pos="l" depth="3" NCoef="0" IVar="5" Cut="1.0978153991699219e+02" cType="1" res="-2.9990205075591803e-03" rms="3.0503356456756592e-01" purity="2.9574382305145264e-01" nType="0">
              <Node pos="l" depth="4" NCoef="0" IVar="9" Cut="1.4061960577964783e-01" cType="1" res="1.7227050848305225e-03" rms="3.1912460923194885e-01" purity="3.6719679832458496e-01" nType="0">
                <Node pos="l" depth="5" NCoef="0" IVar="-1" Cut="0.0000000000000000e+00" cType="1" res="-3.5345407668501139e-03" rms="3.1081750988960266e-01" purity="2.2390435636043549e-01" nType="-99"/>
                <Node pos="r" depth="5" NCoef="0" IVar="-1" Cut="0.0000000000000000e+00" cType="1" res="3.7019348237663507e-03" rms="3.2506012916564941e-01" purity="4.7478452324867249e-01" nType="-99"/>
              </Node>
              <Node pos="r" depth="4" NCoef="0" IVar="-1" Cut="0.0000000000000000e+00" cType="1" res="-9.2722242698073387e-03" rms="2.6760366559028625e-01" purity="1.2310597300529480e-01" nType="-99"/>
            </Node>
            <Node pos="r" depth="3" NCoef="0" IVar="7" Cut="1.8098311424255371e+00" cType="1" res="1.1452169157564640e-02" rms="2.9519438743591309e-01" purity="6.6973662376403809e-01" nType="0">
              <Node pos="l" depth="4" NCoef="0" IVar="9" Cut="3.2695186138153076e-01" cType="1" res="6.2443451024591923e-03" rms="3.0273658037185669e-01" purity="6.5358400344848633e-01" nType="0">
                <Node pos="l" depth="5" NCoef="0" IVar="-1" Cut="0.0000000000000000e+00" cType="1" res="-3.4077370073646307e-03" rms="3.2808926701545715e-01" purity="5.2067768573760986e-01" nType="-99"/>
                <Node pos="r" depth="5" NCoef="0" IVar="-1" Cut="0.0000000000000000e+00" cType="1" res="6.3811019062995911e-03" rms="2.9058423638343811e-01" purity="7.1248430013656616e-01" nType="-99"/>
              </Node>
              <Node pos="r" depth="4" NCoef="0" IVar="-1" Cut="0.0000000000000000e+00" cType="1" res="2.3133814334869385e-02" rms="2.5008395314216614e-01" purity="7.5464481115341187e-01" nType="-99"/>
            </Node>
          </Node>
        </Node>
      </Node>
    </BinaryTree>
    <BinaryTree type="DecisionTree" boostWeight="1.0000000000000000e+00" itree="110">
      <Node pos="s" depth="0" NCoef="0" IVar="0" Cut="3.0487804412841797e+00" cType="1" res="-5.6449894327670336e-04" rms="2.9971939325332642e-01" purity="4.9786981940269470e-01" nType="0">
        <Node pos="l" depth="1" NCoef="0" IVar="5" Cut="7.7016166687011719e+01" cType="1" res="-5.5761393159627914e-03" rms="2.7641004323959351e-01" purity="2.8031349182128906e-01" nType="0">
          <Node pos="l" depth="2" NCoef="0" IVar="9" Cut="3.4333434700965881e-01" cType="1" res="-1.1431945487856865e-02" rms="3.0128934979438782e-01" purity="2.7835261821746826e-01" nType="0">
            <Node pos="l" depth="3" NCoef="0" IVar="5" Cut="5.1672256469726562e+01" cType="1" res="-5.6494716554880142e-03" rms="2.8013244271278381e-01" purity="2.2295185923576355e-01" nType="0">
              <Node pos="l" depth="4" NCoef="0" IVar="-1" Cut="0.0000000000000000e+00" cType="1" res="-1.1033107526600361e-02" rms="2.5731796026229858e-01" purity="1.1966702342033386e-01" nType="-99"/>
              <Node pos="r" depth="4" NCoef="0" IVar="9" Cut="2.0946428179740906e-01" cType="1" res="-7.3371361941099167e-04" rms="2.8989297151565552e-01" purity="2.7046352624893188e-01" nType="0">
                <Node pos="l" depth="5" NCoef="0" IVar="-1" Cut="0.0000000000000000e+00" cType="1" res="-7.7416282147169113e-03" rms="2.5111529231071472e-01" purity="1.6222448647022247e-01" nType="-99"/>
                <Node pos="r" depth="5" NCoef="0" IVar="-1" Cut="0.0000000000000000e+00" cType="1" res="4.4810418039560318e-03" rms="3.1955283880233765e-01" purity="3.6481046676635742e-01" nType="-99"/>
              </Node>
            </Node>
            <Node pos="r" depth="3" NCoef="0" IVar="4" Cut="8.7785476684570312e+01" cType="1" res="-1.8695140257477760e-02" rms="3.2577836513519287e-01" purity="3.4793984889984131e-01" nType="0">
              <Node pos="l" depth="4" NCoef="0" IVar="-1" Cut="0.0000000000000000e+00" cType="1" res="-1.2776171788573265e-02" rms="3.2064682245254517e-01" purity="2.1537052094936371e-01" nType="-99"/>
              <Node pos="r" depth="4" NCoef="0" IVar="-1" Cut="0.0000000000000000e+00" cType="1" res="-4.7058463096618652e-03" rms="3.2893207669258118e-01" purity="4.3651089072227478e-01" nType="-99"/>
            </Node>
          </Node>
          <Node pos="r" depth="2" NCoef="0" IVar="5" Cut="8.5112174987792969e+01" cType="1" res="-3.0061779543757439e-03" rms="2.6471310853958130e-01" purity="2.8117409348487854e-01" nType="0">
            <Node pos="l" depth="3" NCoef="0" IVar="7" Cut="1.3654325008392334e+00" cType="1" res="9.0769520029425621e-03" rms="3.0015000700950623e-01" purity="5.3541064262390137e-01" nType="0">
              <Node pos="l" depth="4" NCoef="0" IVar="-1" Cut="0.0000000000000000e+00" cType="1" res="9.3310780357569456e-04" rms="3.0735746026039124e-01" purity="5.5660223960876465e-01" nType="-99"/>
              <Node pos="r" depth="4" NCoef="0" IVar="-1" Cut="0.0000000000000000e+00" cType="1" res="8.8679650798439980e-03" rms="2.9020071029663086e-01" purity="5.0771224498748779e-01" nType="-99"/>
            </Node>
            <Node pos="r" depth="3" NCoef="0" IVar="9" Cut="6.9855910539627075e-01" cType="1" res="-5.4588145576417446e-03" rms="2.5685468316078186e-01" purity="2.2956907749176025e-01" nType="0">
              <Node pos="l" depth="4" NCoef="0" IVar="9" Cut="3.7490832805633545e-01" cType="1" res="-4.3968227691948414e-03" rms="2.5373125076293945e-01" purity="2.3245957493782043e-01" nType="0">
                <Node pos="l" depth="5" NCoef="0" IVar="-1" Cut="0.0000000000000000e+00" cType="1" res="-6.2351906672120094e-03" rms="2.3338015377521515e-01" purity="1.6009204089641571e-01" nType="-99"/>
                <Node pos="r" depth="5" NCoef="0" IVar="-1" Cut="0.0000000000000000e+00" cType="1" res="1.9363347673788667e-03" rms="2.9315221309661865e-01" purity="3.9052549004554749e-01" nType="-99"/>
              </Node>
              <Node pos="r" depth="4" NCoef="0" IVar="-1" Cut="0.0000000000000000e+00" cType="1" res="-9.6070049330592155e-03" rms="2.9058647155761719e-01" purity="1.9579669833183289e-01" nType="-99"/>
            </Node>
          </Node>
        </Node>
        <Node pos="r" depth="1" NCoef="0" IVar="5" Cut="1.4920059204101562e+02" cType="1" res="3.4600133076310158e-03" rms="3.1714263558387756e-01" purity="6.7257475852966309e-01" nType="0">
          <Node pos="l" depth="2" NCoef="0" IVar="3" Cut="4.0243902206420898e+00" cType="1" res="4.1051348671317101e-03" rms="3.1712642312049866e-01" purity="6.8140894174575806e-01" nType="0">
            <Node pos="l" depth="3" NCoef="0" IVar="7" Cut="2.4202127754688263e-01" cType="1" res="5.4053338244557381e-03" rms="3.1238192319869995e-01" purity="7.1170383691787720e-01" nType="0">
              <Node pos="l" depth="4" NCoef="0" IVar="-1" Cut="0.0000000000000000e+00" cType="1" res="-2.4969866499304771e-03" rms="3.1158998608589172e-01" purity="7.4882888793945312e-01" nType="-99"/>
              <Node pos="r" depth="4" NCoef="0" IVar="5" Cut="1.2257964324951172e+02" cType="1" res="6.9627203047275543e-03" rms="3.1247195601463318e-01" purity="7.0608955621719360e-01" nType="0">
                <Node pos="l" depth="5" NCoef="0" IVar="-1" Cut="0.0000000000000000e+00" cType="1" res="4.0387893095612526e-03" rms="3.1039491295814514e-01" purity="7.3558175563812256e-01" nType="-99"/>
                <Node pos="r" depth="5" NCoef="0" IVar="-1" Cut="0.0000000000000000e+00" cType="1" res="-1.7702915938571095e-03" rms="3.2952812314033508e-01" purity="4.5336273312568665e-01" nType="-99"/>
              </Node>
            </Node>
            <Node pos="r" depth="3" NCoef="0" IVar="5" Cut="1.0288280487060547e+02" cType="1" res="-8.7374225258827209e-03" rms="3.6040025949478149e-01" purity="3.8217505812644958e-01" nType="0">
              <Node pos="l" depth="4" NCoef="0" IVar="-1" Cut="0.0000000000000000e+00" cType="1" res="-8.4676742553710938e-03" rms="3.7333679199218750e-01" purity="3.9146035909652710e-01" nType="-99"/>
              <Node pos="r" depth="4" NCoef="0" IVar="-1" Cut="0.0000000000000000e+00" cType="1" res="4.5142779126763344e-03" rms="3.4347990155220032e-01" purity="3.7124070525169373e-01" nType="-99"/>
            </Node>
          </Node>
          <Node pos="r" depth="2" NCoef="0" IVar="-1" Cut="0.0000000000000000e+00" cType="1" res="-5.7104281149804592e-03" rms="3.1711134314537048e-01" purity="4.4647550582885742e-01" nType="-99"/>
        </Node>
      </Node>
    </BinaryTree>
    <BinaryTree type="DecisionTree" boostWeight="1.0000000000000000e+00" itree="111">
      <Node pos="s" depth="0" NCoef="0" IVar="5" Cut="9.1448081970214844e+01" cType="1" res="-3.5539807868190110e-04" rms="2.9954749345779419e-01" purity="4.9881964921951294e-01" nType="0">
        <Node pos="l" depth="1" NCoef="0" IVar="3" Cut="4.0243902206420898e+00" cType="1" res="2.9605340678244829e-03" rms="3.0604088306427002e-01" purity="6.0434019565582275e-01" nType="0">
          <Node pos="l" depth="2" NCoef="0" IVar="5" Cut="7.2088172912597656e+01" cType="1" res="4.9280044622719288e-03" rms="3.0484127998352051e-01" purity="6.4097952842712402e-01" nType="0">
            <Node pos="l" depth="3" NCoef="0" IVar="4" Cut="6.5007835388183594e+01" cType="1" res="-3.2436915207654238e-03" rms="3.3529180288314819e-01" purity="4.9198353290557861e-01" nType="0">
              <Node pos="l" depth="4" NCoef="0" IVar="-1" Cut="0.0000000000000000e+00" cType="1" res="-8.1126410514116287e-03" rms="3.5728994011878967e-01" purity="2.4209211766719818e-01" nType="-99"/>
              <Node pos="r" depth="4" NCoef="0" IVar="6" Cut="7.6624608039855957e-01" cType="1" res="-1.0931268334388733e-03" rms="3.3261430263519287e-01" purity="5.2057629823684692e-01" nType="0">
                <Node pos="l" depth="5" NCoef="0" IVar="-1" Cut="0.0000000000000000e+00" cType="1" res="-6.4204051159322262e-03" rms="3.3426603674888611e-01" purity="3.4851369261741638e-01" nType="-99"/>
                <Node pos="r" depth="5" NCoef="0" IVar="-1" Cut="0.0000000000000000e+00" cType="1" res="5.8174697915092111e-04" rms="3.3226260542869568e-01" purity="5.5106663703918457e-01" nType="-99"/>
              </Node>
            </Node>
            <Node pos="r" depth="3" NCoef="0" IVar="7" Cut="2.0944290161132812e+00" cType="1" res="1.0929143987596035e-02" rms="2.8022903203964233e-01" purity="7.5039941072463989e-01" nType="0">
              <Node pos="l" depth="4" NCoef="0" IVar="9" Cut="2.8993827104568481e-01" cType="1" res="7.4683311395347118e-03" rms="2.8141871094703674e-01" purity="7.6351857185363770e-01" nType="0">
                <Node pos="l" depth="5" NCoef="0" IVar="-1" Cut="0.0000000000000000e+00" cType="1" res="-5.6924116797745228e-03" rms="3.3069929480552673e-01" purity="5.0582104921340942e-01" nType="-99"/>
                <Node pos="r" depth="5" NCoef="0" IVar="-1" Cut="0.0000000000000000e+00" cType="1" res="8.2284556701779366e-03" rms="2.6532685756683350e-01" purity="8.3735853433609009e-01" nType="-99"/>
              </Node>
              <Node pos="r" depth="4" NCoef="0" IVar="-1" Cut="0.0000000000000000e+00" cType="1" res="1.1667669750750065e-02" rms="2.7561756968498230e-01" purity="7.0386517047882080e-01" nType="-99"/>
            </Node>
          </Node>
          <Node pos="r" depth="2" NCoef="0" IVar="5" Cut="6.2484989166259766e+01" cType="1" res="-1.6790159046649933e-02" rms="3.1715708971023560e-01" purity="2.3653148114681244e-01" nType="0">
            <Node pos="l" depth="3" NCoef="0" IVar="-1" Cut="0.0000000000000000e+00" cType="1" res="-7.8079081140458584e-04" rms="3.3386000990867615e-01" purity="2.5160163640975952e-01" nType="-99"/>
            <Node pos="r" depth="3" NCoef="0" IVar="-1" Cut="0.0000000000000000e+00" cType="1" res="-1.2458528392016888e-02" rms="3.0488079786300659e-01" purity="2.2630199790000916e-01" nType="-99"/>
          </Node>
        </Node>
        <Node pos="r" depth="1" NCoef="0" IVar="8" Cut="6.2303715944290161e-01" cType="1" res="-4.7924490645527840e-03" rms="2.9057261347770691e-01" purity="3.5762259364128113e-01" nType="0">
          <Node pos="l" depth="2" NCoef="0" IVar="2" Cut="1.0975610017776489e+00" cType="1" res="-3.3785391133278608e-03" rms="2.8581240773200989e-01" purity="3.6281052231788635e-01" nType="0">
            <Node pos="l" depth="3" NCoef="0" IVar="3" Cut="4.0243902206420898e+00" cType="1" res="1.7377763288095593e-03" rms="3.1441187858581543e-01" purity="4.8427611589431763e-01" nType="0">
              <Node pos="l" depth="4" NCoef="0" IVar="8" Cut="4.4077369570732117e-01" cType="1" res="-2.1250527352094650e-03" rms="3.0957725644111633e-01" purity="5.2555924654006958e-01" nType="0">
                <Node pos="l" depth="5" NCoef="0" IVar="-1" Cut="0.0000000000000000e+00" cType="1" res="-2.5524331722408533e-03" rms="3.0993676185607910e-01" purity="4.8696428537368774e-01" nType="-99"/>
                <Node pos="r" depth="5" NCoef="0" IVar="-1" Cut="0.0000000000000000e+00" cType="1" res="4.8617888242006302e-03" rms="3.0789759755134583e-01" purity="6.7362111806869507e-01" nType="-99"/>
              </Node>
              <Node pos="r" depth="4" NCoef="0" IVar="6" Cut="2.2987227439880371e+00" cType="1" res="1.7912916839122772e-02" rms="3.3341109752655029e-01" purity="3.1140780448913574e-01" nType="0">
                <Node pos="l" depth="5" NCoef="0" IVar="-1" Cut="0.0000000000000000e+00" cType="1" res="2.3248305078595877e-03" rms="3.1356018781661987e-01" purity="1.6946342587471008e-01" nType="-99"/>
                <Node pos="r" depth="5" NCoef="0" IVar="-1" Cut="0.0000000000000000e+00" cType="1" res="1.3621344231069088e-02" rms="3.5488307476043701e-01" purity="4.8015645146369934e-01" nType="-99"/>
              </Node>
            </Node>
            <Node pos="r" depth="3" NCoef="0" IVar="5" Cut="1.4662365722656250e+02" cType="1" res="-1.1889247223734856e-02" rms="2.3025619983673096e-01" purity="1.6075915098190308e-01" nType="0">
              <Node pos="l" depth="4" NCoef="0" IVar="6" Cut="8.4286761283874512e-01" cType="1" res="-1.4116387814283371e-02" rms="2.3023578524589539e-01" purity="1.6108027100563049e-01" nType="0">
                <Node pos="l" depth="5" NCoef="0" IVar="-1" Cut="0.0000000000000000e+00" cType="1" res="-4.1709402576088905e-03" rms="2.2623631358146667e-01" purity="7.4821576476097107e-02" nType="-99"/>
                <Node pos="r" depth="5" NCoef="0" IVar="-1" Cut="0.0000000000000000e+00" cType="1" res="-1.1878274381160736e-02" rms="2.3101182281970978e-01" purity="1.7919014394283295e-01" nType="-99"/>
              </Node>
              <Node pos="r" depth="4" NCoef="0" IVar="-1" Cut="0.0000000000000000e+00" cType="1" res="1.1398592032492161e-03" rms="2.2993092238903046e-01" purity="1.5884533524513245e-01" nType="-99"/>
            </Node>
          </Node>
          <Node pos="r" depth="2" NCoef="0" IVar="-1" Cut="0.0000000000000000e+00" cType="1" res="-9.5724510028958321e-03" rms="3.3995100855827332e-01" purity="2.9821348190307617e-01" nType="-99"/>
        </Node>
      </Node>
    </BinaryTree>
    <BinaryTree type="DecisionTree" boostWeight="1.0000000000000000e+00" itree="112">
      <Node pos="s" depth="0" NCoef="0" IVar="6" Cut="9.1949045658111572e-01" cType="1" res="7.6828910096082836e-06" rms="2.9989066720008850e-01" purity="4.9904498457908630e-01" nType="0">
        <Node pos="l" depth="1" NCoef="0" IVar="7" Cut="2.6596450805664062e-01" cType="1" res="-9.9203856661915779e-03" rms="3.0637115240097046e-01" purity="2.9875659942626953e-01" nType="0">
          <Node pos="l" depth="2" NCoef="0" IVar="-1" Cut="0.0000000000000000e+00" cType="1" res="-1.9176507368683815e-02" rms="3.3327466249465942e-01" purity="2.8464657068252563e-01" nType="-99"/>
          <Node pos="r" depth="2" NCoef="0" IVar="8" Cut="6.9507455825805664e-01" cType="1" res="-5.7807466946542263e-03" rms="3.0232301354408264e-01" purity="3.0065867304801941e-01" nType="0">
            <Node pos="l" depth="3" NCoef="0" IVar="7" Cut="7.8491622209548950e-01" cType="1" res="-8.9987386018037796e-03" rms="2.9174536466598511e-01" purity="2.7686920762062073e-01" nType="0">
              <Node pos="l" depth="4" NCoef="0" IVar="-1" Cut="0.0000000000000000e+00" cType="1" res="-1.2917709536850452e-02" rms="3.1309863924980164e-01" purity="3.0069512128829956e-01" nType="-99"/>
              <Node pos="r" depth="4" NCoef="0" IVar="7" Cut="2.5126471519470215e+00" cType="1" res="-3.9614103734493256e-03" rms="2.8479224443435669e-01" purity="2.6967591047286987e-01" nType="0">
                <Node pos="l" depth="5" NCoef="0" IVar="-1" Cut="0.0000000000000000e+00" cType="1" res="3.5516181378625333e-04" rms="2.9992979764938354e-01" purity="3.1701028347015381e-01" nType="-99"/>
                <Node pos="r" depth="5" NCoef="0" IVar="-1" Cut="0.0000000000000000e+00" cType="1" res="-1.3072565197944641e-02" rms="2.3140546679496765e-01" purity="1.2375283986330032e-01" nType="-99"/>
              </Node>
            </Node>
            <Node pos="r" depth="3" NCoef="0" IVar="-1" Cut="0.0000000000000000e+00" cType="1" res="4.5298314653337002e-03" rms="3.5168570280075073e-01" purity="4.2413842678070068e-01" nType="-99"/>
          </Node>
        </Node>
        <Node pos="r" depth="1" NCoef="0" IVar="9" Cut="1.6492626070976257e-01" cType="1" res="2.0734020508825779e-03" rms="2.9848310351371765e-01" purity="5.4071861505508423e-01" nType="0">
          <Node pos="l" depth="2" NCoef="0" IVar="7" Cut="9.7543638944625854e-01" cType="1" res="-9.0378727763891220e-03" rms="2.8311267495155334e-01" purity="2.2045551240444183e-01" nType="0">
            <Node pos="l" depth="3" NCoef="0" IVar="-1" Cut="0.0000000000000000e+00" cType="1" res="1.1797732673585415e-02" rms="3.0461913347244263e-01" purity="2.0308345556259155e-01" nType="-99"/>
            <Node pos="r" depth="3" NCoef="0" IVar="7" Cut="3.1761152744293213e+00" cType="1" res="-1.7558604478836060e-02" rms="2.7605181932449341e-01" purity="2.2543381154537201e-01" nType="0">
              <Node pos="l" depth="4" NCoef="0" IVar="7" Cut="1.8342384099960327e+00" cType="1" res="-2.4901799857616425e-02" rms="2.7932664752006531e-01" purity="1.8902152776718140e-01" nType="0">
                <Node pos="l" depth="5" NCoef="0" IVar="-1" Cut="0.0000000000000000e+00" cType="1" res="-2.5963184889405966e-03" rms="2.8904029726982117e-01" purity="1.8311287462711334e-01" nType="-99"/>
                <Node pos="r" depth="5" NCoef="0" IVar="-1" Cut="0.0000000000000000e+00" cType="1" res="-2.0655211061239243e-02" rms="2.7206146717071533e-01" purity="1.9283898174762726e-01" nType="-99"/>
              </Node>
              <Node pos="r" depth="4" NCoef="0" IVar="-1" Cut="0.0000000000000000e+00" cType="1" res="-1.5923201572149992e-03" rms="2.6875701546669006e-01" purity="2.9848885536193848e-01" nType="-99"/>
            </Node>
          </Node>
          <Node pos="r" depth="2" NCoef="0" IVar="7" Cut="2.5832805633544922e+00" cType="1" res="3.9000262040644884e-03" rms="3.0089551210403442e-01" purity="5.9336799383163452e-01" nType="0">
            <Node pos="l" depth="3" NCoef="0" IVar="9" Cut="4.0007027983665466e-01" cType="1" res="1.9969320856034756e-03" rms="3.0295032262802124e-01" purity="5.9739905595779419e-01" nType="0">
              <Node pos="l" depth="4" NCoef="0" IVar="8" Cut="2.7163559198379517e-01" cType="1" res="-3.0430525075644255e-03" rms="3.0947288870811462e-01" purity="5.3361475467681885e-01" nType="0">
                <Node pos="l" depth="5" NCoef="0" IVar="-1" Cut="0.0000000000000000e+00" cType="1" res="-8.9109372347593307e-03" rms="2.9207193851470947e-01" purity="3.0570057034492493e-01" nType="-99"/>
                <Node pos="r" depth="5" NCoef="0" IVar="-1" Cut="0.0000000000000000e+00" cType="1" res="4.4164381688460708e-04" rms="3.1467655301094055e-01" purity="6.0575884580612183e-01" nType="-99"/>
              </Node>
              <Node pos="r" depth="4" NCoef="0" IVar="8" Cut="3.7622261047363281e-01" cType="1" res="8.4655452519655228e-03" rms="2.9424071311950684e-01" purity="6.7926353216171265e-01" nType="0">
                <Node pos="l" depth="5" NCoef="0" IVar="-1" Cut="0.0000000000000000e+00" cType="1" res="1.5322921099141240e-03" rms="3.1081786751747131e-01" purity="5.9641450643539429e-01" nType="-99"/>
                <Node pos="r" depth="5" NCoef="0" IVar="-1" Cut="0.0000000000000000e+00" cType="1" res="1.0596035979688168e-02" rms="2.6359117031097412e-01" purity="8.1942194700241089e-01" nType="-99"/>
              </Node>
            </Node>
            <Node pos="r" depth="3" NCoef="0" IVar="8" Cut="1.3669982552528381e-01" cType="1" res="2.4343807250261307e-02" rms="2.7704158425331116e-01" purity="5.5006408691406250e-01" nType="0">
              <Node pos="l" depth="4" NCoef="0" IVar="-1" Cut="0.0000000000000000e+00" cType="1" res="-3.6728871054947376e-03" rms="2.9378125071525574e-01" purity="2.8369182348251343e-01" nType="-99"/>
              <Node pos="r" depth="4" NCoef="0" IVar="-1" Cut="0.0000000000000000e+00" cType="1" res="2.4291964247822762e-02" rms="2.6333829760551453e-01" purity="7.2637301683425903e-01" nType="-99"/>
            </Node>
          </Node>
        </Node>
      </Node>
    </BinaryTree>
    <BinaryTree type="DecisionTree" boostWeight="1.0000000000000000e+00" itree="113">
      <Node pos="s" depth="0" NCoef="0" IVar="6" Cut="2.9117176532745361e+00" cType="1" res="-1.0343133471906185e-03" rms="2.9942628741264343e-01" purity="4.9690008163452148e-01" nType="0">
        <Node pos="l" depth="1" NCoef="0" IVar="4" Cut="9.9119125366210938e+01" cType="1" res="-2.4479681160300970e-03" rms="3.0365335941314697e-01" purity="4.6178877353668213e-01" nType="0">
          <Node pos="l" depth="2" NCoef="0" IVar="8" Cut="6.2894815206527710e-01" cType="1" res="-7.1609304286539555e-03" rms="3.2159703969955444e-01" purity="3.6881348490715027e-01" nType="0">
            <Node pos="l" depth="3" NCoef="0" IVar="9" Cut="5.9993648529052734e-01" cType="1" res="-9.3696694821119308e-03" rms="3.1559807062149048e-01" purity="3.6196228861808777e-01" nType="0">
              <Node pos="l" depth="4" NCoef="0" IVar="7" Cut="1.2897942066192627e+00" cType="1" res="-1.2510673142969608e-02" rms="3.0950292944908142e-01" purity="3.3963775634765625e-01" nType="0">
                <Node pos="l" depth="5" NCoef="0" IVar="-1" Cut="0.0000000000000000e+00" cType="1" res="-1.1107616126537323e-02" rms="3.2274684309959412e-01" purity="3.7796413898468018e-01" nType="-99"/>
                <Node pos="r" depth="5" NCoef="0" IVar="-1" Cut="0.0000000000000000e+00" cType="1" res="-2.6117337984032929e-04" rms="2.9476833343505859e-01" purity="3.0018621683120728e-01" nType="-99"/>
              </Node>
              <Node pos="r" depth="4" NCoef="0" IVar="6" Cut="1.2783219814300537e+00" cType="1" res="4.2414488270878792e-03" rms="3.4041830897331238e-01" purity="4.5870259404182434e-01" nType="0">
                <Node pos="l" depth="5" NCoef="0" IVar="-1" Cut="0.0000000000000000e+00" cType="1" res="-3.3128147479146719e-03" rms="3.4222099184989929e-01" purity="4.0204566717147827e-01" nType="-99"/>
                <Node pos="r" depth="5" NCoef="0" IVar="-1" Cut="0.0000000000000000e+00" cType="1" res="5.9312134981155396e-03" rms="3.3865505456924438e-01" purity="5.0396901369094849e-01" nType="-99"/>
              </Node>
            </Node>
            <Node pos="r" depth="3" NCoef="0" IVar="-1" Cut="0.0000000000000000e+00" cType="1" res="3.9946329779922962e-03" rms="3.6666467785835266e-01" purity="4.2506989836692810e-01" nType="-99"/>
          </Node>
          <Node pos="r" depth="2" NCoef="0" IVar="8" Cut="9.5256119966506958e-01" cType="1" res="-1.0821638716151938e-04" rms="2.9431113600730896e-01" purity="5.0794643163681030e-01" nType="0">
            <Node pos="l" depth="3" NCoef="0" IVar="8" Cut="4.6484366059303284e-01" cType="1" res="8.1406586105003953e-04" rms="2.9262146353721619e-01" purity="5.1530301570892334e-01" nType="0">
              <Node pos="l" depth="4" NCoef="0" IVar="0" Cut="1.0975610017776489e+00" cType="1" res="-1.6928178956732154e-03" rms="2.8516724705696106e-01" purity="4.7713860869407654e-01" nType="0">
                <Node pos="l" depth="5" NCoef="0" IVar="-1" Cut="0.0000000000000000e+00" cType="1" res="-6.2257656827569008e-03" rms="2.4172645807266235e-01" purity="1.5341641008853912e-01" nType="-99"/>
                <Node pos="r" depth="5" NCoef="0" IVar="-1" Cut="0.0000000000000000e+00" cType="1" res="8.3020917372778058e-04" rms="3.0418372154235840e-01" purity="6.3612383604049683e-01" nType="-99"/>
              </Node>
              <Node pos="r" depth="4" NCoef="0" IVar="5" Cut="1.1670373535156250e+02" cType="1" res="8.2748010754585266e-03" rms="3.1364130973815918e-01" purity="6.2888383865356445e-01" nType="0">
                <Node pos="l" depth="5" NCoef="0" IVar="-1" Cut="0.0000000000000000e+00" cType="1" res="5.6182886473834515e-03" rms="3.0816835165023804e-01" purity="6.7546373605728149e-01" nType="-99"/>
                <Node pos="r" depth="5" NCoef="0" IVar="-1" Cut="0.0000000000000000e+00" cType="1" res="-3.3765204716473818e-03" rms="3.4213808178901672e-01" purity="3.6908152699470520e-01" nType="-99"/>
              </Node>
            </Node>
            <Node pos="r" depth="3" NCoef="0" IVar="-1" Cut="0.0000000000000000e+00" cType="1" res="-1.0838910005986691e-02" rms="3.3334484696388245e-01" purity="3.2202023267745972e-01" nType="-99"/>
          </Node>
        </Node>
        <Node pos="r" depth="1" NCoef="0" IVar="8" Cut="3.8872867822647095e-01" cType="1" res="6.5514985471963882e-03" rms="2.7551442384719849e-01" purity="6.8531078100204468e-01" nType="0">
          <Node pos="l" depth="2" NCoef="0" IVar="7" Cut="1.6941405534744263e+00" cType="1" res="5.5939704179763794e-04" rms="2.8443518280982971e-01" purity="6.2646573781967163e-01" nType="0">
            <Node pos="l" depth="3" NCoef="0" IVar="7" Cut="8.2641023397445679e-01" cType="1" res="-1.3698866590857506e-02" rms="3.0094915628433228e-01" purity="5.9007912874221802e-01" nType="0">
              <Node pos="l" depth="4" NCoef="0" IVar="-1" Cut="0.0000000000000000e+00" cType="1" res="-1.1804484762251377e-02" rms="3.1100034713745117e-01" purity="5.5406540632247925e-01" nType="-99"/>
              <Node pos="r" depth="4" NCoef="0" IVar="-1" Cut="0.0000000000000000e+00" cType="1" res="-2.2075613960623741e-03" rms="2.9106897115707397e-01" purity="6.2317848205566406e-01" nType="-99"/>
            </Node>
            <Node pos="r" depth="3" NCoef="0" IVar="-1" Cut="0.0000000000000000e+00" cType="1" res="9.2334281653165817e-03" rms="2.6271712779998779e-01" purity="6.6923689842224121e-01" nType="-99"/>
          </Node>
          <Node pos="r" depth="2" NCoef="0" IVar="-1" Cut="0.0000000000000000e+00" cType="1" res="9.3081509694457054e-03" rms="2.6105597615242004e-01" purity="7.7507299184799194e-01" nType="-99"/>
        </Node>
      </Node>
    </BinaryTree>
    <BinaryTree type="DecisionTree" boostWeight="1.0000000000000000e+00" itree="114">
      <Node pos="s" depth="0" NCoef="0" IVar="4" Cut="4.6891162872314453e+01" cType="1" res="-5.8310525491833687e-04" rms="2.9910236597061157e-01" purity="4.9791544675827026e-01" nType="0">
        <Node pos="l" depth="1" NCoef="0" IVar="4" Cut="3.7549510955810547e+01" cType="1" res="-2.2090829908847809e-02" rms="3.0530124902725220e-01" purity="1.6582664847373962e-01" nType="0">
          <Node pos="l" depth="2" NCoef="0" IVar="-1" Cut="0.0000000000000000e+00" cType="1" res="-1.7209537327289581e-02" rms="2.8922197222709656e-01" purity="1.3066776096820831e-01" nType="-99"/>
          <Node pos="r" depth="2" NCoef="0" IVar="-1" Cut="0.0000000000000000e+00" cType="1" res="-4.7629079781472683e-03" rms="3.2014468312263489e-01" purity="2.0091921091079712e-01" nType="-99"/>
        </Node>
        <Node pos="r" depth="1" NCoef="0" IVar="1" Cut="2.0731706619262695e+00" cType="1" res="3.4211136517114937e-04" rms="2.9879808425903320e-01" purity="5.1220118999481201e-01" nType="0">
          <Node pos="l" depth="2" NCoef="0" IVar="8" Cut="4.9837645888328552e-01" cType="1" res="-4.0778885595500469e-03" rms="3.0721473693847656e-01" purity="2.9342406988143921e-01" nType="0">
            <Node pos="l" depth="3" NCoef="0" IVar="4" Cut="9.1476165771484375e+01" cType="1" res="-6.1678783968091011e-03" rms="2.9714956879615784e-01" purity="2.7805426716804504e-01" nType="0">
              <Node pos="l" depth="4" NCoef="0" IVar="7" Cut="2.3216261863708496e+00" cType="1" res="-1.2918623164296150e-02" rms="2.9593336582183838e-01" purity="2.1124354004859924e-01" nType="0">
                <Node pos="l" depth="5" NCoef="0" IVar="-1" Cut="0.0000000000000000e+00" cType="1" res="-8.1000085920095444e-03" rms="3.0847570300102234e-01" purity="2.2486872971057892e-01" nType="-99"/>
                <Node pos="r" depth="5" NCoef="0" IVar="-1" Cut="0.0000000000000000e+00" cType="1" res="-6.7226128885522485e-04" rms="2.4659579992294312e-01" purity="1.6345854103565216e-01" nType="-99"/>
              </Node>
              <Node pos="r" depth="4" NCoef="0" IVar="9" Cut="2.2028601169586182e-01" cType="1" res="-3.5500859376043081e-03" rms="2.9757863283157349e-01" purity="3.0396196246147156e-01" nType="0">
                <Node pos="l" depth="5" NCoef="0" IVar="-1" Cut="0.0000000000000000e+00" cType="1" res="-9.3804728239774704e-03" rms="2.3229856789112091e-01" purity="1.2994386255741119e-01" nType="-99"/>
                <Node pos="r" depth="5" NCoef="0" IVar="-1" Cut="0.0000000000000000e+00" cType="1" res="2.6784790679812431e-04" rms="3.2226163148880005e-01" purity="3.8120996952056885e-01" nType="-99"/>
              </Node>
            </Node>
            <Node pos="r" depth="3" NCoef="0" IVar="3" Cut="2.0731706619262695e+00" cType="1" res="3.6587277427315712e-03" rms="3.4179347753524780e-01" purity="3.5031923651695251e-01" nType="0">
              <Node pos="l" depth="4" NCoef="0" IVar="2" Cut="1.0975610017776489e+00" cType="1" res="-7.7228277223184705e-04" rms="3.3959886431694031e-01" purity="3.7852352857589722e-01" nType="0">
                <Node pos="l" depth="5" NCoef="0" IVar="-1" Cut="0.0000000000000000e+00" cType="1" res="-2.5804094038903713e-03" rms="3.4995019435882568e-01" purity="4.6611896157264709e-01" nType="-99"/>
                <Node pos="r" depth="5" NCoef="0" IVar="-1" Cut="0.0000000000000000e+00" cType="1" res="5.3635290823876858e-03" rms="3.1913703680038452e-01" purity="2.1548564732074738e-01" nType="-99"/>
              </Node>
              <Node pos="r" depth="4" NCoef="0" IVar="-1" Cut="0.0000000000000000e+00" cType="1" res="8.0739054828882217e-03" rms="3.4828203916549683e-01" purity="2.6097947359085083e-01" nType="-99"/>
            </Node>
          </Node>
          <Node pos="r" depth="2" NCoef="0" IVar="9" Cut="4.0441742539405823e-01" cType="1" res="4.3811751529574394e-03" rms="2.9083523154258728e-01" purity="7.1212303638458252e-01" nType="0">
            <Node pos="l" depth="3" NCoef="0" IVar="8" Cut="7.1534073352813721e-01" cType="1" res="7.1897805901244283e-04" rms="3.0671364068984985e-01" purity="6.4118748903274536e-01" nType="0">
              <Node pos="l" depth="4" NCoef="0" IVar="8" Cut="4.0149542689323425e-01" cType="1" res="2.8741017449647188e-03" rms="3.0087715387344360e-01" purity="6.4806538820266724e-01" nType="0">
                <Node pos="l" depth="5" NCoef="0" IVar="-1" Cut="0.0000000000000000e+00" cType="1" res="-1.1512938654050231e-03" rms="2.9640626907348633e-01" purity="5.9201467037200928e-01" nType="-99"/>
                <Node pos="r" depth="5" NCoef="0" IVar="-1" Cut="0.0000000000000000e+00" cType="1" res="5.7573099620640278e-03" rms="3.0809071660041809e-01" purity="7.4274325370788574e-01" nType="-99"/>
              </Node>
              <Node pos="r" depth="4" NCoef="0" IVar="-1" Cut="0.0000000000000000e+00" cType="1" res="-8.9874574914574623e-03" rms="3.6526715755462646e-01" purity="5.6362748146057129e-01" nType="-99"/>
            </Node>
            <Node pos="r" depth="3" NCoef="0" IVar="4" Cut="1.3110763549804688e+02" cType="1" res="1.0309649631381035e-02" rms="2.6299923658370972e-01" purity="8.2695561647415161e-01" nType="0">
              <Node pos="l" depth="4" NCoef="0" IVar="6" Cut="1.5324904918670654e+00" cType="1" res="1.2335806153714657e-02" rms="2.5489729642868042e-01" purity="8.5648608207702637e-01" nType="0">
                <Node pos="l" depth="5" NCoef="0" IVar="-1" Cut="0.0000000000000000e+00" cType="1" res="3.3646861556917429e-03" rms="2.9755076766014099e-01" purity="7.8481435775756836e-01" nType="-99"/>
                <Node pos="r" depth="5" NCoef="0" IVar="-1" Cut="0.0000000000000000e+00" cType="1" res="1.1298790574073792e-02" rms="2.3264639079570770e-01" purity="8.8941341638565063e-01" nType="-99"/>
              </Node>
              <Node pos="r" depth="4" NCoef="0" IVar="-1" Cut="0.0000000000000000e+00" cType="1" res="4.0228894795291126e-04" rms="2.9796111583709717e-01" purity="6.8815428018569946e-01" nType="-99"/>
            </Node>
          </Node>
        </Node>
      </Node>
    </BinaryTree>
    <BinaryTree type="DecisionTree" boostWeight="1.0000000000000000e+00" itree="115">
      <Node pos="s" depth="0" NCoef="0" IVar="8" Cut="3.7765675783157349e-01" cType="1" res="-1.3942037185188383e-04" rms="2.9869398474693298e-01" purity="4.9840342998504639e-01" nType="0">
        <Node pos="l" depth="1" NCoef="0" IVar="4" Cut="6.4300430297851562e+01" cType="1" res="-3.5519879311323166e-03" rms="2.8880494832992554e-01" purity="4.3244349956512451e-01" nType="0">
          <Node pos="l" depth="2" NCoef="0" IVar="0" Cut="1.0975610017776489e+00" cType="1" res="-2.7002666145563126e-02" rms="2.7763932943344116e-01" purity="1.5852382779121399e-01" nType="0">
            <Node pos="l" depth="3" NCoef="0" IVar="-1" Cut="0.0000000000000000e+00" cType="1" res="-1.3204751536250114e-02" rms="2.2533129155635834e-01" purity="7.4514046311378479e-02" nType="-99"/>
            <Node pos="r" depth="3" NCoef="0" IVar="-1" Cut="0.0000000000000000e+00" cType="1" res="-1.5185874886810780e-02" rms="3.3556321263313293e-01" purity="2.7305740118026733e-01" nType="-99"/>
          </Node>
          <Node pos="r" depth="2" NCoef="0" IVar="7" Cut="2.2700119018554688e+00" cType="1" res="-1.1720759794116020e-03" rms="2.8980800509452820e-01" purity="4.6024248003959656e-01" nType="0">
            <Node pos="l" depth="3" NCoef="0" IVar="8" Cut="1.1146799474954605e-01" cType="1" res="-4.8629217781126499e-03" rms="2.9823148250579834e-01" purity="4.6662023663520813e-01" nType="0">
              <Node pos="l" depth="4" NCoef="0" IVar="-1" Cut="0.0000000000000000e+00" cType="1" res="7.4544399976730347e-03" rms="2.7282357215881348e-01" purity="1.6323833167552948e-01" nType="-99"/>
              <Node pos="r" depth="4" NCoef="0" IVar="7" Cut="1.8270826339721680e+00" cType="1" res="-6.0890754684805870e-03" rms="3.0013084411621094e-01" purity="4.9080979824066162e-01" nType="0">
                <Node pos="l" depth="5" NCoef="0" IVar="-1" Cut="0.0000000000000000e+00" cType="1" res="-4.2513045482337475e-03" rms="3.0408415198326111e-01" purity="4.8304492235183716e-01" nType="-99"/>
                <Node pos="r" depth="5" NCoef="0" IVar="-1" Cut="0.0000000000000000e+00" cType="1" res="2.4865604937076569e-03" rms="2.7846878767013550e-01" purity="5.3112471103668213e-01" nType="-99"/>
              </Node>
            </Node>
            <Node pos="r" depth="3" NCoef="0" IVar="8" Cut="8.3112314343452454e-02" cType="1" res="8.0674868077039719e-03" rms="2.6733723282814026e-01" purity="4.4427660107612610e-01" nType="0">
              <Node pos="l" depth="4" NCoef="0" IVar="-1" Cut="0.0000000000000000e+00" cType="1" res="-2.4241486564278603e-02" rms="2.2395816445350647e-01" purity="9.5085062086582184e-02" nType="-99"/>
              <Node pos="r" depth="4" NCoef="0" IVar="9" Cut="2.0450249314308167e-01" cType="1" res="1.4836865477263927e-02" rms="2.7316510677337646e-01" purity="5.0124180316925049e-01" nType="0">
                <Node pos="l" depth="5" NCoef="0" IVar="-1" Cut="0.0000000000000000e+00" cType="1" res="-8.8318006601184607e-04" rms="2.6763802766799927e-01" purity="3.8294371962547302e-01" nType="-99"/>
                <Node pos="r" depth="5" NCoef="0" IVar="-1" Cut="0.0000000000000000e+00" cType="1" res="1.7463749274611473e-02" rms="2.7794364094734192e-01" purity="6.2974238395690918e-01" nType="-99"/>
              </Node>
            </Node>
          </Node>
        </Node>
        <Node pos="r" depth="1" NCoef="0" IVar="9" Cut="4.7642579674720764e-01" cType="1" res="4.5047355815768242e-03" rms="3.1158822774887085e-01" purity="5.8816820383071899e-01" nType="0">
          <Node pos="l" depth="2" NCoef="0" IVar="8" Cut="9.6060854196548462e-01" cType="1" res="2.1550597157329321e-03" rms="3.1515130400657654e-01" purity="5.4972207546234131e-01" nType="0">
            <Node pos="l" depth="3" NCoef="0" IVar="7" Cut="1.2026594877243042e+00" cType="1" res="3.6262886133044958e-03" rms="3.1361371278762817e-01" purity="5.7044911384582520e-01" nType="0">
              <Node pos="l" depth="4" NCoef="0" IVar="8" Cut="7.1889626979827881e-01" cType="1" res="-9.3810202088207006e-04" rms="3.1789276003837585e-01" purity="6.0647177696228027e-01" nType="0">
                <Node pos="l" depth="5" NCoef="0" IVar="-1" Cut="0.0000000000000000e+00" cType="1" res="-2.3195282556116581e-03" rms="3.1194028258323669e-01" purity="6.1559873819351196e-01" nType="-99"/>
                <Node pos="r" depth="5" NCoef="0" IVar="-1" Cut="0.0000000000000000e+00" cType="1" res="9.8835406824946404e-03" rms="3.5459744930267334e-01" purity="5.4453372955322266e-01" nType="-99"/>
              </Node>
              <Node pos="r" depth="4" NCoef="0" IVar="8" Cut="5.9093129634857178e-01" cType="1" res="1.3007587753236294e-02" rms="3.0441540479660034e-01" purity="4.9641087651252747e-01" nType="0">
                <Node pos="l" depth="5" NCoef="0" IVar="-1" Cut="0.0000000000000000e+00" cType="1" res="1.0034876875579357e-02" rms="2.9595148563385010e-01" purity="5.4349696636199951e-01" nType="-99"/>
                <Node pos="r" depth="5" NCoef="0" IVar="-1" Cut="0.0000000000000000e+00" cType="1" res="-6.1134463176131248e-03" rms="3.3404439687728882e-01" purity="3.1265431642532349e-01" nType="-99"/>
              </Node>
            </Node>
            <Node pos="r" depth="3" NCoef="0" IVar="-1" Cut="0.0000000000000000e+00" cType="1" res="-8.4034474566578865e-03" rms="3.3510240912437439e-01" purity="2.6199945807456970e-01" nType="-99"/>
          </Node>
          <Node pos="r" depth="2" NCoef="0" IVar="2" Cut="1.0975610017776489e+00" cType="1" res="1.3433410786092281e-02" rms="2.9749068617820740e-01" purity="7.3426175117492676e-01" nType="0">
            <Node pos="l" depth="3" NCoef="0" IVar="-1" Cut="0.0000000000000000e+00" cType="1" res="9.4625968486070633e-03" rms="2.9100164771080017e-01" purity="8.1259089708328247e-01" nType="-99"/>
            <Node pos="r" depth="3" NCoef="0" IVar="-1" Cut="0.0000000000000000e+00" cType="1" res="-1.2637900654226542e-03" rms="3.1796824932098389e-01" purity="4.6873790025711060e-01" nType="-99"/>
          </Node>
        </Node>
      </Node>
    </BinaryTree>
    <BinaryTree type="DecisionTree" boostWeight="1.0000000000000000e+00" itree="116">
      <Node pos="s" depth="0" NCoef="0" IVar="2" Cut="4.0243902206420898e+00" cType="1" res="6.7027431214228272e-04" rms="3.0007112026214600e-01" purity="4.9977937340736389e-01" nType="0">
        <Node pos="l" depth="1" NCoef="0" IVar="6" Cut="1.0727385282516479e+00" cType="1" res="2.1305666305124760e-03" rms="3.1313610076904297e-01" purity="5.8300167322158813e-01" nType="0">
          <Node pos="l" depth="2" NCoef="0" IVar="7" Cut="4.9453514814376831e-01" cType="1" res="-6.9866976700723171e-03" rms="3.2596546411514282e-01" purity="3.8546669483184814e-01" nType="0">
            <Node pos="l" depth="3" NCoef="0" IVar="-1" Cut="0.0000000000000000e+00" cType="1" res="-1.5067553147673607e-02" rms="3.4202647209167480e-01" purity="4.0133088827133179e-01" nType="-99"/>
            <Node pos="r" depth="3" NCoef="0" IVar="7" Cut="1.9057717323303223e+00" cType="1" res="1.2404364533722401e-03" rms="3.2062813639640808e-01" purity="3.8080427050590515e-01" nType="0">
              <Node pos="l" depth="4" NCoef="0" IVar="7" Cut="9.0758121013641357e-01" cType="1" res="6.3901864923536777e-03" rms="3.3501398563385010e-01" purity="4.5435744524002075e-01" nType="0">
                <Node pos="l" depth="5" NCoef="0" IVar="-1" Cut="0.0000000000000000e+00" cType="1" res="-2.7204239740967751e-03" rms="3.3868363499641418e-01" purity="4.7300186753273010e-01" nType="-99"/>
                <Node pos="r" depth="5" NCoef="0" IVar="-1" Cut="0.0000000000000000e+00" cType="1" res="6.0220360755920410e-03" rms="3.3261278271675110e-01" purity="4.4340324401855469e-01" nType="-99"/>
              </Node>
              <Node pos="r" depth="4" NCoef="0" IVar="-1" Cut="0.0000000000000000e+00" cType="1" res="-5.8514410629868507e-03" rms="2.8440433740615845e-01" purity="2.1146471798419952e-01" nType="-99"/>
            </Node>
          </Node>
          <Node pos="r" depth="2" NCoef="0" IVar="7" Cut="1.9687253236770630e+00" cType="1" res="4.3751597404479980e-03" rms="3.0985498428344727e-01" purity="6.3163316249847412e-01" nType="0">
            <Node pos="l" depth="3" NCoef="0" IVar="8" Cut="4.1633880138397217e-01" cType="1" res="1.9682950805872679e-03" rms="3.1561946868896484e-01" purity="6.5424877405166626e-01" nType="0">
              <Node pos="l" depth="4" NCoef="0" IVar="9" Cut="4.5727211236953735e-01" cType="1" res="-2.2911822889000177e-03" rms="3.2023105025291443e-01" purity="6.0263752937316895e-01" nType="0">
                <Node pos="l" depth="5" NCoef="0" IVar="-1" Cut="0.0000000000000000e+00" cType="1" res="-3.2502606045454741e-03" rms="3.2555863261222839e-01" purity="5.1875668764114380e-01" nType="-99"/>
                <Node pos="r" depth="5" NCoef="0" IVar="-1" Cut="0.0000000000000000e+00" cType="1" res="2.0849257707595825e-03" rms="3.1215462088584900e-01" purity="7.2537928819656372e-01" nType="-99"/>
              </Node>
              <Node pos="r" depth="4" NCoef="0" IVar="4" Cut="7.1581230163574219e+01" cType="1" res="7.9174861311912537e-03" rms="3.0896502733230591e-01" purity="7.2633385658264160e-01" nType="0">
                <Node pos="l" depth="5" NCoef="0" IVar="-1" Cut="0.0000000000000000e+00" cType="1" res="1.0709428228437901e-02" rms="4.1561967134475708e-01" purity="4.6240708231925964e-01" nType="-99"/>
                <Node pos="r" depth="5" NCoef="0" IVar="-1" Cut="0.0000000000000000e+00" cType="1" res="2.4767909198999405e-03" rms="2.9304772615432739e-01" purity="7.5870275497436523e-01" nType="-99"/>
              </Node>
            </Node>
            <Node pos="r" depth="3" NCoef="0" IVar="5" Cut="7.3911247253417969e+01" cType="1" res="1.1989212594926357e-02" rms="2.9073670506477356e-01" purity="5.6008911132812500e-01" nType="0">
              <Node pos="l" depth="4" NCoef="0" IVar="-1" Cut="0.0000000000000000e+00" cType="1" res="-4.3086349032819271e-03" rms="3.1810033321380615e-01" purity="4.5519623160362244e-01" nType="-99"/>
              <Node pos="r" depth="4" NCoef="0" IVar="9" Cut="1.7760182917118073e-01" cType="1" res="1.8222447484731674e-02" rms="2.8210014104843140e-01" purity="5.9013962745666504e-01" nType="0">
                <Node pos="l" depth="5" NCoef="0" IVar="-1" Cut="0.0000000000000000e+00" cType="1" res="-3.4026352223008871e-03" rms="2.9244694113731384e-01" purity="3.6621943116188049e-01" nType="-99"/>
                <Node pos="r" depth="5" NCoef="0" IVar="-1" Cut="0.0000000000000000e+00" cType="1" res="1.6129324212670326e-02" rms="2.7573752403259277e-01" purity="7.0514148473739624e-01" nType="-99"/>
              </Node>
            </Node>
          </Node>
        </Node>
        <Node pos="r" depth="1" NCoef="0" IVar="5" Cut="7.7756835937500000e+01" cType="1" res="-6.7257191985845566e-03" rms="2.2226309776306152e-01" purity="7.8280255198478699e-02" nType="0">
          <Node pos="l" depth="2" NCoef="0" IVar="6" Cut="1.7623540163040161e+00" cType="1" res="-1.6815088689327240e-02" rms="2.3896095156669617e-01" purity="8.5561417043209076e-02" nType="0">
            <Node pos="l" depth="3" NCoef="0" IVar="-1" Cut="0.0000000000000000e+00" cType="1" res="-5.6851613335311413e-03" rms="2.4236202239990234e-01" purity="7.3964089155197144e-02" nType="-99"/>
            <Node pos="r" depth="3" NCoef="0" IVar="-1" Cut="0.0000000000000000e+00" cType="1" res="-1.6317680478096008e-02" rms="2.3573637008666992e-01" purity="9.5343209803104401e-02" nType="-99"/>
          </Node>
          <Node pos="r" depth="2" NCoef="0" IVar="7" Cut="1.2897928953170776e+00" cType="1" res="-2.8891442343592644e-03" rms="2.1545048058032990e-01" purity="7.5511530041694641e-02" nType="0">
            <Node pos="l" depth="3" NCoef="0" IVar="6" Cut="1.3792409896850586e+00" cType="1" res="3.2200287096202374e-03" rms="2.5093778967857361e-01" purity="9.7848199307918549e-02" nType="0">
              <Node pos="l" depth="4" NCoef="0" IVar="-1" Cut="0.0000000000000000e+00" cType="1" res="1.3827045448124409e-02" rms="2.6463755965232849e-01" purity="8.4764547646045685e-02" nType="-99"/>
              <Node pos="r" depth="4" NCoef="0" IVar="4" Cut="1.0504989624023438e+02" cType="1" res="-2.9420147184282541e-03" rms="2.4333132803440094e-01" purity="1.0460587590932846e-01" nType="0">
                <Node pos="l" depth="5" NCoef="0" IVar="-1" Cut="0.0000000000000000e+00" cType="1" res="3.0888936016708612e-03" rms="2.4460206925868988e-01" purity="9.0155303478240967e-02" nType="-99"/>
                <Node pos="r" depth="5" NCoef="0" IVar="-1" Cut="0.0000000000000000e+00" cType="1" res="-6.1740125529468060e-03" rms="2.4207872152328491e-01" purity="1.1708379536867142e-01" nType="-99"/>
              </Node>
            </Node>
            <Node pos="r" depth="3" NCoef="0" IVar="6" Cut="2.2987334728240967e+00" cType="1" res="-1.0382358916103840e-02" rms="1.6129626333713531e-01" purity="4.8114459961652756e-02" nType="0">
              <Node pos="l" depth="4" NCoef="0" IVar="-1" Cut="0.0000000000000000e+00" cType="1" res="-2.5309329852461815e-02" rms="1.3034574687480927e-01" purity="2.1201772615313530e-02" nType="-99"/>
              <Node pos="r" depth="4" NCoef="0" IVar="-1" Cut="0.0000000000000000e+00" cType="1" res="-1.4296969166025519e-03" rms="2.0228753983974457e-01" purity="9.2913784086704254e-02" nType="-99"/>
            </Node>
          </Node>
        </Node>
      </Node>
    </BinaryTree>
    <BinaryTree type="DecisionTree" boostWeight="1.0000000000000000e+00" itree="117">
      <Node pos="s" depth="0" NCoef="0" IVar="2" Cut="4.0243902206420898e+00" cType="1" res="1.8224486848339438e-03" rms="2.9931697249412537e-01" purity="5.0237822532653809e-01" nType="0">
        <Node pos="l" depth="1" NCoef="0" IVar="8" Cut="3.7760525941848755e-01" cType="1" res="3.4996217582374811e-03" rms="3.1235712766647339e-01" purity="5.8571940660476685e-01" nType="0">
          <Node pos="l" depth="2" NCoef="0" IVar="7" Cut="3.1363887786865234e+00" cType="1" res="-1.7423252575099468e-04" rms="3.0797454714775085e-01" purity="5.2479803562164307e-01" nType="0">
            <Node pos="l" depth="3" NCoef="0" IVar="9" Cut="3.4875324368476868e-01" cType="1" res="-1.7054533818736672e-03" rms="3.1050667166709900e-01" purity="5.3891682624816895e-01" nType="0">
              <Node pos="l" depth="4" NCoef="0" IVar="8" Cut="1.5695720911026001e-01" cType="1" res="-7.8637329861521721e-03" rms="2.9432290792465210e-01" purity="4.2296922206878662e-01" nType="0">
                <Node pos="l" depth="5" NCoef="0" IVar="-1" Cut="0.0000000000000000e+00" cType="1" res="-2.0352641120553017e-02" rms="2.5481882691383362e-01" purity="1.3662025332450867e-01" nType="-99"/>
                <Node pos="r" depth="5" NCoef="0" IVar="-1" Cut="0.0000000000000000e+00" cType="1" res="-2.1235272288322449e-03" rms="3.0019930005073547e-01" purity="4.7037050127983093e-01" nType="-99"/>
              </Node>
              <Node pos="r" depth="4" NCoef="0" IVar="7" Cut="2.0654153823852539e+00" cType="1" res="3.5240731667727232e-03" rms="3.2352286577224731e-01" purity="6.3737785816192627e-01" nType="0">
                <Node pos="l" depth="5" NCoef="0" IVar="-1" Cut="0.0000000000000000e+00" cType="1" res="7.7535031596198678e-04" rms="3.2403063774108887e-01" purity="6.5114355087280273e-01" nType="-99"/>
                <Node pos="r" depth="5" NCoef="0" IVar="-1" Cut="0.0000000000000000e+00" cType="1" res="9.1287679970264435e-03" rms="3.1802442669868469e-01" purity="5.0411140918731689e-01" nType="-99"/>
              </Node>
            </Node>
            <Node pos="r" depth="3" NCoef="0" IVar="8" Cut="1.3828380405902863e-01" cType="1" res="1.2410791590809822e-02" rms="2.8600561618804932e-01" purity="4.0875631570816040e-01" nType="0">
              <Node pos="l" depth="4" NCoef="0" IVar="-1" Cut="0.0000000000000000e+00" cType="1" res="-3.7691656034439802e-03" rms="2.8500992059707642e-01" purity="2.8792417049407959e-01" nType="-99"/>
              <Node pos="r" depth="4" NCoef="0" IVar="-1" Cut="0.0000000000000000e+00" cType="1" res="1.4540721662342548e-02" rms="2.8574711084365845e-01" purity="5.1392030715942383e-01" nType="-99"/>
            </Node>
          </Node>
          <Node pos="r" depth="2" NCoef="0" IVar="9" Cut="4.1937875747680664e-01" cType="1" res="8.1854229792952538e-03" rms="3.1779757142066956e-01" purity="6.6342127323150635e-01" nType="0">
            <Node pos="l" depth="3" NCoef="0" IVar="5" Cut="1.3113586425781250e+02" cType="1" res="4.4068987481296062e-03" rms="3.3263373374938965e-01" purity="5.9101170301437378e-01" nType="0">
              <Node pos="l" depth="4" NCoef="0" IVar="7" Cut="1.1070321798324585e+00" cType="1" res="6.4650457352399826e-03" rms="3.3163681626319885e-01" purity="6.1433547735214233e-01" nType="0">
                <Node pos="l" depth="5" NCoef="0" IVar="-1" Cut="0.0000000000000000e+00" cType="1" res="1.0591071331873536e-03" rms="3.4086507558822632e-01" purity="6.4161902666091919e-01" nType="-99"/>
                <Node pos="r" depth="5" NCoef="0" IVar="-1" Cut="0.0000000000000000e+00" cType="1" res="5.7388353161513805e-03" rms="3.1704941391944885e-01" purity="5.7300597429275513e-01" nType="-99"/>
              </Node>
              <Node pos="r" depth="4" NCoef="0" IVar="-1" Cut="0.0000000000000000e+00" cType="1" res="-7.4391080997884274e-03" rms="3.4198799729347229e-01" purity="3.5148572921752930e-01" nType="-99"/>
            </Node>
            <Node pos="r" depth="3" NCoef="0" IVar="4" Cut="7.7029075622558594e+01" cType="1" res="1.5940664336085320e-02" rms="2.8478041291236877e-01" purity="8.1203854084014893e-01" nType="0">
              <Node pos="l" depth="4" NCoef="0" IVar="-1" Cut="0.0000000000000000e+00" cType="1" res="9.1444430872797966e-03" rms="3.9960795640945435e-01" purity="5.5576688051223755e-01" nType="-99"/>
              <Node pos="r" depth="4" NCoef="0" IVar="-1" Cut="0.0000000000000000e+00" cType="1" res="8.3455452695488930e-03" rms="2.5040224194526672e-01" purity="8.7182545661926270e-01" nType="-99"/>
            </Node>
          </Node>
        </Node>
        <Node pos="r" depth="1" NCoef="0" IVar="7" Cut="2.3216261863708496e+00" cType="1" res="-6.7305858246982098e-03" rms="2.2096712887287140e-01" purity="7.7365502715110779e-02" nType="0">
          <Node pos="l" depth="2" NCoef="0" IVar="4" Cut="8.2317871093750000e+01" cType="1" res="-4.1448539122939110e-03" rms="2.3650589585304260e-01" purity="8.9037127792835236e-02" nType="0">
            <Node pos="l" depth="3" NCoef="0" IVar="-1" Cut="0.0000000000000000e+00" cType="1" res="-1.7127331346273422e-02" rms="1.8002487719058990e-01" purity="3.7055544555187225e-02" nType="-99"/>
            <Node pos="r" depth="3" NCoef="0" IVar="0" Cut="4.0243902206420898e+00" cType="1" res="1.9722542492672801e-04" rms="2.5462916493415833e-01" purity="1.0885500162839890e-01" nType="0">
              <Node pos="l" depth="4" NCoef="0" IVar="6" Cut="1.6091073751449585e+00" cType="1" res="-3.6777358036488295e-03" rms="2.0898032188415527e-01" purity="6.1079207807779312e-02" nType="0">
                <Node pos="l" depth="5" NCoef="0" IVar="-1" Cut="0.0000000000000000e+00" cType="1" res="6.6173602826893330e-03" rms="2.2242288291454315e-01" purity="5.2528228610754013e-02" nType="-99"/>
                <Node pos="r" depth="5" NCoef="0" IVar="-1" Cut="0.0000000000000000e+00" cType="1" res="-9.2396056279540062e-03" rms="1.9911661744117737e-01" purity="6.6881932318210602e-02" nType="-99"/>
              </Node>
              <Node pos="r" depth="4" NCoef="0" IVar="-1" Cut="0.0000000000000000e+00" cType="1" res="3.6723327357321978e-03" rms="3.3099851012229919e-01" purity="2.1004287898540497e-01" nType="-99"/>
            </Node>
          </Node>
          <Node pos="r" depth="2" NCoef="0" IVar="-1" Cut="0.0000000000000000e+00" cType="1" res="-2.6696894317865372e-02" rms="1.2968353927135468e-01" purity="2.5079669430851936e-02" nType="-99"/>
        </Node>
      </Node>
    </BinaryTree>
    <BinaryTree type="DecisionTree" boostWeight="1.0000000000000000e+00" itree="118">
      <Node pos="s" depth="0" NCoef="0" IVar="8" Cut="1.0065120458602905e+00" cType="1" res="1.6624104464426637e-03" rms="3.0074527859687805e-01" purity="5.0097382068634033e-01" nType="0">
        <Node pos="l" depth="1" NCoef="0" IVar="6" Cut="1.6091079711914062e+00" cType="1" res="2.2115933243185282e-03" rms="3.0003851652145386e-01" purity="5.0560569763183594e-01" nType="0">
          <Node pos="l" depth="2" NCoef="0" IVar="8" Cut="7.6105064153671265e-01" cType="1" res="-2.9874460306018591e-03" rms="3.0647417902946472e-01" purity="3.5247284173965454e-01" nType="0">
            <Node pos="l" depth="3" NCoef="0" IVar="7" Cut="5.0444883108139038e-01" cType="1" res="-5.0712823867797852e-03" rms="3.0273035168647766e-01" purity="3.3874893188476562e-01" nType="0">
              <Node pos="l" depth="4" NCoef="0" IVar="4" Cut="1.3449862670898438e+02" cType="1" res="-1.7519246786832809e-02" rms="3.2151535153388977e-01" purity="3.9145436882972717e-01" nType="0">
                <Node pos="l" depth="5" NCoef="0" IVar="-1" Cut="0.0000000000000000e+00" cType="1" res="-1.4981233514845371e-02" rms="3.1746932864189148e-01" purity="4.5505321025848389e-01" nType="-99"/>
                <Node pos="r" depth="5" NCoef="0" IVar="-1" Cut="0.0000000000000000e+00" cType="1" res="6.8116951733827591e-03" rms="3.2875227928161621e-01" purity="2.4396684765815735e-01" nType="-99"/>
              </Node>
              <Node pos="r" depth="4" NCoef="0" IVar="0" Cut="3.0487804412841797e+00" cType="1" res="-1.4179303543642163e-03" rms="2.9689264297485352e-01" purity="3.2328039407730103e-01" nType="0">
                <Node pos="l" depth="5" NCoef="0" IVar="-1" Cut="0.0000000000000000e+00" cType="1" res="-4.6073924750089645e-03" rms="2.5498259067535400e-01" purity="1.4553077518939972e-01" nType="-99"/>
                <Node pos="r" depth="5" NCoef="0" IVar="-1" Cut="0.0000000000000000e+00" cType="1" res="1.7562286229804158e-03" rms="3.3700928092002869e-01" purity="5.1916241645812988e-01" nType="-99"/>
              </Node>
            </Node>
            <Node pos="r" depth="3" NCoef="0" IVar="-1" Cut="0.0000000000000000e+00" cType="1" res="9.6839014440774918e-03" rms="3.4927627444267273e-01" purity="5.2586287260055542e-01" nType="-99"/>
          </Node>
          <Node pos="r" depth="2" NCoef="0" IVar="8" Cut="2.7023366093635559e-01" cType="1" res="4.7366702929139137e-03" rms="2.9682967066764832e-01" purity="5.7997959852218628e-01" nType="0">
            <Node pos="l" depth="3" NCoef="0" IVar="7" Cut="3.4215152263641357e+00" cType="1" res="-2.3900549858808517e-03" rms="2.9726904630661011e-01" purity="4.3096747994422913e-01" nType="0">
              <Node pos="l" depth="4" NCoef="0" IVar="8" Cut="2.4393421411514282e-01" cType="1" res="-5.2144024521112442e-03" rms="2.9860830307006836e-01" purity="4.3517178297042847e-01" nType="0">
                <Node pos="l" depth="5" NCoef="0" IVar="-1" Cut="0.0000000000000000e+00" cType="1" res="-1.1965611483901739e-03" rms="2.9962494969367981e-01" purity="4.0873542428016663e-01" nType="-99"/>
                <Node pos="r" depth="5" NCoef="0" IVar="-1" Cut="0.0000000000000000e+00" cType="1" res="-9.2892395332455635e-03" rms="2.9387795925140381e-01" purity="5.4856312274932861e-01" nType="-99"/>
              </Node>
              <Node pos="r" depth="4" NCoef="0" IVar="-1" Cut="0.0000000000000000e+00" cType="1" res="1.0787145234644413e-02" rms="2.8486838936805725e-01" purity="3.9616411924362183e-01" nType="-99"/>
            </Node>
            <Node pos="r" depth="3" NCoef="0" IVar="7" Cut="1.4622943401336670e+00" cType="1" res="8.5488008335232735e-03" rms="2.9652404785156250e-01" purity="6.5968704223632812e-01" nType="0">
              <Node pos="l" depth="4" NCoef="0" IVar="9" Cut="4.2253378033638000e-01" cType="1" res="4.2936364188790321e-03" rms="3.0423802137374878e-01" purity="6.7039448022842407e-01" nType="0">
                <Node pos="l" depth="5" NCoef="0" IVar="-1" Cut="0.0000000000000000e+00" cType="1" res="-5.0933362217620015e-04" rms="3.2613196969032288e-01" purity="5.8635085821151733e-01" nType="-99"/>
                <Node pos="r" depth="5" NCoef="0" IVar="-1" Cut="0.0000000000000000e+00" cType="1" res="8.5836229845881462e-03" rms="2.6076707243919373e-01" purity="8.1909888982772827e-01" nType="-99"/>
              </Node>
              <Node pos="r" depth="4" NCoef="0" IVar="9" Cut="2.3131008446216583e-01" cType="1" res="2.0418930798768997e-02" rms="2.7350953221321106e-01" purity="6.2981796264648438e-01" nType="0">
                <Node pos="l" depth="5" NCoef="0" IVar="-1" Cut="0.0000000000000000e+00" cType="1" res="1.1882436228916049e-03" rms="3.0830875039100647e-01" purity="4.1015738248825073e-01" nType="-99"/>
                <Node pos="r" depth="5" NCoef="0" IVar="-1" Cut="0.0000000000000000e+00" cType="1" res="2.3367607966065407e-02" rms="2.3674085736274719e-01" purity="8.2741242647171021e-01" nType="-99"/>
              </Node>
            </Node>
          </Node>
        </Node>
        <Node pos="r" depth="1" NCoef="0" IVar="-1" Cut="0.0000000000000000e+00" cType="1" res="-9.3467179685831070e-03" rms="3.2784038782119751e-01" purity="3.0942353606224060e-01" nType="-99"/>
      </Node>
    </BinaryTree>
    <BinaryTree type="DecisionTree" boostWeight="1.0000000000000000e+00" itree="119">
      <Node pos="s" depth="0" NCoef="0" IVar="2" Cut="1.0975610017776489e+00" cType="1" res="3.2085401471704245e-04" rms="3.0037188529968262e-01" purity="4.9764314293861389e-01" nType="0">
        <Node pos="l" depth="1" NCoef="0" IVar="5" Cut="7.3408187866210938e+01" cType="1" res="2.5386011693626642e-03" rms="3.1512171030044556e-01" purity="6.0339862108230591e-01" nType="0">
          <Node pos="l" depth="2" NCoef="0" IVar="8" Cut="7.1339631080627441e-01" cType="1" res="-4.6898415312170982e-03" rms="3.4457942843437195e-01" purity="5.5565994977951050e-01" nType="0">
            <Node pos="l" depth="3" NCoef="0" IVar="6" Cut="9.9611675739288330e-01" cType="1" res="-7.6894108206033707e-03" rms="3.3916723728179932e-01" purity="5.5945813655853271e-01" nType="0">
              <Node pos="l" depth="4" NCoef="0" IVar="-1" Cut="0.0000000000000000e+00" cType="1" res="-1.3941421173512936e-02" rms="3.2844871282577515e-01" purity="3.4785053133964539e-01" nType="-99"/>
              <Node pos="r" depth="4" NCoef="0" IVar="8" Cut="1.9165882468223572e-01" cType="1" res="-2.6277855504304171e-03" rms="3.4107020497322083e-01" purity="6.0224217176437378e-01" nType="0">
                <Node pos="l" depth="5" NCoef="0" IVar="-1" Cut="0.0000000000000000e+00" cType="1" res="-1.0577866807579994e-02" rms="3.3059450984001160e-01" purity="3.4843277931213379e-01" nType="-99"/>
                <Node pos="r" depth="5" NCoef="0" IVar="-1" Cut="0.0000000000000000e+00" cType="1" res="4.4950583833269775e-04" rms="3.4265530109405518e-01" purity="6.4478075504302979e-01" nType="-99"/>
              </Node>
            </Node>
            <Node pos="r" depth="3" NCoef="0" IVar="-1" Cut="0.0000000000000000e+00" cType="1" res="6.1233225278556347e-03" rms="3.8034355640411377e-01" purity="5.2851158380508423e-01" nType="-99"/>
          </Node>
          <Node pos="r" depth="2" NCoef="0" IVar="0" Cut="2.0731706619262695e+00" cType="1" res="5.3024897351861000e-03" rms="3.0305692553520203e-01" purity="6.2165212631225586e-01" nType="0">
            <Node pos="l" depth="3" NCoef="0" IVar="6" Cut="1.6091068983078003e+00" cType="1" res="-5.3916859906166792e-04" rms="2.9818800091743469e-01" purity="3.4742259979248047e-01" nType="0">
              <Node pos="l" depth="4" NCoef="0" IVar="4" Cut="1.2233101654052734e+02" cType="1" res="-1.0522107593715191e-02" rms="2.8177088499069214e-01" purity="1.8829450011253357e-01" nType="0">
                <Node pos="l" depth="5" NCoef="0" IVar="-1" Cut="0.0000000000000000e+00" cType="1" res="1.0007421951740980e-03" rms="3.1817457079887390e-01" purity="2.4513457715511322e-01" nType="-99"/>
                <Node pos="r" depth="5" NCoef="0" IVar="-1" Cut="0.0000000000000000e+00" cType="1" res="-2.1084746345877647e-02" rms="2.1870124340057373e-01" purity="1.0756003856658936e-01" nType="-99"/>
              </Node>
              <Node pos="r" depth="4" NCoef="0" IVar="5" Cut="1.1987181091308594e+02" cType="1" res="5.7950569316744804e-03" rms="3.0798378586769104e-01" purity="4.4839021563529968e-01" nType="0">
                <Node pos="l" depth="5" NCoef="0" IVar="-1" Cut="0.0000000000000000e+00" cType="1" res="5.4078348912298679e-03" rms="3.2024219632148743e-01" purity="5.2732676267623901e-01" nType="-99"/>
                <Node pos="r" depth="5" NCoef="0" IVar="-1" Cut="0.0000000000000000e+00" cType="1" res="-5.6444797664880753e-03" rms="2.7450251579284668e-01" purity="2.5224238634109497e-01" nType="-99"/>
              </Node>
            </Node>
            <Node pos="r" depth="3" NCoef="0" IVar="4" Cut="1.5766563415527344e+02" cType="1" res="8.0969417467713356e-03" rms="3.0531907081604004e-01" purity="7.5283432006835938e-01" nType="0">
              <Node pos="l" depth="4" NCoef="0" IVar="7" Cut="6.6667842864990234e-01" cType="1" res="5.8720763772726059e-03" rms="2.9286208748817444e-01" purity="7.9838806390762329e-01" nType="0">
                <Node pos="l" depth="5" NCoef="0" IVar="-1" Cut="0.0000000000000000e+00" cType="1" res="5.4183253087103367e-04" rms="2.9369971156120300e-01" purity="8.2301294803619385e-01" nType="-99"/>
                <Node pos="r" depth="5" NCoef="0" IVar="-1" Cut="0.0000000000000000e+00" cType="1" res="4.5209270901978016e-03" rms="2.9240596294403076e-01" purity="7.8593623638153076e-01" nType="-99"/>
              </Node>
              <Node pos="r" depth="4" NCoef="0" IVar="4" Cut="1.9369853210449219e+02" cType="1" res="2.3128282278776169e-02" rms="3.7855431437492371e-01" purity="4.4507038593292236e-01" nType="0">
                <Node pos="l" depth="5" NCoef="0" IVar="-1" Cut="0.0000000000000000e+00" cType="1" res="1.1357999406754971e-02" rms="3.9493668079376221e-01" purity="4.6346518397331238e-01" nType="-99"/>
                <Node pos="r" depth="5" NCoef="0" IVar="-1" Cut="0.0000000000000000e+00" cType="1" res="5.0018834881484509e-03" rms="3.6153504252433777e-01" purity="4.2705789208412170e-01" nType="-99"/>
              </Node>
            </Node>
          </Node>
        </Node>
        <Node pos="r" depth="1" NCoef="0" IVar="3" Cut="2.0731706619262695e+00" cType="1" res="-4.8405784182250500e-03" rms="2.6278638839721680e-01" purity="2.5151503086090088e-01" nType="0">
          <Node pos="l" depth="2" NCoef="0" IVar="5" Cut="1.0632506561279297e+02" cType="1" res="-1.4583137817680836e-03" rms="2.7627384662628174e-01" purity="2.9861569404602051e-01" nType="0">
            <Node pos="l" depth="3" NCoef="0" IVar="2" Cut="4.0487804412841797e+00" cType="1" res="2.7434250805526972e-03" rms="2.9486221075057983e-01" purity="3.7658739089965820e-01" nType="0">
              <Node pos="l" depth="4" NCoef="0" IVar="7" Cut="1.3788799047470093e+00" cType="1" res="1.0408611968159676e-02" rms="3.2327476143836975e-01" purity="6.1369788646697998e-01" nType="0">
                <Node pos="l" depth="5" NCoef="0" IVar="-1" Cut="0.0000000000000000e+00" cType="1" res="9.8385359160602093e-04" rms="3.2817789912223816e-01" purity="6.4403736591339111e-01" nType="-99"/>
                <Node pos="r" depth="5" NCoef="0" IVar="-1" Cut="0.0000000000000000e+00" cType="1" res="1.0883042588829994e-02" rms="3.1483241915702820e-01" purity="5.6519430875778198e-01" nType="-99"/>
              </Node>
              <Node pos="r" depth="4" NCoef="0" IVar="7" Cut="7.7387642860412598e-01" cType="1" res="-5.6551625020802021e-03" rms="2.5993376970291138e-01" purity="1.1679023504257202e-01" nType="0">
                <Node pos="l" depth="5" NCoef="0" IVar="-1" Cut="0.0000000000000000e+00" cType="1" res="3.0974517576396465e-03" rms="3.0880251526832581e-01" purity="1.6575817763805389e-01" nType="-99"/>
                <Node pos="r" depth="5" NCoef="0" IVar="-1" Cut="0.0000000000000000e+00" cType="1" res="-9.5909060910344124e-03" rms="2.2487500309944153e-01" purity="8.7072603404521942e-02" nType="-99"/>
              </Node>
            </Node>
            <Node pos="r" depth="3" NCoef="0" IVar="6" Cut="1.0727449655532837e+00" cType="1" res="-9.2313140630722046e-03" rms="2.3789539933204651e-01" purity="1.5437203645706177e-01" nType="0">
              <Node pos="l" depth="4" NCoef="0" IVar="-1" Cut="0.0000000000000000e+00" cType="1" res="5.0993831828236580e-03" rms="2.5440782308578491e-01" purity="8.6533904075622559e-02" nType="-99"/>
              <Node pos="r" depth="4" NCoef="0" IVar="7" Cut="7.7186602354049683e-01" cType="1" res="-1.4311926439404488e-02" rms="2.3174156248569489e-01" purity="1.7764659225940704e-01" nType="0">
                <Node pos="l" depth="5" NCoef="0" IVar="-1" Cut="0.0000000000000000e+00" cType="1" res="-1.4560866169631481e-02" rms="2.5187480449676514e-01" purity="2.0758207142353058e-01" nType="-99"/>
                <Node pos="r" depth="5" NCoef="0" IVar="-1" Cut="0.0000000000000000e+00" cType="1" res="-7.6428405009210110e-03" rms="2.2003035247325897e-01" purity="1.6157349944114685e-01" nType="-99"/>
              </Node>
            </Node>
          </Node>
          <Node pos="r" depth="2" NCoef="0" IVar="9" Cut="2.2486868500709534e-01" cType="1" res="-1.5667654573917389e-02" rms="2.1360896527767181e-01" purity="1.0073974728584290e-01" nType="0">
            <Node pos="l" depth="3" NCoef="0" IVar="-1" Cut="0.0000000000000000e+00" cType="1" res="-7.6454866211861372e-04" rms="1.9233509898185730e-01" purity="5.7088233530521393e-02" nType="-99"/>
            <Node pos="r" depth="3" NCoef="0" IVar="6" Cut="2.1454744338989258e+00" cType="1" res="-2.1904371678829193e-02" rms="2.2150176763534546e-01" purity="1.1877104640007019e-01" nType="0">
              <Node pos="l" depth="4" NCoef="0" IVar="-1" Cut="0.0000000000000000e+00" cType="1" res="-1.3085023500025272e-02" rms="2.2215446829795837e-01" purity="7.2905555367469788e-02" nType="-99"/>
              <Node pos="r" depth="4" NCoef="0" IVar="-1" Cut="0.0000000000000000e+00" cType="1" res="-2.0372956991195679e-02" rms="2.2045746445655823e-01" purity="1.7101719975471497e-01" nType="-99"/>
            </Node>
          </Node>
        </Node>
      </Node>
    </BinaryTree>
    <BinaryTree type="DecisionTree" boostWeight="1.0000000000000000e+00" itree="120">
      <Node pos="s" depth="0" NCoef="0" IVar="2" Cut="1.0975610017776489e+00" cType="1" res="-3.9219926111400127e-04" rms="2.9987391829490662e-01" purity="4.9803236126899719e-01" nType="0">
        <Node pos="l" depth="1" NCoef="0" IVar="9" Cut="5.6374263763427734e-01" cType="1" res="1.6191332833841443e-03" rms="3.1394976377487183e-01" purity="6.0462617874145508e-01" nType="0">
          <Node pos="l" depth="2" NCoef="0" IVar="4" Cut="7.6547706604003906e+01" cType="1" res="-3.3534792601130903e-04" rms="3.1146094202995300e-01" purity="5.8817797899246216e-01" nType="0">
            <Node pos="l" depth="3" NCoef="0" IVar="6" Cut="1.6091080904006958e+00" cType="1" res="-1.3569245114922523e-02" rms="3.5555788874626160e-01" purity="3.1295391917228699e-01" nType="0">
              <Node pos="l" depth="4" NCoef="0" IVar="-1" Cut="0.0000000000000000e+00" cType="1" res="-1.5760771930217743e-02" rms="3.0709865689277649e-01" purity="1.5610879659652710e-01" nType="-99"/>
              <Node pos="r" depth="4" NCoef="0" IVar="8" Cut="3.6903470754623413e-01" cType="1" res="-3.3638917375355959e-03" rms="3.7823483347892761e-01" purity="3.9570313692092896e-01" nType="0">
                <Node pos="l" depth="5" NCoef="0" IVar="-1" Cut="0.0000000000000000e+00" cType="1" res="-5.4569877684116364e-03" rms="3.4956198930740356e-01" purity="3.3708921074867249e-01" nType="-99"/>
                <Node pos="r" depth="5" NCoef="0" IVar="-1" Cut="0.0000000000000000e+00" cType="1" res="2.9885570984333754e-03" rms="4.0830409526824951e-01" purity="4.6302831172943115e-01" nType="-99"/>
              </Node>
            </Node>
            <Node pos="r" depth="3" NCoef="0" IVar="7" Cut="3.1915466785430908e+00" cType="1" res="1.4557341346517205e-03" rms="3.0495926737785339e-01" purity="6.2542700767517090e-01" nType="0">
              <Node pos="l" depth="4" NCoef="0" IVar="6" Cut="1.2259873151779175e+00" cType="1" res="2.7551257517188787e-04" rms="3.0556091666221619e-01" purity="6.3838732242584229e-01" nType="0">
                <Node pos="l" depth="5" NCoef="0" IVar="-1" Cut="0.0000000000000000e+00" cType="1" res="-4.1540227830410004e-03" rms="3.3076453208923340e-01" purity="3.7825369834899902e-01" nType="-99"/>
                <Node pos="r" depth="5" NCoef="0" IVar="-1" Cut="0.0000000000000000e+00" cType="1" res="1.3139732182025909e-03" rms="2.9941272735595703e-01" purity="6.9829839468002319e-01" nType="-99"/>
              </Node>
              <Node pos="r" depth="4" NCoef="0" IVar="-1" Cut="0.0000000000000000e+00" cType="1" res="8.3146821707487106e-03" rms="2.9626739025115967e-01" purity="4.5064023137092590e-01" nType="-99"/>
            </Node>
          </Node>
          <Node pos="r" depth="2" NCoef="0" IVar="3" Cut="1.0975610017776489e+00" cType="1" res="1.3375244103372097e-02" rms="3.2827696204185486e-01" purity="7.0356130599975586e-01" nType="0">
            <Node pos="l" depth="3" NCoef="0" IVar="-1" Cut="0.0000000000000000e+00" cType="1" res="3.6610406823456287e-03" rms="3.1197807192802429e-01" purity="7.4818366765975952e-01" nType="-99"/>
            <Node pos="r" depth="3" NCoef="0" IVar="-1" Cut="0.0000000000000000e+00" cType="1" res="1.2154798023402691e-02" rms="3.7730965018272400e-01" purity="5.5367827415466309e-01" nType="-99"/>
          </Node>
        </Node>
        <Node pos="r" depth="1" NCoef="0" IVar="3" Cut="1.0975610017776489e+00" cType="1" res="-5.1217363215982914e-03" rms="2.6377227902412415e-01" purity="2.4738286435604095e-01" nType="0">
          <Node pos="l" depth="2" NCoef="0" IVar="5" Cut="8.1277137756347656e+01" cType="1" res="-3.1997154001146555e-03" rms="2.7565455436706543e-01" purity="2.9849553108215332e-01" nType="0">
            <Node pos="l" depth="3" NCoef="0" IVar="2" Cut="4.0487804412841797e+00" cType="1" res="-1.0135137476027012e-02" rms="2.9596215486526489e-01" purity="3.3408266305923462e-01" nType="0">
              <Node pos="l" depth="4" NCoef="0" IVar="-1" Cut="0.0000000000000000e+00" cType="1" res="-1.0353035759180784e-03" rms="3.3424738049507141e-01" purity="5.6711751222610474e-01" nType="-99"/>
              <Node pos="r" depth="4" NCoef="0" IVar="-1" Cut="0.0000000000000000e+00" cType="1" res="-1.1749696917831898e-02" rms="2.5126117467880249e-01" purity="9.9002085626125336e-02" nType="-99"/>
            </Node>
            <Node pos="r" depth="3" NCoef="0" IVar="5" Cut="1.3311898803710938e+02" cType="1" res="7.3750287992879748e-04" rms="2.6334899663925171e-01" purity="2.7829283475875854e-01" nType="0">
              <Node pos="l" depth="4" NCoef="0" IVar="9" Cut="2.2967807948589325e-01" cType="1" res="5.4842717945575714e-03" rms="2.7573031187057495e-01" purity="3.1833106279373169e-01" nType="0">
                <Node pos="l" depth="5" NCoef="0" IVar="-1" Cut="0.0000000000000000e+00" cType="1" res="-9.5152128487825394e-03" rms="2.2348761558532715e-01" purity="1.2226213514804840e-01" nType="-99"/>
                <Node pos="r" depth="5" NCoef="0" IVar="-1" Cut="0.0000000000000000e+00" cType="1" res="7.4290912598371506e-03" rms="2.9765483736991882e-01" purity="4.1443216800689697e-01" nType="-99"/>
              </Node>
              <Node pos="r" depth="4" NCoef="0" IVar="-1" Cut="0.0000000000000000e+00" cType="1" res="-1.1269859969615936e-02" rms="2.1975685656070709e-01" purity="1.5369245409965515e-01" nType="-99"/>
            </Node>
          </Node>
          <Node pos="r" depth="2" NCoef="0" IVar="7" Cut="6.8342024087905884e-01" cType="1" res="-9.9477581679821014e-03" rms="2.3119100928306580e-01" purity="1.1904353648424149e-01" nType="0">
            <Node pos="l" depth="3" NCoef="0" IVar="-1" Cut="0.0000000000000000e+00" cType="1" res="1.2480390723794699e-03" rms="2.7899354696273804e-01" purity="1.6885034739971161e-01" nType="-99"/>
            <Node pos="r" depth="3" NCoef="0" IVar="9" Cut="2.6498070359230042e-01" cType="1" res="-1.5761630609631538e-02" rms="2.0314455032348633e-01" purity="9.4374023377895355e-02" nType="0">
              <Node pos="l" depth="4" NCoef="0" IVar="-1" Cut="0.0000000000000000e+00" cType="1" res="-6.3811219297349453e-03" rms="1.9599640369415283e-01" purity="7.2864890098571777e-02" nType="-99"/>
              <Node pos="r" depth="4" NCoef="0" IVar="-1" Cut="0.0000000000000000e+00" cType="1" res="-2.0168874412775040e-02" rms="2.0835883915424347e-01" purity="1.1167398095130920e-01" nType="-99"/>
            </Node>
          </Node>
        </Node>
      </Node>
    </BinaryTree>
    <BinaryTree type="DecisionTree" boostWeight="1.0000000000000000e+00" itree="121">
      <Node pos="s" depth="0" NCoef="0" IVar="8" Cut="1.0066308975219727e+00" cType="1" res="2.4132782709784806e-04" rms="2.9930219054222107e-01" purity="5.0044983625411987e-01" nType="0">
        <Node pos="l" depth="1" NCoef="0" IVar="8" Cut="2.7027034759521484e-01" cType="1" res="7.9788023140281439e-04" rms="2.9838812351226807e-01" purity="5.0537735223770142e-01" nType="0">
          <Node pos="l" depth="2" NCoef="0" IVar="9" Cut="2.4014388024806976e-01" cType="1" res="-4.5846463181078434e-03" rms="2.8395608067512512e-01" purity="3.6104175448417664e-01" nType="0">
            <Node pos="l" depth="3" NCoef="0" IVar="7" Cut="3.4575209617614746e+00" cType="1" res="-1.2165672145783901e-02" rms="2.3815236985683441e-01" purity="2.4989055097103119e-01" nType="0">
              <Node pos="l" depth="4" NCoef="0" IVar="7" Cut="2.1082499027252197e+00" cType="1" res="-1.8492447212338448e-02" rms="2.3305255174636841e-01" purity="2.3097473382949829e-01" nType="0">
                <Node pos="l" depth="5" NCoef="0" IVar="-1" Cut="0.0000000000000000e+00" cType="1" res="-5.9396140277385712e-03" rms="2.2130605578422546e-01" purity="7.2013728320598602e-02" nType="-99"/>
                <Node pos="r" depth="5" NCoef="0" IVar="-1" Cut="0.0000000000000000e+00" cType="1" res="-1.7996449023485184e-02" rms="2.4112442135810852e-01" purity="3.5157269239425659e-01" nType="-99"/>
              </Node>
              <Node pos="r" depth="4" NCoef="0" IVar="-1" Cut="0.0000000000000000e+00" cType="1" res="2.5310413911938667e-03" rms="2.5020790100097656e-01" purity="2.9919597506523132e-01" nType="-99"/>
            </Node>
            <Node pos="r" depth="3" NCoef="0" IVar="8" Cut="2.3734349012374878e-01" cType="1" res="-8.8272884022444487e-04" rms="3.0375495553016663e-01" purity="4.1531836986541748e-01" nType="0">
              <Node pos="l" depth="4" NCoef="0" IVar="2" Cut="1.0975610017776489e+00" cType="1" res="2.2430531680583954e-03" rms="3.0359098315238953e-01" purity="3.7870866060256958e-01" nType="0">
                <Node pos="l" depth="5" NCoef="0" IVar="-1" Cut="0.0000000000000000e+00" cType="1" res="3.1967365648597479e-03" rms="3.3842194080352783e-01" purity="5.0360482931137085e-01" nType="-99"/>
                <Node pos="r" depth="5" NCoef="0" IVar="-1" Cut="0.0000000000000000e+00" cType="1" res="-6.0196812264621258e-03" rms="2.2610889375209808e-01" purity="1.5025989711284637e-01" nType="-99"/>
              </Node>
              <Node pos="r" depth="4" NCoef="0" IVar="7" Cut="1.0651992559432983e+00" cType="1" res="-1.2446761131286621e-02" rms="3.0408158898353577e-01" purity="5.5075836181640625e-01" nType="0">
                <Node pos="l" depth="5" NCoef="0" IVar="-1" Cut="0.0000000000000000e+00" cType="1" res="-9.1546140611171722e-03" rms="3.2148000597953796e-01" purity="4.9545624852180481e-01" nType="-99"/>
                <Node pos="r" depth="5" NCoef="0" IVar="-1" Cut="0.0000000000000000e+00" cType="1" res="-3.5474174655973911e-03" rms="2.8772422671318054e-01" purity="5.9957480430603027e-01" nType="-99"/>
              </Node>
            </Node>
          </Node>
          <Node pos="r" depth="2" NCoef="0" IVar="6" Cut="1.5324832201004028e+00" cType="1" res="3.7708368618041277e-03" rms="3.0602723360061646e-01" purity="5.8509892225265503e-01" nType="0">
            <Node pos="l" depth="3" NCoef="0" IVar="8" Cut="7.1926832199096680e-01" cType="1" res="-4.2541176080703735e-03" rms="3.2566666603088379e-01" purity="4.2048120498657227e-01" nType="0">
              <Node pos="l" depth="4" NCoef="0" IVar="7" Cut="9.5562177896499634e-01" cType="1" res="-7.9729743301868439e-03" rms="3.2095247507095337e-01" purity="4.0254867076873779e-01" nType="0">
                <Node pos="l" depth="5" NCoef="0" IVar="-1" Cut="0.0000000000000000e+00" cType="1" res="-7.8543173149228096e-03" rms="3.2920131087303162e-01" purity="4.4187557697296143e-01" nType="-99"/>
                <Node pos="r" depth="5" NCoef="0" IVar="-1" Cut="0.0000000000000000e+00" cType="1" res="9.3007984105497599e-04" rms="3.1129956245422363e-01" purity="3.5915574431419373e-01" nType="-99"/>
              </Node>
              <Node pos="r" depth="4" NCoef="0" IVar="-1" Cut="0.0000000000000000e+00" cType="1" res="6.9194794632494450e-03" rms="3.5004466772079468e-01" purity="5.2036345005035400e-01" nType="-99"/>
            </Node>
            <Node pos="r" depth="3" NCoef="0" IVar="7" Cut="1.4276472330093384e+00" cType="1" res="7.2069363668560982e-03" rms="2.9715532064437866e-01" purity="6.5558445453643799e-01" nType="0">
              <Node pos="l" depth="4" NCoef="0" IVar="4" Cut="1.6875639343261719e+02" cType="1" res="3.5401559434831142e-03" rms="3.0515605211257935e-01" purity="6.6762119531631470e-01" nType="0">
                <Node pos="l" depth="5" NCoef="0" IVar="-1" Cut="0.0000000000000000e+00" cType="1" res="3.2706395722925663e-03" rms="3.0248856544494629e-01" purity="7.0359545946121216e-01" nType="-99"/>
                <Node pos="r" depth="5" NCoef="0" IVar="-1" Cut="0.0000000000000000e+00" cType="1" res="-8.4008546546101570e-03" rms="3.2679501175880432e-01" purity="3.5095229744911194e-01" nType="-99"/>
              </Node>
              <Node pos="r" depth="4" NCoef="0" IVar="9" Cut="1.9873838126659393e-01" cType="1" res="1.6935368999838829e-02" rms="2.7456462383270264e-01" purity="6.2364923954010010e-01" nType="0">
                <Node pos="l" depth="5" NCoef="0" IVar="-1" Cut="0.0000000000000000e+00" cType="1" res="-2.6287548243999481e-03" rms="3.1162804365158081e-01" purity="3.3911359310150146e-01" nType="-99"/>
                <Node pos="r" depth="5" NCoef="0" IVar="-1" Cut="0.0000000000000000e+00" cType="1" res="1.8229257315397263e-02" rms="2.4984082579612732e-01" purity="7.8743821382522583e-01" nType="-99"/>
              </Node>
            </Node>
          </Node>
        </Node>
        <Node pos="r" depth="1" NCoef="0" IVar="-1" Cut="0.0000000000000000e+00" cType="1" res="-1.0566852986812592e-02" rms="3.3518970012664795e-01" purity="2.8985631465911865e-01" nType="-99"/>
      </Node>
    </BinaryTree>
    <BinaryTree type="DecisionTree" boostWeight="1.0000000000000000e+00" itree="122">
      <Node pos="s" depth="0" NCoef="0" IVar="8" Cut="2.5182172656059265e-01" cType="1" res="2.2567849373444915e-04" rms="2.9956316947937012e-01" purity="4.9994868040084839e-01" nType="0">
        <Node pos="l" depth="1" NCoef="0" IVar="8" Cut="6.1593808233737946e-02" cType="1" res="-4.9840449355542660e-03" rms="2.8323006629943848e-01" purity="3.3873927593231201e-01" nType="0">
          <Node pos="l" depth="2" NCoef="0" IVar="-1" Cut="0.0000000000000000e+00" cType="1" res="-2.1158482879400253e-02" rms="2.1476678550243378e-01" purity="7.3718078434467316e-02" nType="-99"/>
          <Node pos="r" depth="2" NCoef="0" IVar="7" Cut="3.0874490737915039e+00" cType="1" res="-3.6079038400202990e-03" rms="2.8750503063201904e-01" purity="3.5792273283004761e-01" nType="0">
            <Node pos="l" depth="3" NCoef="0" IVar="7" Cut="1.7319836616516113e+00" cType="1" res="-6.0861920937895775e-03" rms="2.9135903716087341e-01" purity="3.4903055429458618e-01" nType="0">
              <Node pos="l" depth="4" NCoef="0" IVar="1" Cut="1.0975610017776489e+00" cType="1" res="-6.1776733491569757e-04" rms="3.0364182591438293e-01" purity="3.3123669028282166e-01" nType="0">
                <Node pos="l" depth="5" NCoef="0" IVar="-1" Cut="0.0000000000000000e+00" cType="1" res="5.3164539858698845e-03" rms="2.9383859038352966e-01" purity="1.5699699521064758e-01" nType="-99"/>
                <Node pos="r" depth="5" NCoef="0" IVar="-1" Cut="0.0000000000000000e+00" cType="1" res="-4.9786362797021866e-03" rms="3.1359833478927612e-01" purity="5.1933741569519043e-01" nType="-99"/>
              </Node>
              <Node pos="r" depth="4" NCoef="0" IVar="8" Cut="1.9614495337009430e-01" cType="1" res="-1.3832971453666687e-02" rms="2.7282696962356567e-01" purity="3.7423801422119141e-01" nType="0">
                <Node pos="l" depth="5" NCoef="0" IVar="-1" Cut="0.0000000000000000e+00" cType="1" res="-1.4343854039907455e-02" rms="2.6884472370147705e-01" purity="2.8789317607879639e-01" nType="-99"/>
                <Node pos="r" depth="5" NCoef="0" IVar="-1" Cut="0.0000000000000000e+00" cType="1" res="1.9838290754705667e-03" rms="2.7778840065002441e-01" purity="5.0390630960464478e-01" nType="-99"/>
              </Node>
            </Node>
            <Node pos="r" depth="3" NCoef="0" IVar="9" Cut="1.4895962178707123e-01" cType="1" res="8.3747971802949905e-03" rms="2.6776671409606934e-01" purity="4.0091699361801147e-01" nType="0">
              <Node pos="l" depth="4" NCoef="0" IVar="-1" Cut="0.0000000000000000e+00" cType="1" res="-8.4417862817645073e-03" rms="2.5282105803489685e-01" purity="2.4432212114334106e-01" nType="-99"/>
              <Node pos="r" depth="4" NCoef="0" IVar="-1" Cut="0.0000000000000000e+00" cType="1" res="1.4140291139483452e-02" rms="2.7835860848426819e-01" purity="5.3301286697387695e-01" nType="-99"/>
            </Node>
          </Node>
        </Node>
        <Node pos="r" depth="1" NCoef="0" IVar="9" Cut="7.2032415866851807e-01" cType="1" res="2.5197395589202642e-03" rms="3.0645132064819336e-01" purity="5.7093596458435059e-01" nType="0">
          <Node pos="l" depth="2" NCoef="0" IVar="4" Cut="9.3453987121582031e+01" cType="1" res="1.3695687521249056e-03" rms="3.0427739024162292e-01" purity="5.6806886196136475e-01" nType="0">
            <Node pos="l" depth="3" NCoef="0" IVar="9" Cut="3.8664644956588745e-01" cType="1" res="-5.6384056806564331e-03" rms="3.3652260899543762e-01" purity="3.8527390360832214e-01" nType="0">
              <Node pos="l" depth="4" NCoef="0" IVar="8" Cut="5.5873757600784302e-01" cType="1" res="-1.1478226631879807e-02" rms="3.2366701960563660e-01" purity="2.8128123283386230e-01" nType="0">
                <Node pos="l" depth="5" NCoef="0" IVar="-1" Cut="0.0000000000000000e+00" cType="1" res="-8.5159540176391602e-03" rms="3.1126660108566284e-01" purity="2.6094472408294678e-01" nType="-99"/>
                <Node pos="r" depth="5" NCoef="0" IVar="-1" Cut="0.0000000000000000e+00" cType="1" res="2.0200177095830441e-03" rms="3.5728600621223450e-01" purity="3.4137064218521118e-01" nType="-99"/>
              </Node>
              <Node pos="r" depth="4" NCoef="0" IVar="7" Cut="8.7567317485809326e-01" cType="1" res="2.1774806082248688e-03" rms="3.5284522175788879e-01" purity="5.2445542812347412e-01" nType="0">
                <Node pos="l" depth="5" NCoef="0" IVar="-1" Cut="0.0000000000000000e+00" cType="1" res="-2.9326165094971657e-03" rms="3.5178172588348389e-01" purity="5.3340077400207520e-01" nType="-99"/>
                <Node pos="r" depth="5" NCoef="0" IVar="-1" Cut="0.0000000000000000e+00" cType="1" res="9.1746980324387550e-03" rms="3.5422188043594360e-01" purity="5.0544583797454834e-01" nType="-99"/>
              </Node>
            </Node>
            <Node pos="r" depth="3" NCoef="0" IVar="7" Cut="2.1501462459564209e+00" cType="1" res="3.8022035732865334e-03" rms="2.9221436381340027e-01" purity="6.3152128458023071e-01" nType="0">
              <Node pos="l" depth="4" NCoef="0" IVar="9" Cut="3.6946013569831848e-01" cType="1" res="2.1708509884774685e-03" rms="2.9511648416519165e-01" purity="6.4329051971435547e-01" nType="0">
                <Node pos="l" depth="5" NCoef="0" IVar="-1" Cut="0.0000000000000000e+00" cType="1" res="-7.1599840885028243e-04" rms="3.1650334596633911e-01" purity="5.1442193984985352e-01" nType="-99"/>
                <Node pos="r" depth="5" NCoef="0" IVar="-1" Cut="0.0000000000000000e+00" cType="1" res="4.5226449146866798e-03" rms="2.6394408941268921e-01" purity="8.1458079814910889e-01" nType="-99"/>
              </Node>
              <Node pos="r" depth="4" NCoef="0" IVar="6" Cut="2.0688562393188477e+00" cType="1" res="1.6891393810510635e-02" rms="2.6743298768997192e-01" purity="5.3709024190902710e-01" nType="0">
                <Node pos="l" depth="5" NCoef="0" IVar="-1" Cut="0.0000000000000000e+00" cType="1" res="-4.3352134525775909e-03" rms="2.7768301963806152e-01" purity="2.7783402800559998e-01" nType="-99"/>
                <Node pos="r" depth="5" NCoef="0" IVar="-1" Cut="0.0000000000000000e+00" cType="1" res="1.7533460631966591e-02" rms="2.5980833172798157e-01" purity="6.9553661346435547e-01" nType="-99"/>
              </Node>
            </Node>
          </Node>
          <Node pos="r" depth="2" NCoef="0" IVar="-1" Cut="0.0000000000000000e+00" cType="1" res="1.0549352504312992e-02" rms="3.4497380256652832e-01" purity="6.2624585628509521e-01" nType="-99"/>
        </Node>
      </Node>
    </BinaryTree>
    <BinaryTree type="DecisionTree" boostWeight="1.0000000000000000e+00" itree="123">
      <Node pos="s" depth="0" NCoef="0" IVar="5" Cut="8.7840103149414062e+01" cType="1" res="-4.3177983025088906e-04" rms="2.9905098676681519e-01" purity="4.9848055839538574e-01" nType="0">
        <Node pos="l" depth="1" NCoef="0" IVar="4" Cut="8.1992477416992188e+01" cType="1" res="2.5664027780294418e-03" rms="3.0871266126632690e-01" purity="5.9663927555084229e-01" nType="0">
          <Node pos="l" depth="2" NCoef="0" IVar="6" Cut="1.0727421045303345e+00" cType="1" res="-1.1398227885365486e-02" rms="3.5326409339904785e-01" purity="3.7812769412994385e-01" nType="0">
            <Node pos="l" depth="3" NCoef="0" IVar="-1" Cut="0.0000000000000000e+00" cType="1" res="-1.0820058174431324e-02" rms="3.4050178527832031e-01" purity="2.4238485097885132e-01" nType="-99"/>
            <Node pos="r" depth="3" NCoef="0" IVar="9" Cut="3.2883554697036743e-01" cType="1" res="-7.0186327211558819e-03" rms="3.5683274269104004e-01" purity="4.1826665401458740e-01" nType="0">
              <Node pos="l" depth="4" NCoef="0" IVar="-1" Cut="0.0000000000000000e+00" cType="1" res="-8.7169688194990158e-03" rms="3.3597564697265625e-01" purity="2.9517963528633118e-01" nType="-99"/>
              <Node pos="r" depth="4" NCoef="0" IVar="6" Cut="2.2837774753570557e+00" cType="1" res="1.1940052499994636e-03" rms="3.6729338765144348e-01" purity="4.8443338274955750e-01" nType="0">
                <Node pos="l" depth="5" NCoef="0" IVar="-1" Cut="0.0000000000000000e+00" cType="1" res="-2.1602653432637453e-03" rms="3.6753627657890320e-01" purity="4.3925064802169800e-01" nType="-99"/>
                <Node pos="r" depth="5" NCoef="0" IVar="-1" Cut="0.0000000000000000e+00" cType="1" res="3.2027487177401781e-03" rms="3.6686688661575317e-01" purity="5.3326916694641113e-01" nType="-99"/>
              </Node>
            </Node>
          </Node>
          <Node pos="r" depth="2" NCoef="0" IVar="9" Cut="2.8624090552330017e-01" cType="1" res="5.4814121685922146e-03" rms="2.9849299788475037e-01" purity="6.4225190877914429e-01" nType="0">
            <Node pos="l" depth="3" NCoef="0" IVar="5" Cut="4.7184272766113281e+01" cType="1" res="-3.5449548158794641e-04" rms="3.0804419517517090e-01" purity="4.8078837990760803e-01" nType="0">
              <Node pos="l" depth="4" NCoef="0" IVar="-1" Cut="0.0000000000000000e+00" cType="1" res="-9.5622912049293518e-03" rms="3.2956543564796448e-01" purity="2.3457555472850800e-01" nType="-99"/>
              <Node pos="r" depth="4" NCoef="0" IVar="7" Cut="2.4609067440032959e+00" cType="1" res="2.7622533962130547e-03" rms="3.0432453751564026e-01" purity="5.2040088176727295e-01" nType="0">
                <Node pos="l" depth="5" NCoef="0" IVar="-1" Cut="0.0000000000000000e+00" cType="1" res="-1.1447081342339516e-03" rms="3.1758219003677368e-01" purity="4.8454710841178894e-01" nType="-99"/>
                <Node pos="r" depth="5" NCoef="0" IVar="-1" Cut="0.0000000000000000e+00" cType="1" res="7.2614219971001148e-03" rms="2.7435711026191711e-01" purity="5.9506827592849731e-01" nType="-99"/>
              </Node>
            </Node>
            <Node pos="r" depth="3" NCoef="0" IVar="6" Cut="6.8961751461029053e-01" cType="1" res="9.0609444305300713e-03" rms="2.9242271184921265e-01" purity="7.4128770828247070e-01" nType="0">
              <Node pos="l" depth="4" NCoef="0" IVar="-1" Cut="0.0000000000000000e+00" cType="1" res="-2.4638536851853132e-03" rms="3.3896073698997498e-01" purity="5.3776019811630249e-01" nType="-99"/>
              <Node pos="r" depth="4" NCoef="0" IVar="5" Cut="5.6903808593750000e+01" cType="1" res="1.0971039533615112e-02" rms="2.8578400611877441e-01" purity="7.6765555143356323e-01" nType="0">
                <Node pos="l" depth="5" NCoef="0" IVar="-1" Cut="0.0000000000000000e+00" cType="1" res="7.6180314645171165e-03" rms="3.5512477159500122e-01" purity="5.6581312417984009e-01" nType="-99"/>
                <Node pos="r" depth="5" NCoef="0" IVar="-1" Cut="0.0000000000000000e+00" cType="1" res="5.8283498510718346e-03" rms="2.6378643512725830e-01" purity="8.2246100902557373e-01" nType="-99"/>
              </Node>
            </Node>
          </Node>
        </Node>
        <Node pos="r" depth="1" NCoef="0" IVar="8" Cut="7.7068698406219482e-01" cType="1" res="-3.6647259257733822e-03" rms="2.8823521733283997e-01" purity="3.9263585209846497e-01" nType="0">
          <Node pos="l" depth="2" NCoef="0" IVar="7" Cut="5.7025271654129028e-01" cType="1" res="-2.7805522549897432e-03" rms="2.8644177317619324e-01" purity="3.9836433529853821e-01" nType="0">
            <Node pos="l" depth="3" NCoef="0" IVar="9" Cut="2.2910669445991516e-01" cType="1" res="-1.0465592145919800e-02" rms="3.0419227480888367e-01" purity="4.4535070657730103e-01" nType="0">
              <Node pos="l" depth="4" NCoef="0" IVar="-1" Cut="0.0000000000000000e+00" cType="1" res="7.3239970952272415e-03" rms="2.8082126379013062e-01" purity="1.5494467318058014e-01" nType="-99"/>
              <Node pos="r" depth="4" NCoef="0" IVar="9" Cut="4.4568043947219849e-01" cType="1" res="-1.4700434170663357e-02" rms="3.0853679776191711e-01" purity="5.0415503978729248e-01" nType="0">
                <Node pos="l" depth="5" NCoef="0" IVar="-1" Cut="0.0000000000000000e+00" cType="1" res="-1.3897866010665894e-02" rms="3.1778603792190552e-01" purity="3.9271220564842224e-01" nType="-99"/>
                <Node pos="r" depth="5" NCoef="0" IVar="-1" Cut="0.0000000000000000e+00" cType="1" res="-1.7223046161234379e-03" rms="2.9989168047904968e-01" purity="5.9990531206130981e-01" nType="-99"/>
              </Node>
            </Node>
            <Node pos="r" depth="3" NCoef="0" IVar="8" Cut="9.4187669456005096e-02" cType="1" res="-2.9699194783461280e-05" rms="2.7976316213607788e-01" purity="3.8154557347297668e-01" nType="0">
              <Node pos="l" depth="4" NCoef="0" IVar="-1" Cut="0.0000000000000000e+00" cType="1" res="-1.9265927374362946e-02" rms="1.9307307898998260e-01" purity="6.9366119801998138e-02" nType="-99"/>
              <Node pos="r" depth="4" NCoef="0" IVar="9" Cut="1.9941896200180054e-01" cType="1" res="1.6449429094791412e-03" rms="2.8581532835960388e-01" purity="4.0788918733596802e-01" nType="0">
                <Node pos="l" depth="5" NCoef="0" IVar="-1" Cut="0.0000000000000000e+00" cType="1" res="-4.8041297122836113e-03" rms="2.6464530825614929e-01" purity="1.6835722327232361e-01" nType="-99"/>
                <Node pos="r" depth="5" NCoef="0" IVar="-1" Cut="0.0000000000000000e+00" cType="1" res="2.7114890981465578e-03" rms="2.9351252317428589e-01" purity="5.0044107437133789e-01" nType="-99"/>
              </Node>
            </Node>
          </Node>
          <Node pos="r" depth="2" NCoef="0" IVar="-1" Cut="0.0000000000000000e+00" cType="1" res="-1.1059600859880447e-02" rms="3.2538890838623047e-01" purity="2.6361608505249023e-01" nType="-99"/>
        </Node>
      </Node>
    </BinaryTree>
    <BinaryTree type="DecisionTree" boostWeight="1.0000000000000000e+00" itree="124">
      <Node pos="s" depth="0" NCoef="0" IVar="5" Cut="1.2397115325927734e+02" cType="1" res="1.1611338704824448e-03" rms="3.0014452338218689e-01" purity="4.9960589408874512e-01" nType="0">
        <Node pos="l" depth="1" NCoef="0" IVar="3" Cut="3.0487804412841797e+00" cType="1" res="2.5790345389395952e-03" rms="3.0467599630355835e-01" purity="5.4605555534362793e-01" nType="0">
          <Node pos="l" depth="2" NCoef="0" IVar="7" Cut="3.4215149879455566e+00" cType="1" res="4.0669948793947697e-03" rms="3.0376210808753967e-01" purity="5.9738147258758545e-01" nType="0">
            <Node pos="l" depth="3" NCoef="0" IVar="4" Cut="1.0492213439941406e+02" cType="1" res="3.1276622321456671e-03" rms="3.0438780784606934e-01" purity="6.0588085651397705e-01" nType="0">
              <Node pos="l" depth="4" NCoef="0" IVar="5" Cut="1.0220328521728516e+02" cType="1" res="-1.8180975457653403e-03" rms="3.2596209645271301e-01" purity="5.4824340343475342e-01" nType="0">
                <Node pos="l" depth="5" NCoef="0" IVar="-1" Cut="0.0000000000000000e+00" cType="1" res="-1.8787874141708016e-03" rms="3.2576325535774231e-01" purity="5.9260869026184082e-01" nType="-99"/>
                <Node pos="r" depth="5" NCoef="0" IVar="-1" Cut="0.0000000000000000e+00" cType="1" res="5.6124893017113209e-03" rms="3.2671153545379639e-01" purity="3.0881330370903015e-01" nType="-99"/>
              </Node>
              <Node pos="r" depth="4" NCoef="0" IVar="4" Cut="1.7569165039062500e+02" cType="1" res="6.0370531864464283e-03" rms="2.9091086983680725e-01" purity="6.3978672027587891e-01" nType="0">
                <Node pos="l" depth="5" NCoef="0" IVar="-1" Cut="0.0000000000000000e+00" cType="1" res="4.5399381779134274e-03" rms="2.8685635328292847e-01" purity="7.2153902053833008e-01" nType="-99"/>
                <Node pos="r" depth="5" NCoef="0" IVar="-1" Cut="0.0000000000000000e+00" cType="1" res="-1.5268711140379310e-03" rms="3.1002163887023926e-01" purity="2.3553821444511414e-01" nType="-99"/>
              </Node>
            </Node>
            <Node pos="r" depth="3" NCoef="0" IVar="-1" Cut="0.0000000000000000e+00" cType="1" res="1.2533946894109249e-02" rms="2.8888696432113647e-01" purity="4.1043981909751892e-01" nType="-99"/>
          </Node>
          <Node pos="r" depth="2" NCoef="0" IVar="7" Cut="1.4584127664566040e+00" cType="1" res="-5.7390145957469940e-03" rms="3.0960351228713989e-01" purity="2.5913140177726746e-01" nType="0">
            <Node pos="l" depth="3" NCoef="0" IVar="5" Cut="6.9488883972167969e+01" cType="1" res="4.4603261630982161e-04" rms="3.3887568116188049e-01" purity="3.0727663636207581e-01" nType="0">
              <Node pos="l" depth="4" NCoef="0" IVar="-1" Cut="0.0000000000000000e+00" cType="1" res="7.5028110295534134e-03" rms="3.7426409125328064e-01" purity="3.4554189443588257e-01" nType="-99"/>
              <Node pos="r" depth="4" NCoef="0" IVar="6" Cut="2.1454801559448242e+00" cType="1" res="-7.6871756464242935e-03" rms="3.2178282737731934e-01" purity="2.9048320651054382e-01" nType="0">
                <Node pos="l" depth="5" NCoef="0" IVar="-1" Cut="0.0000000000000000e+00" cType="1" res="3.2416235189884901e-03" rms="3.2600188255310059e-01" purity="2.3412844538688660e-01" nType="-99"/>
                <Node pos="r" depth="5" NCoef="0" IVar="-1" Cut="0.0000000000000000e+00" cType="1" res="-1.1404799297451973e-02" rms="3.1595540046691895e-01" purity="3.5677298903465271e-01" nType="-99"/>
              </Node>
            </Node>
            <Node pos="r" depth="3" NCoef="0" IVar="4" Cut="1.1123789215087891e+02" cType="1" res="-1.6628760844469070e-02" rms="2.4949334561824799e-01" purity="1.7436414957046509e-01" nType="0">
              <Node pos="l" depth="4" NCoef="0" IVar="-1" Cut="0.0000000000000000e+00" cType="1" res="-5.6706117466092110e-03" rms="2.6852682232856750e-01" purity="1.6959255933761597e-01" nType="-99"/>
              <Node pos="r" depth="4" NCoef="0" IVar="-1" Cut="0.0000000000000000e+00" cType="1" res="-1.5219558961689472e-02" rms="2.3170356452465057e-01" purity="1.7846478521823883e-01" nType="-99"/>
            </Node>
          </Node>
        </Node>
        <Node pos="r" depth="1" NCoef="0" IVar="3" Cut="4.0243902206420898e+00" cType="1" res="-5.5155931040644646e-03" rms="2.7771729230880737e-01" purity="2.8088003396987915e-01" nType="0">
          <Node pos="l" depth="2" NCoef="0" IVar="8" Cut="4.0614223480224609e-01" cType="1" res="-9.4607975333929062e-03" rms="2.7881506085395813e-01" purity="2.9234617948532104e-01" nType="0">
            <Node pos="l" depth="3" NCoef="0" IVar="4" Cut="1.2233119964599609e+02" cType="1" res="-1.3393992558121681e-02" rms="2.6320233941078186e-01" purity="2.3993439972400665e-01" nType="0">
              <Node pos="l" depth="4" NCoef="0" IVar="4" Cut="9.5438774108886719e+01" cType="1" res="-8.7787788361310959e-03" rms="2.7885082364082336e-01" purity="2.6953375339508057e-01" nType="0">
                <Node pos="l" depth="5" NCoef="0" IVar="-1" Cut="0.0000000000000000e+00" cType="1" res="-8.9199198409914970e-03" rms="2.4919755756855011e-01" purity="1.5744811296463013e-01" nType="-99"/>
                <Node pos="r" depth="5" NCoef="0" IVar="-1" Cut="0.0000000000000000e+00" cType="1" res="-1.1937911622226238e-03" rms="3.1541633605957031e-01" purity="4.2557910084724426e-01" nType="-99"/>
              </Node>
              <Node pos="r" depth="4" NCoef="0" IVar="6" Cut="2.1454763412475586e+00" cType="1" res="-1.9449938088655472e-02" rms="2.4099919199943542e-01" purity="2.0109501481056213e-01" nType="0">
                <Node pos="l" depth="5" NCoef="0" IVar="-1" Cut="0.0000000000000000e+00" cType="1" res="-1.0637353174388409e-02" rms="2.1335165202617645e-01" purity="7.9128481447696686e-02" nType="-99"/>
                <Node pos="r" depth="5" NCoef="0" IVar="-1" Cut="0.0000000000000000e+00" cType="1" res="-1.5531464479863644e-02" rms="2.6614266633987427e-01" purity="3.2627320289611816e-01" nType="-99"/>
              </Node>
            </Node>
            <Node pos="r" depth="3" NCoef="0" IVar="-1" Cut="0.0000000000000000e+00" cType="1" res="1.8463250307831913e-04" rms="3.1424906849861145e-01" purity="4.2333859205245972e-01" nType="-99"/>
          </Node>
          <Node pos="r" depth="2" NCoef="0" IVar="8" Cut="2.8540304303169250e-01" cType="1" res="7.1509354747831821e-03" rms="2.7377909421920776e-01" purity="2.4406667053699493e-01" nType="0">
            <Node pos="l" depth="3" NCoef="0" IVar="-1" Cut="0.0000000000000000e+00" cType="1" res="-1.6119625652208924e-03" rms="2.3432561755180359e-01" purity="1.2544797360897064e-01" nType="-99"/>
            <Node pos="r" depth="3" NCoef="0" IVar="-1" Cut="0.0000000000000000e+00" cType="1" res="8.1604272127151489e-03" rms="3.0944603681564331e-01" purity="3.6822283267974854e-01" nType="-99"/>
          </Node>
        </Node>
      </Node>
    </BinaryTree>
    <BinaryTree type="DecisionTree" boostWeight="1.0000000000000000e+00" itree="125">
      <Node pos="s" depth="0" NCoef="0" IVar="8" Cut="2.4916718900203705e-01" cType="1" res="1.1648069630609825e-04" rms="2.9906901717185974e-01" purity="4.9968406558036804e-01" nType="0">
        <Node pos="l" depth="1" NCoef="0" IVar="7" Cut="1.1405059099197388e+00" cType="1" res="-4.8891869373619556e-03" rms="2.8269407153129578e-01" purity="3.3428946137428284e-01" nType="0">
          <Node pos="l" depth="2" NCoef="0" IVar="4" Cut="1.4013864135742188e+02" cType="1" res="3.2349065877497196e-03" rms="3.0440986156463623e-01" purity="3.2430696487426758e-01" nType="0">
            <Node pos="l" depth="3" NCoef="0" IVar="9" Cut="5.8410072326660156e-01" cType="1" res="-6.7926477640867233e-03" rms="3.0731153488159180e-01" purity="4.0371555089950562e-01" nType="0">
              <Node pos="l" depth="4" NCoef="0" IVar="-1" Cut="0.0000000000000000e+00" cType="1" res="-1.0726043023169041e-02" rms="3.0198055505752563e-01" purity="3.1260776519775391e-01" nType="-99"/>
              <Node pos="r" depth="4" NCoef="0" IVar="-1" Cut="0.0000000000000000e+00" cType="1" res="6.1785429716110229e-03" rms="3.1464517116546631e-01" purity="5.5003631114959717e-01" nType="-99"/>
            </Node>
            <Node pos="r" depth="3" NCoef="0" IVar="-1" Cut="0.0000000000000000e+00" cType="1" res="2.0146224647760391e-02" rms="2.9636797308921814e-01" purity="1.4215488731861115e-01" nType="-99"/>
          </Node>
          <Node pos="r" depth="2" NCoef="0" IVar="7" Cut="3.1989803314208984e+00" cType="1" res="-8.5278684273362160e-03" rms="2.7232855558395386e-01" purity="3.3876052498817444e-01" nType="0">
            <Node pos="l" depth="3" NCoef="0" IVar="9" Cut="2.3729167878627777e-01" cType="1" res="-1.2816509231925011e-02" rms="2.7435106039047241e-01" purity="3.4215947985649109e-01" nType="0">
              <Node pos="l" depth="4" NCoef="0" IVar="6" Cut="2.0688662528991699e+00" cType="1" res="-2.4430960416793823e-02" rms="2.2680421173572540e-01" purity="2.0971313118934631e-01" nType="0">
                <Node pos="l" depth="5" NCoef="0" IVar="-1" Cut="0.0000000000000000e+00" cType="1" res="-1.4141317456960678e-02" rms="2.1372555196285248e-01" purity="9.8541133105754852e-02" nType="-99"/>
                <Node pos="r" depth="5" NCoef="0" IVar="-1" Cut="0.0000000000000000e+00" cType="1" res="-2.1544737741351128e-02" rms="2.3872919380664825e-01" purity="3.2030063867568970e-01" nType="-99"/>
              </Node>
              <Node pos="r" depth="4" NCoef="0" IVar="7" Cut="2.5462884902954102e+00" cType="1" res="-8.5352556779980659e-03" rms="2.8979980945587158e-01" purity="3.9098110795021057e-01" nType="0">
                <Node pos="l" depth="5" NCoef="0" IVar="-1" Cut="0.0000000000000000e+00" cType="1" res="-7.5879232026636600e-03" rms="2.9591587185859680e-01" purity="3.6290386319160461e-01" nType="-99"/>
                <Node pos="r" depth="5" NCoef="0" IVar="-1" Cut="0.0000000000000000e+00" cType="1" res="6.2274024821817875e-03" rms="2.6806926727294922e-01" purity="4.8196384310722351e-01" nType="-99"/>
              </Node>
            </Node>
            <Node pos="r" depth="3" NCoef="0" IVar="0" Cut="1.0975610017776489e+00" cType="1" res="4.4348225928843021e-03" rms="2.6570141315460205e-01" purity="3.2848706841468811e-01" nType="0">
              <Node pos="l" depth="4" NCoef="0" IVar="-1" Cut="0.0000000000000000e+00" cType="1" res="-8.2865525037050247e-03" rms="2.0686435699462891e-01" purity="9.2246323823928833e-02" nType="-99"/>
              <Node pos="r" depth="4" NCoef="0" IVar="-1" Cut="0.0000000000000000e+00" cType="1" res="7.0154261775314808e-03" rms="3.0358690023422241e-01" purity="5.1393735408782959e-01" nType="-99"/>
            </Node>
          </Node>
        </Node>
        <Node pos="r" depth="1" NCoef="0" IVar="5" Cut="6.9800209045410156e+01" cType="1" res="2.2563862148672342e-03" rms="3.0577683448791504e-01" purity="5.7038968801498413e-01" nType="0">
          <Node pos="l" depth="2" NCoef="0" IVar="8" Cut="7.2295665740966797e-01" cType="1" res="-3.4725733567029238e-03" rms="3.4283289313316345e-01" purity="4.9630022048950195e-01" nType="0">
            <Node pos="l" depth="3" NCoef="0" IVar="6" Cut="9.9613070487976074e-01" cType="1" res="-7.3264399543404579e-03" rms="3.3618932962417603e-01" purity="5.0557190179824829e-01" nType="0">
              <Node pos="l" depth="4" NCoef="0" IVar="-1" Cut="0.0000000000000000e+00" cType="1" res="-1.4801336452364922e-02" rms="3.1963396072387695e-01" purity="3.0514493584632874e-01" nType="-99"/>
              <Node pos="r" depth="4" NCoef="0" IVar="8" Cut="4.3406111001968384e-01" cType="1" res="-2.0627919584512711e-03" rms="3.3915561437606812e-01" purity="5.4562324285507202e-01" nType="0">
                <Node pos="l" depth="5" NCoef="0" IVar="-1" Cut="0.0000000000000000e+00" cType="1" res="-4.3501430191099644e-03" rms="3.3434227108955383e-01" purity="5.0504916906356812e-01" nType="-99"/>
                <Node pos="r" depth="5" NCoef="0" IVar="-1" Cut="0.0000000000000000e+00" cType="1" res="2.9701727908104658e-03" rms="3.4451666474342346e-01" purity="5.9356498718261719e-01" nType="-99"/>
              </Node>
            </Node>
            <Node pos="r" depth="3" NCoef="0" IVar="-1" Cut="0.0000000000000000e+00" cType="1" res="6.5029966644942760e-03" rms="3.7539848685264587e-01" purity="4.4721031188964844e-01" nType="-99"/>
          </Node>
          <Node pos="r" depth="2" NCoef="0" IVar="7" Cut="1.4278773069381714e+00" cType="1" res="4.0840702131390572e-03" rms="2.9294693470001221e-01" purity="5.9402614831924438e-01" nType="0">
            <Node pos="l" depth="3" NCoef="0" IVar="8" Cut="4.3525359034538269e-01" cType="1" res="6.4377696253359318e-04" rms="3.0180883407592773e-01" purity="6.0907328128814697e-01" nType="0">
              <Node pos="l" depth="4" NCoef="0" IVar="9" Cut="4.8169225454330444e-01" cType="1" res="-5.1456457003951073e-03" rms="3.0024176836013794e-01" purity="5.7395446300506592e-01" nType="0">
                <Node pos="l" depth="5" NCoef="0" IVar="-1" Cut="0.0000000000000000e+00" cType="1" res="-5.4916981607675552e-03" rms="3.0915802717208862e-01" purity="4.7720053791999817e-01" nType="-99"/>
                <Node pos="r" depth="5" NCoef="0" IVar="-1" Cut="0.0000000000000000e+00" cType="1" res="1.6913393046706915e-03" rms="2.8498378396034241e-01" purity="7.3104548454284668e-01" nType="-99"/>
              </Node>
              <Node pos="r" depth="4" NCoef="0" IVar="4" Cut="7.0360122680664062e+01" cType="1" res="6.6488222219049931e-03" rms="3.0330896377563477e-01" purity="6.4550012350082397e-01" nType="0">
                <Node pos="l" depth="5" NCoef="0" IVar="-1" Cut="0.0000000000000000e+00" cType="1" res="9.9317897111177444e-03" rms="3.7875416874885559e-01" purity="3.8047683238983154e-01" nType="-99"/>
                <Node pos="r" depth="5" NCoef="0" IVar="-1" Cut="0.0000000000000000e+00" cType="1" res="2.2242248523980379e-03" rms="2.9189774394035339e-01" purity="6.8016964197158813e-01" nType="-99"/>
              </Node>
            </Node>
            <Node pos="r" depth="3" NCoef="0" IVar="9" Cut="2.0237232744693756e-01" cType="1" res="1.2642517685890198e-02" rms="2.6945009827613831e-01" purity="5.5659317970275879e-01" nType="0">
              <Node pos="l" depth="4" NCoef="0" IVar="2" Cut="1.0975610017776489e+00" cType="1" res="-4.8174378462135792e-03" rms="2.8716817498207092e-01" purity="2.7978199720382690e-01" nType="0">
                <Node pos="l" depth="5" NCoef="0" IVar="-1" Cut="0.0000000000000000e+00" cType="1" res="1.6830753302201629e-03" rms="3.2341891527175903e-01" purity="3.6374184489250183e-01" nType="-99"/>
                <Node pos="r" depth="5" NCoef="0" IVar="-1" Cut="0.0000000000000000e+00" cType="1" res="-1.8298523500561714e-02" rms="1.9537436962127686e-01" purity="1.1340665072202682e-01" nType="-99"/>
              </Node>
              <Node pos="r" depth="4" NCoef="0" IVar="6" Cut="1.9922289848327637e+00" cType="1" res="2.4659225717186928e-02" rms="2.5585454702377319e-01" purity="7.4710685014724731e-01" nType="0">
                <Node pos="l" depth="5" NCoef="0" IVar="-1" Cut="0.0000000000000000e+00" cType="1" res="7.7163963578641415e-04" rms="3.2212808728218079e-01" purity="4.5899313688278198e-01" nType="-99"/>
                <Node pos="r" depth="5" NCoef="0" IVar="-1" Cut="0.0000000000000000e+00" cType="1" res="2.2832848131656647e-02" rms="2.2637856006622314e-01" purity="8.5203766822814941e-01" nType="-99"/>
              </Node>
            </Node>
          </Node>
        </Node>
      </Node>
    </BinaryTree>
    <BinaryTree type="DecisionTree" boostWeight="1.0000000000000000e+00" itree="126">
      <Node pos="s" depth="0" NCoef="0" IVar="5" Cut="8.4232231140136719e+01" cType="1" res="1.5523128677159548e-03" rms="2.9934966564178467e-01" purity="5.0245904922485352e-01" nType="0">
        <Node pos="l" depth="1" NCoef="0" IVar="3" Cut="4.0243902206420898e+00" cType="1" res="4.8511405475437641e-03" rms="3.1456691026687622e-01" purity="5.8272945880889893e-01" nType="0">
          <Node pos="l" depth="2" NCoef="0" IVar="4" Cut="6.4971458435058594e+01" cType="1" res="6.5970825962722301e-03" rms="3.1347852945327759e-01" purity="6.1815434694290161e-01" nType="0">
            <Node pos="l" depth="3" NCoef="0" IVar="-1" Cut="0.0000000000000000e+00" cType="1" res="-4.4237668626010418e-03" rms="3.6713001132011414e-01" purity="3.1971070170402527e-01" nType="-99"/>
            <Node pos="r" depth="3" NCoef="0" IVar="3" Cut="2.0243902206420898e+00" cType="1" res="8.3937579765915871e-03" rms="3.0789613723754883e-01" purity="6.4619743824005127e-01" nType="0">
              <Node pos="l" depth="4" NCoef="0" IVar="8" Cut="8.1589585542678833e-01" cType="1" res="7.1368734352290630e-03" rms="3.0548405647277832e-01" purity="6.5330028533935547e-01" nType="0">
                <Node pos="l" depth="5" NCoef="0" IVar="-1" Cut="0.0000000000000000e+00" cType="1" res="3.0786215793341398e-03" rms="3.0085831880569458e-01" purity="6.6244578361511230e-01" nType="-99"/>
                <Node pos="r" depth="5" NCoef="0" IVar="-1" Cut="0.0000000000000000e+00" cType="1" res="1.0254707187414169e-02" rms="3.6521396040916443e-01" purity="5.2148795127868652e-01" nType="-99"/>
              </Node>
              <Node pos="r" depth="4" NCoef="0" IVar="-1" Cut="0.0000000000000000e+00" cType="1" res="1.1095908470451832e-02" rms="3.3634024858474731e-01" purity="5.5693340301513672e-01" nType="-99"/>
            </Node>
          </Node>
          <Node pos="r" depth="2" NCoef="0" IVar="5" Cut="6.1821144104003906e+01" cType="1" res="-1.1982176452875137e-02" rms="3.2439160346984863e-01" purity="2.4118390679359436e-01" nType="0">
            <Node pos="l" depth="3" NCoef="0" IVar="-1" Cut="0.0000000000000000e+00" cType="1" res="-8.2773796748369932e-04" rms="3.3899009227752686e-01" purity="2.5170516967773438e-01" nType="-99"/>
            <Node pos="r" depth="3" NCoef="0" IVar="-1" Cut="0.0000000000000000e+00" cType="1" res="-9.7894407808780670e-03" rms="3.1061166524887085e-01" purity="2.3186372220516205e-01" nType="-99"/>
          </Node>
        </Node>
        <Node pos="r" depth="1" NCoef="0" IVar="9" Cut="8.3974796533584595e-01" cType="1" res="-1.2065581977367401e-03" rms="2.8597295284271240e-01" purity="4.3532741069793701e-01" nType="0">
          <Node pos="l" depth="2" NCoef="0" IVar="9" Cut="1.4347398281097412e-01" cType="1" res="-2.2968015400692821e-04" rms="2.8539761900901794e-01" purity="4.3938577175140381e-01" nType="0">
            <Node pos="l" depth="3" NCoef="0" IVar="7" Cut="1.7308738231658936e+00" cType="1" res="-1.0673538781702518e-02" rms="2.4493020772933960e-01" purity="1.1176125705242157e-01" nType="0">
              <Node pos="l" depth="4" NCoef="0" IVar="-1" Cut="0.0000000000000000e+00" cType="1" res="1.0095679201185703e-02" rms="2.6468417048454285e-01" purity="1.1865223944187164e-01" nType="-99"/>
              <Node pos="r" depth="4" NCoef="0" IVar="0" Cut="1.0975610017776489e+00" cType="1" res="-2.5867728516459465e-02" rms="2.2992852330207825e-01" purity="1.0728634893894196e-01" nType="0">
                <Node pos="l" depth="5" NCoef="0" IVar="-1" Cut="0.0000000000000000e+00" cType="1" res="-2.2723013535141945e-02" rms="1.4085426926612854e-01" purity="3.0423458665609360e-02" nType="-99"/>
                <Node pos="r" depth="5" NCoef="0" IVar="-1" Cut="0.0000000000000000e+00" cType="1" res="-1.7968099564313889e-02" rms="2.9318764805793762e-01" purity="1.8484410643577576e-01" nType="-99"/>
              </Node>
            </Node>
            <Node pos="r" depth="3" NCoef="0" IVar="7" Cut="1.9815514087677002e+00" cType="1" res="1.4700413448736072e-03" rms="2.9141703248023987e-01" purity="4.9270609021186829e-01" nType="0">
              <Node pos="l" depth="4" NCoef="0" IVar="9" Cut="4.3217119574546814e-01" cType="1" res="-8.7826099479570985e-04" rms="2.9847550392150879e-01" purity="5.0363445281982422e-01" nType="0">
                <Node pos="l" depth="5" NCoef="0" IVar="-1" Cut="0.0000000000000000e+00" cType="1" res="-2.4662672076374292e-03" rms="3.0270287394523621e-01" purity="4.2473560571670532e-01" nType="-99"/>
                <Node pos="r" depth="5" NCoef="0" IVar="-1" Cut="0.0000000000000000e+00" cType="1" res="2.8538398910313845e-03" rms="2.9116207361221313e-01" purity="6.3558638095855713e-01" nType="-99"/>
              </Node>
              <Node pos="r" depth="4" NCoef="0" IVar="8" Cut="1.5879786014556885e-01" cType="1" res="1.0376718826591969e-02" rms="2.6273822784423828e-01" purity="4.5125690102577209e-01" nType="0">
                <Node pos="l" depth="5" NCoef="0" IVar="-1" Cut="0.0000000000000000e+00" cType="1" res="-6.1481692828238010e-03" rms="2.5882822275161743e-01" purity="2.1831411123275757e-01" nType="-99"/>
                <Node pos="r" depth="5" NCoef="0" IVar="-1" Cut="0.0000000000000000e+00" cType="1" res="1.2476836331188679e-02" rms="2.6427724957466125e-01" purity="5.8585691452026367e-01" nType="-99"/>
              </Node>
            </Node>
          </Node>
          <Node pos="r" depth="2" NCoef="0" IVar="-1" Cut="0.0000000000000000e+00" cType="1" res="-1.2056577950716019e-02" rms="2.9836148023605347e-01" purity="3.3904683589935303e-01" nType="-99"/>
        </Node>
      </Node>
    </BinaryTree>
    <BinaryTree type="DecisionTree" boostWeight="1.0000000000000000e+00" itree="127">
      <Node pos="s" depth="0" NCoef="0" IVar="5" Cut="4.4544345855712891e+01" cType="1" res="1.9650316971819848e-04" rms="2.9980516433715820e-01" purity="4.9838298559188843e-01" nType="0">
        <Node pos="l" depth="1" NCoef="0" IVar="6" Cut="1.6091142892837524e+00" cType="1" res="-1.5411096625030041e-02" rms="3.4080171585083008e-01" purity="3.3369824290275574e-01" nType="0">
          <Node pos="l" depth="2" NCoef="0" IVar="-1" Cut="0.0000000000000000e+00" cType="1" res="-1.4228696934878826e-02" rms="3.1845560669898987e-01" purity="2.4444881081581116e-01" nType="-99"/>
          <Node pos="r" depth="2" NCoef="0" IVar="-1" Cut="0.0000000000000000e+00" cType="1" res="-2.0361163187772036e-03" rms="3.5409709811210632e-01" purity="3.9130619168281555e-01" nType="-99"/>
        </Node>
        <Node pos="r" depth="1" NCoef="0" IVar="4" Cut="1.3410327148437500e+02" cType="1" res="1.2034460669383407e-03" rms="2.9693776369094849e-01" purity="5.0900787115097046e-01" nType="0">
          <Node pos="l" depth="2" NCoef="0" IVar="7" Cut="2.2810101509094238e+00" cType="1" res="3.2989550381898880e-03" rms="2.9807871580123901e-01" purity="5.8530944585800171e-01" nType="0">
            <Node pos="l" depth="3" NCoef="0" IVar="9" Cut="6.0126864910125732e-01" cType="1" res="1.3069169363006949e-03" rms="3.0235821008682251e-01" purity="6.0246062278747559e-01" nType="0">
              <Node pos="l" depth="4" NCoef="0" IVar="8" Cut="3.5819953680038452e-01" cType="1" res="-1.2905918993055820e-03" rms="2.9942077398300171e-01" purity="5.9807884693145752e-01" nType="0">
                <Node pos="l" depth="5" NCoef="0" IVar="-1" Cut="0.0000000000000000e+00" cType="1" res="-3.4905329812318087e-03" rms="2.9736277461051941e-01" purity="5.0122815370559692e-01" nType="-99"/>
                <Node pos="r" depth="5" NCoef="0" IVar="-1" Cut="0.0000000000000000e+00" cType="1" res="1.3034644071012735e-03" rms="3.0088868737220764e-01" purity="6.7015701532363892e-01" nType="-99"/>
              </Node>
              <Node pos="r" depth="4" NCoef="0" IVar="6" Cut="9.9610763788223267e-01" cType="1" res="1.4666644856333733e-02" rms="3.1670022010803223e-01" purity="6.2499743700027466e-01" nType="0">
                <Node pos="l" depth="5" NCoef="0" IVar="-1" Cut="0.0000000000000000e+00" cType="1" res="1.1414425447583199e-02" rms="3.3664673566818237e-01" purity="6.0146164894104004e-01" nType="-99"/>
                <Node pos="r" depth="5" NCoef="0" IVar="-1" Cut="0.0000000000000000e+00" cType="1" res="3.9326986297965050e-03" rms="3.0365794897079468e-01" purity="6.3939082622528076e-01" nType="-99"/>
              </Node>
            </Node>
            <Node pos="r" depth="3" NCoef="0" IVar="9" Cut="1.3500450551509857e-01" cType="1" res="1.2745646759867668e-02" rms="2.7669018507003784e-01" purity="5.0397455692291260e-01" nType="0">
              <Node pos="l" depth="4" NCoef="0" IVar="-1" Cut="0.0000000000000000e+00" cType="1" res="-6.0950582846999168e-03" rms="2.9516929388046265e-01" purity="2.4554246664047241e-01" nType="-99"/>
              <Node pos="r" depth="4" NCoef="0" IVar="8" Cut="1.6525833308696747e-01" cType="1" res="2.0779291167855263e-02" rms="2.6982551813125610e-01" purity="5.8936786651611328e-01" nType="0">
                <Node pos="l" depth="5" NCoef="0" IVar="-1" Cut="0.0000000000000000e+00" cType="1" res="2.8464137576520443e-03" rms="2.9237717390060425e-01" purity="3.9154028892517090e-01" nType="-99"/>
                <Node pos="r" depth="5" NCoef="0" IVar="-1" Cut="0.0000000000000000e+00" cType="1" res="1.8616562709212303e-02" rms="2.5297039747238159e-01" purity="7.2276449203491211e-01" nType="-99"/>
              </Node>
            </Node>
          </Node>
          <Node pos="r" depth="2" NCoef="0" IVar="9" Cut="5.2884346246719360e-01" cType="1" res="-4.2476775124669075e-03" rms="2.9387900233268738e-01" purity="3.1052169203758240e-01" nType="0">
            <Node pos="l" depth="3" NCoef="0" IVar="9" Cut="2.8384271264076233e-01" cType="1" res="-2.6181074790656567e-03" rms="2.8903570771217346e-01" purity="3.0199331045150757e-01" nType="0">
              <Node pos="l" depth="4" NCoef="0" IVar="6" Cut="2.2221019268035889e+00" cType="1" res="-8.1690428778529167e-03" rms="2.6015529036521912e-01" purity="1.7469061911106110e-01" nType="0">
                <Node pos="l" depth="5" NCoef="0" IVar="-1" Cut="0.0000000000000000e+00" cType="1" res="-5.3123757243156433e-04" rms="2.4311402440071106e-01" purity="1.1527749896049500e-01" nType="-99"/>
                <Node pos="r" depth="5" NCoef="0" IVar="-1" Cut="0.0000000000000000e+00" cType="1" res="-9.6041420474648476e-03" rms="2.8184071183204651e-01" purity="2.5741359591484070e-01" nType="-99"/>
              </Node>
              <Node pos="r" depth="4" NCoef="0" IVar="0" Cut="4.0243902206420898e+00" cType="1" res="5.2635325118899345e-03" rms="3.2550916075706482e-01" purity="4.8274740576744080e-01" nType="0">
                <Node pos="l" depth="5" NCoef="0" IVar="-1" Cut="0.0000000000000000e+00" cType="1" res="6.0585201717913151e-03" rms="3.1067878007888794e-01" purity="3.3359435200691223e-01" nType="-99"/>
                <Node pos="r" depth="5" NCoef="0" IVar="-1" Cut="0.0000000000000000e+00" cType="1" res="-7.0970132946968079e-04" rms="3.4114754199981689e-01" purity="6.4900809526443481e-01" nType="-99"/>
              </Node>
            </Node>
            <Node pos="r" depth="3" NCoef="0" IVar="-1" Cut="0.0000000000000000e+00" cType="1" res="-8.5097886621952057e-03" rms="3.3391541242599487e-01" purity="3.8716760277748108e-01" nType="-99"/>
          </Node>
        </Node>
      </Node>
    </BinaryTree>
    <BinaryTree type="DecisionTree" boostWeight="1.0000000000000000e+00" itree="128">
      <Node pos="s" depth="0" NCoef="0" IVar="6" Cut="2.7584702968597412e+00" cType="1" res="4.8813479952514172e-04" rms="2.9902380704879761e-01" purity="5.0146025419235229e-01" nType="0">
        <Node pos="l" depth="1" NCoef="0" IVar="5" Cut="7.7016258239746094e+01" cType="1" res="-1.2863934971392155e-03" rms="3.0540028214454651e-01" purity="4.4365611672401428e-01" nType="0">
          <Node pos="l" depth="2" NCoef="0" IVar="8" Cut="7.5511312484741211e-01" cType="1" res="-4.6752449125051498e-03" rms="3.2322978973388672e-01" purity="4.8887336254119873e-01" nType="0">
            <Node pos="l" depth="3" NCoef="0" IVar="5" Cut="5.1672355651855469e+01" cType="1" res="-7.4420575983822346e-03" rms="3.1771305203437805e-01" purity="4.8968702554702759e-01" nType="0">
              <Node pos="l" depth="4" NCoef="0" IVar="9" Cut="3.1080627441406250e-01" cType="1" res="-1.6519727185368538e-02" rms="3.2889392971992493e-01" purity="3.3121705055236816e-01" nType="0">
                <Node pos="l" depth="5" NCoef="0" IVar="-1" Cut="0.0000000000000000e+00" cType="1" res="-1.4622252434492111e-02" rms="2.9836627840995789e-01" purity="2.0874416828155518e-01" nType="-99"/>
                <Node pos="r" depth="5" NCoef="0" IVar="-1" Cut="0.0000000000000000e+00" cType="1" res="-3.6619692109525204e-03" rms="3.4663930535316467e-01" purity="4.0876477956771851e-01" nType="-99"/>
              </Node>
              <Node pos="r" depth="4" NCoef="0" IVar="2" Cut="4.0243902206420898e+00" cType="1" res="-3.8115137722343206e-03" rms="3.1305593252182007e-01" purity="5.5306589603424072e-01" nType="0">
                <Node pos="l" depth="5" NCoef="0" IVar="-1" Cut="0.0000000000000000e+00" cType="1" res="-8.5040152771398425e-04" rms="3.2388076186180115e-01" purity="6.2368518114089966e-01" nType="-99"/>
                <Node pos="r" depth="5" NCoef="0" IVar="-1" Cut="0.0000000000000000e+00" cType="1" res="-1.3588176108896732e-02" rms="2.2591629624366760e-01" purity="7.4123650789260864e-02" nType="-99"/>
              </Node>
            </Node>
            <Node pos="r" depth="3" NCoef="0" IVar="-1" Cut="0.0000000000000000e+00" cType="1" res="6.9809858687222004e-03" rms="3.6420354247093201e-01" purity="4.8226106166839600e-01" nType="-99"/>
          </Node>
          <Node pos="r" depth="2" NCoef="0" IVar="4" Cut="5.8497375488281250e+01" cType="1" res="4.8201781464740634e-04" rms="2.9565423727035522e-01" purity="4.2006030678749084e-01" nType="0">
            <Node pos="l" depth="3" NCoef="0" IVar="5" Cut="1.0535207366943359e+02" cType="1" res="1.2995007447898388e-02" rms="3.1439843773841858e-01" purity="1.9928090274333954e-01" nType="0">
              <Node pos="l" depth="4" NCoef="0" IVar="-1" Cut="0.0000000000000000e+00" cType="1" res="1.8716518534347415e-03" rms="3.5679036378860474e-01" purity="3.1364926695823669e-01" nType="-99"/>
              <Node pos="r" depth="4" NCoef="0" IVar="-1" Cut="0.0000000000000000e+00" cType="1" res="1.5956668183207512e-02" rms="2.7319994568824768e-01" purity="1.0238847136497498e-01" nType="-99"/>
            </Node>
            <Node pos="r" depth="3" NCoef="0" IVar="8" Cut="8.2661110162734985e-01" cType="1" res="-7.3624547803774476e-04" rms="2.9373693466186523e-01" purity="4.4155541062355042e-01" nType="0">
              <Node pos="l" depth="4" NCoef="0" IVar="4" Cut="9.5863761901855469e+01" cType="1" res="1.5759527741465718e-04" rms="2.9223021864891052e-01" purity="4.4678160548210144e-01" nType="0">
                <Node pos="l" depth="5" NCoef="0" IVar="-1" Cut="0.0000000000000000e+00" cType="1" res="-2.8261588886380196e-03" rms="3.0935513973236084e-01" purity="3.5876682400703430e-01" nType="-99"/>
                <Node pos="r" depth="5" NCoef="0" IVar="-1" Cut="0.0000000000000000e+00" cType="1" res="1.1855993652716279e-03" rms="2.8632938861846924e-01" purity="4.7582748532295227e-01" nType="-99"/>
              </Node>
              <Node pos="r" depth="4" NCoef="0" IVar="-1" Cut="0.0000000000000000e+00" cType="1" res="-9.5261698588728905e-03" rms="3.2312393188476562e-01" purity="3.3207404613494873e-01" nType="-99"/>
            </Node>
          </Node>
        </Node>
        <Node pos="r" depth="1" NCoef="0" IVar="9" Cut="4.3062371015548706e-01" cType="1" res="5.8457511477172375e-03" rms="2.7882051467895508e-01" purity="6.7598128318786621e-01" nType="0">
          <Node pos="l" depth="2" NCoef="0" IVar="7" Cut="2.3306202888488770e+00" cType="1" res="8.3786441246047616e-04" rms="2.8522035479545593e-01" purity="6.2964695692062378e-01" nType="0">
            <Node pos="l" depth="3" NCoef="0" IVar="4" Cut="8.8434265136718750e+01" cType="1" res="-5.6067756377160549e-03" rms="2.8916573524475098e-01" purity="6.2605637311935425e-01" nType="0">
              <Node pos="l" depth="4" NCoef="0" IVar="-1" Cut="0.0000000000000000e+00" cType="1" res="-1.0904148221015930e-02" rms="3.3229473233222961e-01" purity="3.5144200921058655e-01" nType="-99"/>
              <Node pos="r" depth="4" NCoef="0" IVar="4" Cut="1.5148448181152344e+02" cType="1" res="-1.7788335680961609e-03" rms="2.8025788068771362e-01" purity="6.7706745862960815e-01" nType="0">
                <Node pos="l" depth="5" NCoef="0" IVar="-1" Cut="0.0000000000000000e+00" cType="1" res="2.0559835247695446e-03" rms="2.7248868346214294e-01" purity="7.7671056985855103e-01" nType="-99"/>
                <Node pos="r" depth="5" NCoef="0" IVar="-1" Cut="0.0000000000000000e+00" cType="1" res="-8.5930749773979187e-03" rms="3.0478340387344360e-01" purity="3.3516573905944824e-01" nType="-99"/>
              </Node>
            </Node>
            <Node pos="r" depth="3" NCoef="0" IVar="-1" Cut="0.0000000000000000e+00" cType="1" res="1.1510726995766163e-02" rms="2.7084353566169739e-01" purity="6.4139407873153687e-01" nType="-99"/>
          </Node>
          <Node pos="r" depth="2" NCoef="0" IVar="-1" Cut="0.0000000000000000e+00" cType="1" res="1.1232488788664341e-02" rms="2.6191559433937073e-01" purity="7.9054999351501465e-01" nType="-99"/>
        </Node>
      </Node>
    </BinaryTree>
    <BinaryTree type="DecisionTree" boostWeight="1.0000000000000000e+00" itree="129">
      <Node pos="s" depth="0" NCoef="0" IVar="8" Cut="3.6112427711486816e-01" cType="1" res="-3.6754680331796408e-04" rms="2.9835152626037598e-01" purity="4.9972957372665405e-01" nType="0">
        <Node pos="l" depth="1" NCoef="0" IVar="9" Cut="8.4038764238357544e-01" cType="1" res="-2.8756950050592422e-03" rms="2.8810781240463257e-01" purity="4.2504280805587769e-01" nType="0">
          <Node pos="l" depth="2" NCoef="0" IVar="9" Cut="8.2170367240905762e-02" cType="1" res="-1.8909589853137732e-03" rms="2.8787237405776978e-01" purity="4.2845088243484497e-01" nType="0">
            <Node pos="l" depth="3" NCoef="0" IVar="-1" Cut="0.0000000000000000e+00" cType="1" res="-2.5170164182782173e-02" rms="1.7426446080207825e-01" purity="4.9896758049726486e-02" nType="-99"/>
            <Node pos="r" depth="3" NCoef="0" IVar="7" Cut="3.2346727848052979e+00" cType="1" res="-9.3031936557963490e-04" rms="2.9172083735466003e-01" purity="4.4469532370567322e-01" nType="0">
              <Node pos="l" depth="4" NCoef="0" IVar="9" Cut="6.1846858263015747e-01" cType="1" res="-3.0677837785333395e-03" rms="2.9242190718650818e-01" purity="4.4895675778388977e-01" nType="0">
                <Node pos="l" depth="5" NCoef="0" IVar="-1" Cut="0.0000000000000000e+00" cType="1" res="-2.8021251782774925e-03" rms="2.8929123282432556e-01" purity="4.3547698855400085e-01" nType="-99"/>
                <Node pos="r" depth="5" NCoef="0" IVar="-1" Cut="0.0000000000000000e+00" cType="1" res="6.6328342072665691e-03" rms="3.1865173578262329e-01" purity="5.7000404596328735e-01" nType="-99"/>
              </Node>
              <Node pos="r" depth="4" NCoef="0" IVar="8" Cut="1.1473191529512405e-01" cType="1" res="2.1188789978623390e-02" rms="2.8341951966285706e-01" purity="4.0059667825698853e-01" nType="0">
                <Node pos="l" depth="5" NCoef="0" IVar="-1" Cut="0.0000000000000000e+00" cType="1" res="-1.7260179156437516e-03" rms="2.6862543821334839e-01" purity="2.1779358386993408e-01" nType="-99"/>
                <Node pos="r" depth="5" NCoef="0" IVar="-1" Cut="0.0000000000000000e+00" cType="1" res="2.0721137523651123e-02" rms="2.9382705688476562e-01" purity="5.5527269840240479e-01" nType="-99"/>
              </Node>
            </Node>
          </Node>
          <Node pos="r" depth="2" NCoef="0" IVar="-1" Cut="0.0000000000000000e+00" cType="1" res="-1.3589618727564812e-02" rms="2.9277491569519043e-01" purity="3.4174805879592896e-01" nType="-99"/>
        </Node>
        <Node pos="r" depth="1" NCoef="0" IVar="5" Cut="6.2584239959716797e+01" cType="1" res="2.6176651008427143e-03" rms="3.1007650494575500e-01" purity="5.8862215280532837e-01" nType="0">
          <Node pos="l" depth="2" NCoef="0" IVar="8" Cut="6.9557219743728638e-01" cType="1" res="-6.0899197123944759e-03" rms="3.5544955730438232e-01" purity="4.6884357929229736e-01" nType="0">
            <Node pos="l" depth="3" NCoef="0" IVar="9" Cut="3.3279481530189514e-01" cType="1" res="-1.0732856579124928e-02" rms="3.4993517398834229e-01" purity="4.8117715120315552e-01" nType="0">
              <Node pos="l" depth="4" NCoef="0" IVar="-1" Cut="0.0000000000000000e+00" cType="1" res="-7.7182915993034840e-03" rms="3.4525114297866821e-01" purity="3.8844078779220581e-01" nType="-99"/>
              <Node pos="r" depth="4" NCoef="0" IVar="-1" Cut="0.0000000000000000e+00" cType="1" res="-1.2774958740919828e-03" rms="3.5383859276771545e-01" purity="5.6273424625396729e-01" nType="-99"/>
            </Node>
            <Node pos="r" depth="3" NCoef="0" IVar="-1" Cut="0.0000000000000000e+00" cType="1" res="2.5433958508074284e-03" rms="3.7005889415740967e-01" purity="4.3451622128486633e-01" nType="-99"/>
          </Node>
          <Node pos="r" depth="2" NCoef="0" IVar="6" Cut="3.0650568008422852e-01" cType="1" res="4.6826303005218506e-03" rms="2.9826855659484863e-01" purity="6.1702710390090942e-01" nType="0">
            <Node pos="l" depth="3" NCoef="0" IVar="-1" Cut="0.0000000000000000e+00" cType="1" res="-8.0629866570234299e-03" rms="3.3243525028228760e-01" purity="3.4567219018936157e-01" nType="-99"/>
            <Node pos="r" depth="3" NCoef="0" IVar="4" Cut="5.3407180786132812e+01" cType="1" res="6.0498309321701527e-03" rms="2.9603993892669678e-01" purity="6.3328921794891357e-01" nType="0">
              <Node pos="l" depth="4" NCoef="0" IVar="-1" Cut="0.0000000000000000e+00" cType="1" res="9.9475150927901268e-03" rms="3.5914736986160278e-01" purity="3.0169588327407837e-01" nType="-99"/>
              <Node pos="r" depth="4" NCoef="0" IVar="6" Cut="2.3118071556091309e+00" cType="1" res="4.7997822985053062e-03" rms="2.9141762852668762e-01" purity="6.5486091375350952e-01" nType="0">
                <Node pos="l" depth="5" NCoef="0" IVar="-1" Cut="0.0000000000000000e+00" cType="1" res="8.7358173914253712e-05" rms="3.1759500503540039e-01" purity="5.4688727855682373e-01" nType="-99"/>
                <Node pos="r" depth="5" NCoef="0" IVar="-1" Cut="0.0000000000000000e+00" cType="1" res="6.0294037684798241e-03" rms="2.6169928908348083e-01" purity="7.6588791608810425e-01" nType="-99"/>
              </Node>
            </Node>
          </Node>
        </Node>
      </Node>
    </BinaryTree>
    <BinaryTree type="DecisionTree" boostWeight="1.0000000000000000e+00" itree="130">
      <Node pos="s" depth="0" NCoef="0" IVar="7" Cut="3.4215149879455566e+00" cType="1" res="-1.8312652537133545e-04" rms="2.9853379726409912e-01" purity="4.9873873591423035e-01" nType="0">
        <Node pos="l" depth="1" NCoef="0" IVar="5" Cut="3.3720405578613281e+01" cType="1" res="-1.0702889412641525e-03" rms="2.9951500892639160e-01" purity="5.0847321748733521e-01" nType="0">
          <Node pos="l" depth="2" NCoef="0" IVar="-1" Cut="0.0000000000000000e+00" cType="1" res="-1.0337485931813717e-02" rms="3.3519282937049866e-01" purity="2.9120370745658875e-01" nType="-99"/>
          <Node pos="r" depth="2" NCoef="0" IVar="4" Cut="1.2813465881347656e+02" cType="1" res="-5.0857436144724488e-04" rms="2.9858422279357910e-01" purity="5.1368534564971924e-01" nType="0">
            <Node pos="l" depth="3" NCoef="0" IVar="4" Cut="1.0548822021484375e+02" cType="1" res="1.6974871978163719e-03" rms="3.0144730210304260e-01" purity="5.7877802848815918e-01" nType="0">
              <Node pos="l" depth="4" NCoef="0" IVar="9" Cut="7.1729743480682373e-01" cType="1" res="-2.5576285552233458e-03" rms="3.1854614615440369e-01" purity="4.5225298404693604e-01" nType="0">
                <Node pos="l" depth="5" NCoef="0" IVar="-1" Cut="0.0000000000000000e+00" cType="1" res="-2.2001513279974461e-03" rms="3.1523692607879639e-01" purity="4.4933849573135376e-01" nType="-99"/>
                <Node pos="r" depth="5" NCoef="0" IVar="-1" Cut="0.0000000000000000e+00" cType="1" res="6.6093783825635910e-03" rms="3.4633839130401611e-01" purity="4.7843927145004272e-01" nType="-99"/>
              </Node>
              <Node pos="r" depth="4" NCoef="0" IVar="9" Cut="3.3314323425292969e-01" cType="1" res="7.4988496489822865e-03" rms="2.7633067965507507e-01" purity="7.5128042697906494e-01" nType="0">
                <Node pos="l" depth="5" NCoef="0" IVar="-1" Cut="0.0000000000000000e+00" cType="1" res="1.4576932881027460e-04" rms="3.0207172036170959e-01" purity="6.5373504161834717e-01" nType="-99"/>
                <Node pos="r" depth="5" NCoef="0" IVar="-1" Cut="0.0000000000000000e+00" cType="1" res="8.9779449626803398e-03" rms="2.5449705123901367e-01" purity="8.2674539089202881e-01" nType="-99"/>
              </Node>
            </Node>
            <Node pos="r" depth="3" NCoef="0" IVar="9" Cut="5.3688263893127441e-01" cType="1" res="-4.9454155378043652e-03" rms="2.9269087314605713e-01" purity="3.8277047872543335e-01" nType="0">
              <Node pos="l" depth="4" NCoef="0" IVar="9" Cut="4.0610852837562561e-01" cType="1" res="-3.2823618967086077e-03" rms="2.8962218761444092e-01" purity="3.7501457333564758e-01" nType="0">
                <Node pos="l" depth="5" NCoef="0" IVar="-1" Cut="0.0000000000000000e+00" cType="1" res="-3.1570149585604668e-03" rms="2.8542849421501160e-01" purity="3.2103821635246277e-01" nType="-99"/>
                <Node pos="r" depth="5" NCoef="0" IVar="-1" Cut="0.0000000000000000e+00" cType="1" res="3.6161439493298531e-03" rms="3.0779248476028442e-01" purity="6.2093645334243774e-01" nType="-99"/>
              </Node>
              <Node pos="r" depth="4" NCoef="0" IVar="-1" Cut="0.0000000000000000e+00" cType="1" res="-9.3406960368156433e-03" rms="3.1835144758224487e-01" purity="4.5188614726066589e-01" nType="-99"/>
            </Node>
          </Node>
        </Node>
        <Node pos="r" depth="1" NCoef="0" IVar="8" Cut="1.2656694650650024e-01" cType="1" res="1.8238810822367668e-02" rms="2.7673357725143433e-01" purity="2.9660168290138245e-01" nType="0">
          <Node pos="l" depth="2" NCoef="0" IVar="-1" Cut="0.0000000000000000e+00" cType="1" res="4.1744513437151909e-03" rms="2.6668423414230347e-01" purity="2.1949203312397003e-01" nType="-99"/>
          <Node pos="r" depth="2" NCoef="0" IVar="-1" Cut="0.0000000000000000e+00" cType="1" res="1.6575271263718605e-02" rms="2.8546178340911865e-01" purity="3.6936271190643311e-01" nType="-99"/>
        </Node>
      </Node>
    </BinaryTree>
    <BinaryTree type="DecisionTree" boostWeight="1.0000000000000000e+00" itree="131">
      <Node pos="s" depth="0" NCoef="0" IVar="1" Cut="4.0243902206420898e+00" cType="1" res="-3.1692128686700016e-05" rms="2.9824781417846680e-01" purity="4.9933862686157227e-01" nType="0">
        <Node pos="l" depth="1" NCoef="0" IVar="8" Cut="4.7990933060646057e-01" cType="1" res="-2.3074604105204344e-03" rms="3.0549323558807373e-01" purity="3.6001193523406982e-01" nType="0">
          <Node pos="l" depth="2" NCoef="0" IVar="5" Cut="5.5976421356201172e+01" cType="1" res="-4.3284520506858826e-03" rms="2.9477122426033020e-01" purity="3.4066829085350037e-01" nType="0">
            <Node pos="l" depth="3" NCoef="0" IVar="0" Cut="2.0731706619262695e+00" cType="1" res="-1.4609564095735550e-02" rms="3.1312820315361023e-01" purity="2.0859988033771515e-01" nType="0">
              <Node pos="l" depth="4" NCoef="0" IVar="-1" Cut="0.0000000000000000e+00" cType="1" res="-2.0823699887841940e-03" rms="2.2804149985313416e-01" purity="7.0905022323131561e-02" nType="-99"/>
              <Node pos="r" depth="4" NCoef="0" IVar="-1" Cut="0.0000000000000000e+00" cType="1" res="-9.1403517872095108e-03" rms="3.7530708312988281e-01" purity="3.3743619918823242e-01" nType="-99"/>
            </Node>
            <Node pos="r" depth="3" NCoef="0" IVar="4" Cut="1.2813453674316406e+02" cType="1" res="-3.1207178253680468e-03" rms="2.9251551628112793e-01" purity="3.5618251562118530e-01" nType="0">
              <Node pos="l" depth="4" NCoef="0" IVar="4" Cut="7.1518798828125000e+01" cType="1" res="-3.5215800744481385e-04" rms="2.9800531268119812e-01" purity="4.1307267546653748e-01" nType="0">
                <Node pos="l" depth="5" NCoef="0" IVar="-1" Cut="0.0000000000000000e+00" cType="1" res="-6.0664876364171505e-03" rms="2.9043221473693848e-01" purity="1.7878308892250061e-01" nType="-99"/>
                <Node pos="r" depth="5" NCoef="0" IVar="-1" Cut="0.0000000000000000e+00" cType="1" res="1.7051823670044541e-03" rms="3.0044105648994446e-01" purity="4.9248293042182922e-01" nType="-99"/>
              </Node>
              <Node pos="r" depth="4" NCoef="0" IVar="9" Cut="3.2759228348731995e-01" cType="1" res="-8.2876794040203094e-03" rms="2.8191146254539490e-01" purity="2.5000843405723572e-01" nType="0">
                <Node pos="l" depth="5" NCoef="0" IVar="-1" Cut="0.0000000000000000e+00" cType="1" res="-1.3155352789908648e-03" rms="2.5695919990539551e-01" purity="1.7251837253570557e-01" nType="-99"/>
                <Node pos="r" depth="5" NCoef="0" IVar="-1" Cut="0.0000000000000000e+00" cType="1" res="-8.8559761643409729e-03" rms="3.1774970889091492e-01" purity="3.7486138939857483e-01" nType="-99"/>
              </Node>
            </Node>
          </Node>
          <Node pos="r" depth="2" NCoef="0" IVar="7" Cut="1.5097424983978271e+00" cType="1" res="4.2721494100987911e-03" rms="3.3796879649162292e-01" purity="4.2298772931098938e-01" nType="0">
            <Node pos="l" depth="3" NCoef="0" IVar="0" Cut="4.0243902206420898e+00" cType="1" res="6.4249658025801182e-03" rms="3.4672865271568298e-01" purity="4.6308916807174683e-01" nType="0">
              <Node pos="l" depth="4" NCoef="0" IVar="6" Cut="9.1950953006744385e-01" cType="1" res="1.2648414121940732e-03" rms="3.1690627336502075e-01" purity="3.0314403772354126e-01" nType="0">
                <Node pos="l" depth="5" NCoef="0" IVar="-1" Cut="0.0000000000000000e+00" cType="1" res="5.5805761367082596e-03" rms="3.3436292409896851e-01" purity="2.2468641400337219e-01" nType="-99"/>
                <Node pos="r" depth="5" NCoef="0" IVar="-1" Cut="0.0000000000000000e+00" cType="1" res="-1.7289525130763650e-03" rms="3.0840000510215759e-01" purity="3.3934089541435242e-01" nType="-99"/>
              </Node>
              <Node pos="r" depth="4" NCoef="0" IVar="7" Cut="5.8917367458343506e-01" cType="1" res="0.0000000000000000e+00" rms="0.0000000000000000e+00" purity="6.4151936769485474e-01" nType="0">
                <Node pos="l" depth="5" NCoef="0" IVar="-1" Cut="0.0000000000000000e+00" cType="1" res="3.7036410067230463e-03" rms="3.7692314386367798e-01" purity="6.6320592164993286e-01" nType="-99"/>
                <Node pos="r" depth="5" NCoef="0" IVar="-1" Cut="0.0000000000000000e+00" cType="1" res="5.1725325174629688e-03" rms="3.7737977504730225e-01" purity="6.1652499437332153e-01" nType="-99"/>
              </Node>
            </Node>
            <Node pos="r" depth="3" NCoef="0" IVar="-1" Cut="0.0000000000000000e+00" cType="1" res="-5.1742983050644398e-03" rms="2.7797833085060120e-01" purity="1.7728790640830994e-01" nType="-99"/>
          </Node>
        </Node>
        <Node pos="r" depth="1" NCoef="0" IVar="4" Cut="1.5195964050292969e+02" cType="1" res="3.5299737937748432e-03" rms="2.8650468587875366e-01" purity="7.1739029884338379e-01" nType="0">
          <Node pos="l" depth="2" NCoef="0" IVar="9" Cut="5.1391333341598511e-01" cType="1" res="5.0025628879666328e-03" rms="2.8492391109466553e-01" purity="7.8112870454788208e-01" nType="0">
            <Node pos="l" depth="3" NCoef="0" IVar="6" Cut="9.1949069499969482e-01" cType="1" res="3.3544488251209259e-03" rms="2.9023805260658264e-01" purity="7.6571041345596313e-01" nType="0">
              <Node pos="l" depth="4" NCoef="0" IVar="-1" Cut="0.0000000000000000e+00" cType="1" res="-3.5131820477545261e-03" rms="3.5102915763854980e-01" purity="5.0944370031356812e-01" nType="-99"/>
              <Node pos="r" depth="4" NCoef="0" IVar="2" Cut="3.0487804412841797e+00" cType="1" res="4.7244676388800144e-03" rms="2.8273811936378479e-01" purity="7.9383486509323120e-01" nType="0">
                <Node pos="l" depth="5" NCoef="0" IVar="-1" Cut="0.0000000000000000e+00" cType="1" res="2.0304636564105749e-03" rms="2.7679023146629333e-01" purity="8.4158164262771606e-01" nType="-99"/>
                <Node pos="r" depth="5" NCoef="0" IVar="-1" Cut="0.0000000000000000e+00" cType="1" res="7.4744853191077709e-03" rms="3.3223730325698853e-01" purity="3.5432699322700500e-01" nType="-99"/>
              </Node>
            </Node>
            <Node pos="r" depth="3" NCoef="0" IVar="-1" Cut="0.0000000000000000e+00" cType="1" res="7.2477008216083050e-03" rms="2.6334053277969360e-01" purity="8.4056514501571655e-01" nType="-99"/>
          </Node>
          <Node pos="r" depth="2" NCoef="0" IVar="5" Cut="8.7840095520019531e+01" cType="1" res="-6.8443007767200470e-03" rms="2.9719644784927368e-01" purity="2.6835829019546509e-01" nType="0">
            <Node pos="l" depth="3" NCoef="0" IVar="-1" Cut="0.0000000000000000e+00" cType="1" res="1.3751005753874779e-03" rms="3.2961180806159973e-01" purity="3.3131110668182373e-01" nType="-99"/>
            <Node pos="r" depth="3" NCoef="0" IVar="-1" Cut="0.0000000000000000e+00" cType="1" res="-8.7318178266286850e-03" rms="2.6488786935806274e-01" purity="2.1263097226619720e-01" nType="-99"/>
          </Node>
        </Node>
      </Node>
    </BinaryTree>
    <BinaryTree type="DecisionTree" boostWeight="1.0000000000000000e+00" itree="132">
      <Node pos="s" depth="0" NCoef="0" IVar="1" Cut="3.0487804412841797e+00" cType="1" res="-1.0229202453047037e-03" rms="2.9706680774688721e-01" purity="4.9883988499641418e-01" nType="0">
        <Node pos="l" depth="1" NCoef="0" IVar="9" Cut="8.3557343482971191e-01" cType="1" res="-3.5538051743060350e-03" rms="3.0540552735328674e-01" purity="3.1870490312576294e-01" nType="0">
          <Node pos="l" depth="2" NCoef="0" IVar="9" Cut="2.0394557714462280e-01" cType="1" res="-2.8419857844710350e-03" rms="3.0483463406562805e-01" purity="3.2003530859947205e-01" nType="0">
            <Node pos="l" depth="3" NCoef="0" IVar="6" Cut="2.2987253665924072e+00" cType="1" res="-8.4353787824511528e-03" rms="2.4589362740516663e-01" purity="1.2830992043018341e-01" nType="0">
              <Node pos="l" depth="4" NCoef="0" IVar="7" Cut="1.7818931341171265e+00" cType="1" res="-2.7380781248211861e-03" rms="2.3105049133300781e-01" purity="9.2895708978176117e-02" nType="0">
                <Node pos="l" depth="5" NCoef="0" IVar="-1" Cut="0.0000000000000000e+00" cType="1" res="7.7737485989928246e-03" rms="2.5255680084228516e-01" purity="9.7203373908996582e-02" nType="-99"/>
                <Node pos="r" depth="5" NCoef="0" IVar="-1" Cut="0.0000000000000000e+00" cType="1" res="-1.0905183851718903e-02" rms="2.1066357195377350e-01" purity="8.9253000915050507e-02" nType="-99"/>
              </Node>
              <Node pos="r" depth="4" NCoef="0" IVar="5" Cut="8.7839859008789062e+01" cType="1" res="-1.8435299396514893e-02" rms="2.6968944072723389e-01" purity="1.9046905636787415e-01" nType="0">
                <Node pos="l" depth="5" NCoef="0" IVar="-1" Cut="0.0000000000000000e+00" cType="1" res="-4.5367521233856678e-03" rms="3.0831617116928101e-01" purity="2.9432022571563721e-01" nType="-99"/>
                <Node pos="r" depth="5" NCoef="0" IVar="-1" Cut="0.0000000000000000e+00" cType="1" res="-1.6431355848908424e-02" rms="2.3748122155666351e-01" purity="1.1489775776863098e-01" nType="-99"/>
              </Node>
            </Node>
            <Node pos="r" depth="3" NCoef="0" IVar="4" Cut="8.7744621276855469e+01" cType="1" res="-8.3499000174924731e-04" rms="3.2335153222084045e-01" purity="3.8882929086685181e-01" nType="0">
              <Node pos="l" depth="4" NCoef="0" IVar="4" Cut="5.4671638488769531e+01" cType="1" res="-8.4521910175681114e-03" rms="3.2032012939453125e-01" purity="2.6308414340019226e-01" nType="0">
                <Node pos="l" depth="5" NCoef="0" IVar="-1" Cut="0.0000000000000000e+00" cType="1" res="1.4265944482758641e-03" rms="3.2452228665351868e-01" purity="2.0788466930389404e-01" nType="-99"/>
                <Node pos="r" depth="5" NCoef="0" IVar="-1" Cut="0.0000000000000000e+00" cType="1" res="-6.2232944183051586e-03" rms="3.1822311878204346e-01" purity="2.8854092955589294e-01" nType="-99"/>
              </Node>
              <Node pos="r" depth="4" NCoef="0" IVar="7" Cut="3.8914066553115845e-01" cType="1" res="2.4279067292809486e-03" rms="3.2458671927452087e-01" purity="4.4269341230392456e-01" nType="0">
                <Node pos="l" depth="5" NCoef="0" IVar="-1" Cut="0.0000000000000000e+00" cType="1" res="-3.3684505615383387e-03" rms="3.3646407723426819e-01" purity="4.7388726472854614e-01" nType="-99"/>
                <Node pos="r" depth="5" NCoef="0" IVar="-1" Cut="0.0000000000000000e+00" cType="1" res="2.4516163393855095e-03" rms="3.2109719514846802e-01" purity="4.3388018012046814e-01" nType="-99"/>
              </Node>
            </Node>
          </Node>
          <Node pos="r" depth="2" NCoef="0" IVar="-1" Cut="0.0000000000000000e+00" cType="1" res="-9.5439981669187546e-03" rms="3.1841194629669189e-01" purity="2.8654438257217407e-01" nType="-99"/>
        </Node>
        <Node pos="r" depth="1" NCoef="0" IVar="6" Cut="7.6624256372451782e-01" cType="1" res="1.9566668197512627e-03" rms="2.8691068291664124e-01" purity="7.1091109514236450e-01" nType="0">
          <Node pos="l" depth="2" NCoef="0" IVar="4" Cut="1.1159332275390625e+02" cType="1" res="-1.0771768167614937e-02" rms="3.2598933577537537e-01" purity="4.9487757682800293e-01" nType="0">
            <Node pos="l" depth="3" NCoef="0" IVar="-1" Cut="0.0000000000000000e+00" cType="1" res="-7.0527740754187107e-03" rms="3.4207919239997864e-01" purity="5.1661956310272217e-01" nType="-99"/>
            <Node pos="r" depth="3" NCoef="0" IVar="-1" Cut="0.0000000000000000e+00" cType="1" res="-2.7853487990796566e-03" rms="3.1338167190551758e-01" purity="4.7869306802749634e-01" nType="-99"/>
          </Node>
          <Node pos="r" depth="2" NCoef="0" IVar="9" Cut="2.7744266390800476e-01" cType="1" res="3.5222223959863186e-03" rms="2.8169029951095581e-01" purity="7.3748254776000977e-01" nType="0">
            <Node pos="l" depth="3" NCoef="0" IVar="7" Cut="2.8181242942810059e+00" cType="1" res="-3.6812429316341877e-03" rms="3.1600680947303772e-01" purity="5.7034063339233398e-01" nType="0">
              <Node pos="l" depth="4" NCoef="0" IVar="8" Cut="2.9862448573112488e-01" cType="1" res="-8.7321018800139427e-03" rms="3.2717457413673401e-01" purity="5.4896879196166992e-01" nType="0">
                <Node pos="l" depth="5" NCoef="0" IVar="-1" Cut="0.0000000000000000e+00" cType="1" res="-1.3560317456722260e-02" rms="2.9146170616149902e-01" purity="3.8438373804092407e-01" nType="-99"/>
                <Node pos="r" depth="5" NCoef="0" IVar="-1" Cut="0.0000000000000000e+00" cType="1" res="-1.3657015515491366e-03" rms="3.3920487761497498e-01" purity="6.0954159498214722e-01" nType="-99"/>
              </Node>
              <Node pos="r" depth="4" NCoef="0" IVar="-1" Cut="0.0000000000000000e+00" cType="1" res="6.6161155700683594e-03" rms="2.7609834074974060e-01" purity="6.3960546255111694e-01" nType="-99"/>
            </Node>
            <Node pos="r" depth="3" NCoef="0" IVar="8" Cut="2.8659638762474060e-01" cType="1" res="7.0502688176929951e-03" rms="2.6318421959877014e-01" purity="8.1934368610382080e-01" nType="0">
              <Node pos="l" depth="4" NCoef="0" IVar="4" Cut="1.2889179992675781e+02" cType="1" res="3.3830085885711014e-04" rms="3.0103382468223572e-01" purity="6.9702529907226562e-01" nType="0">
                <Node pos="l" depth="5" NCoef="0" IVar="-1" Cut="0.0000000000000000e+00" cType="1" res="2.7552703395485878e-03" rms="2.9249101877212524e-01" purity="7.6222538948059082e-01" nType="-99"/>
                <Node pos="r" depth="5" NCoef="0" IVar="-1" Cut="0.0000000000000000e+00" cType="1" res="-7.2155119851231575e-03" rms="3.2648792862892151e-01" purity="4.8740112781524658e-01" nType="-99"/>
              </Node>
              <Node pos="r" depth="4" NCoef="0" IVar="7" Cut="6.7879778146743774e-01" cType="1" res="1.0079053230583668e-02" rms="2.4413061141967773e-01" purity="8.7454009056091309e-01" nType="0">
                <Node pos="l" depth="5" NCoef="0" IVar="-1" Cut="0.0000000000000000e+00" cType="1" res="3.2336856238543987e-03" rms="2.5408777594566345e-01" purity="8.6518049240112305e-01" nType="-99"/>
                <Node pos="r" depth="5" NCoef="0" IVar="-1" Cut="0.0000000000000000e+00" cType="1" res="1.1812336742877960e-02" rms="2.3289370536804199e-01" purity="8.8452941179275513e-01" nType="-99"/>
              </Node>
            </Node>
          </Node>
        </Node>
      </Node>
    </BinaryTree>
    <BinaryTree type="DecisionTree" boostWeight="1.0000000000000000e+00" itree="133">
      <Node pos="s" depth="0" NCoef="0" IVar="5" Cut="7.3408187866210938e+01" cType="1" res="-5.8045232435688376e-04" rms="2.9860043525695801e-01" purity="4.9853160977363586e-01" nType="0">
        <Node pos="l" depth="1" NCoef="0" IVar="9" Cut="5.4264873266220093e-01" cType="1" res="-5.0701554864645004e-03" rms="3.3043819665908813e-01" purity="4.7221335768699646e-01" nType="0">
          <Node pos="l" depth="2" NCoef="0" IVar="7" Cut="7.6367014646530151e-01" cType="1" res="-7.1734883822500706e-03" rms="3.2850912213325500e-01" purity="4.5298513770103455e-01" nType="0">
            <Node pos="l" depth="3" NCoef="0" IVar="6" Cut="1.5324798822402954e+00" cType="1" res="-1.2743801809847355e-02" rms="3.3600389957427979e-01" purity="5.2585762739181519e-01" nType="0">
              <Node pos="l" depth="4" NCoef="0" IVar="-1" Cut="0.0000000000000000e+00" cType="1" res="-1.1928122490644455e-02" rms="3.4015598893165588e-01" purity="3.4503161907196045e-01" nType="-99"/>
              <Node pos="r" depth="4" NCoef="0" IVar="5" Cut="5.2464286804199219e+01" cType="1" res="-7.6900618150830269e-03" rms="3.3437711000442505e-01" purity="5.8980244398117065e-01" nType="0">
                <Node pos="l" depth="5" NCoef="0" IVar="-1" Cut="0.0000000000000000e+00" cType="1" res="-6.1420211568474770e-03" rms="3.6060187220573425e-01" purity="4.7836121916770935e-01" nType="-99"/>
                <Node pos="r" depth="5" NCoef="0" IVar="-1" Cut="0.0000000000000000e+00" cType="1" res="-1.3871927512809634e-03" rms="3.1807246804237366e-01" purity="6.5446776151657104e-01" nType="-99"/>
              </Node>
            </Node>
            <Node pos="r" depth="3" NCoef="0" IVar="6" Cut="1.7623583078384399e+00" cType="1" res="-3.8171561900526285e-03" rms="3.2386326789855957e-01" purity="4.0907660126686096e-01" nType="0">
              <Node pos="l" depth="4" NCoef="0" IVar="5" Cut="5.5659912109375000e+01" cType="1" res="4.5423596166074276e-03" rms="3.2126778364181519e-01" purity="3.1872820854187012e-01" nType="0">
                <Node pos="l" depth="5" NCoef="0" IVar="-1" Cut="0.0000000000000000e+00" cType="1" res="7.1016182191669941e-03" rms="3.2924711704254150e-01" purity="2.6264363527297974e-01" nType="-99"/>
                <Node pos="r" depth="5" NCoef="0" IVar="-1" Cut="0.0000000000000000e+00" cType="1" res="-1.8599038012325764e-03" rms="3.1385624408721924e-01" purity="3.6793231964111328e-01" nType="-99"/>
              </Node>
              <Node pos="r" depth="4" NCoef="0" IVar="8" Cut="2.2407720983028412e-01" cType="1" res="-9.7255576401948929e-03" rms="3.2555580139160156e-01" purity="4.7293365001678467e-01" nType="0">
                <Node pos="l" depth="5" NCoef="0" IVar="-1" Cut="0.0000000000000000e+00" cType="1" res="-1.2669983319938183e-02" rms="3.0403459072113037e-01" purity="3.1621474027633667e-01" nType="-99"/>
                <Node pos="r" depth="5" NCoef="0" IVar="-1" Cut="0.0000000000000000e+00" cType="1" res="-1.8174297874793410e-03" rms="3.3256015181541443e-01" purity="5.2766996622085571e-01" nType="-99"/>
              </Node>
            </Node>
          </Node>
          <Node pos="r" depth="2" NCoef="0" IVar="-1" Cut="0.0000000000000000e+00" cType="1" res="3.0554938130080700e-03" rms="3.4129548072814941e-01" purity="5.8523929119110107e-01" nType="-99"/>
        </Node>
        <Node pos="r" depth="1" NCoef="0" IVar="5" Cut="8.6080116271972656e+01" cType="1" res="1.0468310210853815e-03" rms="2.8617033362388611e-01" purity="5.0807058811187744e-01" nType="0">
          <Node pos="l" depth="2" NCoef="0" IVar="1" Cut="3.0487804412841797e+00" cType="1" res="5.8445073664188385e-03" rms="2.7816775441169739e-01" purity="7.2667610645294189e-01" nType="0">
            <Node pos="l" depth="3" NCoef="0" IVar="5" Cut="8.0516815185546875e+01" cType="1" res="-2.6729670353233814e-03" rms="3.2515987753868103e-01" purity="5.3812509775161743e-01" nType="0">
              <Node pos="l" depth="4" NCoef="0" IVar="4" Cut="1.1703456115722656e+02" cType="1" res="-1.0966491885483265e-02" rms="3.2578963041305542e-01" purity="5.1893967390060425e-01" nType="0">
                <Node pos="l" depth="5" NCoef="0" IVar="-1" Cut="0.0000000000000000e+00" cType="1" res="-1.6604959964752197e-03" rms="3.3089977502822876e-01" purity="5.5847227573394775e-01" nType="-99"/>
                <Node pos="r" depth="5" NCoef="0" IVar="-1" Cut="0.0000000000000000e+00" cType="1" res="-9.3767922371625900e-03" rms="3.1854477524757385e-01" purity="4.6578630805015564e-01" nType="-99"/>
              </Node>
              <Node pos="r" depth="4" NCoef="0" IVar="-1" Cut="0.0000000000000000e+00" cType="1" res="2.8668935410678387e-03" rms="3.2421436905860901e-01" purity="5.5935627222061157e-01" nType="-99"/>
            </Node>
            <Node pos="r" depth="3" NCoef="0" IVar="-1" Cut="0.0000000000000000e+00" cType="1" res="8.9909052476286888e-03" rms="2.3667085170745850e-01" purity="8.6812400817871094e-01" nType="-99"/>
          </Node>
          <Node pos="r" depth="2" NCoef="0" IVar="9" Cut="8.3423972129821777e-01" cType="1" res="-1.0113647440448403e-03" rms="2.8951126337051392e-01" purity="4.1428917646408081e-01" nType="0">
            <Node pos="l" depth="3" NCoef="0" IVar="9" Cut="4.0703558921813965e-01" cType="1" res="-4.4008909026160836e-04" rms="2.8881877660751343e-01" purity="4.1849374771118164e-01" nType="0">
              <Node pos="l" depth="4" NCoef="0" IVar="6" Cut="2.2221007347106934e+00" cType="1" res="-2.3402571678161621e-03" rms="2.8671729564666748e-01" purity="3.3569398522377014e-01" nType="0">
                <Node pos="l" depth="5" NCoef="0" IVar="-1" Cut="0.0000000000000000e+00" cType="1" res="1.2363225687295198e-03" rms="2.8437671065330505e-01" purity="2.0374363660812378e-01" nType="-99"/>
                <Node pos="r" depth="5" NCoef="0" IVar="-1" Cut="0.0000000000000000e+00" cType="1" res="-3.6371373571455479e-03" rms="2.8909224271774292e-01" purity="4.7453498840332031e-01" nType="-99"/>
              </Node>
              <Node pos="r" depth="4" NCoef="0" IVar="7" Cut="1.0447819232940674e+00" cType="1" res="3.6555980332195759e-03" rms="2.9325535893440247e-01" purity="5.9696316719055176e-01" nType="0">
                <Node pos="l" depth="5" NCoef="0" IVar="-1" Cut="0.0000000000000000e+00" cType="1" res="-7.3170155519619584e-04" rms="2.9476049542427063e-01" purity="6.4404523372650146e-01" nType="-99"/>
                <Node pos="r" depth="5" NCoef="0" IVar="-1" Cut="0.0000000000000000e+00" cType="1" res="7.4493293650448322e-03" rms="2.8991839289665222e-01" purity="5.0155806541442871e-01" nType="-99"/>
              </Node>
            </Node>
            <Node pos="r" depth="3" NCoef="0" IVar="-1" Cut="0.0000000000000000e+00" cType="1" res="-7.0105534978210926e-03" rms="3.0484598875045776e-01" purity="3.1667229533195496e-01" nType="-99"/>
          </Node>
        </Node>
      </Node>
    </BinaryTree>
    <BinaryTree type="DecisionTree" boostWeight="1.0000000000000000e+00" itree="134">
      <Node pos="s" depth="0" NCoef="0" IVar="0" Cut="1.0975610017776489e+00" cType="1" res="1.1061551049351692e-03" rms="2.9908365011215210e-01" purity="5.0043874979019165e-01" nType="0">
        <Node pos="l" depth="1" NCoef="0" IVar="8" Cut="6.8553626537322998e-01" cType="1" res="0.0000000000000000e+00" rms="0.0000000000000000e+00" purity="1.8404668569564819e-01" nType="0">
          <Node pos="l" depth="2" NCoef="0" IVar="2" Cut="1.0975610017776489e+00" cType="1" res="0.0000000000000000e+00" rms="0.0000000000000000e+00" purity="1.8451838195323944e-01" nType="0">
            <Node pos="l" depth="3" NCoef="0" IVar="6" Cut="1.9156010150909424e+00" cType="1" res="0.0000000000000000e+00" rms="0.0000000000000000e+00" purity="2.7069947123527527e-01" nType="0">
              <Node pos="l" depth="4" NCoef="0" IVar="4" Cut="8.8099647521972656e+01" cType="1" res="0.0000000000000000e+00" rms="0.0000000000000000e+00" purity="1.6062961518764496e-01" nType="0">
                <Node pos="l" depth="5" NCoef="0" IVar="-1" Cut="0.0000000000000000e+00" cType="1" res="1.3369636144489050e-03" rms="2.9884660243988037e-01" purity="1.4645311236381531e-01" nType="-99"/>
                <Node pos="r" depth="5" NCoef="0" IVar="-1" Cut="0.0000000000000000e+00" cType="1" res="-7.4790185317397118e-03" rms="2.6934531331062317e-01" purity="1.6772499680519104e-01" nType="-99"/>
              </Node>
              <Node pos="r" depth="4" NCoef="0" IVar="8" Cut="4.1819199919700623e-01" cType="1" res="0.0000000000000000e+00" rms="0.0000000000000000e+00" purity="3.7715682387351990e-01" nType="0">
                <Node pos="l" depth="5" NCoef="0" IVar="-1" Cut="0.0000000000000000e+00" cType="1" res="2.9806184465996921e-04" rms="3.2490393519401550e-01" purity="3.3802533149719238e-01" nType="-99"/>
                <Node pos="r" depth="5" NCoef="0" IVar="-1" Cut="0.0000000000000000e+00" cType="1" res="1.0646537877619267e-02" rms="3.3861839771270752e-01" purity="5.0309020280838013e-01" nType="-99"/>
              </Node>
            </Node>
            <Node pos="r" depth="3" NCoef="0" IVar="9" Cut="2.3846136033535004e-01" cType="1" res="0.0000000000000000e+00" rms="0.0000000000000000e+00" purity="7.2641998529434204e-02" nType="0">
              <Node pos="l" depth="4" NCoef="0" IVar="9" Cut="1.5127706527709961e-01" cType="1" res="0.0000000000000000e+00" rms="0.0000000000000000e+00" purity="3.8548849523067474e-02" nType="0">
                <Node pos="l" depth="5" NCoef="0" IVar="-1" Cut="0.0000000000000000e+00" cType="1" res="-1.1420042254030704e-02" rms="1.2722279131412506e-01" purity="2.0448569208383560e-02" nType="-99"/>
                <Node pos="r" depth="5" NCoef="0" IVar="-1" Cut="0.0000000000000000e+00" cType="1" res="2.7336669154465199e-03" rms="1.7210340499877930e-01" purity="5.4440978914499283e-02" nType="-99"/>
              </Node>
              <Node pos="r" depth="4" NCoef="0" IVar="8" Cut="2.3425194621086121e-01" cType="1" res="0.0000000000000000e+00" rms="0.0000000000000000e+00" purity="9.1084383428096771e-02" nType="0">
                <Node pos="l" depth="5" NCoef="0" IVar="-1" Cut="0.0000000000000000e+00" cType="1" res="-3.5208058543503284e-03" rms="1.7574806511402130e-01" purity="4.5342504978179932e-02" nType="-99"/>
                <Node pos="r" depth="5" NCoef="0" IVar="-1" Cut="0.0000000000000000e+00" cType="1" res="-1.6697021201252937e-02" rms="2.2307491302490234e-01" purity="1.2314315885305405e-01" nType="-99"/>
              </Node>
            </Node>
          </Node>
          <Node pos="r" depth="2" NCoef="0" IVar="-1" Cut="0.0000000000000000e+00" cType="1" res="8.0633116886019707e-03" rms="3.0431902408599854e-01" purity="1.7875133454799652e-01" nType="-99"/>
        </Node>
        <Node pos="r" depth="1" NCoef="0" IVar="6" Cut="6.1299371719360352e-01" cType="1" res="3.1779238488525152e-03" rms="3.1480485200881958e-01" purity="6.5950185060501099e-01" nType="0">
          <Node pos="l" depth="2" NCoef="0" IVar="7" Cut="8.7288290262222290e-01" cType="1" res="-7.9544065520167351e-03" rms="3.4632354974746704e-01" purity="4.3899121880531311e-01" nType="0">
            <Node pos="l" depth="3" NCoef="0" IVar="-1" Cut="0.0000000000000000e+00" cType="1" res="-1.2571061030030251e-02" rms="3.6479642987251282e-01" purity="4.4039368629455566e-01" nType="-99"/>
            <Node pos="r" depth="3" NCoef="0" IVar="-1" Cut="0.0000000000000000e+00" cType="1" res="3.0602919869124889e-03" rms="3.3321958780288696e-01" purity="4.3810507655143738e-01" nType="-99"/>
          </Node>
          <Node pos="r" depth="2" NCoef="0" IVar="2" Cut="3.0487804412841797e+00" cType="1" res="4.2896680533885956e-03" rms="3.1146022677421570e-01" purity="6.8152344226837158e-01" nType="0">
            <Node pos="l" depth="3" NCoef="0" IVar="8" Cut="2.9691001772880554e-01" cType="1" res="2.8248091693967581e-03" rms="3.1027448177337646e-01" purity="7.4780791997909546e-01" nType="0">
              <Node pos="l" depth="4" NCoef="0" IVar="7" Cut="3.0546736717224121e+00" cType="1" res="-1.4051761245355010e-03" rms="3.2533493638038635e-01" purity="6.5374290943145752e-01" nType="0">
                <Node pos="l" depth="5" NCoef="0" IVar="-1" Cut="0.0000000000000000e+00" cType="1" res="-1.8599613104015589e-03" rms="3.2867112755775452e-01" purity="6.5675431489944458e-01" nType="-99"/>
                <Node pos="r" depth="5" NCoef="0" IVar="-1" Cut="0.0000000000000000e+00" cType="1" res="5.9097628109157085e-03" rms="3.0631464719772339e-01" purity="6.3750994205474854e-01" nType="-99"/>
              </Node>
              <Node pos="r" depth="4" NCoef="0" IVar="4" Cut="7.7077095031738281e+01" cType="1" res="5.1205633208155632e-03" rms="3.0176135897636414e-01" purity="7.9886007308959961e-01" nType="0">
                <Node pos="l" depth="5" NCoef="0" IVar="-1" Cut="0.0000000000000000e+00" cType="1" res="4.9254442565143108e-03" rms="4.1075992584228516e-01" purity="5.7999873161315918e-01" nType="-99"/>
                <Node pos="r" depth="5" NCoef="0" IVar="-1" Cut="0.0000000000000000e+00" cType="1" res="2.1458871196955442e-03" rms="2.8533205389976501e-01" purity="8.2598578929901123e-01" nType="-99"/>
              </Node>
            </Node>
            <Node pos="r" depth="3" NCoef="0" IVar="8" Cut="3.9258849620819092e-01" cType="1" res="1.3943138532340527e-02" rms="3.1899607181549072e-01" purity="2.4470667541027069e-01" nType="0">
              <Node pos="l" depth="4" NCoef="0" IVar="4" Cut="1.2305512237548828e+02" cType="1" res="7.4278688989579678e-03" rms="2.8689646720886230e-01" purity="1.9091840088367462e-01" nType="0">
                <Node pos="l" depth="5" NCoef="0" IVar="-1" Cut="0.0000000000000000e+00" cType="1" res="7.8731914982199669e-03" rms="3.0621778964996338e-01" purity="2.4241510033607483e-01" nType="-99"/>
                <Node pos="r" depth="5" NCoef="0" IVar="-1" Cut="0.0000000000000000e+00" cType="1" res="-2.5266383308917284e-03" rms="2.5909548997879028e-01" purity="1.2366218119859695e-01" nType="-99"/>
              </Node>
              <Node pos="r" depth="4" NCoef="0" IVar="-1" Cut="0.0000000000000000e+00" cType="1" res="9.7039379179477692e-03" rms="3.7029618024826050e-01" purity="3.4310871362686157e-01" nType="-99"/>
            </Node>
          </Node>
        </Node>
      </Node>
    </BinaryTree>
    <BinaryTree type="DecisionTree" boostWeight="1.0000000000000000e+00" itree="135">
      <Node pos="s" depth="0" NCoef="0" IVar="5" Cut="9.1448089599609375e+01" cType="1" res="8.4448256529867649e-04" rms="2.9994988441467285e-01" purity="4.9907520413398743e-01" nType="0">
        <Node pos="l" depth="1" NCoef="0" IVar="6" Cut="5.3636974096298218e-01" cType="1" res="3.2120121177285910e-03" rms="3.0707639455795288e-01" purity="6.0446894168853760e-01" nType="0">
          <Node pos="l" depth="2" NCoef="0" IVar="7" Cut="9.4887590408325195e-01" cType="1" res="-7.6232799328863621e-03" rms="3.2202383875846863e-01" purity="3.8407340645790100e-01" nType="0">
            <Node pos="l" depth="3" NCoef="0" IVar="-1" Cut="0.0000000000000000e+00" cType="1" res="-1.4155670069158077e-02" rms="3.3592173457145691e-01" purity="3.8789466023445129e-01" nType="-99"/>
            <Node pos="r" depth="3" NCoef="0" IVar="-1" Cut="0.0000000000000000e+00" cType="1" res="4.5946124009788036e-03" rms="3.1080573797225952e-01" purity="3.8141214847564697e-01" nType="-99"/>
          </Node>
          <Node pos="r" depth="2" NCoef="0" IVar="8" Cut="6.3904935121536255e-01" cType="1" res="4.2637800797820091e-03" rms="3.0556607246398926e-01" purity="6.2586241960525513e-01" nType="0">
            <Node pos="l" depth="3" NCoef="0" IVar="5" Cut="7.5960166931152344e+01" cType="1" res="2.6806734967976809e-03" rms="3.0055278539657593e-01" purity="6.3064777851104736e-01" nType="0">
              <Node pos="l" depth="4" NCoef="0" IVar="4" Cut="6.4300231933593750e+01" cType="1" res="-1.9896996673196554e-03" rms="3.2323759794235229e-01" purity="5.2323240041732788e-01" nType="0">
                <Node pos="l" depth="5" NCoef="0" IVar="-1" Cut="0.0000000000000000e+00" cType="1" res="-6.5274457447230816e-03" rms="3.4845507144927979e-01" purity="2.5526019930839539e-01" nType="-99"/>
                <Node pos="r" depth="5" NCoef="0" IVar="-1" Cut="0.0000000000000000e+00" cType="1" res="-1.7157361435238272e-04" rms="3.2031872868537903e-01" purity="5.5251991748809814e-01" nType="-99"/>
              </Node>
              <Node pos="r" depth="4" NCoef="0" IVar="7" Cut="2.3080675601959229e+00" cType="1" res="7.5694387778639793e-03" rms="2.7472347021102905e-01" purity="7.4308609962463379e-01" nType="0">
                <Node pos="l" depth="5" NCoef="0" IVar="-1" Cut="0.0000000000000000e+00" cType="1" res="3.0147370416671038e-03" rms="2.7515819668769836e-01" purity="7.5495672225952148e-01" nType="-99"/>
                <Node pos="r" depth="5" NCoef="0" IVar="-1" Cut="0.0000000000000000e+00" cType="1" res="1.0109428316354752e-02" rms="2.7260410785675049e-01" purity="6.9286549091339111e-01" nType="-99"/>
              </Node>
            </Node>
            <Node pos="r" depth="3" NCoef="0" IVar="7" Cut="7.6137995719909668e-01" cType="1" res="1.6593739390373230e-02" rms="3.4185594320297241e-01" purity="5.8859193325042725e-01" nType="0">
              <Node pos="l" depth="4" NCoef="0" IVar="-1" Cut="0.0000000000000000e+00" cType="1" res="1.2287969700992107e-02" rms="3.4108883142471313e-01" purity="6.6304206848144531e-01" nType="-99"/>
              <Node pos="r" depth="4" NCoef="0" IVar="-1" Cut="0.0000000000000000e+00" cType="1" res="-1.8852908397093415e-03" rms="3.4218636155128479e-01" purity="4.5661109685897827e-01" nType="-99"/>
            </Node>
          </Node>
        </Node>
        <Node pos="r" depth="1" NCoef="0" IVar="8" Cut="6.6050386428833008e-01" cType="1" res="-2.3269497323781252e-03" rms="2.9009908437728882e-01" purity="3.5789465904235840e-01" nType="0">
          <Node pos="l" depth="2" NCoef="0" IVar="8" Cut="4.6726527810096741e-01" cType="1" res="-7.6305307447910309e-04" rms="2.8666803240776062e-01" purity="3.6462622880935669e-01" nType="0">
            <Node pos="l" depth="3" NCoef="0" IVar="5" Cut="1.2655990600585938e+02" cType="1" res="-2.9183572623878717e-03" rms="2.7863955497741699e-01" purity="3.3938017487525940e-01" nType="0">
              <Node pos="l" depth="4" NCoef="0" IVar="3" Cut="1.0975610017776489e+00" cType="1" res="-6.4245611429214478e-03" rms="2.8383448719978333e-01" purity="3.7840491533279419e-01" nType="0">
                <Node pos="l" depth="5" NCoef="0" IVar="-1" Cut="0.0000000000000000e+00" cType="1" res="-9.5285929273813963e-04" rms="2.9169648885726929e-01" purity="4.4922441244125366e-01" nType="-99"/>
                <Node pos="r" depth="5" NCoef="0" IVar="-1" Cut="0.0000000000000000e+00" cType="1" res="-1.0574074462056160e-02" rms="2.6626497507095337e-01" purity="2.2940172255039215e-01" nType="-99"/>
              </Node>
              <Node pos="r" depth="4" NCoef="0" IVar="0" Cut="1.0975610017776489e+00" cType="1" res="2.4606855586171150e-03" rms="2.7038753032684326e-01" purity="2.7951037883758545e-01" nType="0">
                <Node pos="l" depth="5" NCoef="0" IVar="-1" Cut="0.0000000000000000e+00" cType="1" res="-4.3175485916435719e-03" rms="1.9742755591869354e-01" purity="8.3102442324161530e-02" nType="-99"/>
                <Node pos="r" depth="5" NCoef="0" IVar="-1" Cut="0.0000000000000000e+00" cType="1" res="3.6783767864108086e-03" rms="3.1707635521888733e-01" purity="4.3770495057106018e-01" nType="-99"/>
              </Node>
            </Node>
            <Node pos="r" depth="3" NCoef="0" IVar="5" Cut="1.0984037017822266e+02" cType="1" res="1.1618941091001034e-02" rms="3.2874310016632080e-01" purity="5.0966227054595947e-01" nType="0">
              <Node pos="l" depth="4" NCoef="0" IVar="-1" Cut="0.0000000000000000e+00" cType="1" res="8.8123447494581342e-04" rms="3.1846964359283447e-01" purity="5.8189970254898071e-01" nType="-99"/>
              <Node pos="r" depth="4" NCoef="0" IVar="-1" Cut="0.0000000000000000e+00" cType="1" res="9.0597718954086304e-03" rms="3.3614188432693481e-01" purity="4.5480766892433167e-01" nType="-99"/>
            </Node>
          </Node>
          <Node pos="r" depth="2" NCoef="0" IVar="-1" Cut="0.0000000000000000e+00" cType="1" res="-1.1381834745407104e-02" rms="3.3440643548965454e-01" purity="2.6196312904357910e-01" nType="-99"/>
        </Node>
      </Node>
    </BinaryTree>
    <BinaryTree type="DecisionTree" boostWeight="1.0000000000000000e+00" itree="136">
      <Node pos="s" depth="0" NCoef="0" IVar="9" Cut="2.3197038471698761e-01" cType="1" res="1.8166808877140284e-04" rms="2.9901409149169922e-01" purity="4.9947619438171387e-01" nType="0">
        <Node pos="l" depth="1" NCoef="0" IVar="9" Cut="5.6714355945587158e-02" cType="1" res="-5.6392378173768520e-03" rms="2.8278237581253052e-01" purity="2.7631989121437073e-01" nType="0">
          <Node pos="l" depth="2" NCoef="0" IVar="-1" Cut="0.0000000000000000e+00" cType="1" res="-3.2059472054243088e-02" rms="1.8099363148212433e-01" purity="4.0428411215543747e-02" nType="-99"/>
          <Node pos="r" depth="2" NCoef="0" IVar="7" Cut="3.4471981525421143e+00" cType="1" res="-3.5284936893731356e-03" rms="2.8915804624557495e-01" purity="2.9484698176383972e-01" nType="0">
            <Node pos="l" depth="3" NCoef="0" IVar="7" Cut="9.2485755681991577e-01" cType="1" res="-6.3866218551993370e-03" rms="2.9117900133132935e-01" purity="2.8560069203376770e-01" nType="0">
              <Node pos="l" depth="4" NCoef="0" IVar="5" Cut="9.1448051452636719e+01" cType="1" res="7.0142303593456745e-03" rms="3.1673702597618103e-01" purity="2.3171953856945038e-01" nType="0">
                <Node pos="l" depth="5" NCoef="0" IVar="-1" Cut="0.0000000000000000e+00" cType="1" res="-6.5424642525613308e-03" rms="3.3498212695121765e-01" purity="3.0145469307899475e-01" nType="-99"/>
                <Node pos="r" depth="5" NCoef="0" IVar="-1" Cut="0.0000000000000000e+00" cType="1" res="1.5680670738220215e-02" rms="3.0041992664337158e-01" purity="1.7640477418899536e-01" nType="-99"/>
              </Node>
              <Node pos="r" depth="4" NCoef="0" IVar="8" Cut="1.7970289289951324e-01" cType="1" res="-1.1693832464516163e-02" rms="2.8023681044578552e-01" purity="3.0693951249122620e-01" nType="0">
                <Node pos="l" depth="5" NCoef="0" IVar="-1" Cut="0.0000000000000000e+00" cType="1" res="-3.0176915228366852e-02" rms="2.0395369827747345e-01" purity="1.3339520990848541e-01" nType="-99"/>
                <Node pos="r" depth="5" NCoef="0" IVar="-1" Cut="0.0000000000000000e+00" cType="1" res="-4.2736995965242386e-03" rms="2.9060921072959900e-01" purity="3.3519122004508972e-01" nType="-99"/>
              </Node>
            </Node>
            <Node pos="r" depth="3" NCoef="0" IVar="-1" Cut="0.0000000000000000e+00" cType="1" res="1.0367142967879772e-02" rms="2.7194586396217346e-01" purity="3.6660706996917725e-01" nType="-99"/>
          </Node>
        </Node>
        <Node pos="r" depth="1" NCoef="0" IVar="7" Cut="2.1129691600799561e+00" cType="1" res="2.3972217459231615e-03" rms="3.0493611097335815e-01" purity="5.8441400527954102e-01" nType="0">
          <Node pos="l" depth="2" NCoef="0" IVar="9" Cut="5.6269562244415283e-01" cType="1" res="8.1725168274715543e-04" rms="3.0868247151374817e-01" purity="5.9483313560485840e-01" nType="0">
            <Node pos="l" depth="3" NCoef="0" IVar="6" Cut="1.6857321262359619e+00" cType="1" res="-1.1838449863716960e-03" rms="3.0542102456092834e-01" purity="5.9522479772567749e-01" nType="0">
              <Node pos="l" depth="4" NCoef="0" IVar="4" Cut="1.4604898071289062e+02" cType="1" res="-7.3927729390561581e-03" rms="3.2829728722572327e-01" purity="4.0707242488861084e-01" nType="0">
                <Node pos="l" depth="5" NCoef="0" IVar="-1" Cut="0.0000000000000000e+00" cType="1" res="-5.8718477375805378e-03" rms="3.2721930742263794e-01" purity="4.6618384122848511e-01" nType="-99"/>
                <Node pos="r" depth="5" NCoef="0" IVar="-1" Cut="0.0000000000000000e+00" cType="1" res="5.3088599815964699e-03" rms="3.3128938078880310e-01" purity="2.0679107308387756e-01" nType="-99"/>
              </Node>
              <Node pos="r" depth="4" NCoef="0" IVar="8" Cut="3.4111639857292175e-01" cType="1" res="1.3883234933018684e-03" rms="2.9538741707801819e-01" purity="6.7317050695419312e-01" nType="0">
                <Node pos="l" depth="5" NCoef="0" IVar="-1" Cut="0.0000000000000000e+00" cType="1" res="-3.9235954172909260e-03" rms="3.1588968634605408e-01" purity="5.1261967420578003e-01" nType="-99"/>
                <Node pos="r" depth="5" NCoef="0" IVar="-1" Cut="0.0000000000000000e+00" cType="1" res="4.2144581675529480e-03" rms="2.8146553039550781e-01" purity="7.7493941783905029e-01" nType="-99"/>
              </Node>
            </Node>
            <Node pos="r" depth="3" NCoef="0" IVar="4" Cut="1.3393775939941406e+02" cType="1" res="8.2389833405613899e-03" rms="3.2037982344627380e-01" purity="5.9338068962097168e-01" nType="0">
              <Node pos="l" depth="4" NCoef="0" IVar="7" Cut="7.2150254249572754e-01" cType="1" res="1.1590020731091499e-02" rms="3.1672254204750061e-01" purity="6.3017201423645020e-01" nType="0">
                <Node pos="l" depth="5" NCoef="0" IVar="-1" Cut="0.0000000000000000e+00" cType="1" res="7.9824989661574364e-03" rms="3.1699565052986145e-01" purity="6.7643475532531738e-01" nType="-99"/>
                <Node pos="r" depth="5" NCoef="0" IVar="-1" Cut="0.0000000000000000e+00" cType="1" res="1.9246563315391541e-03" rms="3.1614503264427185e-01" purity="5.5752235651016235e-01" nType="-99"/>
              </Node>
              <Node pos="r" depth="4" NCoef="0" IVar="-1" Cut="0.0000000000000000e+00" cType="1" res="-4.6958043240010738e-03" rms="3.3972546458244324e-01" purity="3.8505250215530396e-01" nType="-99"/>
            </Node>
          </Node>
          <Node pos="r" depth="2" NCoef="0" IVar="8" Cut="1.3128635287284851e-01" cType="1" res="1.4587836340069771e-02" rms="2.7400898933410645e-01" purity="5.0402247905731201e-01" nType="0">
            <Node pos="l" depth="3" NCoef="0" IVar="-1" Cut="0.0000000000000000e+00" cType="1" res="-4.6473369002342224e-03" rms="2.8740206360816956e-01" purity="2.0781916379928589e-01" nType="-99"/>
            <Node pos="r" depth="3" NCoef="0" IVar="-1" Cut="0.0000000000000000e+00" cType="1" res="1.4809120446443558e-02" rms="2.6613783836364746e-01" purity="6.5595853328704834e-01" nType="-99"/>
          </Node>
        </Node>
      </Node>
    </BinaryTree>
    <BinaryTree type="DecisionTree" boostWeight="1.0000000000000000e+00" itree="137">
      <Node pos="s" depth="0" NCoef="0" IVar="8" Cut="4.6644866466522217e-01" cType="1" res="3.5362082417123020e-04" rms="2.9748281836509705e-01" purity="5.0130760669708252e-01" nType="0">
        <Node pos="l" depth="1" NCoef="0" IVar="0" Cut="1.0975610017776489e+00" cType="1" res="-1.4517495874315500e-03" rms="2.8787365555763245e-01" purity="4.7682115435600281e-01" nType="0">
          <Node pos="l" depth="2" NCoef="0" IVar="1" Cut="2.0731706619262695e+00" cType="1" res="0.0000000000000000e+00" rms="0.0000000000000000e+00" purity="1.6453862190246582e-01" nType="0">
            <Node pos="l" depth="3" NCoef="0" IVar="5" Cut="6.3181232452392578e+01" cType="1" res="0.0000000000000000e+00" rms="0.0000000000000000e+00" purity="6.3515484333038330e-02" nType="0">
              <Node pos="l" depth="4" NCoef="0" IVar="-1" Cut="0.0000000000000000e+00" cType="1" res="1.2227872386574745e-02" rms="2.1889171004295349e-01" purity="5.5795419961214066e-02" nType="-99"/>
              <Node pos="r" depth="4" NCoef="0" IVar="4" Cut="1.4006314086914062e+02" cType="1" res="0.0000000000000000e+00" rms="0.0000000000000000e+00" purity="6.5004184842109680e-02" nType="0">
                <Node pos="l" depth="5" NCoef="0" IVar="-1" Cut="0.0000000000000000e+00" cType="1" res="-7.3651745915412903e-03" rms="2.1320992708206177e-01" purity="7.2841972112655640e-02" nType="-99"/>
                <Node pos="r" depth="5" NCoef="0" IVar="-1" Cut="0.0000000000000000e+00" cType="1" res="1.8064009491354227e-03" rms="1.8758654594421387e-01" purity="4.8105571419000626e-02" nType="-99"/>
              </Node>
            </Node>
            <Node pos="r" depth="3" NCoef="0" IVar="7" Cut="2.3484404087066650e+00" cType="1" res="0.0000000000000000e+00" rms="0.0000000000000000e+00" purity="3.1720593571662903e-01" nType="0">
              <Node pos="l" depth="4" NCoef="0" IVar="5" Cut="9.2072982788085938e+01" cType="1" res="0.0000000000000000e+00" rms="0.0000000000000000e+00" purity="3.2656905055046082e-01" nType="0">
                <Node pos="l" depth="5" NCoef="0" IVar="-1" Cut="0.0000000000000000e+00" cType="1" res="-1.0224666446447372e-02" rms="3.3537569642066956e-01" purity="4.2460644245147705e-01" nType="-99"/>
                <Node pos="r" depth="5" NCoef="0" IVar="-1" Cut="0.0000000000000000e+00" cType="1" res="-3.6122757010161877e-03" rms="2.9772305488586426e-01" purity="2.2719499468803406e-01" nType="-99"/>
              </Node>
              <Node pos="r" depth="4" NCoef="0" IVar="-1" Cut="0.0000000000000000e+00" cType="1" res="2.4530421942472458e-03" rms="2.7345871925354004e-01" purity="2.8712412714958191e-01" nType="-99"/>
            </Node>
          </Node>
          <Node pos="r" depth="2" NCoef="0" IVar="8" Cut="1.4814439415931702e-01" cType="1" res="1.0441673221066594e-03" rms="3.0507019162178040e-01" purity="6.4311724901199341e-01" nType="0">
            <Node pos="l" depth="3" NCoef="0" IVar="7" Cut="1.6661863327026367e+00" cType="1" res="-1.2496461160480976e-02" rms="3.1153908371925354e-01" purity="3.5205191373825073e-01" nType="0">
              <Node pos="l" depth="4" NCoef="0" IVar="-1" Cut="0.0000000000000000e+00" cType="1" res="2.3972010239958763e-03" rms="3.2712715864181519e-01" purity="3.2691273093223572e-01" nType="-99"/>
              <Node pos="r" depth="4" NCoef="0" IVar="-1" Cut="0.0000000000000000e+00" cType="1" res="-1.0001569986343384e-02" rms="3.0219945311546326e-01" purity="3.6586162447929382e-01" nType="-99"/>
            </Node>
            <Node pos="r" depth="3" NCoef="0" IVar="7" Cut="2.4977426528930664e+00" cType="1" res="2.8636441566050053e-03" rms="3.0414453148841858e-01" purity="6.8222820758819580e-01" nType="0">
              <Node pos="l" depth="4" NCoef="0" IVar="1" Cut="2.0731706619262695e+00" cType="1" res="7.4770662467926741e-04" rms="3.0694282054901123e-01" purity="6.8592458963394165e-01" nType="0">
                <Node pos="l" depth="5" NCoef="0" IVar="-1" Cut="0.0000000000000000e+00" cType="1" res="-2.0834638271480799e-03" rms="3.5796502232551575e-01" purity="4.5438340306282043e-01" nType="-99"/>
                <Node pos="r" depth="5" NCoef="0" IVar="-1" Cut="0.0000000000000000e+00" cType="1" res="3.4405090846121311e-03" rms="2.6386764645576477e-01" purity="8.5341536998748779e-01" nType="-99"/>
              </Node>
              <Node pos="r" depth="4" NCoef="0" IVar="-1" Cut="0.0000000000000000e+00" cType="1" res="8.8781826198101044e-03" rms="2.8410634398460388e-01" purity="6.5725487470626831e-01" nType="-99"/>
            </Node>
          </Node>
        </Node>
        <Node pos="r" depth="1" NCoef="0" IVar="4" Cut="1.9799336242675781e+02" cType="1" res="5.3613455966114998e-03" rms="3.2258945703506470e-01" purity="5.6922793388366699e-01" nType="0">
          <Node pos="l" depth="2" NCoef="0" IVar="4" Cut="1.5740234375000000e+02" cType="1" res="7.1286289021372795e-03" rms="3.2672074437141418e-01" purity="6.0069525241851807e-01" nType="0">
            <Node pos="l" depth="3" NCoef="0" IVar="4" Cut="6.9404083251953125e+01" cType="1" res="4.9447403289377689e-03" rms="3.2447856664657593e-01" purity="6.3057488203048706e-01" nType="0">
              <Node pos="l" depth="4" NCoef="0" IVar="-1" Cut="0.0000000000000000e+00" cType="1" res="5.7718399912118912e-03" rms="3.7627258896827698e-01" purity="3.3561742305755615e-01" nType="-99"/>
              <Node pos="r" depth="4" NCoef="0" IVar="5" Cut="9.5433479309082031e+01" cType="1" res="3.0277664773166180e-03" rms="3.1457525491714478e-01" purity="6.8180525302886963e-01" nType="0">
                <Node pos="l" depth="5" NCoef="0" IVar="-1" Cut="0.0000000000000000e+00" cType="1" res="3.7916810251772404e-03" rms="3.0532342195510864e-01" purity="7.4160099029541016e-01" nType="-99"/>
                <Node pos="r" depth="5" NCoef="0" IVar="-1" Cut="0.0000000000000000e+00" cType="1" res="-4.2670322582125664e-03" rms="3.3918720483779907e-01" purity="5.1183933019638062e-01" nType="-99"/>
              </Node>
            </Node>
            <Node pos="r" depth="3" NCoef="0" IVar="-1" Cut="0.0000000000000000e+00" cType="1" res="1.1951985768973827e-02" rms="3.4618222713470459e-01" purity="3.2338970899581909e-01" nType="-99"/>
          </Node>
          <Node pos="r" depth="2" NCoef="0" IVar="-1" Cut="0.0000000000000000e+00" cType="1" res="-7.5699766166508198e-03" rms="2.7241802215576172e-01" purity="2.2385604679584503e-01" nType="-99"/>
        </Node>
      </Node>
    </BinaryTree>
    <BinaryTree type="DecisionTree" boostWeight="1.0000000000000000e+00" itree="138">
      <Node pos="s" depth="0" NCoef="0" IVar="9" Cut="1.1952222883701324e-01" cType="1" res="-1.4787951658945531e-04" rms="2.9893186688423157e-01" purity="4.9861791729927063e-01" nType="0">
        <Node pos="l" depth="1" NCoef="0" IVar="7" Cut="1.4256350994110107e+00" cType="1" res="-9.1774566099047661e-03" rms="2.4718448519706726e-01" purity="1.2907777726650238e-01" nType="0">
          <Node pos="l" depth="2" NCoef="0" IVar="-1" Cut="0.0000000000000000e+00" cType="1" res="9.1351093724370003e-03" rms="2.6325646042823792e-01" purity="1.1923126131296158e-01" nType="-99"/>
          <Node pos="r" depth="2" NCoef="0" IVar="9" Cut="6.7128837108612061e-02" cType="1" res="-1.7426051199436188e-02" rms="2.4012523889541626e-01" purity="1.3291546702384949e-01" nType="0">
            <Node pos="l" depth="3" NCoef="0" IVar="-1" Cut="0.0000000000000000e+00" cType="1" res="-2.8831146657466888e-02" rms="1.8602973222732544e-01" purity="5.0195157527923584e-02" nType="-99"/>
            <Node pos="r" depth="3" NCoef="0" IVar="-1" Cut="0.0000000000000000e+00" cType="1" res="-5.5094636045396328e-03" rms="2.6685154438018799e-01" purity="1.8218958377838135e-01" nType="-99"/>
          </Node>
        </Node>
        <Node pos="r" depth="1" NCoef="0" IVar="4" Cut="2.2098414611816406e+02" cType="1" res="6.4532767282798886e-04" rms="3.0304288864135742e-01" purity="5.3108036518096924e-01" nType="0">
          <Node pos="l" depth="2" NCoef="0" IVar="4" Cut="4.7740333557128906e+01" cType="1" res="1.1268673551967368e-04" rms="3.0292299389839172e-01" purity="5.4250675439834595e-01" nType="0">
            <Node pos="l" depth="3" NCoef="0" IVar="8" Cut="3.6619862914085388e-01" cType="1" res="-1.2160343118011951e-02" rms="3.1797516345977783e-01" purity="1.9568958878517151e-01" nType="0">
              <Node pos="l" depth="4" NCoef="0" IVar="-1" Cut="0.0000000000000000e+00" cType="1" res="-1.2709130533039570e-02" rms="2.8074145317077637e-01" purity="1.3231110572814941e-01" nType="-99"/>
              <Node pos="r" depth="4" NCoef="0" IVar="-1" Cut="0.0000000000000000e+00" cType="1" res="-6.9519731914624572e-04" rms="3.5122188925743103e-01" purity="2.5955224037170410e-01" nType="-99"/>
            </Node>
            <Node pos="r" depth="3" NCoef="0" IVar="5" Cut="1.3474385070800781e+02" cType="1" res="7.1018794551491737e-04" rms="3.0215832591056824e-01" purity="5.5939126014709473e-01" nType="0">
              <Node pos="l" depth="4" NCoef="0" IVar="7" Cut="2.3002009093761444e-01" cType="1" res="1.7344154184684157e-03" rms="3.0406028032302856e-01" purity="5.8570599555969238e-01" nType="0">
                <Node pos="l" depth="5" NCoef="0" IVar="-1" Cut="0.0000000000000000e+00" cType="1" res="-3.5711957607418299e-03" rms="3.1729581952095032e-01" purity="6.1351865530014038e-01" nType="-99"/>
                <Node pos="r" depth="5" NCoef="0" IVar="-1" Cut="0.0000000000000000e+00" cType="1" res="1.5432306099683046e-03" rms="3.0212175846099854e-01" purity="5.8177262544631958e-01" nType="-99"/>
              </Node>
              <Node pos="r" depth="4" NCoef="0" IVar="3" Cut="4.0243902206420898e+00" cType="1" res="-7.7496189624071121e-03" rms="2.8582501411437988e-01" purity="3.4203925728797913e-01" nType="0">
                <Node pos="l" depth="5" NCoef="0" IVar="-1" Cut="0.0000000000000000e+00" cType="1" res="-7.1497624740004539e-03" rms="2.8429737687110901e-01" purity="3.5008355975151062e-01" nType="-99"/>
                <Node pos="r" depth="5" NCoef="0" IVar="-1" Cut="0.0000000000000000e+00" cType="1" res="5.1033399067819118e-03" rms="2.9024419188499451e-01" purity="3.1509858369827271e-01" nType="-99"/>
              </Node>
            </Node>
          </Node>
          <Node pos="r" depth="2" NCoef="0" IVar="-1" Cut="0.0000000000000000e+00" cType="1" res="7.9824803397059441e-03" rms="3.0582392215728760e-01" purity="2.3331944644451141e-01" nType="-99"/>
        </Node>
      </Node>
    </BinaryTree>
    <BinaryTree type="DecisionTree" boostWeight="1.0000000000000000e+00" itree="139">
      <Node pos="s" depth="0" NCoef="0" IVar="4" Cut="1.0492213439941406e+02" cType="1" res="1.8729864386841655e-03" rms="3.0026465654373169e-01" purity="5.0222820043563843e-01" nType="0">
        <Node pos="l" depth="1" NCoef="0" IVar="9" Cut="7.1638631820678711e-01" cType="1" res="-1.7062771366909146e-03" rms="3.1777825951576233e-01" purity="4.3880471587181091e-01" nType="0">
          <Node pos="l" depth="2" NCoef="0" IVar="5" Cut="1.3835182189941406e+02" cType="1" res="-3.2808962278068066e-03" rms="3.1526783108711243e-01" purity="4.3456998467445374e-01" nType="0">
            <Node pos="l" depth="3" NCoef="0" IVar="0" Cut="1.0975610017776489e+00" cType="1" res="-4.9593108706176281e-03" rms="3.1748515367507935e-01" purity="4.5714655518531799e-01" nType="0">
              <Node pos="l" depth="4" NCoef="0" IVar="9" Cut="2.9725667834281921e-01" cType="1" res="0.0000000000000000e+00" rms="0.0000000000000000e+00" purity="1.8914049863815308e-01" nType="0">
                <Node pos="l" depth="5" NCoef="0" IVar="-1" Cut="0.0000000000000000e+00" cType="1" res="-6.6827153787016869e-03" rms="2.3633037507534027e-01" purity="1.0166632384061813e-01" nType="-99"/>
                <Node pos="r" depth="5" NCoef="0" IVar="-1" Cut="0.0000000000000000e+00" cType="1" res="3.7814367096871138e-03" rms="3.1825172901153564e-01" purity="2.5304996967315674e-01" nType="-99"/>
              </Node>
              <Node pos="r" depth="4" NCoef="0" IVar="6" Cut="2.4519727230072021e+00" cType="1" res="-8.6607970297336578e-03" rms="3.3537811040878296e-01" purity="6.2571835517883301e-01" nType="0">
                <Node pos="l" depth="5" NCoef="0" IVar="-1" Cut="0.0000000000000000e+00" cType="1" res="-7.0723542012274265e-03" rms="3.4801009297370911e-01" purity="5.4943263530731201e-01" nType="-99"/>
                <Node pos="r" depth="5" NCoef="0" IVar="-1" Cut="0.0000000000000000e+00" cType="1" res="1.6836054855957627e-03" rms="3.1672891974449158e-01" purity="7.3090291023254395e-01" nType="-99"/>
              </Node>
            </Node>
            <Node pos="r" depth="3" NCoef="0" IVar="-1" Cut="0.0000000000000000e+00" cType="1" res="7.2822598740458488e-03" rms="2.9404073953628540e-01" purity="2.3055717349052429e-01" nType="-99"/>
          </Node>
          <Node pos="r" depth="2" NCoef="0" IVar="-1" Cut="0.0000000000000000e+00" cType="1" res="5.6013381108641624e-03" rms="3.4015434980392456e-01" purity="4.7868201136589050e-01" nType="-99"/>
        </Node>
        <Node pos="r" depth="1" NCoef="0" IVar="8" Cut="8.3987110853195190e-01" cType="1" res="4.0548071265220642e-03" rms="2.8904703259468079e-01" purity="5.4088944196701050e-01" nType="0">
          <Node pos="l" depth="2" NCoef="0" IVar="9" Cut="6.6408741474151611e-01" cType="1" res="5.3425091318786144e-03" rms="2.8711861371994019e-01" purity="5.5023205280303955e-01" nType="0">
            <Node pos="l" depth="3" NCoef="0" IVar="5" Cut="1.1309595489501953e+02" cType="1" res="6.3175470568239689e-03" rms="2.8726077079772949e-01" purity="5.4891341924667358e-01" nType="0">
              <Node pos="l" depth="4" NCoef="0" IVar="1" Cut="1.0975610017776489e+00" cType="1" res="4.2165685445070267e-03" rms="2.8672552108764648e-01" purity="6.0917210578918457e-01" nType="0">
                <Node pos="l" depth="5" NCoef="0" IVar="-1" Cut="0.0000000000000000e+00" cType="1" res="-3.0564118060283363e-04" rms="3.2294079661369324e-01" purity="3.2345703244209290e-01" nType="-99"/>
                <Node pos="r" depth="5" NCoef="0" IVar="-1" Cut="0.0000000000000000e+00" cType="1" res="4.5135836116969585e-03" rms="2.6453658938407898e-01" purity="7.6719665527343750e-01" nType="-99"/>
              </Node>
              <Node pos="r" depth="4" NCoef="0" IVar="0" Cut="2.0731706619262695e+00" cType="1" res="1.2741501443088055e-02" rms="2.8879639506340027e-01" purity="3.6466637253761292e-01" nType="0">
                <Node pos="l" depth="5" NCoef="0" IVar="-1" Cut="0.0000000000000000e+00" cType="1" res="3.9666141383349895e-03" rms="2.3161976039409637e-01" purity="1.5618428587913513e-01" nType="-99"/>
                <Node pos="r" depth="5" NCoef="0" IVar="-1" Cut="0.0000000000000000e+00" cType="1" res="9.0990383177995682e-03" rms="3.2641857862472534e-01" purity="5.2750444412231445e-01" nType="-99"/>
              </Node>
            </Node>
            <Node pos="r" depth="3" NCoef="0" IVar="-1" Cut="0.0000000000000000e+00" cType="1" res="-6.5620178356766701e-03" rms="2.8402999043464661e-01" purity="5.7362025976181030e-01" nType="-99"/>
          </Node>
          <Node pos="r" depth="2" NCoef="0" IVar="-1" Cut="0.0000000000000000e+00" cType="1" res="-9.6228150650858879e-03" rms="3.2295683026313782e-01" purity="3.6094596982002258e-01" nType="-99"/>
        </Node>
      </Node>
    </BinaryTree>
    <BinaryTree type="DecisionTree" boostWeight="1.0000000000000000e+00" itree="140">
      <Node pos="s" depth="0" NCoef="0" IVar="8" Cut="1.2023013085126877e-01" cType="1" res="-7.0685095852240920e-04" rms="2.9866173863410950e-01" purity="4.9774473905563354e-01" nType="0">
        <Node pos="l" depth="1" NCoef="0" IVar="8" Cut="6.4608909189701080e-02" cType="1" res="-1.1914277449250221e-02" rms="2.4931363761425018e-01" purity="1.5659005939960480e-01" nType="0">
          <Node pos="l" depth="2" NCoef="0" IVar="-1" Cut="0.0000000000000000e+00" cType="1" res="-2.9549580067396164e-02" rms="1.9415700435638428e-01" purity="5.8218240737915039e-02" nType="-99"/>
          <Node pos="r" depth="2" NCoef="0" IVar="0" Cut="3.0487804412841797e+00" cType="1" res="-3.6472722422331572e-03" rms="2.6895314455032349e-01" purity="1.9844564795494080e-01" nType="0">
            <Node pos="l" depth="3" NCoef="0" IVar="-1" Cut="0.0000000000000000e+00" cType="1" res="-9.3041704967617989e-03" rms="2.1782720088958740e-01" purity="8.4151223301887512e-02" nType="-99"/>
            <Node pos="r" depth="3" NCoef="0" IVar="-1" Cut="0.0000000000000000e+00" cType="1" res="2.3706434294581413e-03" rms="3.2762098312377930e-01" purity="3.5983613133430481e-01" nType="-99"/>
          </Node>
        </Node>
        <Node pos="r" depth="1" NCoef="0" IVar="7" Cut="2.8181247711181641e+00" cType="1" res="1.9598283688537776e-04" rms="3.0226853489875793e-01" purity="5.2522706985473633e-01" nType="0">
          <Node pos="l" depth="2" NCoef="0" IVar="8" Cut="5.8861893415451050e-01" cType="1" res="-6.4411212224513292e-04" rms="3.0497112870216370e-01" purity="5.3144657611846924e-01" nType="0">
            <Node pos="l" depth="3" NCoef="0" IVar="8" Cut="1.4307856559753418e-01" cType="1" res="-1.6371457604691386e-03" rms="2.9803109169006348e-01" purity="5.3584563732147217e-01" nType="0">
              <Node pos="l" depth="4" NCoef="0" IVar="-1" Cut="0.0000000000000000e+00" cType="1" res="-1.2650911696255207e-02" rms="2.7177494764328003e-01" purity="2.4398763477802277e-01" nType="-99"/>
              <Node pos="r" depth="4" NCoef="0" IVar="4" Cut="7.5906631469726562e+01" cType="1" res="-1.0272006038576365e-03" rms="2.9876536130905151e-01" purity="5.4464238882064819e-01" nType="0">
                <Node pos="l" depth="5" NCoef="0" IVar="-1" Cut="0.0000000000000000e+00" cType="1" res="-3.8708876818418503e-03" rms="3.3002427220344543e-01" purity="2.6192253828048706e-01" nType="-99"/>
                <Node pos="r" depth="5" NCoef="0" IVar="-1" Cut="0.0000000000000000e+00" cType="1" res="2.1226907847449183e-04" rms="2.9261720180511475e-01" purity="5.9675848484039307e-01" nType="-99"/>
              </Node>
            </Node>
            <Node pos="r" depth="3" NCoef="0" IVar="6" Cut="2.1454765796661377e+00" cType="1" res="4.7998684458434582e-03" rms="3.4046214818954468e-01" purity="5.0733017921447754e-01" nType="0">
              <Node pos="l" depth="4" NCoef="0" IVar="4" Cut="8.3258850097656250e+01" cType="1" res="1.2611549347639084e-02" rms="3.4643915295600891e-01" purity="4.9663928151130676e-01" nType="0">
                <Node pos="l" depth="5" NCoef="0" IVar="-1" Cut="0.0000000000000000e+00" cType="1" res="1.3594889082014561e-02" rms="3.8801011443138123e-01" purity="4.0455237030982971e-01" nType="-99"/>
                <Node pos="r" depth="5" NCoef="0" IVar="-1" Cut="0.0000000000000000e+00" cType="1" res="2.5095294695347548e-03" rms="3.3369788527488708e-01" purity="5.2207303047180176e-01" nType="-99"/>
              </Node>
              <Node pos="r" depth="4" NCoef="0" IVar="-1" Cut="0.0000000000000000e+00" cType="1" res="-7.2748772799968719e-03" rms="3.2313257455825806e-01" purity="5.3573155403137207e-01" nType="-99"/>
            </Node>
          </Node>
          <Node pos="r" depth="2" NCoef="0" IVar="9" Cut="1.0061550140380859e-01" cType="1" res="1.0533794760704041e-02" rms="2.6656302809715271e-01" purity="4.4869220256805420e-01" nType="0">
            <Node pos="l" depth="3" NCoef="0" IVar="-1" Cut="0.0000000000000000e+00" cType="1" res="-1.8406279385089874e-02" rms="2.3884451389312744e-01" purity="1.0232168436050415e-01" nType="-99"/>
            <Node pos="r" depth="3" NCoef="0" IVar="-1" Cut="0.0000000000000000e+00" cType="1" res="1.3970671221613884e-02" rms="2.7599048614501953e-01" purity="5.9472244977951050e-01" nType="-99"/>
          </Node>
        </Node>
      </Node>
    </BinaryTree>
    <BinaryTree type="DecisionTree" boostWeight="1.0000000000000000e+00" itree="141">
      <Node pos="s" depth="0" NCoef="0" IVar="8" Cut="2.4913945794105530e-01" cType="1" res="-4.0038727456703782e-04" rms="2.9799473285675049e-01" purity="4.9851718544960022e-01" nType="0">
        <Node pos="l" depth="1" NCoef="0" IVar="7" Cut="3.6460285186767578e+00" cType="1" res="-4.9602482467889786e-03" rms="2.8197944164276123e-01" purity="3.2942745089530945e-01" nType="0">
          <Node pos="l" depth="2" NCoef="0" IVar="9" Cut="2.3389057815074921e-01" cType="1" res="-6.6382163204252720e-03" rms="2.8414422273635864e-01" purity="3.3693081140518188e-01" nType="0">
            <Node pos="l" depth="3" NCoef="0" IVar="7" Cut="1.6896269321441650e+00" cType="1" res="-1.8534239381551743e-02" rms="2.2735147178173065e-01" purity="2.1811752021312714e-01" nType="0">
              <Node pos="l" depth="4" NCoef="0" IVar="-1" Cut="0.0000000000000000e+00" cType="1" res="-6.2801700551062822e-04" rms="2.0934012532234192e-01" purity="5.7187400758266449e-02" nType="-99"/>
              <Node pos="r" depth="4" NCoef="0" IVar="9" Cut="1.8279828131198883e-01" cType="1" res="-2.6972843334078789e-02" rms="2.3482936620712280e-01" purity="2.9340329766273499e-01" nType="0">
                <Node pos="l" depth="5" NCoef="0" IVar="-1" Cut="0.0000000000000000e+00" cType="1" res="-2.7898687869310379e-02" rms="2.1885238587856293e-01" purity="2.1560455858707428e-01" nType="-99"/>
                <Node pos="r" depth="5" NCoef="0" IVar="-1" Cut="0.0000000000000000e+00" cType="1" res="-7.4348417110741138e-03" rms="2.5367164611816406e-01" purity="3.9651957154273987e-01" nType="-99"/>
              </Node>
            </Node>
            <Node pos="r" depth="3" NCoef="0" IVar="7" Cut="2.6678235530853271e+00" cType="1" res="-2.2658342495560646e-03" rms="3.0223146080970764e-01" purity="3.8060063123703003e-01" nType="0">
              <Node pos="l" depth="4" NCoef="0" IVar="8" Cut="1.1609841883182526e-01" cType="1" res="-5.0750980153679848e-03" rms="3.0499005317687988e-01" purity="3.7277990579605103e-01" nType="0">
                <Node pos="l" depth="5" NCoef="0" IVar="-1" Cut="0.0000000000000000e+00" cType="1" res="8.1326011568307877e-03" rms="2.9036176204681396e-01" purity="1.9485399127006531e-01" nType="-99"/>
                <Node pos="r" depth="5" NCoef="0" IVar="-1" Cut="0.0000000000000000e+00" cType="1" res="-4.5565608888864517e-03" rms="3.0795305967330933e-01" purity="4.1166278719902039e-01" nType="-99"/>
              </Node>
              <Node pos="r" depth="4" NCoef="0" IVar="-1" Cut="0.0000000000000000e+00" cType="1" res="8.6953239515423775e-03" rms="2.8274166584014893e-01" purity="4.3199703097343445e-01" nType="-99"/>
            </Node>
          </Node>
          <Node pos="r" depth="2" NCoef="0" IVar="-1" Cut="0.0000000000000000e+00" cType="1" res="7.0843701250851154e-03" rms="2.5961714982986450e-01" purity="2.5704604387283325e-01" nType="-99"/>
        </Node>
        <Node pos="r" depth="1" NCoef="0" IVar="4" Cut="2.1521171569824219e+02" cType="1" res="1.5334095805883408e-03" rms="3.0451184511184692e-01" purity="5.7022660970687866e-01" nType="0">
          <Node pos="l" depth="2" NCoef="0" IVar="7" Cut="2.3484375476837158e+00" cType="1" res="2.5327668990939856e-03" rms="3.0602082610130310e-01" purity="5.8667892217636108e-01" nType="0">
            <Node pos="l" depth="3" NCoef="0" IVar="4" Cut="8.6524833679199219e+01" cType="1" res="1.5525266062468290e-03" rms="3.0852800607681274e-01" purity="5.9601753950119019e-01" nType="0">
              <Node pos="l" depth="4" NCoef="0" IVar="9" Cut="6.0219508409500122e-01" cType="1" res="7.6331426389515400e-03" rms="3.4964516758918762e-01" purity="3.7931582331657410e-01" nType="0">
                <Node pos="l" depth="5" NCoef="0" IVar="-1" Cut="0.0000000000000000e+00" cType="1" res="1.8277829512953758e-03" rms="3.4498602151870728e-01" purity="3.5140752792358398e-01" nType="-99"/>
                <Node pos="r" depth="5" NCoef="0" IVar="-1" Cut="0.0000000000000000e+00" cType="1" res="7.9143261536955833e-03" rms="3.6958321928977966e-01" purity="5.0532943010330200e-01" nType="-99"/>
              </Node>
              <Node pos="r" depth="4" NCoef="0" IVar="8" Cut="8.4105843305587769e-01" cType="1" res="-3.3725501270964742e-04" rms="2.9455706477165222e-01" purity="6.6336578130722046e-01" nType="0">
                <Node pos="l" depth="5" NCoef="0" IVar="-1" Cut="0.0000000000000000e+00" cType="1" res="5.4871273459866643e-04" rms="2.9079419374465942e-01" purity="6.7970430850982666e-01" nType="-99"/>
                <Node pos="r" depth="5" NCoef="0" IVar="-1" Cut="0.0000000000000000e+00" cType="1" res="-8.2065304741263390e-03" rms="3.4355458617210388e-01" purity="4.2863202095031738e-01" nType="-99"/>
              </Node>
            </Node>
            <Node pos="r" depth="3" NCoef="0" IVar="6" Cut="2.0688478946685791e+00" cType="1" res="1.4723436906933784e-02" rms="2.7262830734252930e-01" purity="4.7054031491279602e-01" nType="0">
              <Node pos="l" depth="4" NCoef="0" IVar="-1" Cut="0.0000000000000000e+00" cType="1" res="6.1858008848503232e-05" rms="2.7564290165901184e-01" purity="2.5141087174415588e-01" nType="-99"/>
              <Node pos="r" depth="4" NCoef="0" IVar="-1" Cut="0.0000000000000000e+00" cType="1" res="1.4418187551200390e-02" rms="2.6983293890953064e-01" purity="6.3449913263320923e-01" nType="-99"/>
            </Node>
          </Node>
          <Node pos="r" depth="2" NCoef="0" IVar="-1" Cut="0.0000000000000000e+00" cType="1" res="-1.1123491451144218e-02" rms="2.6900634169578552e-01" purity="2.1527017652988434e-01" nType="-99"/>
        </Node>
      </Node>
    </BinaryTree>
    <BinaryTree type="DecisionTree" boostWeight="1.0000000000000000e+00" itree="142">
      <Node pos="s" depth="0" NCoef="0" IVar="4" Cut="4.1088054656982422e+01" cType="1" res="8.9431472588330507e-04" rms="2.9937139153480530e-01" purity="5.0046122074127197e-01" nType="0">
        <Node pos="l" depth="1" NCoef="0" IVar="-1" Cut="0.0000000000000000e+00" cType="1" res="-6.7369444295763969e-03" rms="3.0689123272895813e-01" purity="1.6292855143547058e-01" nType="-99"/>
        <Node pos="r" depth="1" NCoef="0" IVar="8" Cut="9.9594628810882568e-01" cType="1" res="1.3018195750191808e-03" rms="2.9914093017578125e-01" purity="5.1023626327514648e-01" nType="0">
          <Node pos="l" depth="2" NCoef="0" IVar="5" Cut="3.3720401763916016e+01" cType="1" res="1.6567490529268980e-03" rms="2.9799848794937134e-01" purity="5.1559692621231079e-01" nType="0">
            <Node pos="l" depth="3" NCoef="0" IVar="-1" Cut="0.0000000000000000e+00" cType="1" res="-5.8031273074448109e-03" rms="3.4336996078491211e-01" purity="2.9416376352310181e-01" nType="-99"/>
            <Node pos="r" depth="3" NCoef="0" IVar="8" Cut="2.9172766208648682e-01" cType="1" res="1.9966633990406990e-03" rms="2.9690024256706238e-01" purity="5.2052819728851318e-01" nType="0">
              <Node pos="l" depth="4" NCoef="0" IVar="7" Cut="2.8375432491302490e+00" cType="1" res="-6.6611450165510178e-04" rms="2.8789290785789490e-01" purity="3.8540744781494141e-01" nType="0">
                <Node pos="l" depth="5" NCoef="0" IVar="-1" Cut="0.0000000000000000e+00" cType="1" res="-1.5699897194281220e-03" rms="2.9432794451713562e-01" purity="3.8389542698860168e-01" nType="-99"/>
                <Node pos="r" depth="5" NCoef="0" IVar="-1" Cut="0.0000000000000000e+00" cType="1" res="4.1526202112436295e-03" rms="2.6293554902076721e-01" purity="3.9092516899108887e-01" nType="-99"/>
              </Node>
              <Node pos="r" depth="4" NCoef="0" IVar="6" Cut="3.0649694800376892e-01" cType="1" res="3.8211941719055176e-03" rms="3.0290395021438599e-01" purity="6.1311256885528564e-01" nType="0">
                <Node pos="l" depth="5" NCoef="0" IVar="-1" Cut="0.0000000000000000e+00" cType="1" res="-4.9862465821206570e-03" rms="3.3392122387886047e-01" purity="3.4910404682159424e-01" nType="-99"/>
                <Node pos="r" depth="5" NCoef="0" IVar="-1" Cut="0.0000000000000000e+00" cType="1" res="2.3948273155838251e-03" rms="3.0123302340507507e-01" purity="6.2645637989044189e-01" nType="-99"/>
              </Node>
            </Node>
          </Node>
          <Node pos="r" depth="2" NCoef="0" IVar="-1" Cut="0.0000000000000000e+00" cType="1" res="-5.8162310160696507e-03" rms="3.4135740995407104e-01" purity="2.9614347219467163e-01" nType="-99"/>
        </Node>
      </Node>
    </BinaryTree>
    <BinaryTree type="DecisionTree" boostWeight="1.0000000000000000e+00" itree="143">
      <Node pos="s" depth="0" NCoef="0" IVar="1" Cut="4.0243902206420898e+00" cType="1" res="-8.3883630577474833e-04" rms="2.9784271121025085e-01" purity="4.9869287014007568e-01" nType="0">
        <Node pos="l" depth="1" NCoef="0" IVar="6" Cut="8.4286642074584961e-01" cType="1" res="-2.9201945289969444e-03" rms="3.0535697937011719e-01" purity="3.5723140835762024e-01" nType="0">
          <Node pos="l" depth="2" NCoef="0" IVar="3" Cut="4.0243902206420898e+00" cType="1" res="5.3605157881975174e-03" rms="3.0711770057678223e-01" purity="2.1434080600738525e-01" nType="0">
            <Node pos="l" depth="3" NCoef="0" IVar="6" Cut="6.5784698724746704e-01" cType="1" res="-3.4398870775476098e-04" rms="3.0944246053695679e-01" purity="2.3429934680461884e-01" nType="0">
              <Node pos="l" depth="4" NCoef="0" IVar="7" Cut="6.9907736778259277e-01" cType="1" res="-5.6150634773075581e-03" rms="3.0460911989212036e-01" purity="2.1681189537048340e-01" nType="0">
                <Node pos="l" depth="5" NCoef="0" IVar="-1" Cut="0.0000000000000000e+00" cType="1" res="-9.6585080027580261e-03" rms="3.3219444751739502e-01" purity="2.2446091473102570e-01" nType="-99"/>
                <Node pos="r" depth="5" NCoef="0" IVar="-1" Cut="0.0000000000000000e+00" cType="1" res="5.2575452718883753e-04" rms="2.9095575213432312e-01" purity="2.1333047747612000e-01" nType="-99"/>
              </Node>
              <Node pos="r" depth="4" NCoef="0" IVar="-1" Cut="0.0000000000000000e+00" cType="1" res="8.2753328606486320e-03" rms="3.2365566492080688e-01" purity="2.8946444392204285e-01" nType="-99"/>
            </Node>
            <Node pos="r" depth="3" NCoef="0" IVar="-1" Cut="0.0000000000000000e+00" cType="1" res="2.2357827052474022e-02" rms="2.9584676027297974e-01" purity="1.2976782023906708e-01" nType="-99"/>
          </Node>
          <Node pos="r" depth="2" NCoef="0" IVar="7" Cut="2.8512630462646484e+00" cType="1" res="-4.7677899710834026e-03" rms="3.0493205785751343e-01" purity="3.8911318778991699e-01" nType="0">
            <Node pos="l" depth="3" NCoef="0" IVar="9" Cut="4.9215638637542725e-01" cType="1" res="-6.0097984969615936e-03" rms="3.0861404538154602e-01" purity="4.0280181169509888e-01" nType="0">
              <Node pos="l" depth="4" NCoef="0" IVar="7" Cut="1.3908679783344269e-01" cType="1" res="-7.8849419951438904e-03" rms="3.0330884456634521e-01" purity="3.7296846508979797e-01" nType="0">
                <Node pos="l" depth="5" NCoef="0" IVar="-1" Cut="0.0000000000000000e+00" cType="1" res="3.4918603487312794e-03" rms="3.4282934665679932e-01" purity="4.0996384620666504e-01" nType="-99"/>
                <Node pos="r" depth="5" NCoef="0" IVar="-1" Cut="0.0000000000000000e+00" cType="1" res="-4.6867285855114460e-03" rms="3.0002400279045105e-01" purity="3.7012571096420288e-01" nType="-99"/>
              </Node>
              <Node pos="r" depth="4" NCoef="0" IVar="4" Cut="1.1703703308105469e+02" cType="1" res="9.1314112069085240e-04" rms="3.2736390829086304e-01" purity="5.1294511556625366e-01" nType="0">
                <Node pos="l" depth="5" NCoef="0" IVar="-1" Cut="0.0000000000000000e+00" cType="1" res="3.1055996660143137e-03" rms="3.3334958553314209e-01" purity="5.1119136810302734e-01" nType="-99"/>
                <Node pos="r" depth="5" NCoef="0" IVar="-1" Cut="0.0000000000000000e+00" cType="1" res="-6.7608854733407497e-03" rms="3.1221294403076172e-01" purity="5.1710742712020874e-01" nType="-99"/>
              </Node>
            </Node>
            <Node pos="r" depth="3" NCoef="0" IVar="9" Cut="1.3107796013355255e-01" cType="1" res="6.0606724582612514e-03" rms="2.7047601342201233e-01" purity="2.6976916193962097e-01" nType="0">
              <Node pos="l" depth="4" NCoef="0" IVar="-1" Cut="0.0000000000000000e+00" cType="1" res="-7.0465700700879097e-03" rms="2.3636603355407715e-01" purity="1.2896728515625000e-01" nType="-99"/>
              <Node pos="r" depth="4" NCoef="0" IVar="-1" Cut="0.0000000000000000e+00" cType="1" res="8.7572559714317322e-03" rms="2.9009246826171875e-01" purity="3.6152380704879761e-01" nType="-99"/>
            </Node>
          </Node>
        </Node>
        <Node pos="r" depth="1" NCoef="0" IVar="4" Cut="1.7502821350097656e+02" cType="1" res="2.3887408897280693e-03" rms="2.8576982021331787e-01" purity="7.1805810928344727e-01" nType="0">
          <Node pos="l" depth="2" NCoef="0" IVar="4" Cut="1.1201288604736328e+02" cType="1" res="3.8907784037292004e-03" rms="2.8597488999366760e-01" purity="7.6210451126098633e-01" nType="0">
            <Node pos="l" depth="3" NCoef="0" IVar="5" Cut="7.3920845031738281e+01" cType="1" res="-5.7883746922016144e-04" rms="3.0599248409271240e-01" purity="7.1839839220046997e-01" nType="0">
              <Node pos="l" depth="4" NCoef="0" IVar="-1" Cut="0.0000000000000000e+00" cType="1" res="-3.5685172770172358e-03" rms="3.3352556824684143e-01" purity="7.0646381378173828e-01" nType="-99"/>
              <Node pos="r" depth="4" NCoef="0" IVar="9" Cut="2.3884350061416626e-01" cType="1" res="2.4849348701536655e-03" rms="2.9421293735504150e-01" purity="7.2316819429397583e-01" nType="0">
                <Node pos="l" depth="5" NCoef="0" IVar="-1" Cut="0.0000000000000000e+00" cType="1" res="-4.3178582563996315e-03" rms="3.3422598242759705e-01" purity="4.8041576147079468e-01" nType="-99"/>
                <Node pos="r" depth="5" NCoef="0" IVar="-1" Cut="0.0000000000000000e+00" cType="1" res="3.3572330139577389e-03" rms="2.8300839662551880e-01" purity="7.8510212898254395e-01" nType="-99"/>
              </Node>
            </Node>
            <Node pos="r" depth="3" NCoef="0" IVar="3" Cut="1.0975610017776489e+00" cType="1" res="7.5653120875358582e-03" rms="2.6834654808044434e-01" purity="7.9803603887557983e-01" nType="0">
              <Node pos="l" depth="4" NCoef="0" IVar="0" Cut="1.0975610017776489e+00" cType="1" res="9.8597649484872818e-03" rms="2.6143249869346619e-01" purity="8.2503730058670044e-01" nType="0">
                <Node pos="l" depth="5" NCoef="0" IVar="-1" Cut="0.0000000000000000e+00" cType="1" res="9.1185308992862701e-03" rms="3.3638134598731995e-01" purity="5.0175499916076660e-01" nType="-99"/>
                <Node pos="r" depth="5" NCoef="0" IVar="-1" Cut="0.0000000000000000e+00" cType="1" res="5.7419305667281151e-03" rms="2.4189016222953796e-01" purity="8.9576882123947144e-01" nType="-99"/>
              </Node>
              <Node pos="r" depth="4" NCoef="0" IVar="-1" Cut="0.0000000000000000e+00" cType="1" res="-1.3774426188319921e-03" rms="2.9685491323471069e-01" purity="6.7832422256469727e-01" nType="-99"/>
            </Node>
          </Node>
          <Node pos="r" depth="2" NCoef="0" IVar="-1" Cut="0.0000000000000000e+00" cType="1" res="-7.8497892245650291e-03" rms="2.8276839852333069e-01" purity="2.0291456580162048e-01" nType="-99"/>
        </Node>
      </Node>
    </BinaryTree>
    <BinaryTree type="DecisionTree" boostWeight="1.0000000000000000e+00" itree="144">
      <Node pos="s" depth="0" NCoef="0" IVar="1" Cut="4.0243902206420898e+00" cType="1" res="-1.2480183504521847e-03" rms="2.9717561602592468e-01" purity="4.9959796667098999e-01" nType="0">
        <Node pos="l" depth="1" NCoef="0" IVar="6" Cut="1.0727387666702271e+00" cType="1" res="-3.6548441275954247e-03" rms="3.0486264824867249e-01" purity="3.5609254240989685e-01" nType="0">
          <Node pos="l" depth="2" NCoef="0" IVar="0" Cut="1.0975610017776489e+00" cType="1" res="-7.9294024035334587e-03" rms="2.9639589786529541e-01" purity="2.0951996743679047e-01" nType="0">
            <Node pos="l" depth="3" NCoef="0" IVar="3" Cut="1.0975610017776489e+00" cType="1" res="0.0000000000000000e+00" rms="0.0000000000000000e+00" purity="6.7220434546470642e-02" nType="0">
              <Node pos="l" depth="4" NCoef="0" IVar="4" Cut="1.0547459411621094e+02" cType="1" res="0.0000000000000000e+00" rms="0.0000000000000000e+00" purity="6.9346144795417786e-02" nType="0">
                <Node pos="l" depth="5" NCoef="0" IVar="-1" Cut="0.0000000000000000e+00" cType="1" res="-2.9877778142690659e-03" rms="2.4172200262546539e-01" purity="8.2177072763442993e-02" nType="-99"/>
                <Node pos="r" depth="5" NCoef="0" IVar="-1" Cut="0.0000000000000000e+00" cType="1" res="-1.0152637958526611e-02" rms="2.0368267595767975e-01" purity="5.7704254984855652e-02" nType="-99"/>
              </Node>
              <Node pos="r" depth="4" NCoef="0" IVar="-1" Cut="0.0000000000000000e+00" cType="1" res="1.9063875079154968e-02" rms="2.2899635136127472e-01" purity="6.3508823513984680e-02" nType="-99"/>
            </Node>
            <Node pos="r" depth="3" NCoef="0" IVar="5" Cut="9.8804626464843750e+01" cType="1" res="-1.6005301848053932e-02" rms="3.4833490848541260e-01" purity="3.3835792541503906e-01" nType="0">
              <Node pos="l" depth="4" NCoef="0" IVar="4" Cut="1.1151464843750000e+02" cType="1" res="-2.3263251408934593e-02" rms="3.6372300982475281e-01" purity="4.3987944722175598e-01" nType="0">
                <Node pos="l" depth="5" NCoef="0" IVar="-1" Cut="0.0000000000000000e+00" cType="1" res="-1.3954538851976395e-02" rms="3.6369583010673523e-01" purity="4.6456831693649292e-01" nType="-99"/>
                <Node pos="r" depth="5" NCoef="0" IVar="-1" Cut="0.0000000000000000e+00" cType="1" res="-3.3187980297952890e-03" rms="3.6309954524040222e-01" purity="4.1848641633987427e-01" nType="-99"/>
              </Node>
              <Node pos="r" depth="4" NCoef="0" IVar="-1" Cut="0.0000000000000000e+00" cType="1" res="-2.1156452130526304e-03" rms="3.2143953442573547e-01" purity="1.7353415489196777e-01" nType="-99"/>
            </Node>
          </Node>
          <Node pos="r" depth="2" NCoef="0" IVar="9" Cut="3.2972806692123413e-01" cType="1" res="-2.3565078154206276e-03" rms="3.0737635493278503e-01" purity="4.0061184763908386e-01" nType="0">
            <Node pos="l" depth="3" NCoef="0" IVar="6" Cut="2.0314757823944092e+00" cType="1" res="-5.6968014687299728e-03" rms="2.9449847340583801e-01" purity="2.8441768884658813e-01" nType="0">
              <Node pos="l" depth="4" NCoef="0" IVar="5" Cut="9.5361419677734375e+01" cType="1" res="2.1114686969667673e-03" rms="2.8158885240554810e-01" purity="1.8759828805923462e-01" nType="0">
                <Node pos="l" depth="5" NCoef="0" IVar="-1" Cut="0.0000000000000000e+00" cType="1" res="-2.4451136123389006e-03" rms="3.0918115377426147e-01" purity="2.6401111483573914e-01" nType="-99"/>
                <Node pos="r" depth="5" NCoef="0" IVar="-1" Cut="0.0000000000000000e+00" cType="1" res="8.9175719767808914e-03" rms="2.4756400287151337e-01" purity="1.0373867303133011e-01" nType="-99"/>
              </Node>
              <Node pos="r" depth="4" NCoef="0" IVar="5" Cut="5.8976215362548828e+01" cType="1" res="-9.7969640046358109e-03" rms="3.0097469687461853e-01" purity="3.3525806665420532e-01" nType="0">
                <Node pos="l" depth="5" NCoef="0" IVar="-1" Cut="0.0000000000000000e+00" cType="1" res="-1.3212240301072598e-02" rms="3.2315048575401306e-01" purity="2.2389380633831024e-01" nType="-99"/>
                <Node pos="r" depth="5" NCoef="0" IVar="-1" Cut="0.0000000000000000e+00" cType="1" res="-3.5769732203334570e-03" rms="2.9740211367607117e-01" purity="3.5193458199501038e-01" nType="-99"/>
              </Node>
            </Node>
            <Node pos="r" depth="3" NCoef="0" IVar="5" Cut="1.0948788452148438e+02" cType="1" res="1.2925083283334970e-03" rms="3.2081449031829834e-01" purity="5.2754515409469604e-01" nType="0">
              <Node pos="l" depth="4" NCoef="0" IVar="5" Cut="5.7216068267822266e+01" cType="1" res="5.7703093625605106e-03" rms="3.3099797368049622e-01" purity="5.9699124097824097e-01" nType="0">
                <Node pos="l" depth="5" NCoef="0" IVar="-1" Cut="0.0000000000000000e+00" cType="1" res="7.8423321247100830e-03" rms="3.7625700235366821e-01" purity="3.9136296510696411e-01" nType="-99"/>
                <Node pos="r" depth="5" NCoef="0" IVar="-1" Cut="0.0000000000000000e+00" cType="1" res="1.1422819225117564e-03" rms="3.1980550289154053e-01" purity="6.4339470863342285e-01" nType="-99"/>
              </Node>
              <Node pos="r" depth="4" NCoef="0" IVar="4" Cut="1.1166165161132812e+02" cType="1" res="-1.0878063738346100e-02" rms="2.9099509119987488e-01" purity="3.3879202604293823e-01" nType="0">
                <Node pos="l" depth="5" NCoef="0" IVar="-1" Cut="0.0000000000000000e+00" cType="1" res="-9.4147576019167900e-03" rms="2.8901660442352295e-01" purity="2.5600862503051758e-01" nType="-99"/>
                <Node pos="r" depth="5" NCoef="0" IVar="-1" Cut="0.0000000000000000e+00" cType="1" res="-2.0321896299719810e-03" rms="2.9294189810752869e-01" purity="4.2761239409446716e-01" nType="-99"/>
              </Node>
            </Node>
          </Node>
        </Node>
        <Node pos="r" depth="1" NCoef="0" IVar="5" Cut="5.5987991333007812e+01" cType="1" res="2.4534531403332949e-03" rms="2.8490960597991943e-01" purity="7.2029584646224976e-01" nType="0">
          <Node pos="l" depth="2" NCoef="0" IVar="-1" Cut="0.0000000000000000e+00" cType="1" res="-3.4945751540362835e-03" rms="3.5656678676605225e-01" purity="5.7775503396987915e-01" nType="-99"/>
          <Node pos="r" depth="2" NCoef="0" IVar="9" Cut="3.5727316141128540e-01" cType="1" res="3.7325813900679350e-03" rms="2.7563402056694031e-01" purity="7.3636895418167114e-01" nType="0">
            <Node pos="l" depth="3" NCoef="0" IVar="5" Cut="1.0165167236328125e+02" cType="1" res="5.6191300973296165e-04" rms="2.9768881201744080e-01" purity="6.3748490810394287e-01" nType="0">
              <Node pos="l" depth="4" NCoef="0" IVar="7" Cut="1.8787506818771362e+00" cType="1" res="4.9723917618393898e-03" rms="2.8640496730804443e-01" purity="7.4698489904403687e-01" nType="0">
                <Node pos="l" depth="5" NCoef="0" IVar="-1" Cut="0.0000000000000000e+00" cType="1" res="-4.6248867874965072e-04" rms="3.0739507079124451e-01" purity="7.2109377384185791e-01" nType="-99"/>
                <Node pos="r" depth="5" NCoef="0" IVar="-1" Cut="0.0000000000000000e+00" cType="1" res="8.2238521426916122e-03" rms="2.5595986843109131e-01" purity="7.8106886148452759e-01" nType="-99"/>
              </Node>
              <Node pos="r" depth="4" NCoef="0" IVar="7" Cut="1.4631667137145996e+00" cType="1" res="-9.1593191027641296e-03" rms="3.2094898819923401e-01" purity="3.9613348245620728e-01" nType="0">
                <Node pos="l" depth="5" NCoef="0" IVar="-1" Cut="0.0000000000000000e+00" cType="1" res="1.0985641274601221e-03" rms="3.5675302147865295e-01" purity="3.7675851583480835e-01" nType="-99"/>
                <Node pos="r" depth="5" NCoef="0" IVar="-1" Cut="0.0000000000000000e+00" cType="1" res="-1.0457420721650124e-02" rms="2.8270319104194641e-01" purity="4.1436526179313660e-01" nType="-99"/>
              </Node>
            </Node>
            <Node pos="r" depth="3" NCoef="0" IVar="0" Cut="1.0975610017776489e+00" cType="1" res="7.0422226563096046e-03" rms="2.5050732493400574e-01" purity="8.3958709239959717e-01" nType="0">
              <Node pos="l" depth="4" NCoef="0" IVar="-1" Cut="0.0000000000000000e+00" cType="1" res="-1.4269258826971054e-03" rms="3.5168924927711487e-01" purity="5.2285522222518921e-01" nType="-99"/>
              <Node pos="r" depth="4" NCoef="0" IVar="-1" Cut="0.0000000000000000e+00" cType="1" res="8.7242992594838142e-03" rms="2.1636655926704407e-01" purity="9.2224693298339844e-01" nType="-99"/>
            </Node>
          </Node>
        </Node>
      </Node>
    </BinaryTree>
    <BinaryTree type="DecisionTree" boostWeight="1.0000000000000000e+00" itree="145">
      <Node pos="s" depth="0" NCoef="0" IVar="5" Cut="8.7840217590332031e+01" cType="1" res="-4.8070363118313253e-04" rms="2.9739451408386230e-01" purity="4.9931043386459351e-01" nType="0">
        <Node pos="l" depth="1" NCoef="0" IVar="3" Cut="3.0487804412841797e+00" cType="1" res="1.8597815651446581e-03" rms="3.0577433109283447e-01" purity="5.9795647859573364e-01" nType="0">
          <Node pos="l" depth="2" NCoef="0" IVar="5" Cut="3.4531108856201172e+01" cType="1" res="3.5915416665375233e-03" rms="3.0376550555229187e-01" purity="6.4022302627563477e-01" nType="0">
            <Node pos="l" depth="3" NCoef="0" IVar="-1" Cut="0.0000000000000000e+00" cType="1" res="-8.8927103206515312e-03" rms="3.3663281798362732e-01" purity="2.9882478713989258e-01" nType="-99"/>
            <Node pos="r" depth="3" NCoef="0" IVar="7" Cut="5.3192681074142456e-01" cType="1" res="4.7836001031100750e-03" rms="3.0202254652976990e-01" purity="6.5685284137725830e-01" nType="0">
              <Node pos="l" depth="4" NCoef="0" IVar="1" Cut="1.0975610017776489e+00" cType="1" res="-3.0878025572746992e-03" rms="3.0478870868682861e-01" purity="6.9890475273132324e-01" nType="0">
                <Node pos="l" depth="5" NCoef="0" IVar="-1" Cut="0.0000000000000000e+00" cType="1" res="-7.0586986839771271e-03" rms="3.5991939902305603e-01" purity="4.3764907121658325e-01" nType="-99"/>
                <Node pos="r" depth="5" NCoef="0" IVar="-1" Cut="0.0000000000000000e+00" cType="1" res="2.8885933570563793e-03" rms="2.7297022938728333e-01" purity="8.2874500751495361e-01" nType="-99"/>
              </Node>
              <Node pos="r" depth="4" NCoef="0" IVar="8" Cut="1.9854298233985901e-01" cType="1" res="7.8121656551957130e-03" rms="3.0089664459228516e-01" purity="6.4067316055297852e-01" nType="0">
                <Node pos="l" depth="5" NCoef="0" IVar="-1" Cut="0.0000000000000000e+00" cType="1" res="-1.0364332702010870e-03" rms="3.1797000765800476e-01" purity="4.7241687774658203e-01" nType="-99"/>
                <Node pos="r" depth="5" NCoef="0" IVar="-1" Cut="0.0000000000000000e+00" cType="1" res="5.3367181681096554e-03" rms="2.9662534594535828e-01" purity="6.8084394931793213e-01" nType="-99"/>
              </Node>
            </Node>
          </Node>
          <Node pos="r" depth="2" NCoef="0" IVar="9" Cut="3.5389658808708191e-01" cType="1" res="-1.0652070865035057e-02" rms="3.1963461637496948e-01" purity="2.9258322715759277e-01" nType="0">
            <Node pos="l" depth="3" NCoef="0" IVar="-1" Cut="0.0000000000000000e+00" cType="1" res="-1.2593025341629982e-02" rms="2.8379893302917480e-01" purity="1.9937755167484283e-01" nType="-99"/>
            <Node pos="r" depth="3" NCoef="0" IVar="-1" Cut="0.0000000000000000e+00" cType="1" res="1.7571102362126112e-03" rms="3.5753214359283447e-01" purity="4.0499776601791382e-01" nType="-99"/>
          </Node>
        </Node>
        <Node pos="r" depth="1" NCoef="0" IVar="8" Cut="7.0191663503646851e-01" cType="1" res="-3.0159223824739456e-03" rms="2.8802111744880676e-01" purity="3.9245674014091492e-01" nType="0">
          <Node pos="l" depth="2" NCoef="0" IVar="8" Cut="4.4524797797203064e-01" cType="1" res="-1.6868507955223322e-03" rms="2.8560724854469299e-01" purity="3.9913791418075562e-01" nType="0">
            <Node pos="l" depth="3" NCoef="0" IVar="9" Cut="7.2032415866851807e-01" cType="1" res="-4.4512981548905373e-03" rms="2.7718332409858704e-01" purity="3.6121261119842529e-01" nType="0">
              <Node pos="l" depth="4" NCoef="0" IVar="9" Cut="5.6223827600479126e-01" cType="1" res="-3.2315554562956095e-03" rms="2.7616727352142334e-01" purity="3.6626410484313965e-01" nType="0">
                <Node pos="l" depth="5" NCoef="0" IVar="-1" Cut="0.0000000000000000e+00" cType="1" res="-2.8358111158013344e-03" rms="2.7333977818489075e-01" purity="3.4869790077209473e-01" nType="-99"/>
                <Node pos="r" depth="5" NCoef="0" IVar="-1" Cut="0.0000000000000000e+00" cType="1" res="5.0195069052278996e-03" rms="3.0193275213241577e-01" purity="5.3672391176223755e-01" nType="-99"/>
              </Node>
              <Node pos="r" depth="4" NCoef="0" IVar="-1" Cut="0.0000000000000000e+00" cType="1" res="-1.0942880995571613e-02" rms="2.8969815373420715e-01" purity="2.9499968886375427e-01" nType="-99"/>
            </Node>
            <Node pos="r" depth="3" NCoef="0" IVar="4" Cut="8.9718597412109375e+01" cType="1" res="9.2770475894212723e-03" rms="3.1658104062080383e-01" purity="5.4955106973648071e-01" nType="0">
              <Node pos="l" depth="4" NCoef="0" IVar="-1" Cut="0.0000000000000000e+00" cType="1" res="1.0777138173580170e-02" rms="3.6177664995193481e-01" purity="3.2689502835273743e-01" nType="-99"/>
              <Node pos="r" depth="4" NCoef="0" IVar="6" Cut="2.0688545703887939e+00" cType="1" res="4.1545727290213108e-03" rms="3.0054137110710144e-01" purity="6.2065011262893677e-01" nType="0">
                <Node pos="l" depth="5" NCoef="0" IVar="-1" Cut="0.0000000000000000e+00" cType="1" res="-3.1077601015567780e-03" rms="3.3460053801536560e-01" purity="4.4272896647453308e-01" nType="-99"/>
                <Node pos="r" depth="5" NCoef="0" IVar="-1" Cut="0.0000000000000000e+00" cType="1" res="7.1901618503034115e-03" rms="2.7364221215248108e-01" purity="7.4648618698120117e-01" nType="-99"/>
              </Node>
            </Node>
          </Node>
          <Node pos="r" depth="2" NCoef="0" IVar="-1" Cut="0.0000000000000000e+00" cType="1" res="-1.2347477488219738e-02" rms="3.2564017176628113e-01" purity="2.7844092249870300e-01" nType="-99"/>
        </Node>
      </Node>
    </BinaryTree>
    <BinaryTree type="DecisionTree" boostWeight="1.0000000000000000e+00" itree="146">
      <Node pos="s" depth="0" NCoef="0" IVar="9" Cut="2.3888449370861053e-01" cType="1" res="-2.1370338799897581e-04" rms="2.9799503087997437e-01" purity="4.9962371587753296e-01" nType="0">
        <Node pos="l" depth="1" NCoef="0" IVar="6" Cut="1.7623567581176758e+00" cType="1" res="-3.0380324460566044e-03" rms="2.8485646843910217e-01" purity="2.8755679726600647e-01" nType="0">
          <Node pos="l" depth="2" NCoef="0" IVar="8" Cut="4.6646723151206970e-01" cType="1" res="6.8442244082689285e-03" rms="2.7525249123573303e-01" purity="1.7215946316719055e-01" nType="0">
            <Node pos="l" depth="3" NCoef="0" IVar="6" Cut="9.8863619565963745e-01" cType="1" res="-3.8856777246110141e-04" rms="2.4435040354728699e-01" purity="1.3655626773834229e-01" nType="0">
              <Node pos="l" depth="4" NCoef="0" IVar="-1" Cut="0.0000000000000000e+00" cType="1" res="-6.0987323522567749e-03" rms="2.2210466861724854e-01" purity="1.0218878090381622e-01" nType="-99"/>
              <Node pos="r" depth="4" NCoef="0" IVar="-1" Cut="0.0000000000000000e+00" cType="1" res="4.4155437499284744e-03" rms="2.6447707414627075e-01" purity="1.7074240744113922e-01" nType="-99"/>
            </Node>
            <Node pos="r" depth="3" NCoef="0" IVar="-1" Cut="0.0000000000000000e+00" cType="1" res="1.1231910437345505e-02" rms="3.3119925856590271e-01" purity="2.4816744029521942e-01" nType="-99"/>
          </Node>
          <Node pos="r" depth="2" NCoef="0" IVar="7" Cut="2.4563601016998291e+00" cType="1" res="-9.7063397988677025e-03" rms="2.9096847772598267e-01" purity="3.6542412638664246e-01" nType="0">
            <Node pos="l" depth="3" NCoef="0" IVar="3" Cut="2.0731706619262695e+00" cType="1" res="-1.4350219629704952e-02" rms="3.0671164393424988e-01" purity="2.9435655474662781e-01" nType="0">
              <Node pos="l" depth="4" NCoef="0" IVar="4" Cut="1.0609217071533203e+02" cType="1" res="-2.0837554708123207e-02" rms="3.0957958102226257e-01" purity="3.3074945211410522e-01" nType="0">
                <Node pos="l" depth="5" NCoef="0" IVar="-1" Cut="0.0000000000000000e+00" cType="1" res="-1.6805149614810944e-02" rms="3.1893613934516907e-01" purity="2.6217281818389893e-01" nType="-99"/>
                <Node pos="r" depth="5" NCoef="0" IVar="-1" Cut="0.0000000000000000e+00" cType="1" res="-7.2781676426529884e-03" rms="3.0557256937026978e-01" purity="3.5797351598739624e-01" nType="-99"/>
              </Node>
              <Node pos="r" depth="4" NCoef="0" IVar="-1" Cut="0.0000000000000000e+00" cType="1" res="3.5939638037234545e-03" rms="2.9662492871284485e-01" purity="1.8028086423873901e-01" nType="-99"/>
            </Node>
            <Node pos="r" depth="3" NCoef="0" IVar="9" Cut="1.3995240628719330e-01" cType="1" res="-2.0926634315401316e-03" rms="2.6294973492622375e-01" purity="4.8193994164466858e-01" nType="0">
              <Node pos="l" depth="4" NCoef="0" IVar="-1" Cut="0.0000000000000000e+00" cType="1" res="-1.2020368129014969e-02" rms="2.7174612879753113e-01" purity="2.4547599256038666e-01" nType="-99"/>
              <Node pos="r" depth="4" NCoef="0" IVar="-1" Cut="0.0000000000000000e+00" cType="1" res="6.3266479410231113e-03" rms="2.5596362352371216e-01" purity="6.4231228828430176e-01" nType="-99"/>
            </Node>
          </Node>
        </Node>
        <Node pos="r" depth="1" NCoef="0" IVar="7" Cut="2.2003633975982666e+00" cType="1" res="9.4786955742165446e-04" rms="3.0322578549385071e-01" purity="5.8684134483337402e-01" nType="0">
          <Node pos="l" depth="2" NCoef="0" IVar="5" Cut="6.2584239959716797e+01" cType="1" res="-4.7684487071819603e-04" rms="3.0631077289581299e-01" purity="5.9674930572509766e-01" nType="0">
            <Node pos="l" depth="3" NCoef="0" IVar="4" Cut="1.3410327148437500e+02" cType="1" res="6.0458318330347538e-03" rms="3.6007851362228394e-01" purity="4.7150343656539917e-01" nType="0">
              <Node pos="l" depth="4" NCoef="0" IVar="6" Cut="1.7623631954193115e+00" cType="1" res="4.4992950279265642e-04" rms="3.5807919502258301e-01" purity="5.1831382513046265e-01" nType="0">
                <Node pos="l" depth="5" NCoef="0" IVar="-1" Cut="0.0000000000000000e+00" cType="1" res="-4.5974841341376305e-03" rms="3.5662537813186646e-01" purity="4.4103279709815979e-01" nType="-99"/>
                <Node pos="r" depth="5" NCoef="0" IVar="-1" Cut="0.0000000000000000e+00" cType="1" res="3.7943234201520681e-03" rms="3.5889726877212524e-01" purity="5.7676821947097778e-01" nType="-99"/>
              </Node>
              <Node pos="r" depth="4" NCoef="0" IVar="-1" Cut="0.0000000000000000e+00" cType="1" res="1.0703384876251221e-02" rms="3.6599275469779968e-01" purity="3.1701773405075073e-01" nType="-99"/>
            </Node>
            <Node pos="r" depth="3" NCoef="0" IVar="8" Cut="3.3121615648269653e-01" cType="1" res="-1.8654075684025884e-03" rms="2.9357737302780151e-01" purity="6.2341189384460449e-01" nType="0">
              <Node pos="l" depth="4" NCoef="0" IVar="6" Cut="2.6052227020263672e+00" cType="1" res="-5.5998885072767735e-03" rms="3.0544766783714294e-01" purity="4.7816744446754456e-01" nType="0">
                <Node pos="l" depth="5" NCoef="0" IVar="-1" Cut="0.0000000000000000e+00" cType="1" res="5.5606587557122111e-04" rms="3.0840718746185303e-01" purity="4.2177999019622803e-01" nType="-99"/>
                <Node pos="r" depth="5" NCoef="0" IVar="-1" Cut="0.0000000000000000e+00" cType="1" res="-1.0095368139445782e-02" rms="2.9875758290290833e-01" purity="5.9490948915481567e-01" nType="-99"/>
              </Node>
              <Node pos="r" depth="4" NCoef="0" IVar="7" Cut="1.1806594133377075e+00" cType="1" res="9.0270850341767073e-04" rms="2.8442764282226562e-01" purity="7.3107177019119263e-01" nType="0">
                <Node pos="l" depth="5" NCoef="0" IVar="-1" Cut="0.0000000000000000e+00" cType="1" res="-1.9600633531808853e-03" rms="2.9270750284194946e-01" purity="7.1786409616470337e-01" nType="-99"/>
                <Node pos="r" depth="5" NCoef="0" IVar="-1" Cut="0.0000000000000000e+00" cType="1" res="1.0735825635492802e-02" rms="2.5112032890319824e-01" purity="7.7946668863296509e-01" nType="-99"/>
              </Node>
            </Node>
          </Node>
          <Node pos="r" depth="2" NCoef="0" IVar="8" Cut="1.4217768609523773e-01" cType="1" res="1.4223315753042698e-02" rms="2.7245011925697327e-01" purity="4.9451935291290283e-01" nType="0">
            <Node pos="l" depth="3" NCoef="0" IVar="-1" Cut="0.0000000000000000e+00" cType="1" res="-6.9684623740613461e-03" rms="2.7521172165870667e-01" purity="2.3781587183475494e-01" nType="-99"/>
            <Node pos="r" depth="3" NCoef="0" IVar="-1" Cut="0.0000000000000000e+00" cType="1" res="1.8959671258926392e-02" rms="2.6879435777664185e-01" purity="6.8174308538436890e-01" nType="-99"/>
          </Node>
        </Node>
      </Node>
    </BinaryTree>
    <BinaryTree type="DecisionTree" boostWeight="1.0000000000000000e+00" itree="147">
      <Node pos="s" depth="0" NCoef="0" IVar="7" Cut="3.8593106269836426e+00" cType="1" res="1.0105884866788983e-03" rms="2.9827848076820374e-01" purity="5.0030308961868286e-01" nType="0">
        <Node pos="l" depth="1" NCoef="0" IVar="6" Cut="2.4519731998443604e+00" cType="1" res="5.6258012773469090e-04" rms="2.9899698495864868e-01" purity="5.0715351104736328e-01" nType="0">
          <Node pos="l" depth="2" NCoef="0" IVar="7" Cut="1.6002020835876465e+00" cType="1" res="-1.7008554423227906e-03" rms="3.0785182118415833e-01" purity="4.1506072878837585e-01" nType="0">
            <Node pos="l" depth="3" NCoef="0" IVar="9" Cut="2.4117770791053772e-01" cType="1" res="3.8423124351538718e-04" rms="3.2026198506355286e-01" purity="4.6383845806121826e-01" nType="0">
              <Node pos="l" depth="4" NCoef="0" IVar="6" Cut="2.0333392620086670e+00" cType="1" res="1.1079777963459492e-02" rms="3.0273994803428650e-01" purity="2.1720540523529053e-01" nType="0">
                <Node pos="l" depth="5" NCoef="0" IVar="-1" Cut="0.0000000000000000e+00" cType="1" res="1.0532390326261520e-02" rms="3.0103623867034912e-01" purity="1.9885945320129395e-01" nType="-99"/>
                <Node pos="r" depth="5" NCoef="0" IVar="-1" Cut="0.0000000000000000e+00" cType="1" res="-3.4892202820628881e-03" rms="3.0728828907012939e-01" purity="2.7420336008071899e-01" nType="-99"/>
              </Node>
              <Node pos="r" depth="4" NCoef="0" IVar="9" Cut="5.8362525701522827e-01" cType="1" res="-2.3721423931419849e-03" rms="3.2456728816032410e-01" purity="5.2739876508712769e-01" nType="0">
                <Node pos="l" depth="5" NCoef="0" IVar="-1" Cut="0.0000000000000000e+00" cType="1" res="-2.8316578827798367e-03" rms="3.2517534494400024e-01" purity="5.0591039657592773e-01" nType="-99"/>
                <Node pos="r" depth="5" NCoef="0" IVar="-1" Cut="0.0000000000000000e+00" cType="1" res="3.2594166696071625e-03" rms="3.2274946570396423e-01" purity="5.8479249477386475e-01" nType="-99"/>
              </Node>
            </Node>
            <Node pos="r" depth="3" NCoef="0" IVar="5" Cut="1.1331681060791016e+02" cType="1" res="-6.7463763989508152e-03" rms="2.7545291185379028e-01" purity="2.9702767729759216e-01" nType="0">
              <Node pos="l" depth="4" NCoef="0" IVar="5" Cut="9.8602485656738281e+01" cType="1" res="-3.4280321560800076e-03" rms="2.9563432931900024e-01" purity="3.7302190065383911e-01" nType="0">
                <Node pos="l" depth="5" NCoef="0" IVar="-1" Cut="0.0000000000000000e+00" cType="1" res="-3.4745915327221155e-03" rms="2.9794314503669739e-01" purity="4.0656214952468872e-01" nType="-99"/>
                <Node pos="r" depth="5" NCoef="0" IVar="-1" Cut="0.0000000000000000e+00" cType="1" res="9.0362494811415672e-03" rms="2.8311261534690857e-01" purity="2.0439881086349487e-01" nType="-99"/>
              </Node>
              <Node pos="r" depth="4" NCoef="0" IVar="2" Cut="1.0975610017776489e+00" cType="1" res="-1.5566357411444187e-02" rms="2.1244642138481140e-01" purity="9.5039077103137970e-02" nType="0">
                <Node pos="l" depth="5" NCoef="0" IVar="-1" Cut="0.0000000000000000e+00" cType="1" res="-1.3918961398303509e-02" rms="2.4812860786914825e-01" purity="1.3960963487625122e-01" nType="-99"/>
                <Node pos="r" depth="5" NCoef="0" IVar="-1" Cut="0.0000000000000000e+00" cType="1" res="-1.2046739459037781e-02" rms="1.5585853159427643e-01" purity="3.8822636008262634e-02" nType="-99"/>
              </Node>
            </Node>
          </Node>
          <Node pos="r" depth="2" NCoef="0" IVar="8" Cut="2.9075548052787781e-01" cType="1" res="4.0190010331571102e-03" rms="2.8490993380546570e-01" purity="6.4778548479080200e-01" nType="0">
            <Node pos="l" depth="3" NCoef="0" IVar="7" Cut="2.2591092586517334e+00" cType="1" res="-1.8904580501839519e-03" rms="2.9798763990402222e-01" purity="5.1946032047271729e-01" nType="0">
              <Node pos="l" depth="4" NCoef="0" IVar="5" Cut="8.0838584899902344e+01" cType="1" res="-8.3857122808694839e-03" rms="3.1315284967422485e-01" purity="4.5655679702758789e-01" nType="0">
                <Node pos="l" depth="5" NCoef="0" IVar="-1" Cut="0.0000000000000000e+00" cType="1" res="5.2627534605562687e-03" rms="3.3491602540016174e-01" purity="5.5021023750305176e-01" nType="-99"/>
                <Node pos="r" depth="5" NCoef="0" IVar="-1" Cut="0.0000000000000000e+00" cType="1" res="-9.9331568926572800e-03" rms="3.0076575279235840e-01" purity="4.0811648964881897e-01" nType="-99"/>
              </Node>
              <Node pos="r" depth="4" NCoef="0" IVar="-1" Cut="0.0000000000000000e+00" cType="1" res="5.1936022937297821e-03" rms="2.6940113306045532e-01" purity="6.2819457054138184e-01" nType="-99"/>
            </Node>
            <Node pos="r" depth="3" NCoef="0" IVar="5" Cut="6.9800018310546875e+01" cType="1" res="7.4579454958438873e-03" rms="2.7695745229721069e-01" purity="7.2246301174163818e-01" nType="0">
              <Node pos="l" depth="4" NCoef="0" IVar="-1" Cut="0.0000000000000000e+00" cType="1" res="-3.9873030036687851e-03" rms="3.3775329589843750e-01" purity="5.7783913612365723e-01" nType="-99"/>
              <Node pos="r" depth="4" NCoef="0" IVar="7" Cut="1.3177959918975830e+00" cType="1" res="1.1400932446122169e-02" rms="2.6067671179771423e-01" purity="7.5601661205291748e-01" nType="0">
                <Node pos="l" depth="5" NCoef="0" IVar="-1" Cut="0.0000000000000000e+00" cType="1" res="3.8325756322592497e-03" rms="2.6998093724250793e-01" purity="7.5726306438446045e-01" nType="-99"/>
                <Node pos="r" depth="5" NCoef="0" IVar="-1" Cut="0.0000000000000000e+00" cType="1" res="1.4466264285147190e-02" rms="2.4001111090183258e-01" purity="7.5344938039779663e-01" nType="-99"/>
              </Node>
            </Node>
          </Node>
        </Node>
        <Node pos="r" depth="1" NCoef="0" IVar="-1" Cut="0.0000000000000000e+00" cType="1" res="1.3456273823976517e-02" rms="2.6496860384941101e-01" purity="2.0682927966117859e-01" nType="-99"/>
      </Node>
    </BinaryTree>
    <BinaryTree type="DecisionTree" boostWeight="1.0000000000000000e+00" itree="148">
      <Node pos="s" depth="0" NCoef="0" IVar="8" Cut="1.1935800313949585e-01" cType="1" res="6.0185284382896498e-05" rms="2.9857787489891052e-01" purity="4.9858704209327698e-01" nType="0">
        <Node pos="l" depth="1" NCoef="0" IVar="1" Cut="3.0487804412841797e+00" cType="1" res="-9.8321810364723206e-03" rms="2.5087234377861023e-01" purity="1.5910807251930237e-01" nType="0">
          <Node pos="l" depth="2" NCoef="0" IVar="4" Cut="1.2280155944824219e+02" cType="1" res="-1.4337699394673109e-03" rms="2.3080480098724365e-01" purity="9.6202529966831207e-02" nType="0">
            <Node pos="l" depth="3" NCoef="0" IVar="-1" Cut="0.0000000000000000e+00" cType="1" res="5.6296591646969318e-03" rms="2.5597450137138367e-01" purity="1.3069605827331543e-01" nType="-99"/>
            <Node pos="r" depth="3" NCoef="0" IVar="-1" Cut="0.0000000000000000e+00" cType="1" res="-1.3967297039926052e-02" rms="1.9525749981403351e-01" purity="5.4160766303539276e-02" nType="-99"/>
          </Node>
          <Node pos="r" depth="2" NCoef="0" IVar="-1" Cut="0.0000000000000000e+00" cType="1" res="-1.3824871741235256e-02" rms="2.8930452466011047e-01" purity="2.9744189977645874e-01" nType="-99"/>
        </Node>
        <Node pos="r" depth="1" NCoef="0" IVar="4" Cut="4.6891128540039062e+01" cType="1" res="8.4654614329338074e-04" rms="3.0203306674957275e-01" purity="5.2557283639907837e-01" nType="0">
          <Node pos="l" depth="2" NCoef="0" IVar="5" Cut="9.1605033874511719e+01" cType="1" res="-1.1571443639695644e-02" rms="3.1318667531013489e-01" purity="1.7702732980251312e-01" nType="0">
            <Node pos="l" depth="3" NCoef="0" IVar="-1" Cut="0.0000000000000000e+00" cType="1" res="-6.4442004077136517e-03" rms="3.5363212227821350e-01" purity="2.5779566168785095e-01" nType="-99"/>
            <Node pos="r" depth="3" NCoef="0" IVar="-1" Cut="0.0000000000000000e+00" cType="1" res="-4.1655455715954304e-03" rms="2.6574754714965820e-01" purity="9.4973824918270111e-02" nType="-99"/>
          </Node>
          <Node pos="r" depth="2" NCoef="0" IVar="9" Cut="7.7193558216094971e-01" cType="1" res="1.4176280237734318e-03" rms="3.0149790644645691e-01" purity="5.4160183668136597e-01" nType="0">
            <Node pos="l" depth="3" NCoef="0" IVar="9" Cut="7.5475074350833893e-02" cType="1" res="1.9011573167517781e-03" rms="3.0094072222709656e-01" purity="5.4114311933517456e-01" nType="0">
              <Node pos="l" depth="4" NCoef="0" IVar="-1" Cut="0.0000000000000000e+00" cType="1" res="-1.1167014017701149e-02" rms="2.2718653082847595e-01" purity="7.3519796133041382e-02" nType="-99"/>
              <Node pos="r" depth="4" NCoef="0" IVar="7" Cut="3.1877787113189697e+00" cType="1" res="2.4270832072943449e-03" rms="3.0323970317840576e-01" purity="5.5791431665420532e-01" nType="0">
                <Node pos="l" depth="5" NCoef="0" IVar="-1" Cut="0.0000000000000000e+00" cType="1" res="8.3927146624773741e-04" rms="3.0353623628616333e-01" purity="5.5825823545455933e-01" nType="-99"/>
                <Node pos="r" depth="5" NCoef="0" IVar="-1" Cut="0.0000000000000000e+00" cType="1" res="1.4845770783722401e-02" rms="2.9232543706893921e-01" purity="5.4689055681228638e-01" nType="-99"/>
              </Node>
            </Node>
            <Node pos="r" depth="3" NCoef="0" IVar="-1" Cut="0.0000000000000000e+00" cType="1" res="-4.8466706648468971e-03" rms="3.1460723280906677e-01" purity="5.5283838510513306e-01" nType="-99"/>
          </Node>
        </Node>
      </Node>
    </BinaryTree>
    <BinaryTree type="DecisionTree" boostWeight="1.0000000000000000e+00" itree="149">
      <Node pos="s" depth="0" NCoef="0" IVar="5" Cut="6.6192222595214844e+01" cType="1" res="7.4454973218962550e-04" rms="2.9774710536003113e-01" purity="5.0150305032730103e-01" nType="0">
        <Node pos="l" depth="1" NCoef="0" IVar="7" Cut="2.2082397937774658e+00" cType="1" res="-3.1358439009636641e-03" rms="3.3712562918663025e-01" purity="4.1931670904159546e-01" nType="0">
          <Node pos="l" depth="2" NCoef="0" IVar="5" Cut="5.9592247009277344e+01" cType="1" res="-1.7100817058235407e-04" rms="3.4682536125183105e-01" purity="4.5170450210571289e-01" nType="0">
            <Node pos="l" depth="3" NCoef="0" IVar="4" Cut="1.4594136047363281e+02" cType="1" res="4.1604908183217049e-03" rms="3.5513395071029663e-01" purity="4.2011326551437378e-01" nType="0">
              <Node pos="l" depth="4" NCoef="0" IVar="2" Cut="1.0975610017776489e+00" cType="1" res="2.1776273206342012e-04" rms="3.6233347654342651e-01" purity="4.9084845185279846e-01" nType="0">
                <Node pos="l" depth="5" NCoef="0" IVar="-1" Cut="0.0000000000000000e+00" cType="1" res="-1.7759492620825768e-03" rms="3.7321025133132935e-01" purity="5.6842052936553955e-01" nType="-99"/>
                <Node pos="r" depth="5" NCoef="0" IVar="-1" Cut="0.0000000000000000e+00" cType="1" res="6.1065312474966049e-03" rms="3.3319354057312012e-01" purity="2.9663917422294617e-01" nType="-99"/>
              </Node>
              <Node pos="r" depth="4" NCoef="0" IVar="-1" Cut="0.0000000000000000e+00" cType="1" res="9.7624380141496658e-03" rms="3.2835119962692261e-01" purity="1.7278356850147247e-01" nType="-99"/>
            </Node>
            <Node pos="r" depth="3" NCoef="0" IVar="-1" Cut="0.0000000000000000e+00" cType="1" res="-5.8490983210504055e-03" rms="3.2180806994438171e-01" purity="5.4120671749114990e-01" nType="-99"/>
          </Node>
          <Node pos="r" depth="2" NCoef="0" IVar="-1" Cut="0.0000000000000000e+00" cType="1" res="-1.0822441428899765e-02" rms="2.7643212676048279e-01" purity="2.3908437788486481e-01" nType="-99"/>
        </Node>
        <Node pos="r" depth="1" NCoef="0" IVar="4" Cut="1.6307742309570312e+02" cType="1" res="1.6456187004223466e-03" rms="2.8782579302787781e-01" purity="5.2058762311935425e-01" nType="0">
          <Node pos="l" depth="2" NCoef="0" IVar="8" Cut="1.0251314193010330e-01" cType="1" res="2.7699638158082962e-03" rms="2.8933894634246826e-01" purity="5.7762748003005981e-01" nType="0">
            <Node pos="l" depth="3" NCoef="0" IVar="-1" Cut="0.0000000000000000e+00" cType="1" res="-6.6125304438173771e-03" rms="2.5914558768272400e-01" purity="1.7671747505664825e-01" nType="-99"/>
            <Node pos="r" depth="3" NCoef="0" IVar="7" Cut="2.7725777626037598e+00" cType="1" res="3.4639884252101183e-03" rms="2.9087212681770325e-01" purity="5.9938919544219971e-01" nType="0">
              <Node pos="l" depth="4" NCoef="0" IVar="9" Cut="1.2063320726156235e-01" cType="1" res="2.2790434304624796e-03" rms="2.9319363832473755e-01" purity="6.0537678003311157e-01" nType="0">
                <Node pos="l" depth="5" NCoef="0" IVar="-1" Cut="0.0000000000000000e+00" cType="1" res="1.0031261481344700e-02" rms="3.0652067065238953e-01" purity="1.7903423309326172e-01" nType="-99"/>
                <Node pos="r" depth="5" NCoef="0" IVar="-1" Cut="0.0000000000000000e+00" cType="1" res="8.4933795733377337e-04" rms="2.9249152541160583e-01" purity="6.2666594982147217e-01" nType="-99"/>
              </Node>
              <Node pos="r" depth="4" NCoef="0" IVar="9" Cut="1.3642503321170807e-01" cType="1" res="1.5854921191930771e-02" rms="2.6506528258323669e-01" purity="5.3677695989608765e-01" nType="0">
                <Node pos="l" depth="5" NCoef="0" IVar="-1" Cut="0.0000000000000000e+00" cType="1" res="-7.1796383708715439e-03" rms="2.7370166778564453e-01" purity="2.7104917168617249e-01" nType="-99"/>
                <Node pos="r" depth="5" NCoef="0" IVar="-1" Cut="0.0000000000000000e+00" cType="1" res="1.9554413855075836e-02" rms="2.5761961936950684e-01" purity="7.0900738239288330e-01" nType="-99"/>
              </Node>
            </Node>
          </Node>
          <Node pos="r" depth="2" NCoef="0" IVar="4" Cut="2.2455917358398438e+02" cType="1" res="-4.4997921213507652e-03" rms="2.7933058142662048e-01" purity="2.0882087945938110e-01" nType="0">
            <Node pos="l" depth="3" NCoef="0" IVar="3" Cut="1.0975610017776489e+00" cType="1" res="-7.7529526315629482e-03" rms="2.7918002009391785e-01" purity="2.0799127221107483e-01" nType="0">
              <Node pos="l" depth="4" NCoef="0" IVar="5" Cut="9.3648239135742188e+01" cType="1" res="-1.3496081344783306e-02" rms="2.8396207094192505e-01" purity="2.4050022661685944e-01" nType="0">
                <Node pos="l" depth="5" NCoef="0" IVar="-1" Cut="0.0000000000000000e+00" cType="1" res="-9.5276348292827606e-03" rms="3.2949548959732056e-01" purity="3.4458351135253906e-01" nType="-99"/>
                <Node pos="r" depth="5" NCoef="0" IVar="-1" Cut="0.0000000000000000e+00" cType="1" res="-4.4307252392172813e-03" rms="2.4858818948268890e-01" purity="1.7076197266578674e-01" nType="-99"/>
              </Node>
              <Node pos="r" depth="4" NCoef="0" IVar="-1" Cut="0.0000000000000000e+00" cType="1" res="3.0473438091576099e-03" rms="2.6850432157516479e-01" purity="1.3998442888259888e-01" nType="-99"/>
            </Node>
            <Node pos="r" depth="3" NCoef="0" IVar="-1" Cut="0.0000000000000000e+00" cType="1" res="3.8781405892223120e-03" rms="2.7955880761146545e-01" purity="2.1160505712032318e-01" nType="-99"/>
          </Node>
        </Node>
      </Node>
    </BinaryTree>
    <BinaryTree type="DecisionTree" boostWeight="1.0000000000000000e+00" itree="150">
      <Node pos="s" depth="0" NCoef="0" IVar="8" Cut="2.4030469357967377e-01" cType="1" res="1.7848283750936389e-03" rms="2.9951760172843933e-01" purity="5.0132513046264648e-01" nType="0">
        <Node pos="l" depth="1" NCoef="0" IVar="9" Cut="6.9556140899658203e-01" cType="1" res="-1.7575919628143311e-03" rms="2.8130155801773071e-01" purity="3.2867327332496643e-01" nType="0">
          <Node pos="l" depth="2" NCoef="0" IVar="7" Cut="1.0318343639373779e+00" cType="1" res="-1.7805810784921050e-04" rms="2.7981168031692505e-01" purity="3.2688942551612854e-01" nType="0">
            <Node pos="l" depth="3" NCoef="0" IVar="8" Cut="1.5291559696197510e-01" cType="1" res="9.0720811858773232e-03" rms="2.9794359207153320e-01" purity="2.8956729173660278e-01" nType="0">
              <Node pos="l" depth="4" NCoef="0" IVar="-1" Cut="0.0000000000000000e+00" cType="1" res="2.3397704586386681e-02" rms="2.9751569032669067e-01" purity="2.1154192090034485e-01" nType="-99"/>
              <Node pos="r" depth="4" NCoef="0" IVar="7" Cut="5.2849978208541870e-01" cType="1" res="-3.4941271878778934e-03" rms="2.9739743471145630e-01" purity="3.3050855994224548e-01" nType="0">
                <Node pos="l" depth="5" NCoef="0" IVar="-1" Cut="0.0000000000000000e+00" cType="1" res="-3.9577381685376167e-03" rms="2.9371657967567444e-01" purity="3.2380920648574829e-01" nType="-99"/>
                <Node pos="r" depth="5" NCoef="0" IVar="-1" Cut="0.0000000000000000e+00" cType="1" res="-1.6897224122658372e-04" rms="3.0109488964080811e-01" purity="3.3738437294960022e-01" nType="-99"/>
              </Node>
            </Node>
            <Node pos="r" depth="3" NCoef="0" IVar="4" Cut="1.2281790924072266e+02" cType="1" res="-3.1571045983582735e-03" rms="2.7365007996559143e-01" purity="3.3890914916992188e-01" nType="0">
              <Node pos="l" depth="4" NCoef="0" IVar="7" Cut="3.1269638538360596e+00" cType="1" res="2.7877760585397482e-03" rms="2.8582754731178284e-01" purity="4.1586464643478394e-01" nType="0">
                <Node pos="l" depth="5" NCoef="0" IVar="-1" Cut="0.0000000000000000e+00" cType="1" res="-1.0235664667561650e-03" rms="2.8914037346839905e-01" purity="4.1157019138336182e-01" nType="-99"/>
                <Node pos="r" depth="5" NCoef="0" IVar="-1" Cut="0.0000000000000000e+00" cType="1" res="8.0163544043898582e-03" rms="2.7710297703742981e-01" purity="4.2651280760765076e-01" nType="-99"/>
              </Node>
              <Node pos="r" depth="4" NCoef="0" IVar="8" Cut="1.9935654103755951e-01" cType="1" res="-1.0982992127537727e-02" rms="2.5653043389320374e-01" purity="2.3760437965393066e-01" nType="0">
                <Node pos="l" depth="5" NCoef="0" IVar="-1" Cut="0.0000000000000000e+00" cType="1" res="-1.2400788255035877e-02" rms="2.4696944653987885e-01" purity="1.8876686692237854e-01" nType="-99"/>
                <Node pos="r" depth="5" NCoef="0" IVar="-1" Cut="0.0000000000000000e+00" cType="1" res="4.2360848747193813e-03" rms="2.8145685791969299e-01" purity="3.7829557061195374e-01" nType="-99"/>
              </Node>
            </Node>
          </Node>
          <Node pos="r" depth="2" NCoef="0" IVar="-1" Cut="0.0000000000000000e+00" cType="1" res="-8.9525626972317696e-03" rms="2.9449519515037537e-01" purity="3.4540146589279175e-01" nType="-99"/>
        </Node>
        <Node pos="r" depth="1" NCoef="0" IVar="7" Cut="2.6177749633789062e+00" cType="1" res="3.1714162323623896e-03" rms="3.0634179711341858e-01" purity="5.6890523433685303e-01" nType="0">
          <Node pos="l" depth="2" NCoef="0" IVar="9" Cut="1.2085704505443573e-01" cType="1" res="2.5127325206995010e-03" rms="3.0778452754020691e-01" purity="5.7763558626174927e-01" nType="0">
            <Node pos="l" depth="3" NCoef="0" IVar="-1" Cut="0.0000000000000000e+00" cType="1" res="9.9916728213429451e-03" rms="2.8795188665390015e-01" purity="1.5926283597946167e-01" nType="-99"/>
            <Node pos="r" depth="3" NCoef="0" IVar="9" Cut="2.3794090747833252e-01" cType="1" res="1.7339102923870087e-03" rms="3.0888298153877258e-01" purity="6.0201156139373779e-01" nType="0">
              <Node pos="l" depth="4" NCoef="0" IVar="7" Cut="1.4046560525894165e+00" cType="1" res="-4.7065960243344307e-03" rms="3.2602894306182861e-01" purity="3.3012536168098450e-01" nType="0">
                <Node pos="l" depth="5" NCoef="0" IVar="-1" Cut="0.0000000000000000e+00" cType="1" res="1.1718401219695807e-03" rms="3.3858469128608704e-01" purity="3.0591213703155518e-01" nType="-99"/>
                <Node pos="r" depth="5" NCoef="0" IVar="-1" Cut="0.0000000000000000e+00" cType="1" res="-7.2246580384671688e-03" rms="3.0745732784271240e-01" purity="3.6375671625137329e-01" nType="-99"/>
              </Node>
              <Node pos="r" depth="4" NCoef="0" IVar="7" Cut="1.4046325683593750e+00" cType="1" res="3.2318870071321726e-03" rms="3.0473729968070984e-01" purity="6.6524875164031982e-01" nType="0">
                <Node pos="l" depth="5" NCoef="0" IVar="-1" Cut="0.0000000000000000e+00" cType="1" res="2.2490887204185128e-04" rms="3.1271928548812866e-01" purity="6.5515208244323730e-01" nType="-99"/>
                <Node pos="r" depth="5" NCoef="0" IVar="-1" Cut="0.0000000000000000e+00" cType="1" res="9.0937605127692223e-03" rms="2.6734626293182373e-01" purity="7.0870709419250488e-01" nType="-99"/>
              </Node>
            </Node>
          </Node>
          <Node pos="r" depth="2" NCoef="0" IVar="-1" Cut="0.0000000000000000e+00" cType="1" res="9.5864599570631981e-03" rms="2.7617228031158447e-01" purity="3.9746960997581482e-01" nType="-99"/>
        </Node>
      </Node>
    </BinaryTree>
    <BinaryTree type="DecisionTree" boostWeight="1.0000000000000000e+00" itree="151">
      <Node pos="s" depth="0" NCoef="0" IVar="9" Cut="1.1927695572376251e-01" cType="1" res="1.3762281741946936e-03" rms="2.9895174503326416e-01" purity="5.0023132562637329e-01" nType="0">
        <Node pos="l" depth="1" NCoef="0" IVar="7" Cut="2.2810106277465820e+00" cType="1" res="-8.7624546140432358e-03" rms="2.4697206914424896e-01" purity="1.2889544665813446e-01" nType="0">
          <Node pos="l" depth="2" NCoef="0" IVar="-1" Cut="0.0000000000000000e+00" cType="1" res="4.7120251692831516e-03" rms="2.6042658090591431e-01" purity="1.2233934551477432e-01" nType="-99"/>
          <Node pos="r" depth="2" NCoef="0" IVar="4" Cut="1.2859864807128906e+02" cType="1" res="-2.2466288879513741e-02" rms="2.3324596881866455e-01" purity="1.3484656810760498e-01" nType="0">
            <Node pos="l" depth="3" NCoef="0" IVar="-1" Cut="0.0000000000000000e+00" cType="1" res="-1.7656596377491951e-02" rms="2.6034298539161682e-01" purity="1.7666076123714447e-01" nType="-99"/>
            <Node pos="r" depth="3" NCoef="0" IVar="-1" Cut="0.0000000000000000e+00" cType="1" res="-1.2663965113461018e-02" rms="1.9953608512878418e-01" purity="8.9677669107913971e-02" nType="-99"/>
          </Node>
        </Node>
        <Node pos="r" depth="1" NCoef="0" IVar="7" Cut="7.0453149080276489e-01" cType="1" res="2.2592842578887939e-03" rms="3.0304121971130371e-01" purity="5.3257387876510620e-01" nType="0">
          <Node pos="l" depth="2" NCoef="0" IVar="8" Cut="5.9627491235733032e-01" cType="1" res="-9.6290634246543050e-04" rms="3.1532952189445496e-01" purity="5.6886041164398193e-01" nType="0">
            <Node pos="l" depth="3" NCoef="0" IVar="9" Cut="7.0050889253616333e-01" cType="1" res="-4.0565552189946175e-03" rms="3.0728578567504883e-01" purity="5.6344622373580933e-01" nType="0">
              <Node pos="l" depth="4" NCoef="0" IVar="6" Cut="1.3026095628738403e+00" cType="1" res="-6.1494037508964539e-03" rms="3.0432873964309692e-01" purity="5.6260138750076294e-01" nType="0">
                <Node pos="l" depth="5" NCoef="0" IVar="-1" Cut="0.0000000000000000e+00" cType="1" res="-1.4064249582588673e-02" rms="3.0930197238922119e-01" purity="2.5251331925392151e-01" nType="-99"/>
                <Node pos="r" depth="5" NCoef="0" IVar="-1" Cut="0.0000000000000000e+00" cType="1" res="-1.3599779922515154e-03" rms="3.0324590206146240e-01" purity="6.2101447582244873e-01" nType="-99"/>
              </Node>
              <Node pos="r" depth="4" NCoef="0" IVar="-1" Cut="0.0000000000000000e+00" cType="1" res="5.6710424832999706e-03" rms="3.2876124978065491e-01" purity="5.6996405124664307e-01" nType="-99"/>
            </Node>
            <Node pos="r" depth="3" NCoef="0" IVar="9" Cut="3.5190635919570923e-01" cType="1" res="1.1369737796485424e-02" rms="3.4526386857032776e-01" purity="5.9044402837753296e-01" nType="0">
              <Node pos="l" depth="4" NCoef="0" IVar="-1" Cut="0.0000000000000000e+00" cType="1" res="8.7284520268440247e-03" rms="3.5787957906723022e-01" purity="5.2317732572555542e-01" nType="-99"/>
              <Node pos="r" depth="4" NCoef="0" IVar="-1" Cut="0.0000000000000000e+00" cType="1" res="5.9963023522868752e-04" rms="3.3123636245727539e-01" purity="6.6092389822006226e-01" nType="-99"/>
            </Node>
          </Node>
          <Node pos="r" depth="2" NCoef="0" IVar="4" Cut="1.3436502075195312e+02" cType="1" res="4.1576270014047623e-03" rms="2.9554611444473267e-01" purity="5.1119565963745117e-01" nType="0">
            <Node pos="l" depth="3" NCoef="0" IVar="8" Cut="1.9288697838783264e-01" cType="1" res="6.9629186764359474e-03" rms="2.9748061299324036e-01" purity="5.8232915401458740e-01" nType="0">
              <Node pos="l" depth="4" NCoef="0" IVar="7" Cut="1.7928365468978882e+00" cType="1" res="3.8627401227131486e-04" rms="2.9792568087577820e-01" purity="3.7995967268943787e-01" nType="0">
                <Node pos="l" depth="5" NCoef="0" IVar="-1" Cut="0.0000000000000000e+00" cType="1" res="4.4820262119174004e-03" rms="3.1116867065429688e-01" purity="3.6248517036437988e-01" nType="-99"/>
                <Node pos="r" depth="5" NCoef="0" IVar="-1" Cut="0.0000000000000000e+00" cType="1" res="-2.0380893256515265e-03" rms="2.9082405567169189e-01" purity="3.8890483975410461e-01" nType="-99"/>
              </Node>
              <Node pos="r" depth="4" NCoef="0" IVar="7" Cut="2.4191977977752686e+00" cType="1" res="8.8534839451313019e-03" rms="2.9732561111450195e-01" purity="6.4050358533859253e-01" nType="0">
                <Node pos="l" depth="5" NCoef="0" IVar="-1" Cut="0.0000000000000000e+00" cType="1" res="3.8614452350884676e-03" rms="3.0199399590492249e-01" purity="6.3324874639511108e-01" nType="-99"/>
                <Node pos="r" depth="5" NCoef="0" IVar="-1" Cut="0.0000000000000000e+00" cType="1" res="1.2728143483400345e-02" rms="2.5667592883110046e-01" purity="6.9848394393920898e-01" nType="-99"/>
              </Node>
            </Node>
            <Node pos="r" depth="3" NCoef="0" IVar="6" Cut="2.2221016883850098e+00" cType="1" res="-3.5522442776709795e-03" rms="2.9002329707145691e-01" purity="3.1569731235504150e-01" nType="0">
              <Node pos="l" depth="4" NCoef="0" IVar="3" Cut="1.0975610017776489e+00" cType="1" res="-1.2058532796800137e-02" rms="2.7372834086418152e-01" purity="1.8976582586765289e-01" nType="0">
                <Node pos="l" depth="5" NCoef="0" IVar="-1" Cut="0.0000000000000000e+00" cType="1" res="-9.6791777759790421e-03" rms="2.8307396173477173e-01" purity="2.1633654832839966e-01" nType="-99"/>
                <Node pos="r" depth="5" NCoef="0" IVar="-1" Cut="0.0000000000000000e+00" cType="1" res="-3.4126444370485842e-04" rms="2.5108179450035095e-01" purity="1.3007150590419769e-01" nType="-99"/>
              </Node>
              <Node pos="r" depth="4" NCoef="0" IVar="7" Cut="1.7846179008483887e+00" cType="1" res="5.8264639228582382e-03" rms="3.0671525001525879e-01" purity="4.5454454421997070e-01" nType="0">
                <Node pos="l" depth="5" NCoef="0" IVar="-1" Cut="0.0000000000000000e+00" cType="1" res="-2.6186557952314615e-03" rms="3.1300935149192810e-01" purity="4.5203307271003723e-01" nType="-99"/>
                <Node pos="r" depth="5" NCoef="0" IVar="-1" Cut="0.0000000000000000e+00" cType="1" res="9.2467200011014938e-03" rms="2.9759803414344788e-01" purity="4.5784664154052734e-01" nType="-99"/>
              </Node>
            </Node>
          </Node>
        </Node>
      </Node>
    </BinaryTree>
    <BinaryTree type="DecisionTree" boostWeight="1.0000000000000000e+00" itree="152">
      <Node pos="s" depth="0" NCoef="0" IVar="9" Cut="3.6003825068473816e-01" cType="1" res="3.8218099507503211e-04" rms="2.9821941256523132e-01" purity="5.0032383203506470e-01" nType="0">
        <Node pos="l" depth="1" NCoef="0" IVar="6" Cut="1.3026111125946045e+00" cType="1" res="-1.9471009727567434e-03" rms="2.9701042175292969e-01" purity="3.9781206846237183e-01" nType="0">
          <Node pos="l" depth="2" NCoef="0" IVar="8" Cut="6.2272369861602783e-01" cType="1" res="6.5758991986513138e-03" rms="2.9197978973388672e-01" purity="2.0456491410732269e-01" nType="0">
            <Node pos="l" depth="3" NCoef="0" IVar="1" Cut="1.0975610017776489e+00" cType="1" res="2.7673493605107069e-03" rms="2.7643373608589172e-01" purity="1.7540544271469116e-01" nType="0">
              <Node pos="l" depth="4" NCoef="0" IVar="5" Cut="8.4916328430175781e+01" cType="1" res="9.7972583025693893e-03" rms="2.4483783543109894e-01" purity="8.2200974225997925e-02" nType="0">
                <Node pos="l" depth="5" NCoef="0" IVar="-1" Cut="0.0000000000000000e+00" cType="1" res="1.5075959265232086e-02" rms="2.9319453239440918e-01" purity="1.3108196854591370e-01" nType="-99"/>
                <Node pos="r" depth="5" NCoef="0" IVar="-1" Cut="0.0000000000000000e+00" cType="1" res="3.7258104421198368e-03" rms="2.1220210194587708e-01" purity="5.4417800158262253e-02" nType="-99"/>
              </Node>
              <Node pos="r" depth="4" NCoef="0" IVar="9" Cut="2.0218731462955475e-01" cType="1" res="-6.9711841642856598e-03" rms="3.1475108861923218e-01" purity="3.0452162027359009e-01" nType="0">
                <Node pos="l" depth="5" NCoef="0" IVar="-1" Cut="0.0000000000000000e+00" cType="1" res="1.5607903478667140e-03" rms="2.9985716938972473e-01" purity="2.3017269372940063e-01" nType="-99"/>
                <Node pos="r" depth="5" NCoef="0" IVar="-1" Cut="0.0000000000000000e+00" cType="1" res="-6.9726896472275257e-03" rms="3.2705420255661011e-01" purity="3.6995255947113037e-01" nType="-99"/>
              </Node>
            </Node>
            <Node pos="r" depth="3" NCoef="0" IVar="-1" Cut="0.0000000000000000e+00" cType="1" res="9.6081402152776718e-03" rms="3.4591159224510193e-01" purity="3.1901383399963379e-01" nType="-99"/>
          </Node>
          <Node pos="r" depth="2" NCoef="0" IVar="7" Cut="3.1991784572601318e+00" cType="1" res="-4.6847471967339516e-03" rms="2.9855668544769287e-01" purity="4.5988440513610840e-01" nType="0">
            <Node pos="l" depth="3" NCoef="0" IVar="8" Cut="1.6538065671920776e-01" cType="1" res="-6.0192993842065334e-03" rms="3.0052560567855835e-01" purity="4.6719911694526672e-01" nType="0">
              <Node pos="l" depth="4" NCoef="0" IVar="-1" Cut="0.0000000000000000e+00" cType="1" res="-1.6696345061063766e-02" rms="2.4524158239364624e-01" purity="1.4793115854263306e-01" nType="-99"/>
              <Node pos="r" depth="4" NCoef="0" IVar="7" Cut="2.2628319263458252e+00" cType="1" res="-4.6107275411486626e-03" rms="3.0510458350181580e-01" purity="4.9679097533226013e-01" nType="0">
                <Node pos="l" depth="5" NCoef="0" IVar="-1" Cut="0.0000000000000000e+00" cType="1" res="-3.6101343575865030e-03" rms="3.1515631079673767e-01" purity="4.7377672791481018e-01" nType="-99"/>
                <Node pos="r" depth="5" NCoef="0" IVar="-1" Cut="0.0000000000000000e+00" cType="1" res="3.7547345273196697e-03" rms="2.5927808880805969e-01" purity="5.9170204401016235e-01" nType="-99"/>
              </Node>
            </Node>
            <Node pos="r" depth="3" NCoef="0" IVar="6" Cut="2.4239406585693359e+00" cType="1" res="7.6217702589929104e-03" rms="2.7944767475128174e-01" purity="3.9243188500404358e-01" nType="0">
              <Node pos="l" depth="4" NCoef="0" IVar="-1" Cut="0.0000000000000000e+00" cType="1" res="3.4260300453752279e-03" rms="2.6865342259407043e-01" purity="2.9777115583419800e-01" nType="-99"/>
              <Node pos="r" depth="4" NCoef="0" IVar="-1" Cut="0.0000000000000000e+00" cType="1" res="4.9770232290029526e-03" rms="2.8969505429267883e-01" purity="4.8586502671241760e-01" nType="-99"/>
            </Node>
          </Node>
        </Node>
        <Node pos="r" depth="1" NCoef="0" IVar="6" Cut="2.2221024036407471e+00" cType="1" res="3.2618520781397820e-03" rms="2.9968231916427612e-01" purity="6.2705820798873901e-01" nType="0">
          <Node pos="l" depth="2" NCoef="0" IVar="4" Cut="1.6295269775390625e+02" cType="1" res="-1.6507251420989633e-03" rms="3.2020065188407898e-01" purity="5.2886450290679932e-01" nType="0">
            <Node pos="l" depth="3" NCoef="0" IVar="9" Cut="6.9354176521301270e-01" cType="1" res="3.5271261003799736e-04" rms="3.1924635171890259e-01" purity="5.6203484535217285e-01" nType="0">
              <Node pos="l" depth="4" NCoef="0" IVar="4" Cut="1.2615212249755859e+02" cType="1" res="-3.1977996695786715e-03" rms="3.1996712088584900e-01" purity="5.6114089488983154e-01" nType="0">
                <Node pos="l" depth="5" NCoef="0" IVar="-1" Cut="0.0000000000000000e+00" cType="1" res="-3.5539271775633097e-03" rms="3.1722816824913025e-01" purity="5.5254071950912476e-01" nType="-99"/>
                <Node pos="r" depth="5" NCoef="0" IVar="-1" Cut="0.0000000000000000e+00" cType="1" res="6.2844338826835155e-03" rms="3.3000916242599487e-01" purity="5.9494680166244507e-01" nType="-99"/>
              </Node>
              <Node pos="r" depth="4" NCoef="0" IVar="6" Cut="8.1296008825302124e-01" cType="1" res="1.1479219421744347e-02" rms="3.1671935319900513e-01" purity="5.6483632326126099e-01" nType="0">
                <Node pos="l" depth="5" NCoef="0" IVar="-1" Cut="0.0000000000000000e+00" cType="1" res="1.1153025552630424e-02" rms="3.4113857150077820e-01" purity="5.5876886844635010e-01" nType="-99"/>
                <Node pos="r" depth="5" NCoef="0" IVar="-1" Cut="0.0000000000000000e+00" cType="1" res="-3.3332931343466043e-04" rms="2.9378142952919006e-01" purity="5.7000440359115601e-01" nType="-99"/>
              </Node>
            </Node>
            <Node pos="r" depth="3" NCoef="0" IVar="-1" Cut="0.0000000000000000e+00" cType="1" res="-9.9424635991454124e-03" rms="3.2900026440620422e-01" purity="1.9387491047382355e-01" nType="-99"/>
          </Node>
          <Node pos="r" depth="2" NCoef="0" IVar="8" Cut="3.4650796651840210e-01" cType="1" res="8.9358426630496979e-03" rms="2.7396920323371887e-01" purity="7.4047112464904785e-01" nType="0">
            <Node pos="l" depth="3" NCoef="0" IVar="4" Cut="1.2857485961914062e+02" cType="1" res="2.7478911215439439e-04" rms="3.0878505110740662e-01" purity="6.1490517854690552e-01" nType="0">
              <Node pos="l" depth="4" NCoef="0" IVar="7" Cut="9.9227219820022583e-01" cType="1" res="7.3860720731317997e-03" rms="3.0086615681648254e-01" purity="6.5641367435455322e-01" nType="0">
                <Node pos="l" depth="5" NCoef="0" IVar="-1" Cut="0.0000000000000000e+00" cType="1" res="-1.1970509076490998e-03" rms="3.1109148263931274e-01" purity="6.5256613492965698e-01" nType="-99"/>
                <Node pos="r" depth="5" NCoef="0" IVar="-1" Cut="0.0000000000000000e+00" cType="1" res="9.0704616159200668e-03" rms="2.8994688391685486e-01" purity="6.6026270389556885e-01" nType="-99"/>
              </Node>
              <Node pos="r" depth="4" NCoef="0" IVar="-1" Cut="0.0000000000000000e+00" cType="1" res="-1.0928547009825706e-02" rms="3.3339431881904602e-01" purity="4.7241088747978210e-01" nType="-99"/>
            </Node>
            <Node pos="r" depth="3" NCoef="0" IVar="-1" Cut="0.0000000000000000e+00" cType="1" res="1.4278369955718517e-02" rms="2.2750864923000336e-01" purity="8.8353306055068970e-01" nType="-99"/>
          </Node>
        </Node>
      </Node>
    </BinaryTree>
    <BinaryTree type="DecisionTree" boostWeight="1.0000000000000000e+00" itree="153">
      <Node pos="s" depth="0" NCoef="0" IVar="6" Cut="1.5324889123439789e-01" cType="1" res="-3.8569585740333423e-05" rms="2.9777440428733826e-01" purity="5.0026839971542358e-01" nType="0">
        <Node pos="l" depth="1" NCoef="0" IVar="-1" Cut="0.0000000000000000e+00" cType="1" res="-1.0887213982641697e-02" rms="2.9571872949600220e-01" purity="2.5385743379592896e-01" nType="-99"/>
        <Node pos="r" depth="1" NCoef="0" IVar="4" Cut="4.1438964843750000e+01" cType="1" res="4.9448211211711168e-04" rms="2.9781177639961243e-01" purity="5.0694161653518677e-01" nType="0">
          <Node pos="l" depth="2" NCoef="0" IVar="-1" Cut="0.0000000000000000e+00" cType="1" res="-8.9177945628762245e-03" rms="3.0596226453781128e-01" purity="1.5226599574089050e-01" nType="-99"/>
          <Node pos="r" depth="2" NCoef="0" IVar="9" Cut="5.1605749130249023e-01" cType="1" res="1.0117823258042336e-03" rms="2.9755562543869019e-01" purity="5.1725006103515625e-01" nType="0">
            <Node pos="l" depth="3" NCoef="0" IVar="7" Cut="3.8593103885650635e+00" cType="1" res="-6.3320831395685673e-04" rms="2.9561573266983032e-01" purity="4.9261257052421570e-01" nType="0">
              <Node pos="l" depth="4" NCoef="0" IVar="1" Cut="4.0243902206420898e+00" cType="1" res="-1.1756878811866045e-03" rms="2.9650875926017761e-01" purity="5.0033146142959595e-01" nType="0">
                <Node pos="l" depth="5" NCoef="0" IVar="-1" Cut="0.0000000000000000e+00" cType="1" res="-1.7697752919048071e-03" rms="3.0099585652351379e-01" purity="3.5776624083518982e-01" nType="-99"/>
                <Node pos="r" depth="5" NCoef="0" IVar="-1" Cut="0.0000000000000000e+00" cType="1" res="1.1748091783374548e-03" rms="2.8964421153068542e-01" purity="7.1335703134536743e-01" nType="-99"/>
              </Node>
              <Node pos="r" depth="4" NCoef="0" IVar="-1" Cut="0.0000000000000000e+00" cType="1" res="1.2121602892875671e-02" rms="2.6151862740516663e-01" purity="2.2078149020671844e-01" nType="-99"/>
            </Node>
            <Node pos="r" depth="3" NCoef="0" IVar="4" Cut="1.4317605590820312e+02" cType="1" res="8.4496950730681419e-03" rms="3.0606320500373840e-01" purity="6.2864989042282104e-01" nType="0">
              <Node pos="l" depth="4" NCoef="0" IVar="9" Cut="8.7843072414398193e-01" cType="1" res="1.2325535528361797e-02" rms="3.0268844962120056e-01" purity="6.6984683275222778e-01" nType="0">
                <Node pos="l" depth="5" NCoef="0" IVar="-1" Cut="0.0000000000000000e+00" cType="1" res="7.7210986055433750e-03" rms="2.9991397261619568e-01" purity="6.9938796758651733e-01" nType="-99"/>
                <Node pos="r" depth="5" NCoef="0" IVar="-1" Cut="0.0000000000000000e+00" cType="1" res="-1.2025672476738691e-03" rms="3.1939205527305603e-01" purity="4.8171311616897583e-01" nType="-99"/>
              </Node>
              <Node pos="r" depth="4" NCoef="0" IVar="-1" Cut="0.0000000000000000e+00" cType="1" res="-9.0712485834956169e-03" rms="3.2876822352409363e-01" purity="3.2049953937530518e-01" nType="-99"/>
            </Node>
          </Node>
        </Node>
      </Node>
    </BinaryTree>
    <BinaryTree type="DecisionTree" boostWeight="1.0000000000000000e+00" itree="154">
      <Node pos="s" depth="0" NCoef="0" IVar="5" Cut="1.4200119018554688e+02" cType="1" res="1.0854636784642935e-03" rms="2.9898527264595032e-01" purity="5.0054293870925903e-01" nType="0">
        <Node pos="l" depth="1" NCoef="0" IVar="4" Cut="4.1088027954101562e+01" cType="1" res="1.7579864943400025e-03" rms="3.0119547247886658e-01" purity="5.1857453584671021e-01" nType="0">
          <Node pos="l" depth="2" NCoef="0" IVar="-1" Cut="0.0000000000000000e+00" cType="1" res="-5.7150116190314293e-03" rms="3.1286528706550598e-01" purity="1.7356809973716736e-01" nType="-99"/>
          <Node pos="r" depth="2" NCoef="0" IVar="0" Cut="3.0487804412841797e+00" cType="1" res="2.1393611095845699e-03" rms="3.0084872245788574e-01" purity="5.2837169170379639e-01" nType="0">
            <Node pos="l" depth="3" NCoef="0" IVar="5" Cut="7.5657005310058594e+01" cType="1" res="-5.7649594964459538e-04" rms="2.8280559182167053e-01" purity="3.0889323353767395e-01" nType="0">
              <Node pos="l" depth="4" NCoef="0" IVar="3" Cut="3.0487804412841797e+00" cType="1" res="-6.1461478471755981e-03" rms="3.0049040913581848e-01" purity="2.8375634551048279e-01" nType="0">
                <Node pos="l" depth="5" NCoef="0" IVar="-1" Cut="0.0000000000000000e+00" cType="1" res="-1.3888253597542644e-03" rms="3.0868372321128845e-01" purity="3.1784898042678833e-01" nType="-99"/>
                <Node pos="r" depth="5" NCoef="0" IVar="-1" Cut="0.0000000000000000e+00" cType="1" res="-1.2996155768632889e-02" rms="2.6130187511444092e-01" purity="1.3519136607646942e-01" nType="-99"/>
              </Node>
              <Node pos="r" depth="4" NCoef="0" IVar="2" Cut="1.0975610017776489e+00" cType="1" res="2.0445398986339569e-03" rms="2.7404952049255371e-01" purity="3.2072249054908752e-01" nType="0">
                <Node pos="l" depth="5" NCoef="0" IVar="-1" Cut="0.0000000000000000e+00" cType="1" res="3.2560317777097225e-03" rms="3.0529808998107910e-01" purity="4.4559976458549500e-01" nType="-99"/>
                <Node pos="r" depth="5" NCoef="0" IVar="-1" Cut="0.0000000000000000e+00" cType="1" res="-4.3090539984405041e-03" rms="2.1741995215415955e-01" purity="1.2924249470233917e-01" nType="-99"/>
              </Node>
            </Node>
            <Node pos="r" depth="3" NCoef="0" IVar="8" Cut="7.4700462818145752e-01" cType="1" res="4.2073773220181465e-03" rms="3.1387731432914734e-01" purity="6.9549572467803955e-01" nType="0">
              <Node pos="l" depth="4" NCoef="0" IVar="4" Cut="9.7137512207031250e+01" cType="1" res="3.2032367307692766e-03" rms="3.0875915288925171e-01" purity="7.0054143667221069e-01" nType="0">
                <Node pos="l" depth="5" NCoef="0" IVar="-1" Cut="0.0000000000000000e+00" cType="1" res="-2.0742281340062618e-03" rms="3.4691396355628967e-01" purity="6.1364942789077759e-01" nType="-99"/>
                <Node pos="r" depth="5" NCoef="0" IVar="-1" Cut="0.0000000000000000e+00" cType="1" res="3.2718447037041187e-03" rms="2.9538482427597046e-01" purity="7.2850430011749268e-01" nType="-99"/>
              </Node>
              <Node pos="r" depth="4" NCoef="0" IVar="-1" Cut="0.0000000000000000e+00" cType="1" res="6.8978150375187397e-03" rms="3.7958905100822449e-01" purity="6.2299209833145142e-01" nType="-99"/>
            </Node>
          </Node>
        </Node>
        <Node pos="r" depth="1" NCoef="0" IVar="6" Cut="2.4519741535186768e+00" cType="1" res="-6.7286081612110138e-03" rms="2.7186948060989380e-01" purity="2.9103332757949829e-01" nType="0">
          <Node pos="l" depth="2" NCoef="0" IVar="8" Cut="2.9465717077255249e-01" cType="1" res="-1.6196597367525101e-02" rms="2.5948610901832581e-01" purity="1.3540247082710266e-01" nType="0">
            <Node pos="l" depth="3" NCoef="0" IVar="-1" Cut="0.0000000000000000e+00" cType="1" res="-6.6231456585228443e-03" rms="2.1841576695442200e-01" purity="9.6913874149322510e-02" nType="-99"/>
            <Node pos="r" depth="3" NCoef="0" IVar="-1" Cut="0.0000000000000000e+00" cType="1" res="-1.4414352364838123e-02" rms="3.0400869250297546e-01" purity="1.8506190180778503e-01" nType="-99"/>
          </Node>
          <Node pos="r" depth="2" NCoef="0" IVar="-1" Cut="0.0000000000000000e+00" cType="1" res="3.6501688882708549e-03" rms="2.8790935873985291e-01" purity="5.1061350107192993e-01" nType="-99"/>
        </Node>
      </Node>
    </BinaryTree>
    <BinaryTree type="DecisionTree" boostWeight="1.0000000000000000e+00" itree="155">
      <Node pos="s" depth="0" NCoef="0" IVar="9" Cut="3.4582960605621338e-01" cType="1" res="1.5248593990691006e-04" rms="2.9719588160514832e-01" purity="5.0201594829559326e-01" nType="0">
        <Node pos="l" depth="1" NCoef="0" IVar="7" Cut="5.7025349140167236e-01" cType="1" res="-2.6641809381544590e-03" rms="2.9503837227821350e-01" purity="3.8704019784927368e-01" nType="0">
          <Node pos="l" depth="2" NCoef="0" IVar="5" Cut="1.0254383087158203e+02" cType="1" res="4.0318123064935207e-03" rms="3.3045053482055664e-01" purity="3.6841157078742981e-01" nType="0">
            <Node pos="l" depth="3" NCoef="0" IVar="8" Cut="6.0205906629562378e-01" cType="1" res="-7.3709650896489620e-03" rms="3.3370140194892883e-01" purity="4.5741450786590576e-01" nType="0">
              <Node pos="l" depth="4" NCoef="0" IVar="5" Cut="7.6328918457031250e+01" cType="1" res="-1.9025990739464760e-02" rms="3.2850345969200134e-01" purity="3.9608123898506165e-01" nType="0">
                <Node pos="l" depth="5" NCoef="0" IVar="-1" Cut="0.0000000000000000e+00" cType="1" res="-5.5580195039510727e-03" rms="3.3396461606025696e-01" purity="3.9824128150939941e-01" nType="-99"/>
                <Node pos="r" depth="5" NCoef="0" IVar="-1" Cut="0.0000000000000000e+00" cType="1" res="-1.3140391558408737e-02" rms="3.2287669181823730e-01" purity="3.9395952224731445e-01" nType="-99"/>
              </Node>
              <Node pos="r" depth="4" NCoef="0" IVar="-1" Cut="0.0000000000000000e+00" cType="1" res="5.6280842982232571e-03" rms="3.4173575043678284e-01" purity="5.6597876548767090e-01" nType="-99"/>
            </Node>
            <Node pos="r" depth="3" NCoef="0" IVar="-1" Cut="0.0000000000000000e+00" cType="1" res="1.4288476668298244e-02" rms="3.2364919781684875e-01" purity="2.1120893955230713e-01" nType="-99"/>
          </Node>
          <Node pos="r" depth="2" NCoef="0" IVar="3" Cut="4.0243902206420898e+00" cType="1" res="-4.2653009295463562e-03" rms="2.8589850664138794e-01" purity="3.9149457216262817e-01" nType="0">
            <Node pos="l" depth="3" NCoef="0" IVar="7" Cut="3.5536477565765381e+00" cType="1" res="-2.5422135367989540e-03" rms="2.9125532507896423e-01" purity="4.3366557359695435e-01" nType="0">
              <Node pos="l" depth="4" NCoef="0" IVar="9" Cut="2.7852910757064819e-01" cType="1" res="-3.7477305158972740e-03" rms="2.9289105534553528e-01" purity="4.4530719518661499e-01" nType="0">
                <Node pos="l" depth="5" NCoef="0" IVar="-1" Cut="0.0000000000000000e+00" cType="1" res="-3.5501990932971239e-03" rms="2.9308828711509705e-01" purity="3.8187524676322937e-01" nType="-99"/>
                <Node pos="r" depth="5" NCoef="0" IVar="-1" Cut="0.0000000000000000e+00" cType="1" res="1.7335237935185432e-03" rms="2.9227951169013977e-01" purity="6.0506069660186768e-01" nType="-99"/>
              </Node>
              <Node pos="r" depth="4" NCoef="0" IVar="-1" Cut="0.0000000000000000e+00" cType="1" res="6.5226214937865734e-03" rms="2.7171856164932251e-01" purity="3.0212134122848511e-01" nType="-99"/>
            </Node>
            <Node pos="r" depth="3" NCoef="0" IVar="7" Cut="1.8958681821823120e+00" cType="1" res="-1.4660324901342392e-02" rms="2.5091892480850220e-01" purity="1.3708572089672089e-01" nType="0">
              <Node pos="l" depth="4" NCoef="0" IVar="-1" Cut="0.0000000000000000e+00" cType="1" res="-4.2781638912856579e-03" rms="2.8148436546325684e-01" purity="1.5524172782897949e-01" nType="-99"/>
              <Node pos="r" depth="4" NCoef="0" IVar="-1" Cut="0.0000000000000000e+00" cType="1" res="-1.7728017643094063e-02" rms="2.1138948202133179e-01" purity="1.1685451120138168e-01" nType="-99"/>
            </Node>
          </Node>
        </Node>
        <Node pos="r" depth="1" NCoef="0" IVar="7" Cut="4.1094833612442017e-01" cType="1" res="3.2180929556488991e-03" rms="2.9949632287025452e-01" purity="6.2715345621109009e-01" nType="0">
          <Node pos="l" depth="2" NCoef="0" IVar="8" Cut="2.3945757746696472e-01" cType="1" res="-3.9465953595936298e-03" rms="3.0507609248161316e-01" purity="6.6048657894134521e-01" nType="0">
            <Node pos="l" depth="3" NCoef="0" IVar="-1" Cut="0.0000000000000000e+00" cType="1" res="7.8353863209486008e-03" rms="3.2646670937538147e-01" purity="4.4243514537811279e-01" nType="-99"/>
            <Node pos="r" depth="3" NCoef="0" IVar="6" Cut="9.9611955881118774e-01" cType="1" res="-7.2897938080132008e-03" rms="3.0117079615592957e-01" purity="6.9745725393295288e-01" nType="0">
              <Node pos="l" depth="4" NCoef="0" IVar="-1" Cut="0.0000000000000000e+00" cType="1" res="-1.0327649302780628e-02" rms="3.6438259482383728e-01" purity="4.3640372157096863e-01" nType="-99"/>
              <Node pos="r" depth="4" NCoef="0" IVar="9" Cut="4.7084993124008179e-01" cType="1" res="-3.3283596858382225e-03" rms="2.8563785552978516e-01" purity="7.5346457958221436e-01" nType="0">
                <Node pos="l" depth="5" NCoef="0" IVar="-1" Cut="0.0000000000000000e+00" cType="1" res="-5.5998498573899269e-03" rms="2.9720714688301086e-01" purity="7.2188097238540649e-01" nType="-99"/>
                <Node pos="r" depth="5" NCoef="0" IVar="-1" Cut="0.0000000000000000e+00" cType="1" res="1.5881948638707399e-03" rms="2.7507978677749634e-01" purity="7.8082859516143799e-01" nType="-99"/>
              </Node>
            </Node>
          </Node>
          <Node pos="r" depth="2" NCoef="0" IVar="0" Cut="2.0731706619262695e+00" cType="1" res="6.1306320130825043e-03" rms="2.9714873433113098e-01" purity="6.1360311508178711e-01" nType="0">
            <Node pos="l" depth="3" NCoef="0" IVar="2" Cut="4.0243902206420898e+00" cType="1" res="-1.4477433869615197e-03" rms="2.9835769534111023e-01" purity="3.1376838684082031e-01" nType="0">
              <Node pos="l" depth="4" NCoef="0" IVar="3" Cut="2.0731706619262695e+00" cType="1" res="2.4274897295981646e-03" rms="3.3211305737495422e-01" purity="4.0753105282783508e-01" nType="0">
                <Node pos="l" depth="5" NCoef="0" IVar="-1" Cut="0.0000000000000000e+00" cType="1" res="3.0887916218489408e-03" rms="3.4055143594741821e-01" purity="4.7240513563156128e-01" nType="-99"/>
                <Node pos="r" depth="5" NCoef="0" IVar="-1" Cut="0.0000000000000000e+00" cType="1" res="-5.4996041581034660e-03" rms="3.0811348557472229e-01" purity="2.3478583991527557e-01" nType="-99"/>
              </Node>
              <Node pos="r" depth="4" NCoef="0" IVar="-1" Cut="0.0000000000000000e+00" cType="1" res="-1.7592983320355415e-02" rms="1.5807086229324341e-01" purity="3.2456684857606888e-02" nType="-99"/>
            </Node>
            <Node pos="r" depth="3" NCoef="0" IVar="6" Cut="2.2220964431762695e+00" cType="1" res="1.0213018395006657e-02" rms="2.9641515016555786e-01" purity="7.7512067556381226e-01" nType="0">
              <Node pos="l" depth="4" NCoef="0" IVar="2" Cut="1.0975610017776489e+00" cType="1" res="5.3529557771980762e-03" rms="3.2604151964187622e-01" purity="7.0078772306442261e-01" nType="0">
                <Node pos="l" depth="5" NCoef="0" IVar="-1" Cut="0.0000000000000000e+00" cType="1" res="4.5803217217326164e-03" rms="3.2536828517913818e-01" purity="7.8034579753875732e-01" nType="-99"/>
                <Node pos="r" depth="5" NCoef="0" IVar="-1" Cut="0.0000000000000000e+00" cType="1" res="-5.1863105036318302e-03" rms="3.2789900898933411e-01" purity="4.1260063648223877e-01" nType="-99"/>
              </Node>
              <Node pos="r" depth="4" NCoef="0" IVar="-1" Cut="0.0000000000000000e+00" cType="1" res="9.6174161881208420e-03" rms="2.6539257168769836e-01" purity="8.4519851207733154e-01" nType="-99"/>
            </Node>
          </Node>
        </Node>
      </Node>
    </BinaryTree>
    <BinaryTree type="DecisionTree" boostWeight="1.0000000000000000e+00" itree="156">
      <Node pos="s" depth="0" NCoef="0" IVar="6" Cut="1.5324866771697998e-01" cType="1" res="8.5037987446412444e-04" rms="2.9872953891754150e-01" purity="4.9928027391433716e-01" nType="0">
        <Node pos="l" depth="1" NCoef="0" IVar="-1" Cut="0.0000000000000000e+00" cType="1" res="9.0677570551633835e-03" rms="3.2922649383544922e-01" purity="2.8546762466430664e-01" nType="-99"/>
        <Node pos="r" depth="1" NCoef="0" IVar="0" Cut="3.0487804412841797e+00" cType="1" res="3.9252839633263648e-04" rms="2.9780611395835876e-01" purity="5.0534552335739136e-01" nType="0">
          <Node pos="l" depth="2" NCoef="0" IVar="9" Cut="3.4939062595367432e-01" cType="1" res="-3.0457221437245607e-03" rms="2.7503561973571777e-01" purity="2.8860852122306824e-01" nType="0">
            <Node pos="l" depth="3" NCoef="0" IVar="9" Cut="2.8125438094139099e-01" cType="1" res="-6.6475975327193737e-03" rms="2.4810445308685303e-01" purity="2.0307238399982452e-01" nType="0">
              <Node pos="l" depth="4" NCoef="0" IVar="6" Cut="1.7567481994628906e+00" cType="1" res="-9.2733800411224365e-03" rms="2.3336960375308990e-01" purity="1.6300319135189056e-01" nType="0">
                <Node pos="l" depth="5" NCoef="0" IVar="-1" Cut="0.0000000000000000e+00" cType="1" res="-2.1496955305337906e-03" rms="2.1627679467201233e-01" purity="8.3275526762008667e-02" nType="-99"/>
                <Node pos="r" depth="5" NCoef="0" IVar="-1" Cut="0.0000000000000000e+00" cType="1" res="-9.3217305839061737e-03" rms="2.4437403678894043e-01" purity="2.1816121041774750e-01" nType="-99"/>
              </Node>
              <Node pos="r" depth="4" NCoef="0" IVar="7" Cut="7.6456528902053833e-01" cType="1" res="1.3468748657032847e-03" rms="2.8821989893913269e-01" purity="3.2506728172302246e-01" nType="0">
                <Node pos="l" depth="5" NCoef="0" IVar="-1" Cut="0.0000000000000000e+00" cType="1" res="-5.6530903093516827e-03" rms="3.0493414402008057e-01" purity="2.7431747317314148e-01" nType="-99"/>
                <Node pos="r" depth="5" NCoef="0" IVar="-1" Cut="0.0000000000000000e+00" cType="1" res="4.3306383304297924e-03" rms="2.7918365597724915e-01" purity="3.5078746080398560e-01" nType="-99"/>
              </Node>
            </Node>
            <Node pos="r" depth="3" NCoef="0" IVar="7" Cut="1.0555378198623657e+00" cType="1" res="1.7705197678878903e-03" rms="3.0731549859046936e-01" purity="4.0298303961753845e-01" nType="0">
              <Node pos="l" depth="4" NCoef="0" IVar="4" Cut="8.1858078002929688e+01" cType="1" res="-2.3544386494904757e-03" rms="3.1857684254646301e-01" purity="4.3617105484008789e-01" nType="0">
                <Node pos="l" depth="5" NCoef="0" IVar="-1" Cut="0.0000000000000000e+00" cType="1" res="3.8379936013370752e-03" rms="3.4159544110298157e-01" purity="2.7029320597648621e-01" nType="-99"/>
                <Node pos="r" depth="5" NCoef="0" IVar="-1" Cut="0.0000000000000000e+00" cType="1" res="-3.7890251260250807e-03" rms="3.0725660920143127e-01" purity="5.1258248090744019e-01" nType="-99"/>
              </Node>
              <Node pos="r" depth="4" NCoef="0" IVar="8" Cut="1.5746964514255524e-01" cType="1" res="8.8468147441744804e-03" rms="2.8683122992515564e-01" purity="3.4604945778846741e-01" nType="0">
                <Node pos="l" depth="5" NCoef="0" IVar="-1" Cut="0.0000000000000000e+00" cType="1" res="-5.5612404830753803e-03" rms="2.4751995503902435e-01" purity="1.1967062205076218e-01" nType="-99"/>
                <Node pos="r" depth="5" NCoef="0" IVar="-1" Cut="0.0000000000000000e+00" cType="1" res="8.1907995045185089e-03" rms="3.0296385288238525e-01" purity="4.5051208138465881e-01" nType="-99"/>
              </Node>
            </Node>
          </Node>
          <Node pos="r" depth="2" NCoef="0" IVar="4" Cut="1.5766563415527344e+02" cType="1" res="3.1309558544307947e-03" rms="3.1473878026008606e-01" purity="6.7796772718429565e-01" nType="0">
            <Node pos="l" depth="3" NCoef="0" IVar="9" Cut="4.4945800304412842e-01" cType="1" res="2.0968993194401264e-03" rms="3.0811217427253723e-01" purity="7.3195624351501465e-01" nType="0">
              <Node pos="l" depth="4" NCoef="0" IVar="4" Cut="7.6888511657714844e+01" cType="1" res="-1.1688513768604025e-04" rms="3.1823384761810303e-01" purity="6.9460076093673706e-01" nType="0">
                <Node pos="l" depth="5" NCoef="0" IVar="-1" Cut="0.0000000000000000e+00" cType="1" res="3.6177881993353367e-03" rms="3.7852534651756287e-01" purity="3.7444737553596497e-01" nType="-99"/>
                <Node pos="r" depth="5" NCoef="0" IVar="-1" Cut="0.0000000000000000e+00" cType="1" res="-8.0125080421566963e-04" rms="3.0917006731033325e-01" purity="7.3780941963195801e-01" nType="-99"/>
              </Node>
              <Node pos="r" depth="4" NCoef="0" IVar="2" Cut="1.0975610017776489e+00" cType="1" res="6.8940860219299793e-03" rms="2.8488883376121521e-01" purity="8.1290405988693237e-01" nType="0">
                <Node pos="l" depth="5" NCoef="0" IVar="-1" Cut="0.0000000000000000e+00" cType="1" res="5.5583720095455647e-03" rms="2.7800697088241577e-01" purity="8.6738133430480957e-01" nType="-99"/>
                <Node pos="r" depth="5" NCoef="0" IVar="-1" Cut="0.0000000000000000e+00" cType="1" res="-1.3151906896382570e-03" rms="3.1204169988632202e-01" purity="5.8330959081649780e-01" nType="-99"/>
              </Node>
            </Node>
            <Node pos="r" depth="3" NCoef="0" IVar="9" Cut="3.1099280714988708e-01" cType="1" res="9.5292236655950546e-03" rms="3.5291838645935059e-01" purity="3.4391203522682190e-01" nType="0">
              <Node pos="l" depth="4" NCoef="0" IVar="9" Cut="1.8978041410446167e-01" cType="1" res="1.8910093232989311e-02" rms="3.3983159065246582e-01" purity="2.3861593008041382e-01" nType="0">
                <Node pos="l" depth="5" NCoef="0" IVar="-1" Cut="0.0000000000000000e+00" cType="1" res="3.5928653087466955e-03" rms="2.9321649670600891e-01" purity="1.3895007967948914e-01" nType="-99"/>
                <Node pos="r" depth="5" NCoef="0" IVar="-1" Cut="0.0000000000000000e+00" cType="1" res="1.1458117514848709e-02" rms="3.7849026918411255e-01" purity="3.3340355753898621e-01" nType="-99"/>
              </Node>
              <Node pos="r" depth="4" NCoef="0" IVar="-1" Cut="0.0000000000000000e+00" cType="1" res="-1.9993979949504137e-03" rms="3.7276154756546021e-01" purity="5.1554030179977417e-01" nType="-99"/>
            </Node>
          </Node>
        </Node>
      </Node>
    </BinaryTree>
    <BinaryTree type="DecisionTree" boostWeight="1.0000000000000000e+00" itree="157">
      <Node pos="s" depth="0" NCoef="0" IVar="8" Cut="1.0065969228744507e+00" cType="1" res="2.0912708714604378e-03" rms="3.0040642619132996e-01" purity="5.0192904472351074e-01" nType="0">
        <Node pos="l" depth="1" NCoef="0" IVar="6" Cut="3.0649703741073608e-01" cType="1" res="2.4540440645068884e-03" rms="2.9952669143676758e-01" purity="5.0655901432037354e-01" nType="0">
          <Node pos="l" depth="2" NCoef="0" IVar="5" Cut="9.9200386047363281e+01" cType="1" res="-6.9346656091511250e-03" rms="3.0221056938171387e-01" purity="2.6222136616706848e-01" nType="0">
            <Node pos="l" depth="3" NCoef="0" IVar="-1" Cut="0.0000000000000000e+00" cType="1" res="-8.2951458171010017e-03" rms="3.1687349081039429e-01" purity="3.4748581051826477e-01" nType="-99"/>
            <Node pos="r" depth="3" NCoef="0" IVar="-1" Cut="0.0000000000000000e+00" cType="1" res="5.1967063918709755e-03" rms="2.8027006983757019e-01" purity="1.4557747542858124e-01" nType="-99"/>
          </Node>
          <Node pos="r" depth="2" NCoef="0" IVar="0" Cut="3.0487804412841797e+00" cType="1" res="2.9558022506535053e-03" rms="2.9937431216239929e-01" purity="5.1961708068847656e-01" nType="0">
            <Node pos="l" depth="3" NCoef="0" IVar="2" Cut="3.0487804412841797e+00" cType="1" res="5.6199677055701613e-04" rms="2.8065860271453857e-01" purity="2.9970738291740417e-01" nType="0">
              <Node pos="l" depth="4" NCoef="0" IVar="4" Cut="9.3539131164550781e+01" cType="1" res="3.6947794724255800e-03" rms="3.1264173984527588e-01" purity="4.0185758471488953e-01" nType="0">
                <Node pos="l" depth="5" NCoef="0" IVar="-1" Cut="0.0000000000000000e+00" cType="1" res="4.8359339125454426e-03" rms="3.4409195184707642e-01" purity="3.1263643503189087e-01" nType="-99"/>
                <Node pos="r" depth="5" NCoef="0" IVar="-1" Cut="0.0000000000000000e+00" cType="1" res="5.6838562159100547e-05" rms="2.9633232951164246e-01" purity="4.4458922743797302e-01" nType="-99"/>
              </Node>
              <Node pos="r" depth="4" NCoef="0" IVar="3" Cut="1.0975610017776489e+00" cType="1" res="-7.0694284513592720e-03" rms="1.8017415702342987e-01" purity="5.0870537757873535e-02" nType="0">
                <Node pos="l" depth="5" NCoef="0" IVar="-1" Cut="0.0000000000000000e+00" cType="1" res="-3.4097752068191767e-03" rms="2.0431642234325409e-01" purity="6.7603424191474915e-02" nType="-99"/>
                <Node pos="r" depth="5" NCoef="0" IVar="-1" Cut="0.0000000000000000e+00" cType="1" res="-2.6420259848237038e-02" rms="1.2275676429271698e-01" purity="1.9665809348225594e-02" nType="-99"/>
              </Node>
            </Node>
            <Node pos="r" depth="3" NCoef="0" IVar="2" Cut="3.0487804412841797e+00" cType="1" res="4.8098224215209484e-03" rms="3.1308934092521667e-01" purity="6.8993878364562988e-01" nType="0">
              <Node pos="l" depth="4" NCoef="0" IVar="5" Cut="1.0235401153564453e+02" cType="1" res="3.3036987297236919e-03" rms="3.1095671653747559e-01" purity="7.5320112705230713e-01" nType="0">
                <Node pos="l" depth="5" NCoef="0" IVar="-1" Cut="0.0000000000000000e+00" cType="1" res="3.6621090839616954e-04" rms="2.9666706919670105e-01" purity="8.0698376893997192e-01" nType="-99"/>
                <Node pos="r" depth="5" NCoef="0" IVar="-1" Cut="0.0000000000000000e+00" cType="1" res="4.8592789098620415e-03" rms="3.5177811980247498e-01" purity="5.8506989479064941e-01" nType="-99"/>
              </Node>
              <Node pos="r" depth="4" NCoef="0" IVar="4" Cut="1.0591811370849609e+02" cType="1" res="1.5215923078358173e-02" rms="3.2725542783737183e-01" purity="2.5284689664840698e-01" nType="0">
                <Node pos="l" depth="5" NCoef="0" IVar="-1" Cut="0.0000000000000000e+00" cType="1" res="-7.6795526547357440e-04" rms="3.1565845012664795e-01" purity="1.9816312193870544e-01" nType="-99"/>
                <Node pos="r" depth="5" NCoef="0" IVar="-1" Cut="0.0000000000000000e+00" cType="1" res="1.2159399688243866e-02" rms="3.3393532037734985e-01" purity="2.8738257288932800e-01" nType="-99"/>
              </Node>
            </Node>
          </Node>
        </Node>
        <Node pos="r" depth="1" NCoef="0" IVar="-1" Cut="0.0000000000000000e+00" cType="1" res="-5.9808259829878807e-03" rms="3.3449780941009521e-01" purity="3.1001529097557068e-01" nType="-99"/>
      </Node>
    </BinaryTree>
    <BinaryTree type="DecisionTree" boostWeight="1.0000000000000000e+00" itree="158">
      <Node pos="s" depth="0" NCoef="0" IVar="8" Cut="3.7751981616020203e-01" cType="1" res="-6.0802092775702477e-04" rms="2.9807865619659424e-01" purity="4.9932214617729187e-01" nType="0">
        <Node pos="l" depth="1" NCoef="0" IVar="4" Cut="6.4300430297851562e+01" cType="1" res="-2.3364545777440071e-03" rms="2.8819680213928223e-01" purity="4.3348163366317749e-01" nType="0">
          <Node pos="l" depth="2" NCoef="0" IVar="8" Cut="2.6714065670967102e-01" cType="1" res="-1.1579380370676517e-02" rms="2.8998509049415588e-01" purity="1.7177303135395050e-01" nType="0">
            <Node pos="l" depth="3" NCoef="0" IVar="-1" Cut="0.0000000000000000e+00" cType="1" res="-1.1365769430994987e-02" rms="2.5935724377632141e-01" purity="1.3204622268676758e-01" nType="-99"/>
            <Node pos="r" depth="3" NCoef="0" IVar="-1" Cut="0.0000000000000000e+00" cType="1" res="-2.2608342114835978e-03" rms="3.1829836964607239e-01" purity="2.1266913414001465e-01" nType="-99"/>
          </Node>
          <Node pos="r" depth="2" NCoef="0" IVar="9" Cut="2.2789931297302246e-01" cType="1" res="-1.3856877340003848e-03" rms="2.8799539804458618e-01" purity="4.6040210127830505e-01" nType="0">
            <Node pos="l" depth="3" NCoef="0" IVar="7" Cut="1.8010269403457642e+00" cType="1" res="-5.8044255711138248e-03" rms="2.5329005718231201e-01" purity="2.7266743779182434e-01" nType="0">
              <Node pos="l" depth="4" NCoef="0" IVar="5" Cut="1.0972581481933594e+02" cType="1" res="4.8615285195410252e-03" rms="2.5686517357826233e-01" purity="1.0847317427396774e-01" nType="0">
                <Node pos="l" depth="5" NCoef="0" IVar="-1" Cut="0.0000000000000000e+00" cType="1" res="-8.0006765201687813e-03" rms="2.6761123538017273e-01" purity="1.2519304454326630e-01" nType="-99"/>
                <Node pos="r" depth="5" NCoef="0" IVar="-1" Cut="0.0000000000000000e+00" cType="1" res="2.7101598680019379e-02" rms="2.4195469915866852e-01" purity="8.8394746184349060e-02" nType="-99"/>
              </Node>
              <Node pos="r" depth="4" NCoef="0" IVar="7" Cut="3.7212746143341064e+00" cType="1" res="-1.0706917382776737e-02" rms="2.5147801637649536e-01" purity="3.4813755750656128e-01" nType="0">
                <Node pos="l" depth="5" NCoef="0" IVar="-1" Cut="0.0000000000000000e+00" cType="1" res="-1.0202918201684952e-02" rms="2.4978734552860260e-01" purity="3.7424835562705994e-01" nType="-99"/>
                <Node pos="r" depth="5" NCoef="0" IVar="-1" Cut="0.0000000000000000e+00" cType="1" res="6.0784793458878994e-03" rms="2.5671112537384033e-01" purity="2.5058737397193909e-01" nType="-99"/>
              </Node>
            </Node>
            <Node pos="r" depth="3" NCoef="0" IVar="6" Cut="2.1454763412475586e+00" cType="1" res="3.2397091854363680e-04" rms="3.0033180117607117e-01" purity="5.3303873538970947e-01" nType="0">
              <Node pos="l" depth="4" NCoef="0" IVar="7" Cut="1.0912631750106812e+00" cType="1" res="4.9518449231982231e-03" rms="3.0968284606933594e-01" purity="4.0579912066459656e-01" nType="0">
                <Node pos="l" depth="5" NCoef="0" IVar="-1" Cut="0.0000000000000000e+00" cType="1" res="5.9737395495176315e-03" rms="3.2205995917320251e-01" purity="4.4959226250648499e-01" nType="-99"/>
                <Node pos="r" depth="5" NCoef="0" IVar="-1" Cut="0.0000000000000000e+00" cType="1" res="-5.4739409824833274e-04" rms="2.9769796133041382e-01" purity="3.6544457077980042e-01" nType="-99"/>
              </Node>
              <Node pos="r" depth="4" NCoef="0" IVar="7" Cut="2.0161097049713135e+00" cType="1" res="-3.5117373336106539e-03" rms="2.9229930043220520e-01" purity="6.3849836587905884e-01" nType="0">
                <Node pos="l" depth="5" NCoef="0" IVar="-1" Cut="0.0000000000000000e+00" cType="1" res="-5.0221192650496960e-03" rms="3.0328288674354553e-01" purity="6.1839115619659424e-01" nType="-99"/>
                <Node pos="r" depth="5" NCoef="0" IVar="-1" Cut="0.0000000000000000e+00" cType="1" res="8.6192889139056206e-03" rms="2.5612458586692810e-01" purity="6.9821113348007202e-01" nType="-99"/>
              </Node>
            </Node>
          </Node>
        </Node>
        <Node pos="r" depth="1" NCoef="0" IVar="4" Cut="2.1521122741699219e+02" cType="1" res="1.7403045203536749e-03" rms="3.1098651885986328e-01" purity="5.8877599239349365e-01" nType="0">
          <Node pos="l" depth="2" NCoef="0" IVar="6" Cut="1.8389812707901001e+00" cType="1" res="2.5868816301226616e-03" rms="3.1290301680564880e-01" purity="6.0599106550216675e-01" nType="0">
            <Node pos="l" depth="3" NCoef="0" IVar="8" Cut="7.2730118036270142e-01" cType="1" res="-1.1864787666127086e-03" rms="3.3515000343322754e-01" purity="4.9009945988655090e-01" nType="0">
              <Node pos="l" depth="4" NCoef="0" IVar="7" Cut="8.6330938339233398e-01" cType="1" res="-5.7914210483431816e-03" rms="3.2877579331398010e-01" purity="4.8987895250320435e-01" nType="0">
                <Node pos="l" depth="5" NCoef="0" IVar="-1" Cut="0.0000000000000000e+00" cType="1" res="-7.3602353222668171e-03" rms="3.2881972193717957e-01" purity="5.3268814086914062e-01" nType="-99"/>
                <Node pos="r" depth="5" NCoef="0" IVar="-1" Cut="0.0000000000000000e+00" cType="1" res="2.8930404223501682e-03" rms="3.2831797003746033e-01" purity="4.3832391500473022e-01" nType="-99"/>
              </Node>
              <Node pos="r" depth="4" NCoef="0" IVar="5" Cut="7.3407356262207031e+01" cType="1" res="1.1669106781482697e-02" rms="3.5201638936996460e-01" purity="4.9071493744850159e-01" nType="0">
                <Node pos="l" depth="5" NCoef="0" IVar="-1" Cut="0.0000000000000000e+00" cType="1" res="7.6099033467471600e-03" rms="3.7439540028572083e-01" purity="5.0487804412841797e-01" nType="-99"/>
                <Node pos="r" depth="5" NCoef="0" IVar="-1" Cut="0.0000000000000000e+00" cType="1" res="2.2437672596424818e-03" rms="3.3312687277793884e-01" purity="4.7952839732170105e-01" nType="-99"/>
              </Node>
            </Node>
            <Node pos="r" depth="3" NCoef="0" IVar="9" Cut="2.9299440979957581e-01" cType="1" res="5.5263955146074295e-03" rms="2.9437610507011414e-01" purity="6.9627273082733154e-01" nType="0">
              <Node pos="l" depth="4" NCoef="0" IVar="9" Cut="2.2874072194099426e-01" cType="1" res="-1.3537287013605237e-03" rms="3.4095486998558044e-01" purity="4.9585255980491638e-01" nType="0">
                <Node pos="l" depth="5" NCoef="0" IVar="-1" Cut="0.0000000000000000e+00" cType="1" res="3.0907322652637959e-03" rms="3.5086786746978760e-01" purity="3.9982485771179199e-01" nType="-99"/>
                <Node pos="r" depth="5" NCoef="0" IVar="-1" Cut="0.0000000000000000e+00" cType="1" res="-7.2227278724312782e-03" rms="3.2405149936676025e-01" purity="6.4878261089324951e-01" nType="-99"/>
              </Node>
              <Node pos="r" depth="4" NCoef="0" IVar="7" Cut="5.3962600231170654e-01" cType="1" res="1.0369024239480495e-02" rms="2.5645920634269714e-01" purity="8.3734005689620972e-01" nType="0">
                <Node pos="l" depth="5" NCoef="0" IVar="-1" Cut="0.0000000000000000e+00" cType="1" res="3.2147795427590609e-03" rms="2.7061909437179565e-01" purity="8.1942301988601685e-01" nType="-99"/>
                <Node pos="r" depth="5" NCoef="0" IVar="-1" Cut="0.0000000000000000e+00" cType="1" res="1.1302410624921322e-02" rms="2.4242118000984192e-01" purity="8.5403090715408325e-01" nType="-99"/>
              </Node>
            </Node>
          </Node>
          <Node pos="r" depth="2" NCoef="0" IVar="-1" Cut="0.0000000000000000e+00" cType="1" res="-8.3125084638595581e-03" rms="2.6924568414688110e-01" purity="2.4441063404083252e-01" nType="-99"/>
        </Node>
      </Node>
    </BinaryTree>
    <BinaryTree type="DecisionTree" boostWeight="1.0000000000000000e+00" itree="159">
      <Node pos="s" depth="0" NCoef="0" IVar="4" Cut="7.0262443542480469e+01" cType="1" res="3.0261886422522366e-05" rms="2.9786154627799988e-01" purity="4.9992966651916504e-01" nType="0">
        <Node pos="l" depth="1" NCoef="0" IVar="8" Cut="5.4257869720458984e-01" cType="1" res="7.3724235408008099e-03" rms="3.3161664009094238e-01" purity="2.5720375776290894e-01" nType="0">
          <Node pos="l" depth="2" NCoef="0" IVar="4" Cut="5.1878582000732422e+01" cType="1" res="1.8453914672136307e-03" rms="3.1841441988945007e-01" purity="2.3351612687110901e-01" nType="0">
            <Node pos="l" depth="3" NCoef="0" IVar="6" Cut="1.9922376871109009e+00" cType="1" res="-8.5662491619586945e-03" rms="3.0450606346130371e-01" purity="1.8025834858417511e-01" nType="0">
              <Node pos="l" depth="4" NCoef="0" IVar="-1" Cut="0.0000000000000000e+00" cType="1" res="-8.9288726449012756e-03" rms="2.7323231101036072e-01" purity="1.3108056783676147e-01" nType="-99"/>
              <Node pos="r" depth="4" NCoef="0" IVar="-1" Cut="0.0000000000000000e+00" cType="1" res="-1.1405933182686567e-03" rms="3.3245047926902771e-01" purity="2.2889830172061920e-01" nType="-99"/>
            </Node>
            <Node pos="r" depth="3" NCoef="0" IVar="6" Cut="2.2221019268035889e+00" cType="1" res="1.0253178887069225e-02" rms="3.2897698879241943e-01" purity="2.7652373909950256e-01" nType="0">
              <Node pos="l" depth="4" NCoef="0" IVar="-1" Cut="0.0000000000000000e+00" cType="1" res="1.1030281893908978e-03" rms="3.0962032079696655e-01" purity="2.0035971701145172e-01" nType="-99"/>
              <Node pos="r" depth="4" NCoef="0" IVar="-1" Cut="0.0000000000000000e+00" cType="1" res="8.1113148480653763e-03" rms="3.5163292288780212e-01" purity="3.7271079421043396e-01" nType="-99"/>
            </Node>
          </Node>
          <Node pos="r" depth="2" NCoef="0" IVar="-1" Cut="0.0000000000000000e+00" cType="1" res="1.1850424110889435e-02" rms="3.8764744997024536e-01" purity="3.7078535556793213e-01" nType="-99"/>
        </Node>
        <Node pos="r" depth="1" NCoef="0" IVar="1" Cut="1.0975610017776489e+00" cType="1" res="-1.0248873149976134e-03" rms="2.9267567396163940e-01" purity="5.3481203317642212e-01" nType="0">
          <Node pos="l" depth="2" NCoef="0" IVar="3" Cut="1.0975610017776489e+00" cType="1" res="-4.3985098600387573e-03" rms="3.0521556735038757e-01" purity="2.7028563618659973e-01" nType="0">
            <Node pos="l" depth="3" NCoef="0" IVar="7" Cut="2.1781802177429199e+00" cType="1" res="-8.1587312743067741e-03" rms="3.1075295805931091e-01" purity="3.0999448895454407e-01" nType="0">
              <Node pos="l" depth="4" NCoef="0" IVar="2" Cut="2.0731706619262695e+00" cType="1" res="-1.0976959019899368e-02" rms="3.2204449176788330e-01" purity="3.3154559135437012e-01" nType="0">
                <Node pos="l" depth="5" NCoef="0" IVar="-1" Cut="0.0000000000000000e+00" cType="1" res="-6.0059870593249798e-03" rms="3.4941411018371582e-01" purity="4.3523815274238586e-01" nType="-99"/>
                <Node pos="r" depth="5" NCoef="0" IVar="-1" Cut="0.0000000000000000e+00" cType="1" res="-1.9175007473677397e-03" rms="2.5889602303504944e-01" purity="1.2513449788093567e-01" nType="-99"/>
              </Node>
              <Node pos="r" depth="4" NCoef="0" IVar="8" Cut="2.1937879920005798e-01" cType="1" res="1.6800323501229286e-03" rms="2.6739096641540527e-01" purity="2.3475717008113861e-01" nType="0">
                <Node pos="l" depth="5" NCoef="0" IVar="-1" Cut="0.0000000000000000e+00" cType="1" res="-5.8970386162400246e-03" rms="2.6547682285308838e-01" purity="1.9877639412879944e-01" nType="-99"/>
                <Node pos="r" depth="5" NCoef="0" IVar="-1" Cut="0.0000000000000000e+00" cType="1" res="9.7711635753512383e-03" rms="2.6924303174018860e-01" purity="2.8591474890708923e-01" nType="-99"/>
              </Node>
            </Node>
            <Node pos="r" depth="3" NCoef="0" IVar="7" Cut="9.8907196521759033e-01" cType="1" res="3.3677155151963234e-03" rms="2.9329571127891541e-01" purity="1.8827243149280548e-01" nType="0">
              <Node pos="l" depth="4" NCoef="0" IVar="2" Cut="1.0975610017776489e+00" cType="1" res="1.6165241599082947e-02" rms="3.4107071161270142e-01" purity="2.4850630760192871e-01" nType="0">
                <Node pos="l" depth="5" NCoef="0" IVar="-1" Cut="0.0000000000000000e+00" cType="1" res="1.1571804061532021e-02" rms="3.8875386118888855e-01" purity="3.4426334500312805e-01" nType="-99"/>
                <Node pos="r" depth="5" NCoef="0" IVar="-1" Cut="0.0000000000000000e+00" cType="1" res="-2.8947724495083094e-03" rms="2.4581801891326904e-01" purity="9.6385769546031952e-02" nType="-99"/>
              </Node>
              <Node pos="r" depth="4" NCoef="0" IVar="3" Cut="4.0487804412841797e+00" cType="1" res="-7.2547057643532753e-03" rms="2.4620674550533295e-01" purity="1.3827610015869141e-01" nType="0">
                <Node pos="l" depth="5" NCoef="0" IVar="-1" Cut="0.0000000000000000e+00" cType="1" res="-2.1173828281462193e-04" rms="2.8008943796157837e-01" purity="2.2617585957050323e-01" nType="-99"/>
                <Node pos="r" depth="5" NCoef="0" IVar="-1" Cut="0.0000000000000000e+00" cType="1" res="-1.0312679223716259e-02" rms="2.1924507617950439e-01" purity="7.6695829629898071e-02" nType="-99"/>
              </Node>
            </Node>
          </Node>
          <Node pos="r" depth="2" NCoef="0" IVar="9" Cut="3.3028221130371094e-01" cType="1" res="1.2807513121515512e-03" rms="2.8376388549804688e-01" purity="7.1559762954711914e-01" nType="0">
            <Node pos="l" depth="3" NCoef="0" IVar="5" Cut="6.9800201416015625e+01" cType="1" res="-2.1835162770003080e-03" rms="3.0832383036613464e-01" purity="5.9034585952758789e-01" nType="0">
              <Node pos="l" depth="4" NCoef="0" IVar="9" Cut="2.1771660447120667e-01" cType="1" res="-1.0651278309524059e-02" rms="3.4730112552642822e-01" purity="5.4014211893081665e-01" nType="0">
                <Node pos="l" depth="5" NCoef="0" IVar="-1" Cut="0.0000000000000000e+00" cType="1" res="-8.3542112261056900e-03" rms="3.4394633769989014e-01" purity="4.2207640409469604e-01" nType="-99"/>
                <Node pos="r" depth="5" NCoef="0" IVar="-1" Cut="0.0000000000000000e+00" cType="1" res="-1.7234191764146090e-03" rms="3.4938928484916687e-01" purity="6.1992883682250977e-01" nType="-99"/>
              </Node>
              <Node pos="r" depth="4" NCoef="0" IVar="8" Cut="1.6680879890918732e-01" cType="1" res="1.8151536642108113e-04" rms="2.9648044705390930e-01" purity="6.0436767339706421e-01" nType="0">
                <Node pos="l" depth="5" NCoef="0" IVar="-1" Cut="0.0000000000000000e+00" cType="1" res="-1.0901795700192451e-02" rms="2.6358973979949951e-01" purity="3.4770986437797546e-01" nType="-99"/>
                <Node pos="r" depth="5" NCoef="0" IVar="-1" Cut="0.0000000000000000e+00" cType="1" res="1.5833168290555477e-03" rms="3.0117809772491455e-01" purity="6.4433008432388306e-01" nType="-99"/>
              </Node>
            </Node>
            <Node pos="r" depth="3" NCoef="0" IVar="7" Cut="7.3727130889892578e-01" cType="1" res="4.2687891982495785e-03" rms="2.6069149374961853e-01" purity="8.2363116741180420e-01" nType="0">
              <Node pos="l" depth="4" NCoef="0" IVar="5" Cut="9.1917358398437500e+01" cType="1" res="-4.4645415619015694e-04" rms="2.5793084502220154e-01" purity="8.4084725379943848e-01" nType="0">
                <Node pos="l" depth="5" NCoef="0" IVar="-1" Cut="0.0000000000000000e+00" cType="1" res="4.6801213175058365e-03" rms="2.4390313029289246e-01" purity="8.8260328769683838e-01" nType="-99"/>
                <Node pos="r" depth="5" NCoef="0" IVar="-1" Cut="0.0000000000000000e+00" cType="1" res="-8.6303288117051125e-03" rms="2.8600469231605530e-01" purity="7.4851244688034058e-01" nType="-99"/>
              </Node>
              <Node pos="r" depth="4" NCoef="0" IVar="4" Cut="1.3163586425781250e+02" cType="1" res="8.9443419128656387e-03" rms="2.6331695914268494e-01" purity="8.0655992031097412e-01" nType="0">
                <Node pos="l" depth="5" NCoef="0" IVar="-1" Cut="0.0000000000000000e+00" cType="1" res="7.6606106013059616e-03" rms="2.5273671746253967e-01" purity="8.5538816452026367e-01" nType="-99"/>
                <Node pos="r" depth="5" NCoef="0" IVar="-1" Cut="0.0000000000000000e+00" cType="1" res="6.6915375646203756e-04" rms="3.0114901065826416e-01" purity="6.1493599414825439e-01" nType="-99"/>
              </Node>
            </Node>
          </Node>
        </Node>
      </Node>
    </BinaryTree>
    <BinaryTree type="DecisionTree" boostWeight="1.0000000000000000e+00" itree="160">
      <Node pos="s" depth="0" NCoef="0" IVar="6" Cut="3.8312110304832458e-01" cType="1" res="1.0476119350641966e-03" rms="2.9792603850364685e-01" purity="5.0281018018722534e-01" nType="0">
        <Node pos="l" depth="1" NCoef="0" IVar="2" Cut="2.0731706619262695e+00" cType="1" res="-9.5212412998080254e-03" rms="3.0290389060974121e-01" purity="2.6508533954620361e-01" nType="0">
          <Node pos="l" depth="2" NCoef="0" IVar="8" Cut="3.7786659598350525e-01" cType="1" res="-1.6224073246121407e-02" rms="3.2013815641403198e-01" purity="3.3867934346199036e-01" nType="0">
            <Node pos="l" depth="3" NCoef="0" IVar="-1" Cut="0.0000000000000000e+00" cType="1" res="-6.3263019546866417e-04" rms="2.9514983296394348e-01" purity="2.8607213497161865e-01" nType="-99"/>
            <Node pos="r" depth="3" NCoef="0" IVar="-1" Cut="0.0000000000000000e+00" cType="1" res="-1.3087389059364796e-02" rms="3.4441667795181274e-01" purity="3.9563331007957458e-01" nType="-99"/>
          </Node>
          <Node pos="r" depth="2" NCoef="0" IVar="-1" Cut="0.0000000000000000e+00" cType="1" res="5.5846548639237881e-03" rms="2.5758370757102966e-01" purity="9.3383766710758209e-02" nType="-99"/>
        </Node>
        <Node pos="r" depth="1" NCoef="0" IVar="6" Cut="1.3250377178192139e+00" cType="1" res="1.8052834784612060e-03" rms="2.9755157232284546e-01" purity="5.1985245943069458e-01" nType="0">
          <Node pos="l" depth="2" NCoef="0" IVar="6" Cut="1.2331430912017822e+00" cType="1" res="6.8795233964920044e-03" rms="3.1304031610488892e-01" purity="3.6872780323028564e-01" nType="0">
            <Node pos="l" depth="3" NCoef="0" IVar="8" Cut="7.4733132123947144e-01" cType="1" res="4.8508225008845329e-03" rms="3.1013199687004089e-01" purity="3.6232197284698486e-01" nType="0">
              <Node pos="l" depth="4" NCoef="0" IVar="5" Cut="1.0254336547851562e+02" cType="1" res="2.3132546339184046e-03" rms="3.0423855781555176e-01" purity="3.3989462256431580e-01" nType="0">
                <Node pos="l" depth="5" NCoef="0" IVar="-1" Cut="0.0000000000000000e+00" cType="1" res="-1.4244844205677509e-03" rms="3.1778863072395325e-01" purity="4.3804717063903809e-01" nType="-99"/>
                <Node pos="r" depth="5" NCoef="0" IVar="-1" Cut="0.0000000000000000e+00" cType="1" res="7.6609058305621147e-03" rms="2.7864891290664673e-01" purity="1.6772578656673431e-01" nType="-99"/>
              </Node>
              <Node pos="r" depth="4" NCoef="0" IVar="-1" Cut="0.0000000000000000e+00" cType="1" res="8.6058033630251884e-03" rms="3.4361058473587036e-01" purity="4.9962785840034485e-01" nType="-99"/>
            </Node>
            <Node pos="r" depth="3" NCoef="0" IVar="-1" Cut="0.0000000000000000e+00" cType="1" res="1.2410000897943974e-02" rms="3.3491510152816772e-01" purity="4.1986805200576782e-01" nType="-99"/>
          </Node>
          <Node pos="r" depth="2" NCoef="0" IVar="8" Cut="7.4104028940200806e-01" cType="1" res="4.1659350972622633e-04" rms="2.9315480589866638e-01" purity="5.6121140718460083e-01" nType="0">
            <Node pos="l" depth="3" NCoef="0" IVar="9" Cut="1.5333676338195801e-01" cType="1" res="1.1946510057896376e-03" rms="2.9110854864120483e-01" purity="5.6812840700149536e-01" nType="0">
              <Node pos="l" depth="4" NCoef="0" IVar="4" Cut="1.1158248138427734e+02" cType="1" res="-7.2320303879678249e-03" rms="2.7471306920051575e-01" purity="2.1917179226875305e-01" nType="0">
                <Node pos="l" depth="5" NCoef="0" IVar="-1" Cut="0.0000000000000000e+00" cType="1" res="-1.4206644147634506e-02" rms="2.7963510155677795e-01" purity="1.8362508714199066e-01" nType="-99"/>
                <Node pos="r" depth="5" NCoef="0" IVar="-1" Cut="0.0000000000000000e+00" cType="1" res="1.3786656782031059e-03" rms="2.7147746086120605e-01" purity="2.3889431357383728e-01" nType="-99"/>
              </Node>
              <Node pos="r" depth="4" NCoef="0" IVar="9" Cut="7.3594677448272705e-01" cType="1" res="2.2191863972693682e-03" rms="2.9302287101745605e-01" purity="6.1055535078048706e-01" nType="0">
                <Node pos="l" depth="5" NCoef="0" IVar="-1" Cut="0.0000000000000000e+00" cType="1" res="1.6179782105609775e-03" rms="2.9235512018203735e-01" purity="6.1699789762496948e-01" nType="-99"/>
                <Node pos="r" depth="5" NCoef="0" IVar="-1" Cut="0.0000000000000000e+00" cType="1" res="-9.5202000811696053e-03" rms="3.1129515171051025e-01" purity="4.2067059874534607e-01" nType="-99"/>
              </Node>
            </Node>
            <Node pos="r" depth="3" NCoef="0" IVar="-1" Cut="0.0000000000000000e+00" cType="1" res="-9.0722329914569855e-03" rms="3.4291711449623108e-01" purity="3.7546297907829285e-01" nType="-99"/>
          </Node>
        </Node>
      </Node>
    </BinaryTree>
    <BinaryTree type="DecisionTree" boostWeight="1.0000000000000000e+00" itree="161">
      <Node pos="s" depth="0" NCoef="0" IVar="4" Cut="4.1385940551757812e+01" cType="1" res="-1.2762887636199594e-03" rms="2.9693859815597534e-01" purity="4.9886932969093323e-01" nType="0">
        <Node pos="l" depth="1" NCoef="0" IVar="-1" Cut="0.0000000000000000e+00" cType="1" res="-8.6564570665359497e-03" rms="2.9692566394805908e-01" purity="1.5663431584835052e-01" nType="-99"/>
        <Node pos="r" depth="1" NCoef="0" IVar="7" Cut="2.2810099124908447e+00" cType="1" res="-8.2550052320584655e-04" rms="2.9692703485488892e-01" purity="5.0896489620208740e-01" nType="0">
          <Node pos="l" depth="2" NCoef="0" IVar="6" Cut="1.3026109933853149e+00" cType="1" res="-1.9855559803545475e-03" rms="3.0349206924438477e-01" purity="5.3034502267837524e-01" nType="0">
            <Node pos="l" depth="3" NCoef="0" IVar="9" Cut="7.1583229303359985e-01" cType="1" res="2.6441619265824556e-03" rms="3.2060059905052185e-01" purity="3.8547548651695251e-01" nType="0">
              <Node pos="l" depth="4" NCoef="0" IVar="7" Cut="1.1683204174041748e+00" cType="1" res="-7.7812594827264547e-04" rms="3.1867861747741699e-01" purity="3.4832823276519775e-01" nType="0">
                <Node pos="l" depth="5" NCoef="0" IVar="-1" Cut="0.0000000000000000e+00" cType="1" res="-3.3252344001084566e-03" rms="3.2457175850868225e-01" purity="3.6289665102958679e-01" nType="-99"/>
                <Node pos="r" depth="5" NCoef="0" IVar="-1" Cut="0.0000000000000000e+00" cType="1" res="4.7442973591387272e-03" rms="3.0851724743843079e-01" purity="3.2442340254783630e-01" nType="-99"/>
              </Node>
              <Node pos="r" depth="4" NCoef="0" IVar="-1" Cut="0.0000000000000000e+00" cType="1" res="9.3015050515532494e-03" rms="3.2983097434043884e-01" purity="5.7837539911270142e-01" nType="-99"/>
            </Node>
            <Node pos="r" depth="3" NCoef="0" IVar="8" Cut="3.1080800294876099e-01" cType="1" res="-3.6454505752772093e-03" rms="2.9710075259208679e-01" purity="5.8228510618209839e-01" nType="0">
              <Node pos="l" depth="4" NCoef="0" IVar="8" Cut="1.1462432891130447e-01" cType="1" res="-8.3769280463457108e-03" rms="3.0279630422592163e-01" purity="4.2864111065864563e-01" nType="0">
                <Node pos="l" depth="5" NCoef="0" IVar="-1" Cut="0.0000000000000000e+00" cType="1" res="9.5059899613261223e-03" rms="2.7680784463882446e-01" purity="1.8495541810989380e-01" nType="-99"/>
                <Node pos="r" depth="5" NCoef="0" IVar="-1" Cut="0.0000000000000000e+00" cType="1" res="-5.7627120986580849e-03" rms="3.0540505051612854e-01" purity="4.5527127385139465e-01" nType="-99"/>
              </Node>
              <Node pos="r" depth="4" NCoef="0" IVar="9" Cut="3.9792126417160034e-01" cType="1" res="-1.0068850824609399e-03" rms="2.9384353756904602e-01" purity="6.6796648502349854e-01" nType="0">
                <Node pos="l" depth="5" NCoef="0" IVar="-1" Cut="0.0000000000000000e+00" cType="1" res="-2.3385309614241123e-03" rms="3.1298556923866272e-01" purity="5.7993370294570923e-01" nType="-99"/>
                <Node pos="r" depth="5" NCoef="0" IVar="-1" Cut="0.0000000000000000e+00" cType="1" res="4.2494703084230423e-03" rms="2.5257918238639832e-01" purity="8.3825165033340454e-01" nType="-99"/>
              </Node>
            </Node>
          </Node>
          <Node pos="r" depth="2" NCoef="0" IVar="3" Cut="4.0243902206420898e+00" cType="1" res="4.4242870062589645e-03" rms="2.6512956619262695e-01" purity="4.1221016645431519e-01" nType="0">
            <Node pos="l" depth="3" NCoef="0" IVar="9" Cut="1.7859175801277161e-01" cType="1" res="8.2389581948518753e-03" rms="2.7317181229591370e-01" purity="4.6097475290298462e-01" nType="0">
              <Node pos="l" depth="4" NCoef="0" IVar="5" Cut="8.4680877685546875e+01" cType="1" res="-4.1933041065931320e-03" rms="2.7131849527359009e-01" purity="3.1197902560234070e-01" nType="0">
                <Node pos="l" depth="5" NCoef="0" IVar="-1" Cut="0.0000000000000000e+00" cType="1" res="5.5056815035641193e-03" rms="3.0032324790954590e-01" purity="4.3763053417205811e-01" nType="-99"/>
                <Node pos="r" depth="5" NCoef="0" IVar="-1" Cut="0.0000000000000000e+00" cType="1" res="-1.0741073638200760e-02" rms="2.4591352045536041e-01" purity="2.1487264335155487e-01" nType="-99"/>
              </Node>
              <Node pos="r" depth="4" NCoef="0" IVar="8" Cut="1.7536665499210358e-01" cType="1" res="1.7908759415149689e-02" rms="2.7421525120735168e-01" purity="5.7686346769332886e-01" nType="0">
                <Node pos="l" depth="5" NCoef="0" IVar="-1" Cut="0.0000000000000000e+00" cType="1" res="-1.0825999779626727e-03" rms="2.9657784104347229e-01" purity="3.6566573381423950e-01" nType="-99"/>
                <Node pos="r" depth="5" NCoef="0" IVar="-1" Cut="0.0000000000000000e+00" cType="1" res="2.2589476779103279e-02" rms="2.5113448500633240e-01" purity="7.6627272367477417e-01" nType="-99"/>
              </Node>
            </Node>
            <Node pos="r" depth="3" NCoef="0" IVar="-1" Cut="0.0000000000000000e+00" cType="1" res="-1.6218777745962143e-02" rms="2.0568010210990906e-01" purity="1.0449239611625671e-01" nType="-99"/>
          </Node>
        </Node>
      </Node>
    </BinaryTree>
    <BinaryTree type="DecisionTree" boostWeight="1.0000000000000000e+00" itree="162">
      <Node pos="s" depth="0" NCoef="0" IVar="4" Cut="2.1521200561523438e+02" cType="1" res="6.9086020812392235e-04" rms="2.9931798577308655e-01" purity="4.9914282560348511e-01" nType="0">
        <Node pos="l" depth="1" NCoef="0" IVar="4" Cut="5.1878585815429688e+01" cType="1" res="1.3062780490145087e-03" rms="3.0133020877838135e-01" purity="5.1640033721923828e-01" nType="0">
          <Node pos="l" depth="2" NCoef="0" IVar="5" Cut="8.8498138427734375e+01" cType="1" res="-9.6487933769822121e-03" rms="3.1577765941619873e-01" purity="1.8501459062099457e-01" nType="0">
            <Node pos="l" depth="3" NCoef="0" IVar="-1" Cut="0.0000000000000000e+00" cType="1" res="-7.8958459198474884e-03" rms="3.5276105999946594e-01" purity="2.5630259513854980e-01" nType="-99"/>
            <Node pos="r" depth="3" NCoef="0" IVar="-1" Cut="0.0000000000000000e+00" cType="1" res="1.0370839299866930e-04" rms="2.7979105710983276e-01" purity="1.2381979078054428e-01" nType="-99"/>
          </Node>
          <Node pos="r" depth="2" NCoef="0" IVar="6" Cut="1.6857320070266724e+00" cType="1" res="1.9746117759495974e-03" rms="3.0041339993476868e-01" purity="5.3661715984344482e-01" nType="0">
            <Node pos="l" depth="3" NCoef="0" IVar="8" Cut="8.3351480960845947e-01" cType="1" res="-6.8023131461814046e-04" rms="3.1095084547996521e-01" purity="3.9032226800918579e-01" nType="0">
              <Node pos="l" depth="4" NCoef="0" IVar="9" Cut="7.1987211704254150e-01" cType="1" res="-3.5089666489511728e-03" rms="3.0541715025901794e-01" purity="3.8070574402809143e-01" nType="0">
                <Node pos="l" depth="5" NCoef="0" IVar="-1" Cut="0.0000000000000000e+00" cType="1" res="-3.2420007046312094e-03" rms="3.0403503775596619e-01" purity="3.5251814126968384e-01" nType="-99"/>
                <Node pos="r" depth="5" NCoef="0" IVar="-1" Cut="0.0000000000000000e+00" cType="1" res="7.0652374997735023e-03" rms="3.1450739502906799e-01" purity="5.8171141147613525e-01" nType="-99"/>
              </Node>
              <Node pos="r" depth="4" NCoef="0" IVar="-1" Cut="0.0000000000000000e+00" cType="1" res="1.0787554085254669e-02" rms="3.5862058401107788e-01" purity="4.8260858654975891e-01" nType="-99"/>
            </Node>
            <Node pos="r" depth="3" NCoef="0" IVar="8" Cut="6.5728765726089478e-01" cType="1" res="3.3989178482443094e-03" rms="2.9459494352340698e-01" purity="6.1510336399078369e-01" nType="0">
              <Node pos="l" depth="4" NCoef="0" IVar="8" Cut="5.4511386156082153e-01" cType="1" res="4.5456001535058022e-03" rms="2.9196009039878845e-01" purity="6.2221813201904297e-01" nType="0">
                <Node pos="l" depth="5" NCoef="0" IVar="-1" Cut="0.0000000000000000e+00" cType="1" res="2.0379479974508286e-03" rms="2.9052713513374329e-01" purity="6.1600756645202637e-01" nType="-99"/>
                <Node pos="r" depth="5" NCoef="0" IVar="-1" Cut="0.0000000000000000e+00" cType="1" res="8.8480226695537567e-03" rms="3.1028777360916138e-01" purity="7.0571422576904297e-01" nType="-99"/>
              </Node>
              <Node pos="r" depth="4" NCoef="0" IVar="-1" Cut="0.0000000000000000e+00" cType="1" res="-7.9033039510250092e-03" rms="3.4033638238906860e-01" purity="4.7907537221908569e-01" nType="-99"/>
            </Node>
          </Node>
        </Node>
        <Node pos="r" depth="1" NCoef="0" IVar="8" Cut="3.3985397219657898e-01" cType="1" res="-1.1171147227287292e-02" rms="2.5719115138053894e-01" purity="1.6650900244712830e-01" nType="0">
          <Node pos="l" depth="2" NCoef="0" IVar="-1" Cut="0.0000000000000000e+00" cType="1" res="-3.9206352084875107e-03" rms="2.4684199690818787e-01" purity="1.1222967505455017e-01" nType="-99"/>
          <Node pos="r" depth="2" NCoef="0" IVar="-1" Cut="0.0000000000000000e+00" cType="1" res="-1.0264662094414234e-02" rms="2.6865011453628540e-01" purity="2.3022407293319702e-01" nType="-99"/>
        </Node>
      </Node>
    </BinaryTree>
    <BinaryTree type="DecisionTree" boostWeight="1.0000000000000000e+00" itree="163">
      <Node pos="s" depth="0" NCoef="0" IVar="5" Cut="8.4588874816894531e+01" cType="1" res="-9.3897298211231828e-04" rms="2.9661077260971069e-01" purity="4.9934035539627075e-01" nType="0">
        <Node pos="l" depth="1" NCoef="0" IVar="4" Cut="1.1122846221923828e+02" cType="1" res="1.5118631999939680e-03" rms="3.1067925691604614e-01" purity="5.8190530538558960e-01" nType="0">
          <Node pos="l" depth="2" NCoef="0" IVar="6" Cut="7.6624429225921631e-01" cType="1" res="-2.4624832440167665e-03" rms="3.2639002799987793e-01" purity="5.6966930627822876e-01" nType="0">
            <Node pos="l" depth="3" NCoef="0" IVar="-1" Cut="0.0000000000000000e+00" cType="1" res="-8.8162496685981750e-03" rms="3.3422368764877319e-01" purity="3.7565714120864868e-01" nType="-99"/>
            <Node pos="r" depth="3" NCoef="0" IVar="9" Cut="3.0184200406074524e-01" cType="1" res="2.7907802723348141e-04" rms="3.2507529854774475e-01" purity="5.9967553615570068e-01" nType="0">
              <Node pos="l" depth="4" NCoef="0" IVar="7" Cut="1.4256355762481689e+00" cType="1" res="-9.5209209248423576e-03" rms="3.2752460241317749e-01" purity="4.8406317830085754e-01" nType="0">
                <Node pos="l" depth="5" NCoef="0" IVar="-1" Cut="0.0000000000000000e+00" cType="1" res="-1.0615007951855659e-02" rms="3.5057571530342102e-01" purity="4.5497849583625793e-01" nType="-99"/>
                <Node pos="r" depth="5" NCoef="0" IVar="-1" Cut="0.0000000000000000e+00" cType="1" res="3.8666129694320261e-04" rms="3.1189286708831787e-01" purity="5.0214576721191406e-01" nType="-99"/>
              </Node>
              <Node pos="r" depth="4" NCoef="0" IVar="0" Cut="1.0975610017776489e+00" cType="1" res="4.7259796410799026e-03" rms="3.2385998964309692e-01" purity="6.5213644504547119e-01" nType="0">
                <Node pos="l" depth="5" NCoef="0" IVar="-1" Cut="0.0000000000000000e+00" cType="1" res="6.4014676026999950e-03" rms="3.4909233450889587e-01" purity="3.4610080718994141e-01" nType="-99"/>
                <Node pos="r" depth="5" NCoef="0" IVar="-1" Cut="0.0000000000000000e+00" cType="1" res="9.7608921350911260e-05" rms="3.1252598762512207e-01" purity="7.8088659048080444e-01" nType="-99"/>
              </Node>
            </Node>
          </Node>
          <Node pos="r" depth="2" NCoef="0" IVar="8" Cut="5.8812183141708374e-01" cType="1" res="4.8482469283044338e-03" rms="2.9680803418159485e-01" purity="5.9217727184295654e-01" nType="0">
            <Node pos="l" depth="3" NCoef="0" IVar="7" Cut="5.3193509578704834e-01" cType="1" res="2.4764519184827805e-03" rms="2.9083231091499329e-01" purity="5.9031945466995239e-01" nType="0">
              <Node pos="l" depth="4" NCoef="0" IVar="-1" Cut="0.0000000000000000e+00" cType="1" res="-3.7357583642005920e-03" rms="2.9473674297332764e-01" purity="6.3245707750320435e-01" nType="-99"/>
              <Node pos="r" depth="4" NCoef="0" IVar="4" Cut="1.3153645324707031e+02" cType="1" res="5.2380240522325039e-03" rms="2.8954073786735535e-01" purity="5.7709223031997681e-01" nType="0">
                <Node pos="l" depth="5" NCoef="0" IVar="-1" Cut="0.0000000000000000e+00" cType="1" res="7.6222950592637062e-03" rms="2.7271175384521484e-01" purity="7.9155999422073364e-01" nType="-99"/>
                <Node pos="r" depth="5" NCoef="0" IVar="-1" Cut="0.0000000000000000e+00" cType="1" res="-7.0925301406532526e-04" rms="3.0457651615142822e-01" purity="3.7258493900299072e-01" nType="-99"/>
              </Node>
            </Node>
            <Node pos="r" depth="3" NCoef="0" IVar="-1" Cut="0.0000000000000000e+00" cType="1" res="7.3035210371017456e-03" rms="3.2184031605720520e-01" purity="6.0044229030609131e-01" nType="-99"/>
          </Node>
        </Node>
        <Node pos="r" depth="1" NCoef="0" IVar="8" Cut="7.7881103754043579e-01" cType="1" res="-3.0412359628826380e-03" rms="2.8397157788276672e-01" purity="4.2851832509040833e-01" nType="0">
          <Node pos="l" depth="2" NCoef="0" IVar="9" Cut="1.2010341882705688e-01" cType="1" res="-1.9855841528624296e-03" rms="2.8255802392959595e-01" purity="4.3464362621307373e-01" nType="0">
            <Node pos="l" depth="3" NCoef="0" IVar="8" Cut="3.0420443415641785e-01" cType="1" res="-1.1610461398959160e-02" rms="2.1303388476371765e-01" purity="8.6144231259822845e-02" nType="0">
              <Node pos="l" depth="4" NCoef="0" IVar="-1" Cut="0.0000000000000000e+00" cType="1" res="-2.3469312116503716e-02" rms="1.6215650737285614e-01" purity="5.8185871690511703e-02" nType="-99"/>
              <Node pos="r" depth="4" NCoef="0" IVar="-1" Cut="0.0000000000000000e+00" cType="1" res="-1.3286067405715585e-03" rms="2.5829920172691345e-01" purity="1.1765448004007339e-01" nType="-99"/>
            </Node>
            <Node pos="r" depth="3" NCoef="0" IVar="8" Cut="5.8891117572784424e-01" cType="1" res="-9.9952495656907558e-04" rms="2.8871876001358032e-01" purity="4.7034701704978943e-01" nType="0">
              <Node pos="l" depth="4" NCoef="0" IVar="2" Cut="2.0731706619262695e+00" cType="1" res="-2.0739471074193716e-04" rms="2.8579047322273254e-01" purity="4.6736505627632141e-01" nType="0">
                <Node pos="l" depth="5" NCoef="0" IVar="-1" Cut="0.0000000000000000e+00" cType="1" res="1.0861057089641690e-03" rms="3.0606767535209656e-01" purity="5.9174460172653198e-01" nType="-99"/>
                <Node pos="r" depth="5" NCoef="0" IVar="-1" Cut="0.0000000000000000e+00" cType="1" res="-5.0911894068121910e-03" rms="2.2509199380874634e-01" purity="1.4649531245231628e-01" nType="-99"/>
              </Node>
              <Node pos="r" depth="4" NCoef="0" IVar="-1" Cut="0.0000000000000000e+00" cType="1" res="-6.2550804577767849e-03" rms="3.3305692672729492e-01" purity="5.1953315734863281e-01" nType="-99"/>
            </Node>
          </Node>
          <Node pos="r" depth="2" NCoef="0" IVar="-1" Cut="0.0000000000000000e+00" cType="1" res="-1.3964703306555748e-02" rms="3.1444421410560608e-01" purity="2.8410312533378601e-01" nType="-99"/>
        </Node>
      </Node>
    </BinaryTree>
    <BinaryTree type="DecisionTree" boostWeight="1.0000000000000000e+00" itree="164">
      <Node pos="s" depth="0" NCoef="0" IVar="7" Cut="3.9374499320983887e+00" cType="1" res="-8.6721312254667282e-04" rms="2.9745343327522278e-01" purity="4.9782162904739380e-01" nType="0">
        <Node pos="l" depth="1" NCoef="0" IVar="9" Cut="9.5290589332580566e-01" cType="1" res="-1.2917901622131467e-03" rms="2.9813250899314880e-01" purity="5.0414550304412842e-01" nType="0">
          <Node pos="l" depth="2" NCoef="0" IVar="9" Cut="4.8845377564430237e-01" cType="1" res="-9.3455374008044600e-04" rms="2.9792284965515137e-01" purity="5.0672358274459839e-01" nType="0">
            <Node pos="l" depth="3" NCoef="0" IVar="7" Cut="1.2484554052352905e+00" cType="1" res="-2.7936589904129505e-03" rms="2.9536452889442444e-01" purity="4.7267234325408936e-01" nType="0">
              <Node pos="l" depth="4" NCoef="0" IVar="4" Cut="1.4016101074218750e+02" cType="1" res="-6.8147359415888786e-03" rms="3.1179204583168030e-01" purity="4.8683559894561768e-01" nType="0">
                <Node pos="l" depth="5" NCoef="0" IVar="-1" Cut="0.0000000000000000e+00" cType="1" res="-5.3251287899911404e-03" rms="3.1120273470878601e-01" purity="5.6896638870239258e-01" nType="-99"/>
                <Node pos="r" depth="5" NCoef="0" IVar="-1" Cut="0.0000000000000000e+00" cType="1" res="1.2592455605044961e-03" rms="3.1316351890563965e-01" purity="2.6938292384147644e-01" nType="-99"/>
              </Node>
              <Node pos="r" depth="4" NCoef="0" IVar="9" Cut="2.7435234189033508e-01" cType="1" res="1.3395579298958182e-03" rms="2.7740636467933655e-01" purity="4.5811423659324646e-01" nType="0">
                <Node pos="l" depth="5" NCoef="0" IVar="-1" Cut="0.0000000000000000e+00" cType="1" res="-2.1357091609388590e-03" rms="2.7671211957931519e-01" purity="3.6553958058357239e-01" nType="-99"/>
                <Node pos="r" depth="5" NCoef="0" IVar="-1" Cut="0.0000000000000000e+00" cType="1" res="4.9456423148512840e-03" rms="2.7824011445045471e-01" purity="5.9055674076080322e-01" nType="-99"/>
              </Node>
            </Node>
            <Node pos="r" depth="3" NCoef="0" IVar="4" Cut="7.5906387329101562e+01" cType="1" res="6.0344557277858257e-03" rms="3.0722334980964661e-01" purity="6.3436740636825562e-01" nType="0">
              <Node pos="l" depth="4" NCoef="0" IVar="6" Cut="1.6857328414916992e+00" cType="1" res="-4.3812240473926067e-03" rms="3.5661795735359192e-01" purity="3.7630727887153625e-01" nType="0">
                <Node pos="l" depth="5" NCoef="0" IVar="-1" Cut="0.0000000000000000e+00" cType="1" res="-1.0430977679789066e-02" rms="3.4907418489456177e-01" purity="2.9303371906280518e-01" nType="-99"/>
                <Node pos="r" depth="5" NCoef="0" IVar="-1" Cut="0.0000000000000000e+00" cType="1" res="5.8970702812075615e-03" rms="3.6218154430389404e-01" purity="4.5249423384666443e-01" nType="-99"/>
              </Node>
              <Node pos="r" depth="4" NCoef="0" IVar="4" Cut="1.4809109497070312e+02" cType="1" res="8.8172284886240959e-03" rms="2.9255571961402893e-01" purity="7.0331376791000366e-01" nType="0">
                <Node pos="l" depth="5" NCoef="0" IVar="-1" Cut="0.0000000000000000e+00" cType="1" res="6.3776145689189434e-03" rms="2.8344056010246277e-01" purity="7.5834107398986816e-01" nType="-99"/>
                <Node pos="r" depth="5" NCoef="0" IVar="-1" Cut="0.0000000000000000e+00" cType="1" res="-1.5357165830209851e-03" rms="3.4559234976768494e-01" purity="3.4670045971870422e-01" nType="-99"/>
              </Node>
            </Node>
          </Node>
          <Node pos="r" depth="2" NCoef="0" IVar="-1" Cut="0.0000000000000000e+00" cType="1" res="-8.7431007996201515e-03" rms="3.0746048688888550e-01" purity="3.8151341676712036e-01" nType="-99"/>
        </Node>
        <Node pos="r" depth="1" NCoef="0" IVar="-1" Cut="0.0000000000000000e+00" cType="1" res="1.3541517779231071e-02" rms="2.6179629564285278e-01" purity="1.9272130727767944e-01" nType="-99"/>
      </Node>
    </BinaryTree>
    <BinaryTree type="DecisionTree" boostWeight="1.0000000000000000e+00" itree="165">
      <Node pos="s" depth="0" NCoef="0" IVar="6" Cut="2.1454775333404541e+00" cType="1" res="-7.3608220554888248e-04" rms="2.9664823412895203e-01" purity="5.0019830465316772e-01" nType="0">
        <Node pos="l" depth="1" NCoef="0" IVar="7" Cut="1.9628784656524658e+00" cType="1" res="1.5008650952950120e-03" rms="3.0745145678520203e-01" purity="3.8953992724418640e-01" nType="0">
          <Node pos="l" depth="2" NCoef="0" IVar="1" Cut="1.0975610017776489e+00" cType="1" res="3.9432821795344353e-03" rms="3.1999805569648743e-01" purity="4.3729993700981140e-01" nType="0">
            <Node pos="l" depth="3" NCoef="0" IVar="0" Cut="3.0487804412841797e+00" cType="1" res="9.9187092855572701e-03" rms="3.2688996195793152e-01" purity="2.3443724215030670e-01" nType="0">
              <Node pos="l" depth="4" NCoef="0" IVar="3" Cut="1.0975610017776489e+00" cType="1" res="2.7107554487884045e-03" rms="2.5389635562896729e-01" purity="9.2330306768417358e-02" nType="0">
                <Node pos="l" depth="5" NCoef="0" IVar="-1" Cut="0.0000000000000000e+00" cType="1" res="-3.8883467204868793e-03" rms="2.5493401288986206e-01" purity="9.9873989820480347e-02" nType="-99"/>
                <Node pos="r" depth="5" NCoef="0" IVar="-1" Cut="0.0000000000000000e+00" cType="1" res="1.6253070905804634e-02" rms="2.5159725546836853e-01" purity="7.9700276255607605e-02" nType="-99"/>
              </Node>
              <Node pos="r" depth="4" NCoef="0" IVar="5" Cut="9.8663948059082031e+01" cType="1" res="1.8062705174088478e-02" rms="3.9323154091835022e-01" purity="3.9499852061271667e-01" nType="0">
                <Node pos="l" depth="5" NCoef="0" IVar="-1" Cut="0.0000000000000000e+00" cType="1" res="1.9716231618076563e-03" rms="4.0118196606636047e-01" purity="4.8783314228057861e-01" nType="-99"/>
                <Node pos="r" depth="5" NCoef="0" IVar="-1" Cut="0.0000000000000000e+00" cType="1" res="1.7017740756273270e-02" rms="3.7808308005332947e-01" purity="2.3318220674991608e-01" nType="-99"/>
              </Node>
            </Node>
            <Node pos="r" depth="3" NCoef="0" IVar="4" Cut="8.7512542724609375e+01" cType="1" res="-1.6284498851746321e-03" rms="3.1333261728286743e-01" purity="6.2645733356475830e-01" nType="0">
              <Node pos="l" depth="4" NCoef="0" IVar="-1" Cut="0.0000000000000000e+00" cType="1" res="-7.1849608793854713e-03" rms="3.5926443338394165e-01" purity="4.4329324364662170e-01" nType="-99"/>
              <Node pos="r" depth="4" NCoef="0" IVar="7" Cut="4.3087542057037354e-01" cType="1" res="2.2206595167517662e-03" rms="3.0189982056617737e-01" purity="6.6768199205398560e-01" nType="0">
                <Node pos="l" depth="5" NCoef="0" IVar="-1" Cut="0.0000000000000000e+00" cType="1" res="6.8918657489120960e-03" rms="3.1108593940734863e-01" purity="6.9642305374145508e-01" nType="-99"/>
                <Node pos="r" depth="5" NCoef="0" IVar="-1" Cut="0.0000000000000000e+00" cType="1" res="-1.1627535568550229e-03" rms="2.9780137538909912e-01" purity="6.5547585487365723e-01" nType="-99"/>
              </Node>
            </Node>
          </Node>
          <Node pos="r" depth="2" NCoef="0" IVar="7" Cut="2.9503052234649658e+00" cType="1" res="-6.9964034482836723e-03" rms="2.5893080234527588e-01" purity="2.2338090837001801e-01" nType="0">
            <Node pos="l" depth="3" NCoef="0" IVar="8" Cut="2.9548081755638123e-01" cType="1" res="-1.2336248531937599e-02" rms="2.6251015067100525e-01" purity="2.3935256898403168e-01" nType="0">
              <Node pos="l" depth="4" NCoef="0" IVar="7" Cut="2.4445519447326660e+00" cType="1" res="-1.7604088410735130e-02" rms="2.4550874531269073e-01" purity="2.2816601395606995e-01" nType="0">
                <Node pos="l" depth="5" NCoef="0" IVar="-1" Cut="0.0000000000000000e+00" cType="1" res="-9.2887440696358681e-03" rms="2.5275748968124390e-01" purity="2.3110890388488770e-01" nType="-99"/>
                <Node pos="r" depth="5" NCoef="0" IVar="-1" Cut="0.0000000000000000e+00" cType="1" res="-1.4097838662564754e-02" rms="2.3702022433280945e-01" purity="2.2484658658504486e-01" nType="-99"/>
              </Node>
              <Node pos="r" depth="4" NCoef="0" IVar="-1" Cut="0.0000000000000000e+00" cType="1" res="-1.5400891425088048e-03" rms="2.9088234901428223e-01" purity="2.5987505912780762e-01" nType="-99"/>
            </Node>
            <Node pos="r" depth="3" NCoef="0" IVar="7" Cut="3.4705097675323486e+00" cType="1" res="1.3127356069162488e-03" rms="2.5303649902343750e-01" purity="1.9852799177169800e-01" nType="0">
              <Node pos="l" depth="4" NCoef="0" IVar="-1" Cut="0.0000000000000000e+00" cType="1" res="3.5570671316236258e-03" rms="2.6983851194381714e-01" purity="2.3689514398574829e-01" nType="-99"/>
              <Node pos="r" depth="4" NCoef="0" IVar="-1" Cut="0.0000000000000000e+00" cType="1" res="-1.7925632419064641e-03" rms="2.3734030127525330e-01" purity="1.6504026949405670e-01" nType="-99"/>
            </Node>
          </Node>
        </Node>
        <Node pos="r" depth="1" NCoef="0" IVar="7" Cut="2.2810101509094238e+00" cType="1" res="-2.9614567756652832e-03" rms="2.8547817468643188e-01" purity="6.1028414964675903e-01" nType="0">
          <Node pos="l" depth="2" NCoef="0" IVar="9" Cut="3.0756551027297974e-01" cType="1" res="-5.0951838493347168e-03" rms="2.8875780105590820e-01" purity="6.2186282873153687e-01" nType="0">
            <Node pos="l" depth="3" NCoef="0" IVar="7" Cut="5.0070863962173462e-01" cType="1" res="-1.3441908173263073e-02" rms="3.1282562017440796e-01" purity="4.2265549302101135e-01" nType="0">
              <Node pos="l" depth="4" NCoef="0" IVar="-1" Cut="0.0000000000000000e+00" cType="1" res="-7.1850710082799196e-04" rms="3.3627557754516602e-01" purity="4.1550177335739136e-01" nType="-99"/>
              <Node pos="r" depth="4" NCoef="0" IVar="9" Cut="2.7027618885040283e-01" cType="1" res="-1.7235321924090385e-02" rms="3.0488264560699463e-01" purity="4.2493343353271484e-01" nType="0">
                <Node pos="l" depth="5" NCoef="0" IVar="-1" Cut="0.0000000000000000e+00" cType="1" res="-1.0491007007658482e-02" rms="3.1067016720771790e-01" purity="3.4495750069618225e-01" nType="-99"/>
                <Node pos="r" depth="5" NCoef="0" IVar="-1" Cut="0.0000000000000000e+00" cType="1" res="-4.1242726147174835e-03" rms="2.8876277804374695e-01" purity="6.3672685623168945e-01" nType="-99"/>
              </Node>
            </Node>
            <Node pos="r" depth="3" NCoef="0" IVar="8" Cut="2.6162365078926086e-01" cType="1" res="-6.2318926211446524e-04" rms="2.7489328384399414e-01" purity="7.2859382629394531e-01" nType="0">
              <Node pos="l" depth="4" NCoef="0" IVar="5" Cut="9.5913909912109375e+01" cType="1" res="-1.7463568598031998e-02" rms="3.1686583161354065e-01" purity="4.7930866479873657e-01" nType="0">
                <Node pos="l" depth="5" NCoef="0" IVar="-1" Cut="0.0000000000000000e+00" cType="1" res="-4.0626106783747673e-03" rms="3.2504919171333313e-01" purity="6.1774468421936035e-01" nType="-99"/>
                <Node pos="r" depth="5" NCoef="0" IVar="-1" Cut="0.0000000000000000e+00" cType="1" res="-1.5088740736246109e-02" rms="3.0399709939956665e-01" purity="2.7596950531005859e-01" nType="-99"/>
              </Node>
              <Node pos="r" depth="4" NCoef="0" IVar="7" Cut="9.4536530971527100e-01" cType="1" res="5.1075862720608711e-03" rms="2.5881406664848328e-01" purity="8.1342548131942749e-01" nType="0">
                <Node pos="l" depth="5" NCoef="0" IVar="-1" Cut="0.0000000000000000e+00" cType="1" res="-9.0370606631040573e-04" rms="2.7420702576637268e-01" purity="7.9216474294662476e-01" nType="-99"/>
                <Node pos="r" depth="5" NCoef="0" IVar="-1" Cut="0.0000000000000000e+00" cType="1" res="1.2602518312633038e-02" rms="2.2769832611083984e-01" purity="8.5208338499069214e-01" nType="-99"/>
              </Node>
            </Node>
          </Node>
          <Node pos="r" depth="2" NCoef="0" IVar="8" Cut="2.0141653716564178e-01" cType="1" res="6.4171594567596912e-03" rms="2.7039235830307007e-01" purity="5.5939108133316040e-01" nType="0">
            <Node pos="l" depth="3" NCoef="0" IVar="9" Cut="2.3325745761394501e-01" cType="1" res="-6.8578827194869518e-03" rms="2.8448432683944702e-01" purity="4.5310121774673462e-01" nType="0">
              <Node pos="l" depth="4" NCoef="0" IVar="-1" Cut="0.0000000000000000e+00" cType="1" res="-9.9945124238729477e-03" rms="2.5827181339263916e-01" purity="4.1988250613212585e-01" nType="-99"/>
              <Node pos="r" depth="4" NCoef="0" IVar="-1" Cut="0.0000000000000000e+00" cType="1" res="2.1641126368194818e-03" rms="3.0969753861427307e-01" purity="4.8864790797233582e-01" nType="-99"/>
            </Node>
            <Node pos="r" depth="3" NCoef="0" IVar="-1" Cut="0.0000000000000000e+00" cType="1" res="1.0685352608561516e-02" rms="2.5681376457214355e-01" purity="6.5274912118911743e-01" nType="-99"/>
          </Node>
        </Node>
      </Node>
    </BinaryTree>
    <BinaryTree type="DecisionTree" boostWeight="1.0000000000000000e+00" itree="166">
      <Node pos="s" depth="0" NCoef="0" IVar="8" Cut="4.8039728403091431e-01" cType="1" res="-1.1269000242464244e-04" rms="2.9706972837448120e-01" purity="4.9981331825256348e-01" nType="0">
        <Node pos="l" depth="1" NCoef="0" IVar="7" Cut="1.0638490915298462e+00" cType="1" res="-2.5081634521484375e-03" rms="2.8739964962005615e-01" purity="4.7817245125770569e-01" nType="0">
          <Node pos="l" depth="2" NCoef="0" IVar="9" Cut="4.8125523328781128e-01" cType="1" res="-6.4420802518725395e-03" rms="3.0323612689971924e-01" purity="5.0942683219909668e-01" nType="0">
            <Node pos="l" depth="3" NCoef="0" IVar="4" Cut="1.4569242858886719e+02" cType="1" res="-1.1431517079472542e-02" rms="3.0468657612800598e-01" purity="4.0854549407958984e-01" nType="0">
              <Node pos="l" depth="4" NCoef="0" IVar="6" Cut="1.3792350292205811e+00" cType="1" res="-1.7179058864712715e-02" rms="3.0472356081008911e-01" purity="4.8896458745002747e-01" nType="0">
                <Node pos="l" depth="5" NCoef="0" IVar="-1" Cut="0.0000000000000000e+00" cType="1" res="-2.1362639963626862e-02" rms="2.7731126546859741e-01" purity="1.7433261871337891e-01" nType="-99"/>
                <Node pos="r" depth="5" NCoef="0" IVar="-1" Cut="0.0000000000000000e+00" cType="1" res="-7.2268368676304817e-03" rms="3.0984959006309509e-01" purity="5.5246883630752563e-01" nType="-99"/>
              </Node>
              <Node pos="r" depth="4" NCoef="0" IVar="8" Cut="3.2874387502670288e-01" cType="1" res="4.4078221544623375e-03" rms="3.0402281880378723e-01" purity="1.8692298233509064e-01" nType="0">
                <Node pos="l" depth="5" NCoef="0" IVar="-1" Cut="0.0000000000000000e+00" cType="1" res="1.4546706341207027e-02" rms="2.7931708097457886e-01" purity="1.1734178662300110e-01" nType="-99"/>
                <Node pos="r" depth="5" NCoef="0" IVar="-1" Cut="0.0000000000000000e+00" cType="1" res="-6.9010583683848381e-03" rms="3.3543765544891357e-01" purity="2.8693631291389465e-01" nType="-99"/>
              </Node>
            </Node>
            <Node pos="r" depth="3" NCoef="0" IVar="4" Cut="1.3403594970703125e+02" cType="1" res="7.4281974229961634e-04" rms="3.0098989605903625e-01" purity="6.5469819307327271e-01" nType="0">
              <Node pos="l" depth="4" NCoef="0" IVar="7" Cut="5.4489779472351074e-01" cType="1" res="2.9323014896363020e-03" rms="2.9572355747222900e-01" purity="6.8583786487579346e-01" nType="0">
                <Node pos="l" depth="5" NCoef="0" IVar="-1" Cut="0.0000000000000000e+00" cType="1" res="3.9167855866253376e-03" rms="2.9420045018196106e-01" purity="7.0237874984741211e-01" nType="-99"/>
                <Node pos="r" depth="5" NCoef="0" IVar="-1" Cut="0.0000000000000000e+00" cType="1" res="-1.5237621264532208e-03" rms="2.9771408438682556e-01" purity="6.6306304931640625e-01" nType="-99"/>
              </Node>
              <Node pos="r" depth="4" NCoef="0" IVar="-1" Cut="0.0000000000000000e+00" cType="1" res="-5.3388983942568302e-03" rms="3.2833445072174072e-01" purity="4.8245784640312195e-01" nType="-99"/>
            </Node>
          </Node>
          <Node pos="r" depth="2" NCoef="0" IVar="8" Cut="3.2817411422729492e-01" cType="1" res="4.2345852125436068e-04" rms="2.7496904134750366e-01" purity="4.5488113164901733e-01" nType="0">
            <Node pos="l" depth="3" NCoef="0" IVar="1" Cut="1.0975610017776489e+00" cType="1" res="-3.6191376857459545e-03" rms="2.7318978309631348e-01" purity="4.0318131446838379e-01" nType="0">
              <Node pos="l" depth="4" NCoef="0" IVar="6" Cut="1.6857343912124634e+00" cType="1" res="-8.6480062454938889e-03" rms="2.6027086377143860e-01" purity="1.7440572381019592e-01" nType="0">
                <Node pos="l" depth="5" NCoef="0" IVar="-1" Cut="0.0000000000000000e+00" cType="1" res="-1.3330410001799464e-03" rms="2.2925220429897308e-01" purity="9.8557010293006897e-02" nType="-99"/>
                <Node pos="r" depth="5" NCoef="0" IVar="-1" Cut="0.0000000000000000e+00" cType="1" res="-7.3237866163253784e-03" rms="2.7949979901313782e-01" purity="2.2654445469379425e-01" nType="-99"/>
              </Node>
              <Node pos="r" depth="4" NCoef="0" IVar="7" Cut="3.2770481109619141e+00" cType="1" res="9.4565842300653458e-04" rms="2.8433188796043396e-01" purity="6.1084508895874023e-01" nType="0">
                <Node pos="l" depth="5" NCoef="0" IVar="-1" Cut="0.0000000000000000e+00" cType="1" res="-1.1675942223519087e-03" rms="2.8368711471557617e-01" purity="6.2709677219390869e-01" nType="-99"/>
                <Node pos="r" depth="5" NCoef="0" IVar="-1" Cut="0.0000000000000000e+00" cType="1" res="9.0622920542955399e-03" rms="2.8730326890945435e-01" purity="5.2111643552780151e-01" nType="-99"/>
              </Node>
            </Node>
            <Node pos="r" depth="3" NCoef="0" IVar="7" Cut="1.4675740003585815e+00" cType="1" res="1.0901855304837227e-02" rms="2.7925583720207214e-01" purity="5.8888679742813110e-01" nType="0">
              <Node pos="l" depth="4" NCoef="0" IVar="-1" Cut="0.0000000000000000e+00" cType="1" res="-5.3072912851348519e-04" rms="2.8135022521018982e-01" purity="6.3533264398574829e-01" nType="-99"/>
              <Node pos="r" depth="4" NCoef="0" IVar="9" Cut="1.9262936711311340e-01" cType="1" res="1.8421374261379242e-02" rms="2.7765384316444397e-01" purity="5.5934882164001465e-01" nType="0">
                <Node pos="l" depth="5" NCoef="0" IVar="-1" Cut="0.0000000000000000e+00" cType="1" res="1.6746290493756533e-03" rms="2.9783505201339722e-01" purity="2.6222974061965942e-01" nType="-99"/>
                <Node pos="r" depth="5" NCoef="0" IVar="-1" Cut="0.0000000000000000e+00" cType="1" res="1.5829622745513916e-02" rms="2.6584875583648682e-01" purity="7.1853053569793701e-01" nType="-99"/>
              </Node>
            </Node>
          </Node>
        </Node>
        <Node pos="r" depth="1" NCoef="0" IVar="5" Cut="1.2391979217529297e+02" cType="1" res="7.1894591674208641e-03" rms="3.2466635107994080e-01" purity="5.6578153371810913e-01" nType="0">
          <Node pos="l" depth="2" NCoef="0" IVar="5" Cut="1.0482382965087891e+02" cType="1" res="9.2671616002917290e-03" rms="3.2391586899757385e-01" purity="5.9594756364822388e-01" nType="0">
            <Node pos="l" depth="3" NCoef="0" IVar="6" Cut="1.2259849309921265e+00" cType="1" res="7.1473657153546810e-03" rms="3.1995636224746704e-01" purity="6.2134057283401489e-01" nType="0">
              <Node pos="l" depth="4" NCoef="0" IVar="8" Cut="8.0533558130264282e-01" cType="1" res="-4.4341441243886948e-03" rms="3.3646184206008911e-01" purity="5.1699066162109375e-01" nType="0">
                <Node pos="l" depth="5" NCoef="0" IVar="-1" Cut="0.0000000000000000e+00" cType="1" res="-5.3440844640135765e-03" rms="3.3246016502380371e-01" purity="5.2317345142364502e-01" nType="-99"/>
                <Node pos="r" depth="5" NCoef="0" IVar="-1" Cut="0.0000000000000000e+00" cType="1" res="3.9199627935886383e-03" rms="3.4305211901664734e-01" purity="5.0594753026962280e-01" nType="-99"/>
              </Node>
              <Node pos="r" depth="4" NCoef="0" IVar="0" Cut="2.0731706619262695e+00" cType="1" res="1.2936383485794067e-02" rms="3.1121677160263062e-01" purity="6.7349994182586670e-01" nType="0">
                <Node pos="l" depth="5" NCoef="0" IVar="-1" Cut="0.0000000000000000e+00" cType="1" res="1.2118482962250710e-02" rms="3.2503747940063477e-01" purity="3.9798536896705627e-01" nType="-99"/>
                <Node pos="r" depth="5" NCoef="0" IVar="-1" Cut="0.0000000000000000e+00" cType="1" res="3.7382445298135281e-03" rms="3.0483591556549072e-01" purity="7.9341781139373779e-01" nType="-99"/>
              </Node>
            </Node>
            <Node pos="r" depth="3" NCoef="0" IVar="-1" Cut="0.0000000000000000e+00" cType="1" res="1.1762765236198902e-02" rms="3.5324275493621826e-01" purity="3.9498826861381531e-01" nType="-99"/>
          </Node>
          <Node pos="r" depth="2" NCoef="0" IVar="-1" Cut="0.0000000000000000e+00" cType="1" res="-4.2979517020285130e-03" rms="3.2996299862861633e-01" purity="3.3288583159446716e-01" nType="-99"/>
        </Node>
      </Node>
    </BinaryTree>
    <BinaryTree type="DecisionTree" boostWeight="1.0000000000000000e+00" itree="167">
      <Node pos="s" depth="0" NCoef="0" IVar="7" Cut="3.1915464401245117e+00" cType="1" res="-3.5303796175867319e-04" rms="2.9680183529853821e-01" purity="4.9942013621330261e-01" nType="0">
        <Node pos="l" depth="1" NCoef="0" IVar="8" Cut="3.5804036259651184e-01" cType="1" res="-9.0619729598984122e-04" rms="2.9885265231132507e-01" purity="5.1104068756103516e-01" nType="0">
          <Node pos="l" depth="2" NCoef="0" IVar="4" Cut="5.8497329711914062e+01" cType="1" res="-3.7493607960641384e-03" rms="2.8818622231483459e-01" purity="4.3004655838012695e-01" nType="0">
            <Node pos="l" depth="3" NCoef="0" IVar="-1" Cut="0.0000000000000000e+00" cType="1" res="-1.2040050700306892e-02" rms="2.7921241521835327e-01" purity="1.4282314479351044e-01" nType="-99"/>
            <Node pos="r" depth="3" NCoef="0" IVar="8" Cut="1.9258722662925720e-01" cType="1" res="-2.4439492262899876e-03" rms="2.8880912065505981e-01" purity="4.5169171690940857e-01" nType="0">
              <Node pos="l" depth="4" NCoef="0" IVar="7" Cut="1.7125371694564819e+00" cType="1" res="-7.3390966281294823e-03" rms="2.7611893415451050e-01" purity="2.6714369654655457e-01" nType="0">
                <Node pos="l" depth="5" NCoef="0" IVar="-1" Cut="0.0000000000000000e+00" cType="1" res="4.6087746159173548e-04" rms="2.8392812609672546e-01" purity="2.6021522283554077e-01" nType="-99"/>
                <Node pos="r" depth="5" NCoef="0" IVar="-1" Cut="0.0000000000000000e+00" cType="1" res="-1.0294992476701736e-02" rms="2.6643341779708862e-01" purity="2.7520844340324402e-01" nType="-99"/>
              </Node>
              <Node pos="r" depth="4" NCoef="0" IVar="7" Cut="1.8682224750518799e+00" cType="1" res="-2.4053177912719548e-04" rms="2.9431617259979248e-01" purity="5.3476101160049438e-01" nType="0">
                <Node pos="l" depth="5" NCoef="0" IVar="-1" Cut="0.0000000000000000e+00" cType="1" res="-1.9961367361247540e-03" rms="3.0867493152618408e-01" purity="5.0497961044311523e-01" nType="-99"/>
                <Node pos="r" depth="5" NCoef="0" IVar="-1" Cut="0.0000000000000000e+00" cType="1" res="5.0275302492082119e-03" rms="2.5660124421119690e-01" purity="6.0588312149047852e-01" nType="-99"/>
              </Node>
            </Node>
          </Node>
          <Node pos="r" depth="2" NCoef="0" IVar="8" Cut="1.0198529958724976e+00" cType="1" res="2.0177133847028017e-03" rms="3.0941152572631836e-01" purity="5.9433501958847046e-01" nType="0">
            <Node pos="l" depth="3" NCoef="0" IVar="8" Cut="5.8402335643768311e-01" cType="1" res="2.7702071238309145e-03" rms="3.0781486630439758e-01" purity="6.0926061868667603e-01" nType="0">
              <Node pos="l" depth="4" NCoef="0" IVar="1" Cut="2.0731706619262695e+00" cType="1" res="1.4966157323215157e-04" rms="2.9531314969062805e-01" purity="6.2975835800170898e-01" nType="0">
                <Node pos="l" depth="5" NCoef="0" IVar="-1" Cut="0.0000000000000000e+00" cType="1" res="-3.6486655008047819e-03" rms="3.2814151048660278e-01" purity="3.9799436926841736e-01" nType="-99"/>
                <Node pos="r" depth="5" NCoef="0" IVar="-1" Cut="0.0000000000000000e+00" cType="1" res="3.9617251604795456e-03" rms="2.6838919520378113e-01" purity="8.0064338445663452e-01" nType="-99"/>
              </Node>
              <Node pos="r" depth="4" NCoef="0" IVar="5" Cut="9.5055984497070312e+01" cType="1" res="1.0227988474071026e-02" rms="3.4078320860862732e-01" purity="5.5092644691467285e-01" nType="0">
                <Node pos="l" depth="5" NCoef="0" IVar="-1" Cut="0.0000000000000000e+00" cType="1" res="8.1140743568539619e-03" rms="3.3666017651557922e-01" purity="6.3284677267074585e-01" nType="-99"/>
                <Node pos="r" depth="5" NCoef="0" IVar="-1" Cut="0.0000000000000000e+00" cType="1" res="-5.7258890010416508e-03" rms="3.5114994645118713e-01" purity="3.1903809309005737e-01" nType="-99"/>
              </Node>
            </Node>
            <Node pos="r" depth="3" NCoef="0" IVar="-1" Cut="0.0000000000000000e+00" cType="1" res="-5.9477682225406170e-03" rms="3.3922699093818665e-01" purity="2.9788130521774292e-01" nType="-99"/>
          </Node>
        </Node>
        <Node pos="r" depth="1" NCoef="0" IVar="9" Cut="1.2781918048858643e-01" cType="1" res="7.9019451513886452e-03" rms="2.6417544484138489e-01" purity="3.2600271701812744e-01" nType="0">
          <Node pos="l" depth="2" NCoef="0" IVar="-1" Cut="0.0000000000000000e+00" cType="1" res="-6.5380702726542950e-03" rms="2.4301902949810028e-01" purity="1.7213299870491028e-01" nType="-99"/>
          <Node pos="r" depth="2" NCoef="0" IVar="-1" Cut="0.0000000000000000e+00" cType="1" res="1.1871404945850372e-02" rms="2.7846723794937134e-01" purity="4.4298040866851807e-01" nType="-99"/>
        </Node>
      </Node>
    </BinaryTree>
    <BinaryTree type="DecisionTree" boostWeight="1.0000000000000000e+00" itree="168">
      <Node pos="s" depth="0" NCoef="0" IVar="8" Cut="1.1810608953237534e-01" cType="1" res="-1.4934070641174912e-03" rms="2.9587244987487793e-01" purity="4.9849307537078857e-01" nType="0">
        <Node pos="l" depth="1" NCoef="0" IVar="8" Cut="6.3500121235847473e-02" cType="1" res="-9.8893390968441963e-03" rms="2.4541154503822327e-01" purity="1.6200949251651764e-01" nType="0">
          <Node pos="l" depth="2" NCoef="0" IVar="-1" Cut="0.0000000000000000e+00" cType="1" res="-2.4890441447496414e-02" rms="1.9904734194278717e-01" purity="6.4871147274971008e-02" nType="-99"/>
          <Node pos="r" depth="2" NCoef="0" IVar="0" Cut="3.0487804412841797e+00" cType="1" res="-3.1975917518138885e-03" rms="2.6243034005165100e-01" purity="2.0345646142959595e-01" nType="0">
            <Node pos="l" depth="3" NCoef="0" IVar="-1" Cut="0.0000000000000000e+00" cType="1" res="-8.3256009966135025e-03" rms="2.1394051611423492e-01" purity="8.6976952850818634e-02" nType="-99"/>
            <Node pos="r" depth="3" NCoef="0" IVar="-1" Cut="0.0000000000000000e+00" cType="1" res="1.8751507159322500e-03" rms="3.1811845302581787e-01" purity="3.6696210503578186e-01" nType="-99"/>
          </Node>
        </Node>
        <Node pos="r" depth="1" NCoef="0" IVar="8" Cut="8.0786550045013428e-01" cType="1" res="-8.3625939441844821e-04" rms="2.9945349693298340e-01" purity="5.2482956647872925e-01" nType="0">
          <Node pos="l" depth="2" NCoef="0" IVar="5" Cut="4.8152324676513672e+01" cType="1" res="-2.1070250659249723e-04" rms="2.9711532592773438e-01" purity="5.3268736600875854e-01" nType="0">
            <Node pos="l" depth="3" NCoef="0" IVar="7" Cut="6.3674533367156982e-01" cType="1" res="-1.1303899809718132e-02" rms="3.4548714756965637e-01" purity="3.6125972867012024e-01" nType="0">
              <Node pos="l" depth="4" NCoef="0" IVar="-1" Cut="0.0000000000000000e+00" cType="1" res="-9.8324418067932129e-03" rms="3.5159987211227417e-01" purity="4.3164962530136108e-01" nType="-99"/>
              <Node pos="r" depth="4" NCoef="0" IVar="1" Cut="1.0975610017776489e+00" cType="1" res="-3.9291647262871265e-03" rms="3.4201142191886902e-01" purity="3.2440000772476196e-01" nType="0">
                <Node pos="l" depth="5" NCoef="0" IVar="-1" Cut="0.0000000000000000e+00" cType="1" res="1.7706698272377253e-03" rms="3.1980556249618530e-01" purity="1.5792411565780640e-01" nType="-99"/>
                <Node pos="r" depth="5" NCoef="0" IVar="-1" Cut="0.0000000000000000e+00" cType="1" res="-4.3336246162652969e-03" rms="3.6373129487037659e-01" purity="4.9936652183532715e-01" nType="-99"/>
              </Node>
            </Node>
            <Node pos="r" depth="3" NCoef="0" IVar="7" Cut="3.0251033306121826e+00" cType="1" res="6.5189582528546453e-04" rms="2.9300197958946228e-01" purity="5.4601746797561646e-01" nType="0">
              <Node pos="l" depth="4" NCoef="0" IVar="8" Cut="4.3775054812431335e-01" cType="1" res="-3.5127381124766544e-05" rms="2.9463911056518555e-01" purity="5.5309790372848511e-01" nType="0">
                <Node pos="l" depth="5" NCoef="0" IVar="-1" Cut="0.0000000000000000e+00" cType="1" res="-1.2186763342469931e-03" rms="2.9113170504570007e-01" purity="5.1603829860687256e-01" nType="-99"/>
                <Node pos="r" depth="5" NCoef="0" IVar="-1" Cut="0.0000000000000000e+00" cType="1" res="2.4588559754192829e-03" rms="3.0236825346946716e-01" purity="6.3692331314086914e-01" nType="-99"/>
              </Node>
              <Node pos="r" depth="4" NCoef="0" IVar="6" Cut="2.0688669681549072e+00" cType="1" res="1.1858333833515644e-02" rms="2.6462122797966003e-01" purity="4.3052434921264648e-01" nType="0">
                <Node pos="l" depth="5" NCoef="0" IVar="-1" Cut="0.0000000000000000e+00" cType="1" res="-1.3107575941830873e-03" rms="2.5534081459045410e-01" purity="2.3579801619052887e-01" nType="-99"/>
                <Node pos="r" depth="5" NCoef="0" IVar="-1" Cut="0.0000000000000000e+00" cType="1" res="1.2434777803719044e-02" rms="2.7134677767753601e-01" purity="5.8708167076110840e-01" nType="-99"/>
              </Node>
            </Node>
          </Node>
          <Node pos="r" depth="2" NCoef="0" IVar="6" Cut="1.1493667364120483e+00" cType="1" res="-1.2189581058919430e-02" rms="3.3889856934547424e-01" purity="3.8221612572669983e-01" nType="0">
            <Node pos="l" depth="3" NCoef="0" IVar="-1" Cut="0.0000000000000000e+00" cType="1" res="-8.2240125630050898e-04" rms="3.3950248360633850e-01" purity="4.2363372445106506e-01" nType="-99"/>
            <Node pos="r" depth="3" NCoef="0" IVar="-1" Cut="0.0000000000000000e+00" cType="1" res="-1.1325093917548656e-02" rms="3.3772343397140503e-01" purity="3.3119323849678040e-01" nType="-99"/>
          </Node>
        </Node>
      </Node>
    </BinaryTree>
    <BinaryTree type="DecisionTree" boostWeight="1.0000000000000000e+00" itree="169">
      <Node pos="s" depth="0" NCoef="0" IVar="5" Cut="6.6192306518554688e+01" cType="1" res="-6.6718878224492073e-04" rms="2.9680657386779785e-01" purity="4.9781176447868347e-01" nType="0">
        <Node pos="l" depth="1" NCoef="0" IVar="8" Cut="7.4736320972442627e-01" cType="1" res="-6.9912173785269260e-03" rms="3.3503749966621399e-01" purity="4.1156536340713501e-01" nType="0">
          <Node pos="l" depth="2" NCoef="0" IVar="4" Cut="1.4571878051757812e+02" cType="1" res="-9.6763269975781441e-03" rms="3.3029171824455261e-01" purity="4.0861400961875916e-01" nType="0">
            <Node pos="l" depth="3" NCoef="0" IVar="6" Cut="2.5285971164703369e+00" cType="1" res="-1.3224145397543907e-02" rms="3.3831134438514709e-01" purity="4.8139035701751709e-01" nType="0">
              <Node pos="l" depth="4" NCoef="0" IVar="7" Cut="7.6367676258087158e-01" cType="1" res="-1.8922865390777588e-02" rms="3.3687388896942139e-01" purity="4.3159216642379761e-01" nType="0">
                <Node pos="l" depth="5" NCoef="0" IVar="-1" Cut="0.0000000000000000e+00" cType="1" res="-1.2560879811644554e-02" rms="3.4607157111167908e-01" purity="5.1407510042190552e-01" nType="-99"/>
                <Node pos="r" depth="5" NCoef="0" IVar="-1" Cut="0.0000000000000000e+00" cType="1" res="-5.2130888216197491e-03" rms="3.3071500062942505e-01" purity="3.7928032875061035e-01" nType="-99"/>
              </Node>
              <Node pos="r" depth="4" NCoef="0" IVar="-1" Cut="0.0000000000000000e+00" cType="1" res="-5.1063601858913898e-04" rms="3.4100580215454102e-01" purity="5.8619230985641479e-01" nType="-99"/>
            </Node>
            <Node pos="r" depth="3" NCoef="0" IVar="-1" Cut="0.0000000000000000e+00" cType="1" res="1.4644725015386939e-03" rms="3.0075258016586304e-01" purity="1.5822149813175201e-01" nType="-99"/>
          </Node>
          <Node pos="r" depth="2" NCoef="0" IVar="-1" Cut="0.0000000000000000e+00" cType="1" res="4.9886745400726795e-03" rms="3.6841133236885071e-01" purity="4.3394777178764343e-01" nType="-99"/>
        </Node>
        <Node pos="r" depth="1" NCoef="0" IVar="8" Cut="8.4287840127944946e-01" cType="1" res="7.9276680480688810e-04" rms="2.8723883628845215e-01" purity="5.1772254705429077e-01" nType="0">
          <Node pos="l" depth="2" NCoef="0" IVar="0" Cut="1.0975610017776489e+00" cType="1" res="1.3678005198016763e-03" rms="2.8605443239212036e-01" purity="5.2306783199310303e-01" nType="0">
            <Node pos="l" depth="3" NCoef="0" IVar="4" Cut="2.0937738037109375e+02" cType="1" res="0.0000000000000000e+00" rms="0.0000000000000000e+00" purity="1.9670535624027252e-01" nType="0">
              <Node pos="l" depth="4" NCoef="0" IVar="6" Cut="4.5974588394165039e-01" cType="1" res="0.0000000000000000e+00" rms="0.0000000000000000e+00" purity="2.0788015425205231e-01" nType="0">
                <Node pos="l" depth="5" NCoef="0" IVar="-1" Cut="0.0000000000000000e+00" cType="1" res="-1.1229667812585831e-02" rms="2.3208628594875336e-01" purity="7.6489239931106567e-02" nType="-99"/>
                <Node pos="r" depth="5" NCoef="0" IVar="-1" Cut="0.0000000000000000e+00" cType="1" res="-1.7906574066728354e-03" rms="2.6630097627639771e-01" purity="2.2300609946250916e-01" nType="-99"/>
              </Node>
              <Node pos="r" depth="4" NCoef="0" IVar="-1" Cut="0.0000000000000000e+00" cType="1" res="8.3666210994124413e-03" rms="2.1707147359848022e-01" purity="6.6859312355518341e-02" nType="-99"/>
            </Node>
            <Node pos="r" depth="3" NCoef="0" IVar="7" Cut="9.4937461614608765e-01" cType="1" res="3.5009954590350389e-03" rms="2.9811006784439087e-01" purity="6.8299406766891479e-01" nType="0">
              <Node pos="l" depth="4" NCoef="0" IVar="5" Cut="1.0280023193359375e+02" cType="1" res="-6.3823274103924632e-04" rms="3.0446895956993103e-01" purity="7.1529966592788696e-01" nType="0">
                <Node pos="l" depth="5" NCoef="0" IVar="-1" Cut="0.0000000000000000e+00" cType="1" res="-3.3439279068261385e-03" rms="2.7734568715095520e-01" purity="8.1168085336685181e-01" nType="-99"/>
                <Node pos="r" depth="5" NCoef="0" IVar="-1" Cut="0.0000000000000000e+00" cType="1" res="3.8994413334876299e-03" rms="3.5346704721450806e-01" purity="5.1755893230438232e-01" nType="-99"/>
              </Node>
              <Node pos="r" depth="4" NCoef="0" IVar="8" Cut="1.4426088333129883e-01" cType="1" res="6.8647731095552444e-03" rms="2.9279765486717224e-01" purity="6.5674066543579102e-01" nType="0">
                <Node pos="l" depth="5" NCoef="0" IVar="-1" Cut="0.0000000000000000e+00" cType="1" res="-2.5468829553574324e-03" rms="3.0836927890777588e-01" purity="3.7327644228935242e-01" nType="-99"/>
                <Node pos="r" depth="5" NCoef="0" IVar="-1" Cut="0.0000000000000000e+00" cType="1" res="4.7607277520000935e-03" rms="2.9038181900978088e-01" purity="6.9863218069076538e-01" nType="-99"/>
              </Node>
            </Node>
          </Node>
          <Node pos="r" depth="2" NCoef="0" IVar="-1" Cut="0.0000000000000000e+00" cType="1" res="-7.4601043015718460e-03" rms="3.1834876537322998e-01" purity="3.6727780103683472e-01" nType="-99"/>
        </Node>
      </Node>
    </BinaryTree>
    <BinaryTree type="DecisionTree" boostWeight="1.0000000000000000e+00" itree="170">
      <Node pos="s" depth="0" NCoef="0" IVar="4" Cut="1.1072533416748047e+02" cType="1" res="4.3975943117402494e-04" rms="2.9698792099952698e-01" purity="5.0169157981872559e-01" nType="0">
        <Node pos="l" depth="1" NCoef="0" IVar="8" Cut="7.6065206527709961e-01" cType="1" res="-1.7514077480882406e-03" rms="3.1152024865150452e-01" purity="4.7700786590576172e-01" nType="0">
          <Node pos="l" depth="2" NCoef="0" IVar="7" Cut="5.0911247730255127e-01" cType="1" res="-2.4469285272061825e-03" rms="3.0792164802551270e-01" purity="4.7799178957939148e-01" nType="0">
            <Node pos="l" depth="3" NCoef="0" IVar="5" Cut="1.1700000762939453e+02" cType="1" res="-8.0355629324913025e-03" rms="3.1903517246246338e-01" purity="5.4067265987396240e-01" nType="0">
              <Node pos="l" depth="4" NCoef="0" IVar="6" Cut="1.5324807167053223e+00" cType="1" res="-1.2877070344984531e-02" rms="3.1651413440704346e-01" purity="6.0321247577667236e-01" nType="0">
                <Node pos="l" depth="5" NCoef="0" IVar="-1" Cut="0.0000000000000000e+00" cType="1" res="-1.8401972949504852e-02" rms="3.2286429405212402e-01" purity="4.4297161698341370e-01" nType="-99"/>
                <Node pos="r" depth="5" NCoef="0" IVar="-1" Cut="0.0000000000000000e+00" cType="1" res="-1.9814693368971348e-03" rms="3.1383979320526123e-01" purity="6.5774744749069214e-01" nType="-99"/>
              </Node>
              <Node pos="r" depth="4" NCoef="0" IVar="-1" Cut="0.0000000000000000e+00" cType="1" res="5.4020667448639870e-03" rms="3.2781144976615906e-01" purity="3.0230927467346191e-01" nType="-99"/>
            </Node>
            <Node pos="r" depth="3" NCoef="0" IVar="6" Cut="6.8961954116821289e-01" cType="1" res="-4.9217685591429472e-04" rms="3.0391427874565125e-01" purity="4.5606780052185059e-01" nType="0">
              <Node pos="l" depth="4" NCoef="0" IVar="8" Cut="3.1566885113716125e-01" cType="1" res="8.8102323934435844e-03" rms="3.0968266725540161e-01" purity="2.8473645448684692e-01" nType="0">
                <Node pos="l" depth="5" NCoef="0" IVar="-1" Cut="0.0000000000000000e+00" cType="1" res="2.5374640244990587e-03" rms="2.7983453869819641e-01" purity="2.0275421440601349e-01" nType="-99"/>
                <Node pos="r" depth="5" NCoef="0" IVar="-1" Cut="0.0000000000000000e+00" cType="1" res="6.1622010543942451e-03" rms="3.3682093024253845e-01" purity="3.6669874191284180e-01" nType="-99"/>
              </Node>
              <Node pos="r" depth="4" NCoef="0" IVar="9" Cut="4.2030602693557739e-01" cType="1" res="-1.8967072246596217e-03" rms="3.0300897359848022e-01" purity="4.8193633556365967e-01" nType="0">
                <Node pos="l" depth="5" NCoef="0" IVar="-1" Cut="0.0000000000000000e+00" cType="1" res="-2.9944565612822771e-03" rms="2.9978588223457336e-01" purity="4.3431845307350159e-01" nType="-99"/>
                <Node pos="r" depth="5" NCoef="0" IVar="-1" Cut="0.0000000000000000e+00" cType="1" res="2.8396050911396742e-03" rms="3.0915984511375427e-01" purity="5.7635760307312012e-01" nType="-99"/>
              </Node>
            </Node>
          </Node>
          <Node pos="r" depth="2" NCoef="0" IVar="-1" Cut="0.0000000000000000e+00" cType="1" res="4.5187687501311302e-03" rms="3.7478414177894592e-01" purity="4.5775672793388367e-01" nType="-99"/>
        </Node>
        <Node pos="r" depth="1" NCoef="0" IVar="9" Cut="6.9521570205688477e-01" cType="1" res="2.1842869464308023e-03" rms="2.8487619757652283e-01" purity="5.2134388685226440e-01" nType="0">
          <Node pos="l" depth="2" NCoef="0" IVar="9" Cut="3.2226243615150452e-01" cType="1" res="2.9885661788284779e-03" rms="2.8501236438751221e-01" purity="5.2093404531478882e-01" nType="0">
            <Node pos="l" depth="3" NCoef="0" IVar="7" Cut="5.0444740056991577e-01" cType="1" res="-1.1468533193692565e-03" rms="2.8582158684730530e-01" purity="3.7943542003631592e-01" nType="0">
              <Node pos="l" depth="4" NCoef="0" IVar="6" Cut="2.1454770565032959e+00" cType="1" res="1.0381069034337997e-02" rms="3.2615000009536743e-01" purity="3.4348067641258240e-01" nType="0">
                <Node pos="l" depth="5" NCoef="0" IVar="-1" Cut="0.0000000000000000e+00" cType="1" res="1.3091953471302986e-02" rms="3.2338118553161621e-01" purity="2.5548973679542542e-01" nType="-99"/>
                <Node pos="r" depth="5" NCoef="0" IVar="-1" Cut="0.0000000000000000e+00" cType="1" res="-1.0650556068867445e-03" rms="3.2856675982475281e-01" purity="4.3611276149749756e-01" nType="-99"/>
              </Node>
              <Node pos="r" depth="4" NCoef="0" IVar="8" Cut="7.0572292804718018e-01" cType="1" res="-3.5178018733859062e-03" rms="2.7674019336700439e-01" purity="3.8683024048805237e-01" nType="0">
                <Node pos="l" depth="5" NCoef="0" IVar="-1" Cut="0.0000000000000000e+00" cType="1" res="-1.0580917587503791e-03" rms="2.7380967140197754e-01" purity="3.9709189534187317e-01" nType="-99"/>
                <Node pos="r" depth="5" NCoef="0" IVar="-1" Cut="0.0000000000000000e+00" cType="1" res="-1.0801666416227818e-02" rms="3.0421441793441772e-01" purity="2.8306597471237183e-01" nType="-99"/>
              </Node>
            </Node>
            <Node pos="r" depth="3" NCoef="0" IVar="4" Cut="1.4129785156250000e+02" cType="1" res="8.1079667434096336e-03" rms="2.8392398357391357e-01" purity="6.9610083103179932e-01" nType="0">
              <Node pos="l" depth="4" NCoef="0" IVar="7" Cut="9.1413104534149170e-01" cType="1" res="4.4148815795779228e-03" rms="2.5035434961318970e-01" purity="8.1712722778320312e-01" nType="0">
                <Node pos="l" depth="5" NCoef="0" IVar="-1" Cut="0.0000000000000000e+00" cType="1" res="-6.6035642521455884e-04" rms="2.4916422367095947e-01" purity="8.3252012729644775e-01" nType="-99"/>
                <Node pos="r" depth="5" NCoef="0" IVar="-1" Cut="0.0000000000000000e+00" cType="1" res="8.1507405266165733e-03" rms="2.5174954533576965e-01" purity="7.9675692319869995e-01" nType="-99"/>
              </Node>
              <Node pos="r" depth="4" NCoef="0" IVar="7" Cut="5.7875442504882812e-01" cType="1" res="1.5870321542024612e-02" rms="3.4383407235145569e-01" purity="4.4172033667564392e-01" nType="0">
                <Node pos="l" depth="5" NCoef="0" IVar="-1" Cut="0.0000000000000000e+00" cType="1" res="1.1594159528613091e-02" rms="3.6548206210136414e-01" purity="4.9547153711318970e-01" nType="-99"/>
                <Node pos="r" depth="5" NCoef="0" IVar="-1" Cut="0.0000000000000000e+00" cType="1" res="3.8374895229935646e-03" rms="3.2959532737731934e-01" purity="4.0864428877830505e-01" nType="-99"/>
              </Node>
            </Node>
          </Node>
          <Node pos="r" depth="2" NCoef="0" IVar="-1" Cut="0.0000000000000000e+00" cType="1" res="-8.8682947680354118e-03" rms="2.8116393089294434e-01" purity="5.3061497211456299e-01" nType="-99"/>
        </Node>
      </Node>
    </BinaryTree>
    <BinaryTree type="DecisionTree" boostWeight="1.0000000000000000e+00" itree="171">
      <Node pos="s" depth="0" NCoef="0" IVar="6" Cut="3.0649669170379639e+00" cType="1" res="5.1873252232326195e-05" rms="2.9669389128684998e-01" purity="5.0023555755615234e-01" nType="0">
        <Node pos="l" depth="1" NCoef="0" IVar="6" Cut="1.7193706035614014e+00" cType="1" res="-4.9175362801179290e-04" rms="2.9795372486114502e-01" purity="4.8871251940727234e-01" nType="0">
          <Node pos="l" depth="2" NCoef="0" IVar="7" Cut="1.5477515459060669e+00" cType="1" res="1.8979781307280064e-03" rms="3.0709791183471680e-01" purity="3.6442941427230835e-01" nType="0">
            <Node pos="l" depth="3" NCoef="0" IVar="4" Cut="1.3443182373046875e+02" cType="1" res="5.1700267940759659e-03" rms="3.2375326752662659e-01" purity="4.3134090304374695e-01" nType="0">
              <Node pos="l" depth="4" NCoef="0" IVar="7" Cut="1.1702485084533691e+00" cType="1" res="1.4343390939757228e-03" rms="3.2542556524276733e-01" purity="5.0414770841598511e-01" nType="0">
                <Node pos="l" depth="5" NCoef="0" IVar="-1" Cut="0.0000000000000000e+00" cType="1" res="-1.3680551201105118e-03" rms="3.2406830787658691e-01" purity="5.1166826486587524e-01" nType="-99"/>
                <Node pos="r" depth="5" NCoef="0" IVar="-1" Cut="0.0000000000000000e+00" cType="1" res="9.3971891328692436e-03" rms="3.3071273565292358e-01" purity="4.7070944309234619e-01" nType="-99"/>
              </Node>
              <Node pos="r" depth="4" NCoef="0" IVar="7" Cut="9.8150098323822021e-01" cType="1" res="1.4291784726083279e-02" rms="3.1944954395294189e-01" purity="2.5356203317642212e-01" nType="0">
                <Node pos="l" depth="5" NCoef="0" IVar="-1" Cut="0.0000000000000000e+00" cType="1" res="1.1256878264248371e-02" rms="3.3183762431144714e-01" purity="2.7101707458496094e-01" nType="-99"/>
                <Node pos="r" depth="5" NCoef="0" IVar="-1" Cut="0.0000000000000000e+00" cType="1" res="-2.4896124377846718e-03" rms="2.8526961803436279e-01" purity="2.0988568663597107e-01" nType="-99"/>
              </Node>
            </Node>
            <Node pos="r" depth="3" NCoef="0" IVar="5" Cut="7.3921051025390625e+01" cType="1" res="-5.0948117859661579e-03" rms="2.6792249083518982e-01" purity="2.2143104672431946e-01" nType="0">
              <Node pos="l" depth="4" NCoef="0" IVar="-1" Cut="0.0000000000000000e+00" cType="1" res="4.3368255719542503e-03" rms="3.0579510331153870e-01" purity="2.5490927696228027e-01" nType="-99"/>
              <Node pos="r" depth="4" NCoef="0" IVar="9" Cut="2.3671317100524902e-01" cType="1" res="-1.0226644575595856e-02" rms="2.5115889310836792e-01" purity="2.0816673338413239e-01" nType="0">
                <Node pos="l" depth="5" NCoef="0" IVar="-1" Cut="0.0000000000000000e+00" cType="1" res="-3.0092624947428703e-03" rms="2.3875002562999725e-01" purity="1.5352343022823334e-01" nType="-99"/>
                <Node pos="r" depth="5" NCoef="0" IVar="-1" Cut="0.0000000000000000e+00" cType="1" res="-1.0895714163780212e-02" rms="2.6647034287452698e-01" purity="2.8048980236053467e-01" nType="-99"/>
              </Node>
            </Node>
          </Node>
          <Node pos="r" depth="2" NCoef="0" IVar="9" Cut="3.6758503317832947e-01" cType="1" res="-2.0268845837563276e-03" rms="2.9191824793815613e-01" purity="5.6855028867721558e-01" nType="0">
            <Node pos="l" depth="3" NCoef="0" IVar="7" Cut="2.8512632846832275e+00" cType="1" res="-5.3789094090461731e-03" rms="2.9632019996643066e-01" purity="4.8390617966651917e-01" nType="0">
              <Node pos="l" depth="4" NCoef="0" IVar="7" Cut="3.4771546721458435e-01" cType="1" res="-7.8455433249473572e-03" rms="3.0040836334228516e-01" purity="4.8519599437713623e-01" nType="0">
                <Node pos="l" depth="5" NCoef="0" IVar="-1" Cut="0.0000000000000000e+00" cType="1" res="2.9894704930484295e-03" rms="3.4217303991317749e-01" purity="4.6781095862388611e-01" nType="-99"/>
                <Node pos="r" depth="5" NCoef="0" IVar="-1" Cut="0.0000000000000000e+00" cType="1" res="-5.6458362378180027e-03" rms="2.9233306646347046e-01" purity="4.8826965689659119e-01" nType="-99"/>
              </Node>
              <Node pos="r" depth="4" NCoef="0" IVar="6" Cut="2.4085743427276611e+00" cType="1" res="8.1893987953662872e-03" rms="2.7233985066413879e-01" purity="4.7681117057800293e-01" nType="0">
                <Node pos="l" depth="5" NCoef="0" IVar="-1" Cut="0.0000000000000000e+00" cType="1" res="-5.8375406078994274e-03" rms="2.5942283868789673e-01" purity="3.4679505228996277e-01" nType="-99"/>
                <Node pos="r" depth="5" NCoef="0" IVar="-1" Cut="0.0000000000000000e+00" cType="1" res="1.0321584530174732e-02" rms="2.7958220243453979e-01" purity="5.5848836898803711e-01" nType="-99"/>
              </Node>
            </Node>
            <Node pos="r" depth="3" NCoef="0" IVar="8" Cut="3.7151953577995300e-01" cType="1" res="2.9231542721390724e-03" rms="2.8522154688835144e-01" purity="6.9354683160781860e-01" nType="0">
              <Node pos="l" depth="4" NCoef="0" IVar="7" Cut="1.6227532625198364e+00" cType="1" res="-9.0066599659621716e-04" rms="3.0622479319572449e-01" purity="6.0168111324310303e-01" nType="0">
                <Node pos="l" depth="5" NCoef="0" IVar="-1" Cut="0.0000000000000000e+00" cType="1" res="-2.1554431878030300e-03" rms="3.0943703651428223e-01" purity="6.1866158246994019e-01" nType="-99"/>
                <Node pos="r" depth="5" NCoef="0" IVar="-1" Cut="0.0000000000000000e+00" cType="1" res="6.5426016226410866e-03" rms="2.9301363229751587e-01" purity="5.3552442789077759e-01" nType="-99"/>
              </Node>
              <Node pos="r" depth="4" NCoef="0" IVar="-1" Cut="0.0000000000000000e+00" cType="1" res="6.9685038179159164e-03" rms="2.4417850375175476e-01" purity="8.5371452569961548e-01" nType="-99"/>
            </Node>
          </Node>
        </Node>
        <Node pos="r" depth="1" NCoef="0" IVar="-1" Cut="0.0000000000000000e+00" cType="1" res="5.6063546799123287e-03" rms="2.7388870716094971e-01" purity="6.9894868135452271e-01" nType="-99"/>
      </Node>
    </BinaryTree>
    <BinaryTree type="DecisionTree" boostWeight="1.0000000000000000e+00" itree="172">
      <Node pos="s" depth="0" NCoef="0" IVar="5" Cut="1.5278375244140625e+02" cType="1" res="1.3621243415400386e-03" rms="2.9780068993568420e-01" purity="5.0050610303878784e-01" nType="0">
        <Node pos="l" depth="1" NCoef="0" IVar="5" Cut="5.6688220977783203e+01" cType="1" res="1.7578316619619727e-03" rms="2.9879227280616760e-01" purity="5.0723767280578613e-01" nType="0">
          <Node pos="l" depth="2" NCoef="0" IVar="4" Cut="1.6295257568359375e+02" cType="1" res="7.5587704777717590e-03" rms="3.4626495838165283e-01" purity="3.9291688799858093e-01" nType="0">
            <Node pos="l" depth="3" NCoef="0" IVar="6" Cut="2.1454806327819824e+00" cType="1" res="2.4852403439581394e-03" rms="3.5337316989898682e-01" purity="4.4694551825523376e-01" nType="0">
              <Node pos="l" depth="4" NCoef="0" IVar="6" Cut="1.4128829240798950e+00" cType="1" res="-2.5544669479131699e-03" rms="3.4740781784057617e-01" purity="3.9261674880981445e-01" nType="0">
                <Node pos="l" depth="5" NCoef="0" IVar="-1" Cut="0.0000000000000000e+00" cType="1" res="1.5924917533993721e-03" rms="3.4836104512214661e-01" purity="3.6974039673805237e-01" nType="-99"/>
                <Node pos="r" depth="5" NCoef="0" IVar="-1" Cut="0.0000000000000000e+00" cType="1" res="-4.7907745465636253e-03" rms="3.4581756591796875e-01" purity="4.2558863759040833e-01" nType="-99"/>
              </Node>
              <Node pos="r" depth="4" NCoef="0" IVar="6" Cut="2.6799757480621338e+00" cType="1" res="8.9693581685423851e-03" rms="3.6079967021942139e-01" purity="5.1684516668319702e-01" nType="0">
                <Node pos="l" depth="5" NCoef="0" IVar="-1" Cut="0.0000000000000000e+00" cType="1" res="5.5287964642047882e-03" rms="3.6134448647499084e-01" purity="5.1119720935821533e-01" nType="-99"/>
                <Node pos="r" depth="5" NCoef="0" IVar="-1" Cut="0.0000000000000000e+00" cType="1" res="1.2133327545598149e-03" rms="3.6013224720954895e-01" purity="5.2282887697219849e-01" nType="-99"/>
              </Node>
            </Node>
            <Node pos="r" depth="3" NCoef="0" IVar="-1" Cut="0.0000000000000000e+00" cType="1" res="1.9973669201135635e-02" rms="3.1030213832855225e-01" purity="1.4363983273506165e-01" nType="-99"/>
          </Node>
          <Node pos="r" depth="2" NCoef="0" IVar="5" Cut="7.5438537597656250e+01" cType="1" res="9.0847723186016083e-04" rms="2.9118296504020691e-01" purity="5.2397614717483521e-01" nType="0">
            <Node pos="l" depth="3" NCoef="0" IVar="0" Cut="3.0487804412841797e+00" cType="1" res="-3.4904435742646456e-03" rms="3.0983850359916687e-01" purity="5.8147293329238892e-01" nType="0">
              <Node pos="l" depth="4" NCoef="0" IVar="9" Cut="3.5618329048156738e-01" cType="1" res="-9.8731759935617447e-03" rms="2.9962795972824097e-01" purity="3.4349462389945984e-01" nType="0">
                <Node pos="l" depth="5" NCoef="0" IVar="-1" Cut="0.0000000000000000e+00" cType="1" res="-2.3951008915901184e-03" rms="2.7859672904014587e-01" purity="2.7407488226890564e-01" nType="-99"/>
                <Node pos="r" depth="5" NCoef="0" IVar="-1" Cut="0.0000000000000000e+00" cType="1" res="-7.9580741003155708e-03" rms="3.2733893394470215e-01" purity="4.4330152869224548e-01" nType="-99"/>
              </Node>
              <Node pos="r" depth="4" NCoef="0" IVar="4" Cut="1.0589746856689453e+02" cType="1" res="7.4227381264790893e-04" rms="3.1635698676109314e-01" purity="7.3928850889205933e-01" nType="0">
                <Node pos="l" depth="5" NCoef="0" IVar="-1" Cut="0.0000000000000000e+00" cType="1" res="-1.5089500229805708e-03" rms="3.4027618169784546e-01" purity="7.1243691444396973e-01" nType="-99"/>
                <Node pos="r" depth="5" NCoef="0" IVar="-1" Cut="0.0000000000000000e+00" cType="1" res="1.6980614745989442e-03" rms="3.0209130048751831e-01" purity="7.5434452295303345e-01" nType="-99"/>
              </Node>
            </Node>
            <Node pos="r" depth="3" NCoef="0" IVar="8" Cut="8.9519314467906952e-02" cType="1" res="2.0643384195864201e-03" rms="2.8606805205345154e-01" purity="5.0886827707290649e-01" nType="0">
              <Node pos="l" depth="4" NCoef="0" IVar="-1" Cut="0.0000000000000000e+00" cType="1" res="-9.1221034526824951e-03" rms="2.3249663412570953e-01" purity="1.1286891251802444e-01" nType="-99"/>
              <Node pos="r" depth="4" NCoef="0" IVar="7" Cut="2.3270027637481689e+00" cType="1" res="2.6573550421744585e-03" rms="2.8833207488059998e-01" purity="5.2751743793487549e-01" nType="0">
                <Node pos="l" depth="5" NCoef="0" IVar="-1" Cut="0.0000000000000000e+00" cType="1" res="8.0029526725411415e-04" rms="2.9301524162292480e-01" purity="5.3972536325454712e-01" nType="-99"/>
                <Node pos="r" depth="5" NCoef="0" IVar="-1" Cut="0.0000000000000000e+00" cType="1" res="5.6727593764662743e-03" rms="2.6220178604125977e-01" purity="4.6324262022972107e-01" nType="-99"/>
              </Node>
            </Node>
          </Node>
        </Node>
        <Node pos="r" depth="1" NCoef="0" IVar="-1" Cut="0.0000000000000000e+00" cType="1" res="-7.3489840142428875e-03" rms="2.6330214738845825e-01" purity="2.8216579556465149e-01" nType="-99"/>
      </Node>
    </BinaryTree>
    <BinaryTree type="DecisionTree" boostWeight="1.0000000000000000e+00" itree="173">
      <Node pos="s" depth="0" NCoef="0" IVar="2" Cut="1.0975610017776489e+00" cType="1" res="5.0279765855520964e-04" rms="2.9819118976593018e-01" purity="4.9950236082077026e-01" nType="0">
        <Node pos="l" depth="1" NCoef="0" IVar="5" Cut="3.7328384399414062e+01" cType="1" res="2.0945577416568995e-03" rms="3.1206682324409485e-01" purity="6.0614436864852905e-01" nType="0">
          <Node pos="l" depth="2" NCoef="0" IVar="-1" Cut="0.0000000000000000e+00" cType="1" res="-7.9727061092853546e-03" rms="3.5333207249641418e-01" purity="3.4905993938446045e-01" nType="-99"/>
          <Node pos="r" depth="2" NCoef="0" IVar="9" Cut="5.5978822708129883e-01" cType="1" res="2.8861691243946552e-03" rms="3.1050372123718262e-01" purity="6.1508101224899292e-01" nType="0">
            <Node pos="l" depth="3" NCoef="0" IVar="9" Cut="8.2105539739131927e-02" cType="1" res="1.5115508576855063e-03" rms="3.0793437361717224e-01" purity="5.9861999750137329e-01" nType="0">
              <Node pos="l" depth="4" NCoef="0" IVar="-1" Cut="0.0000000000000000e+00" cType="1" res="-7.5047742575407028e-03" rms="2.4647861719131470e-01" purity="1.0266877710819244e-01" nType="-99"/>
              <Node pos="r" depth="4" NCoef="0" IVar="7" Cut="2.8386538028717041e+00" cType="1" res="2.0560065750032663e-03" rms="3.1041750311851501e-01" purity="6.2106966972351074e-01" nType="0">
                <Node pos="l" depth="5" NCoef="0" IVar="-1" Cut="0.0000000000000000e+00" cType="1" res="4.8026535660028458e-04" rms="3.1196907162666321e-01" purity="6.2903529405593872e-01" nType="-99"/>
                <Node pos="r" depth="5" NCoef="0" IVar="-1" Cut="0.0000000000000000e+00" cType="1" res="6.3769342377781868e-03" rms="2.9483970999717712e-01" purity="5.4434639215469360e-01" nType="-99"/>
              </Node>
            </Node>
            <Node pos="r" depth="3" NCoef="0" IVar="3" Cut="1.0975610017776489e+00" cType="1" res="1.0795428417623043e-02" rms="3.2477971911430359e-01" purity="7.0979446172714233e-01" nType="0">
              <Node pos="l" depth="4" NCoef="0" IVar="-1" Cut="0.0000000000000000e+00" cType="1" res="3.1002082396298647e-03" rms="3.0796435475349426e-01" purity="7.5552183389663696e-01" nType="-99"/>
              <Node pos="r" depth="4" NCoef="0" IVar="-1" Cut="0.0000000000000000e+00" cType="1" res="1.0046859271824360e-02" rms="3.7615182995796204e-01" purity="5.5369985103607178e-01" nType="-99"/>
            </Node>
          </Node>
        </Node>
        <Node pos="r" depth="1" NCoef="0" IVar="8" Cut="4.7546944022178650e-01" cType="1" res="-3.2466631382703781e-03" rms="2.6258695125579834e-01" purity="2.4830238521099091e-01" nType="0">
          <Node pos="l" depth="2" NCoef="0" IVar="0" Cut="3.0487804412841797e+00" cType="1" res="-6.4400415867567062e-03" rms="2.4453797936439514e-01" purity="2.2240629792213440e-01" nType="0">
            <Node pos="l" depth="3" NCoef="0" IVar="6" Cut="1.0727390050888062e+00" cType="1" res="-1.1844544205814600e-03" rms="2.1003590524196625e-01" purity="1.0699191689491272e-01" nType="0">
              <Node pos="l" depth="4" NCoef="0" IVar="-1" Cut="0.0000000000000000e+00" cType="1" res="1.3019285164773464e-02" rms="2.0509770512580872e-01" purity="5.4769936949014664e-02" nType="-99"/>
              <Node pos="r" depth="4" NCoef="0" IVar="6" Cut="2.8388333320617676e+00" cType="1" res="-4.1068843565881252e-03" rms="2.1141761541366577e-01" purity="1.2276409566402435e-01" nType="0">
                <Node pos="l" depth="5" NCoef="0" IVar="-1" Cut="0.0000000000000000e+00" cType="1" res="-8.2215117290616035e-03" rms="1.9916109740734100e-01" purity="9.1548241674900055e-02" nType="-99"/>
                <Node pos="r" depth="5" NCoef="0" IVar="-1" Cut="0.0000000000000000e+00" cType="1" res="5.5430727079510689e-03" rms="2.4992997944355011e-01" purity="2.3408140242099762e-01" nType="-99"/>
              </Node>
            </Node>
            <Node pos="r" depth="3" NCoef="0" IVar="3" Cut="1.0975610017776489e+00" cType="1" res="-1.4319851063191891e-02" rms="2.8846192359924316e-01" purity="3.9544939994812012e-01" nType="0">
              <Node pos="l" depth="4" NCoef="0" IVar="5" Cut="9.9223350524902344e+01" cType="1" res="-9.1830166056752205e-03" rms="2.9850706458091736e-01" purity="4.4578573107719421e-01" nType="0">
                <Node pos="l" depth="5" NCoef="0" IVar="-1" Cut="0.0000000000000000e+00" cType="1" res="-1.7462830292060971e-03" rms="3.1091275811195374e-01" purity="5.5877757072448730e-01" nType="-99"/>
                <Node pos="r" depth="5" NCoef="0" IVar="-1" Cut="0.0000000000000000e+00" cType="1" res="-1.0110070928931236e-02" rms="2.7718189358711243e-01" purity="2.6427933573722839e-01" nType="-99"/>
              </Node>
              <Node pos="r" depth="4" NCoef="0" IVar="-1" Cut="0.0000000000000000e+00" cType="1" res="-1.9433612003922462e-02" rms="2.4891528487205505e-01" purity="2.1763059496879578e-01" nType="-99"/>
            </Node>
          </Node>
          <Node pos="r" depth="2" NCoef="0" IVar="7" Cut="4.3650707602500916e-01" cType="1" res="7.6539511792361736e-03" rms="3.1629472970962524e-01" purity="3.3669891953468323e-01" nType="0">
            <Node pos="l" depth="3" NCoef="0" IVar="-1" Cut="0.0000000000000000e+00" cType="1" res="9.9349208176136017e-03" rms="3.4486794471740723e-01" purity="4.0461540222167969e-01" nType="-99"/>
            <Node pos="r" depth="3" NCoef="0" IVar="0" Cut="3.0487804412841797e+00" cType="1" res="5.9595477068796754e-04" rms="2.9980584979057312e-01" purity="3.0069419741630554e-01" nType="0">
              <Node pos="l" depth="4" NCoef="0" IVar="-1" Cut="0.0000000000000000e+00" cType="1" res="-7.2294119745492935e-03" rms="2.4140991270542145e-01" purity="1.3920558989048004e-01" nType="-99"/>
              <Node pos="r" depth="4" NCoef="0" IVar="-1" Cut="0.0000000000000000e+00" cType="1" res="5.0417939200997353e-03" rms="3.5623845458030701e-01" purity="4.9118590354919434e-01" nType="-99"/>
            </Node>
          </Node>
        </Node>
      </Node>
    </BinaryTree>
    <BinaryTree type="DecisionTree" boostWeight="1.0000000000000000e+00" itree="174">
      <Node pos="s" depth="0" NCoef="0" IVar="4" Cut="8.7512908935546875e+01" cType="1" res="-4.4829319813288748e-04" rms="2.9631021618843079e-01" purity="5.0036495923995972e-01" nType="0">
        <Node pos="l" depth="1" NCoef="0" IVar="1" Cut="1.0975610017776489e+00" cType="1" res="-7.1040382608771324e-03" rms="3.1842979788780212e-01" purity="3.1623303890228271e-01" nType="0">
          <Node pos="l" depth="2" NCoef="0" IVar="4" Cut="6.7363815307617188e+01" cType="1" res="-1.7552856588736176e-03" rms="3.0162894725799561e-01" purity="2.0600262284278870e-01" nType="0">
            <Node pos="l" depth="3" NCoef="0" IVar="8" Cut="3.1698372960090637e-01" cType="1" res="4.5789889991283417e-03" rms="3.0332064628601074e-01" purity="1.9019120931625366e-01" nType="0">
              <Node pos="l" depth="4" NCoef="0" IVar="-1" Cut="0.0000000000000000e+00" cType="1" res="-5.1529244519770145e-03" rms="2.4824564158916473e-01" purity="1.0920223593711853e-01" nType="-99"/>
              <Node pos="r" depth="4" NCoef="0" IVar="5" Cut="8.7942520141601562e+01" cType="1" res="1.3033746741712093e-02" rms="3.3711928129196167e-01" purity="2.4835713207721710e-01" nType="0">
                <Node pos="l" depth="5" NCoef="0" IVar="-1" Cut="0.0000000000000000e+00" cType="1" res="1.2244447134435177e-03" rms="3.5016873478889465e-01" purity="2.9691669344902039e-01" nType="-99"/>
                <Node pos="r" depth="5" NCoef="0" IVar="-1" Cut="0.0000000000000000e+00" cType="1" res="1.3490905053913593e-02" rms="3.2091885805130005e-01" purity="1.9196450710296631e-01" nType="-99"/>
              </Node>
            </Node>
            <Node pos="r" depth="3" NCoef="0" IVar="7" Cut="1.3962031602859497e+00" cType="1" res="-9.4446865841746330e-03" rms="2.9938241839408875e-01" purity="2.2519665956497192e-01" nType="0">
              <Node pos="l" depth="4" NCoef="0" IVar="-1" Cut="0.0000000000000000e+00" cType="1" res="-7.6336208730936050e-03" rms="3.2119381427764893e-01" purity="2.6149755716323853e-01" nType="-99"/>
              <Node pos="r" depth="4" NCoef="0" IVar="-1" Cut="0.0000000000000000e+00" cType="1" res="2.6687618810683489e-04" rms="2.6420924067497253e-01" purity="1.7247423529624939e-01" nType="-99"/>
            </Node>
          </Node>
          <Node pos="r" depth="2" NCoef="0" IVar="6" Cut="1.3026247024536133e+00" cType="1" res="-1.5253881923854351e-02" rms="3.4228730201721191e-01" purity="4.8419010639190674e-01" nType="0">
            <Node pos="l" depth="3" NCoef="0" IVar="-1" Cut="0.0000000000000000e+00" cType="1" res="-1.5025984495878220e-02" rms="3.3148908615112305e-01" purity="3.3355993032455444e-01" nType="-99"/>
            <Node pos="r" depth="3" NCoef="0" IVar="9" Cut="3.9187812805175781e-01" cType="1" res="-7.9580601304769516e-03" rms="3.4561470150947571e-01" purity="5.3589189052581787e-01" nType="0">
              <Node pos="l" depth="4" NCoef="0" IVar="-1" Cut="0.0000000000000000e+00" cType="1" res="-6.7737358622252941e-03" rms="3.4731754660606384e-01" purity="4.3574321269989014e-01" nType="-99"/>
              <Node pos="r" depth="4" NCoef="0" IVar="-1" Cut="0.0000000000000000e+00" cType="1" res="7.7257852535694838e-04" rms="3.4347489476203918e-01" purity="6.4524877071380615e-01" nType="-99"/>
            </Node>
          </Node>
        </Node>
        <Node pos="r" depth="1" NCoef="0" IVar="3" Cut="3.0487804412841797e+00" cType="1" res="1.4751662965863943e-03" rms="2.8957483172416687e-01" purity="5.5357772111892700e-01" nType="0">
          <Node pos="l" depth="2" NCoef="0" IVar="5" Cut="1.4200117492675781e+02" cType="1" res="2.6908840518444777e-03" rms="2.8823277354240417e-01" purity="6.0377299785614014e-01" nType="0">
            <Node pos="l" depth="3" NCoef="0" IVar="9" Cut="5.6412607431411743e-01" cType="1" res="3.5095766652375460e-03" rms="2.8906062245368958e-01" purity="6.2237340211868286e-01" nType="0">
              <Node pos="l" depth="4" NCoef="0" IVar="9" Cut="8.2719370722770691e-02" cType="1" res="2.4561577010899782e-03" rms="2.8915300965309143e-01" purity="6.0527360439300537e-01" nType="0">
                <Node pos="l" depth="5" NCoef="0" IVar="-1" Cut="0.0000000000000000e+00" cType="1" res="-7.3200259357690811e-03" rms="2.4817427992820740e-01" purity="1.0837699472904205e-01" nType="-99"/>
                <Node pos="r" depth="5" NCoef="0" IVar="-1" Cut="0.0000000000000000e+00" cType="1" res="1.7171012004837394e-03" rms="2.9078626632690430e-01" purity="6.2680983543395996e-01" nType="-99"/>
              </Node>
              <Node pos="r" depth="4" NCoef="0" IVar="-1" Cut="0.0000000000000000e+00" cType="1" res="6.3984133303165436e-03" rms="2.8824597597122192e-01" purity="7.5035011768341064e-01" nType="-99"/>
            </Node>
            <Node pos="r" depth="3" NCoef="0" IVar="6" Cut="2.2221083641052246e+00" cType="1" res="-8.7666129693388939e-03" rms="2.7613252401351929e-01" purity="3.4346243739128113e-01" nType="0">
              <Node pos="l" depth="4" NCoef="0" IVar="-1" Cut="0.0000000000000000e+00" cType="1" res="-2.4389985483139753e-03" rms="2.7699291706085205e-01" purity="1.6788379848003387e-01" nType="-99"/>
              <Node pos="r" depth="4" NCoef="0" IVar="-1" Cut="0.0000000000000000e+00" cType="1" res="-7.9582901671528816e-03" rms="2.7518466114997864e-01" purity="5.1873528957366943e-01" nType="-99"/>
            </Node>
          </Node>
          <Node pos="r" depth="2" NCoef="0" IVar="8" Cut="3.4946438670158386e-01" cType="1" res="-4.9468302167952061e-03" rms="2.9648083448410034e-01" purity="2.8842261433601379e-01" nType="0">
            <Node pos="l" depth="3" NCoef="0" IVar="6" Cut="2.5285983085632324e+00" cType="1" res="3.9333981112577021e-04" rms="2.7465096116065979e-01" purity="2.0399563014507294e-01" nType="0">
              <Node pos="l" depth="4" NCoef="0" IVar="7" Cut="1.4584156274795532e+00" cType="1" res="6.6090682521462440e-03" rms="2.6759177446365356e-01" purity="1.5166644752025604e-01" nType="0">
                <Node pos="l" depth="5" NCoef="0" IVar="-1" Cut="0.0000000000000000e+00" cType="1" res="9.4953263178467751e-03" rms="2.9672870039939880e-01" purity="1.8725219368934631e-01" nType="-99"/>
                <Node pos="r" depth="5" NCoef="0" IVar="-1" Cut="0.0000000000000000e+00" cType="1" res="-1.1215915437787771e-03" rms="2.3463246226310730e-01" purity="1.1611463129520416e-01" nType="-99"/>
              </Node>
              <Node pos="r" depth="4" NCoef="0" IVar="-1" Cut="0.0000000000000000e+00" cType="1" res="-6.6754100844264030e-03" rms="2.8853937983512878e-01" purity="3.1439122557640076e-01" nType="-99"/>
            </Node>
            <Node pos="r" depth="3" NCoef="0" IVar="9" Cut="2.8582099080085754e-01" cType="1" res="-1.2603287585079670e-02" rms="3.2507994771003723e-01" purity="4.0946957468986511e-01" nType="0">
              <Node pos="l" depth="4" NCoef="0" IVar="-1" Cut="0.0000000000000000e+00" cType="1" res="-4.6022527385503054e-04" rms="3.1994625926017761e-01" purity="2.1751205623149872e-01" nType="-99"/>
              <Node pos="r" depth="4" NCoef="0" IVar="-1" Cut="0.0000000000000000e+00" cType="1" res="-9.7264423966407776e-03" rms="3.2919272780418396e-01" purity="5.7856041193008423e-01" nType="-99"/>
            </Node>
          </Node>
        </Node>
      </Node>
    </BinaryTree>
    <BinaryTree type="DecisionTree" boostWeight="1.0000000000000000e+00" itree="175">
      <Node pos="s" depth="0" NCoef="0" IVar="5" Cut="9.1448089599609375e+01" cType="1" res="-1.8072029342874885e-03" rms="2.9675161838531494e-01" purity="4.9604651331901550e-01" nType="0">
        <Node pos="l" depth="1" NCoef="0" IVar="9" Cut="6.2901520729064941e-01" cType="1" res="8.6246104910969734e-04" rms="3.0511060357093811e-01" purity="6.0217648744583130e-01" nType="0">
          <Node pos="l" depth="2" NCoef="0" IVar="6" Cut="7.6624220609664917e-01" cType="1" res="-5.5665994295850396e-04" rms="3.0326378345489502e-01" purity="5.9143948554992676e-01" nType="0">
            <Node pos="l" depth="3" NCoef="0" IVar="7" Cut="1.2611284255981445e+00" cType="1" res="-1.1127852834761143e-02" rms="3.1531614065170288e-01" purity="3.3293947577476501e-01" nType="0">
              <Node pos="l" depth="4" NCoef="0" IVar="-1" Cut="0.0000000000000000e+00" cType="1" res="-1.3446869328618050e-02" rms="3.2225611805915833e-01" purity="3.4367045760154724e-01" nType="-99"/>
              <Node pos="r" depth="4" NCoef="0" IVar="-1" Cut="0.0000000000000000e+00" cType="1" res="3.3051292411983013e-03" rms="3.0753430724143982e-01" purity="3.2272589206695557e-01" nType="-99"/>
            </Node>
            <Node pos="r" depth="3" NCoef="0" IVar="8" Cut="5.7455325126647949e-01" cType="1" res="7.9844699939712882e-04" rms="3.0165722966194153e-01" purity="6.2457627058029175e-01" nType="0">
              <Node pos="l" depth="4" NCoef="0" IVar="4" Cut="9.3315902709960938e+01" cType="1" res="-8.9483987540006638e-04" rms="2.9530507326126099e-01" purity="6.2771970033645630e-01" nType="0">
                <Node pos="l" depth="5" NCoef="0" IVar="-1" Cut="0.0000000000000000e+00" cType="1" res="-3.2192438375204802e-03" rms="3.3458733558654785e-01" purity="4.7417378425598145e-01" nType="-99"/>
                <Node pos="r" depth="5" NCoef="0" IVar="-1" Cut="0.0000000000000000e+00" cType="1" res="6.8705010926350951e-04" rms="2.8223347663879395e-01" purity="6.7445844411849976e-01" nType="-99"/>
              </Node>
              <Node pos="r" depth="4" NCoef="0" IVar="7" Cut="5.3044682741165161e-01" cType="1" res="9.9460780620574951e-03" rms="3.3374136686325073e-01" purity="6.0759449005126953e-01" nType="0">
                <Node pos="l" depth="5" NCoef="0" IVar="-1" Cut="0.0000000000000000e+00" cType="1" res="9.1715054586529732e-03" rms="3.2905271649360657e-01" purity="6.9271892309188843e-01" nType="-99"/>
                <Node pos="r" depth="5" NCoef="0" IVar="-1" Cut="0.0000000000000000e+00" cType="1" res="5.1266356604173779e-04" rms="3.3754822611808777e-01" purity="5.3309082984924316e-01" nType="-99"/>
              </Node>
            </Node>
          </Node>
          <Node pos="r" depth="2" NCoef="0" IVar="-1" Cut="0.0000000000000000e+00" cType="1" res="6.5324450843036175e-03" rms="3.2119545340538025e-01" purity="7.0022666454315186e-01" nType="-99"/>
        </Node>
        <Node pos="r" depth="1" NCoef="0" IVar="8" Cut="5.9859961271286011e-01" cType="1" res="-5.3878300823271275e-03" rms="2.8511661291122437e-01" purity="3.5370209813117981e-01" nType="0">
          <Node pos="l" depth="2" NCoef="0" IVar="5" Cut="1.3993582153320312e+02" cType="1" res="-4.1969818994402885e-03" rms="2.7965134382247925e-01" purity="3.5902008414268494e-01" nType="0">
            <Node pos="l" depth="3" NCoef="0" IVar="7" Cut="2.3802784085273743e-01" cType="1" res="-5.9726047329604626e-03" rms="2.8215059638023376e-01" purity="3.7361171841621399e-01" nType="0">
              <Node pos="l" depth="4" NCoef="0" IVar="-1" Cut="0.0000000000000000e+00" cType="1" res="-8.1660170108079910e-03" rms="3.0628946423530579e-01" purity="4.1455402970314026e-01" nType="-99"/>
              <Node pos="r" depth="4" NCoef="0" IVar="3" Cut="1.0975610017776489e+00" cType="1" res="-4.9351979978382587e-03" rms="2.7908077836036682e-01" purity="3.6867451667785645e-01" nType="0">
                <Node pos="l" depth="5" NCoef="0" IVar="-1" Cut="0.0000000000000000e+00" cType="1" res="-1.4280640752986073e-03" rms="2.8588321805000305e-01" purity="4.3234270811080933e-01" nType="-99"/>
                <Node pos="r" depth="5" NCoef="0" IVar="-1" Cut="0.0000000000000000e+00" cType="1" res="-6.5064043737947941e-03" rms="2.6460900902748108e-01" purity="2.3894688487052917e-01" nType="-99"/>
              </Node>
            </Node>
            <Node pos="r" depth="3" NCoef="0" IVar="3" Cut="3.0487804412841797e+00" cType="1" res="2.2533070296049118e-03" rms="2.7027991414070129e-01" purity="3.0601325631141663e-01" nType="0">
              <Node pos="l" depth="4" NCoef="0" IVar="1" Cut="1.0975610017776489e+00" cType="1" res="-3.2127797603607178e-03" rms="2.6737129688262939e-01" purity="3.1325152516365051e-01" nType="0">
                <Node pos="l" depth="5" NCoef="0" IVar="-1" Cut="0.0000000000000000e+00" cType="1" res="-7.5293448753654957e-03" rms="2.3473112285137177e-01" purity="1.3360996544361115e-01" nType="-99"/>
                <Node pos="r" depth="5" NCoef="0" IVar="-1" Cut="0.0000000000000000e+00" cType="1" res="1.8235215684399009e-03" rms="2.9758137464523315e-01" purity="5.0127667188644409e-01" nType="-99"/>
              </Node>
              <Node pos="r" depth="4" NCoef="0" IVar="-1" Cut="0.0000000000000000e+00" cType="1" res="1.0635377839207649e-02" rms="2.7723711729049683e-01" purity="2.8707325458526611e-01" nType="-99"/>
            </Node>
          </Node>
          <Node pos="r" depth="2" NCoef="0" IVar="-1" Cut="0.0000000000000000e+00" cType="1" res="-8.2164080813527107e-03" rms="3.3534568548202515e-01" purity="2.9973018169403076e-01" nType="-99"/>
        </Node>
      </Node>
    </BinaryTree>
    <BinaryTree type="DecisionTree" boostWeight="1.0000000000000000e+00" itree="176">
      <Node pos="s" depth="0" NCoef="0" IVar="9" Cut="9.5978522300720215e-01" cType="1" res="4.6711968025192618e-04" rms="2.9664906859397888e-01" purity="5.0041794776916504e-01" nType="0">
        <Node pos="l" depth="1" NCoef="0" IVar="4" Cut="2.0357504272460938e+02" cType="1" res="7.9700630158185959e-04" rms="2.9652363061904907e-01" purity="5.0265955924987793e-01" nType="0">
          <Node pos="l" depth="2" NCoef="0" IVar="9" Cut="7.7256608009338379e-01" cType="1" res="1.3902711216360331e-03" rms="2.9886865615844727e-01" purity="5.2724939584732056e-01" nType="0">
            <Node pos="l" depth="3" NCoef="0" IVar="6" Cut="1.3792353868484497e+00" cType="1" res="1.0003153001889586e-03" rms="2.9805994033813477e-01" purity="5.2616530656814575e-01" nType="0">
              <Node pos="l" depth="4" NCoef="0" IVar="5" Cut="1.1336855316162109e+02" cType="1" res="-3.5618243273347616e-03" rms="3.0860617756843567e-01" purity="3.4060534834861755e-01" nType="0">
                <Node pos="l" depth="5" NCoef="0" IVar="-1" Cut="0.0000000000000000e+00" cType="1" res="-3.9273751899600029e-03" rms="3.1638848781585693e-01" purity="4.0988343954086304e-01" nType="-99"/>
                <Node pos="r" depth="5" NCoef="0" IVar="-1" Cut="0.0000000000000000e+00" cType="1" res="6.6124540753662586e-03" rms="2.8478291630744934e-01" purity="1.4252017438411713e-01" nType="-99"/>
              </Node>
              <Node pos="r" depth="4" NCoef="0" IVar="8" Cut="2.3583343625068665e-01" cType="1" res="2.5685206055641174e-03" rms="2.9433116316795349e-01" purity="5.8995032310485840e-01" nType="0">
                <Node pos="l" depth="5" NCoef="0" IVar="-1" Cut="0.0000000000000000e+00" cType="1" res="-2.2781088482588530e-03" rms="2.8748297691345215e-01" purity="4.0481200814247131e-01" nType="-99"/>
                <Node pos="r" depth="5" NCoef="0" IVar="-1" Cut="0.0000000000000000e+00" cType="1" res="2.6114294305443764e-03" rms="2.9654493927955627e-01" purity="6.5164458751678467e-01" nType="-99"/>
              </Node>
            </Node>
            <Node pos="r" depth="3" NCoef="0" IVar="-1" Cut="0.0000000000000000e+00" cType="1" res="6.8789413198828697e-03" rms="3.2510530948638916e-01" purity="5.6442660093307495e-01" nType="-99"/>
          </Node>
          <Node pos="r" depth="2" NCoef="0" IVar="6" Cut="2.6052222251892090e+00" cType="1" res="-7.0486990734934807e-03" rms="2.6343071460723877e-01" purity="1.7746721208095551e-01" nType="0">
            <Node pos="l" depth="3" NCoef="0" IVar="9" Cut="2.3426224291324615e-01" cType="1" res="-1.3350479304790497e-02" rms="2.4107275903224945e-01" purity="9.6632830798625946e-02" nType="0">
              <Node pos="l" depth="4" NCoef="0" IVar="-1" Cut="0.0000000000000000e+00" cType="1" res="-5.8474778197705746e-03" rms="1.9255870580673218e-01" purity="4.9702856689691544e-02" nType="-99"/>
              <Node pos="r" depth="4" NCoef="0" IVar="-1" Cut="0.0000000000000000e+00" cType="1" res="-1.2774055823683739e-02" rms="2.9049438238143921e-01" purity="1.5569204092025757e-01" nType="-99"/>
            </Node>
            <Node pos="r" depth="3" NCoef="0" IVar="-1" Cut="0.0000000000000000e+00" cType="1" res="3.6241000052541494e-03" rms="3.0841603875160217e-01" purity="3.6399254202842712e-01" nType="-99"/>
          </Node>
        </Node>
        <Node pos="r" depth="1" NCoef="0" IVar="-1" Cut="0.0000000000000000e+00" cType="1" res="-7.7371844090521336e-03" rms="3.0228945612907410e-01" purity="3.9060074090957642e-01" nType="-99"/>
      </Node>
    </BinaryTree>
    <BinaryTree type="DecisionTree" boostWeight="1.0000000000000000e+00" itree="177">
      <Node pos="s" depth="0" NCoef="0" IVar="4" Cut="5.8497375488281250e+01" cType="1" res="1.4545843005180359e-03" rms="2.9843825101852417e-01" purity="5.0024515390396118e-01" nType="0">
        <Node pos="l" depth="1" NCoef="0" IVar="8" Cut="4.3293631076812744e-01" cType="1" res="9.0910615399479866e-03" rms="3.3084821701049805e-01" purity="2.2428640723228455e-01" nType="0">
          <Node pos="l" depth="2" NCoef="0" IVar="5" Cut="1.0994856262207031e+02" cType="1" res="-9.6100295195356011e-04" rms="3.0474936962127686e-01" purity="1.7661611735820770e-01" nType="0">
            <Node pos="l" depth="3" NCoef="0" IVar="-1" Cut="0.0000000000000000e+00" cType="1" res="-3.2560452818870544e-03" rms="3.3450803160667419e-01" purity="2.4245323240756989e-01" nType="-99"/>
            <Node pos="r" depth="3" NCoef="0" IVar="-1" Cut="0.0000000000000000e+00" cType="1" res="8.0648725852370262e-03" rms="2.5433081388473511e-01" purity="7.9615943133831024e-02" nType="-99"/>
          </Node>
          <Node pos="r" depth="2" NCoef="0" IVar="-1" Cut="0.0000000000000000e+00" cType="1" res="1.0518146678805351e-02" rms="3.7480139732360840e-01" purity="3.1502088904380798e-01" nType="-99"/>
        </Node>
        <Node pos="r" depth="1" NCoef="0" IVar="4" Cut="7.2509803771972656e+01" cType="1" res="8.1271969247609377e-04" rms="2.9554325342178345e-01" purity="5.2344018220901489e-01" nType="0">
          <Node pos="l" depth="2" NCoef="0" IVar="7" Cut="7.2051090002059937e-01" cType="1" res="-6.3507580198347569e-03" rms="3.2507944107055664e-01" purity="2.8871816396713257e-01" nType="0">
            <Node pos="l" depth="3" NCoef="0" IVar="-1" Cut="0.0000000000000000e+00" cType="1" res="6.1052596720401198e-05" rms="3.5777768492698669e-01" purity="3.7347710132598877e-01" nType="-99"/>
            <Node pos="r" depth="3" NCoef="0" IVar="-1" Cut="0.0000000000000000e+00" cType="1" res="-5.0238952971994877e-03" rms="3.0381429195404053e-01" purity="2.3810489475727081e-01" nType="-99"/>
          </Node>
          <Node pos="r" depth="2" NCoef="0" IVar="8" Cut="9.6248888969421387e-01" cType="1" res="1.2820551637560129e-03" rms="2.9349827766418457e-01" purity="5.3881865739822388e-01" nType="0">
            <Node pos="l" depth="3" NCoef="0" IVar="8" Cut="4.2266973853111267e-01" cType="1" res="1.6582458047196269e-03" rms="2.9217553138732910e-01" purity="5.4554158449172974e-01" nType="0">
              <Node pos="l" depth="4" NCoef="0" IVar="9" Cut="2.9763051867485046e-01" cType="1" res="2.0327923994045705e-04" rms="2.8740563988685608e-01" purity="4.9457478523254395e-01" nType="0">
                <Node pos="l" depth="5" NCoef="0" IVar="-1" Cut="0.0000000000000000e+00" cType="1" res="-2.4627195671200752e-03" rms="2.6928448677062988e-01" purity="3.4416764974594116e-01" nType="-99"/>
                <Node pos="r" depth="5" NCoef="0" IVar="-1" Cut="0.0000000000000000e+00" cType="1" res="1.7352838767692447e-03" rms="3.0000284314155579e-01" purity="6.0521107912063599e-01" nType="-99"/>
              </Node>
              <Node pos="r" depth="4" NCoef="0" IVar="6" Cut="1.5324834585189819e+00" cType="1" res="4.7712377272546291e-03" rms="3.0210465192794800e-01" purity="6.5458834171295166e-01" nType="0">
                <Node pos="l" depth="5" NCoef="0" IVar="-1" Cut="0.0000000000000000e+00" cType="1" res="-1.2816340895369649e-03" rms="3.3130195736885071e-01" purity="5.1799780130386353e-01" nType="-99"/>
                <Node pos="r" depth="5" NCoef="0" IVar="-1" Cut="0.0000000000000000e+00" cType="1" res="4.8286905512213707e-03" rms="2.8658461570739746e-01" purity="7.2176033258438110e-01" nType="-99"/>
              </Node>
            </Node>
            <Node pos="r" depth="3" NCoef="0" IVar="-1" Cut="0.0000000000000000e+00" cType="1" res="-5.1460806280374527e-03" rms="3.3384105563163757e-01" purity="3.1781885027885437e-01" nType="-99"/>
          </Node>
        </Node>
      </Node>
    </BinaryTree>
    <BinaryTree type="DecisionTree" boostWeight="1.0000000000000000e+00" itree="178">
      <Node pos="s" depth="0" NCoef="0" IVar="6" Cut="2.2987253665924072e+00" cType="1" res="1.0989418951794505e-03" rms="2.9849693179130554e-01" purity="5.0049573183059692e-01" nType="0">
        <Node pos="l" depth="1" NCoef="0" IVar="8" Cut="2.4018149077892303e-01" cType="1" res="3.2126596197485924e-03" rms="3.0965927243232727e-01" purity="4.0044772624969482e-01" nType="0">
          <Node pos="l" depth="2" NCoef="0" IVar="7" Cut="2.3216295242309570e+00" cType="1" res="8.8679343461990356e-03" rms="2.7757266163825989e-01" purity="2.5829204916954041e-01" nType="0">
            <Node pos="l" depth="3" NCoef="0" IVar="5" Cut="6.9800209045410156e+01" cType="1" res="1.5225199051201344e-02" rms="2.9255765676498413e-01" purity="2.7263963222503662e-01" nType="0">
              <Node pos="l" depth="4" NCoef="0" IVar="-1" Cut="0.0000000000000000e+00" cType="1" res="1.7025340348482132e-02" rms="3.2928553223609924e-01" purity="2.9186937212944031e-01" nType="-99"/>
              <Node pos="r" depth="4" NCoef="0" IVar="3" Cut="2.0731706619262695e+00" cType="1" res="1.1502239853143692e-02" rms="2.8288209438323975e-01" purity="2.6801195740699768e-01" nType="0">
                <Node pos="l" depth="5" NCoef="0" IVar="-1" Cut="0.0000000000000000e+00" cType="1" res="4.2169010266661644e-03" rms="2.8850686550140381e-01" purity="3.2377040386199951e-01" nType="-99"/>
                <Node pos="r" depth="5" NCoef="0" IVar="-1" Cut="0.0000000000000000e+00" cType="1" res="2.1482029929757118e-02" rms="2.6762586832046509e-01" purity="1.2568414211273193e-01" nType="-99"/>
              </Node>
            </Node>
            <Node pos="r" depth="3" NCoef="0" IVar="9" Cut="1.7593336105346680e-01" cType="1" res="-1.8134944839403033e-03" rms="2.5002011656761169e-01" purity="2.3418532311916351e-01" nType="0">
              <Node pos="l" depth="4" NCoef="0" IVar="-1" Cut="0.0000000000000000e+00" cType="1" res="-1.0579600930213928e-02" rms="2.1785707771778107e-01" purity="1.6594110429286957e-01" nType="-99"/>
              <Node pos="r" depth="4" NCoef="0" IVar="-1" Cut="0.0000000000000000e+00" cType="1" res="3.1149387359619141e-03" rms="2.6793023943901062e-01" purity="2.7681785821914673e-01" nType="-99"/>
            </Node>
          </Node>
          <Node pos="r" depth="2" NCoef="0" IVar="8" Cut="5.8270227909088135e-01" cType="1" res="7.8095949720591307e-04" rms="3.2244560122489929e-01" purity="4.6157291531562805e-01" nType="0">
            <Node pos="l" depth="3" NCoef="0" IVar="4" Cut="5.9189094543457031e+01" cType="1" res="-1.9730902276933193e-03" rms="3.1568914651870728e-01" purity="4.4814324378967285e-01" nType="0">
              <Node pos="l" depth="4" NCoef="0" IVar="-1" Cut="0.0000000000000000e+00" cType="1" res="6.0442630201578140e-03" rms="3.2861119508743286e-01" purity="2.0526328682899475e-01" nType="-99"/>
              <Node pos="r" depth="4" NCoef="0" IVar="4" Cut="1.9415203857421875e+02" cType="1" res="-3.8697319105267525e-03" rms="3.1382879614830017e-01" purity="4.8143669962882996e-01" nType="0">
                <Node pos="l" depth="5" NCoef="0" IVar="-1" Cut="0.0000000000000000e+00" cType="1" res="-2.9347778763622046e-03" rms="3.1481873989105225e-01" purity="5.1453489065170288e-01" nType="-99"/>
                <Node pos="r" depth="5" NCoef="0" IVar="-1" Cut="0.0000000000000000e+00" cType="1" res="1.0313798673450947e-02" rms="3.0278530716896057e-01" purity="1.4237084984779358e-01" nType="-99"/>
              </Node>
            </Node>
            <Node pos="r" depth="3" NCoef="0" IVar="7" Cut="8.7301135063171387e-01" cType="1" res="8.1274379044771194e-03" rms="3.3970287442207336e-01" purity="4.9739691615104675e-01" nType="0">
              <Node pos="l" depth="4" NCoef="0" IVar="9" Cut="2.9023680090904236e-01" cType="1" res="1.7698833718895912e-02" rms="3.4793573617935181e-01" purity="5.6552952527999878e-01" nType="0">
                <Node pos="l" depth="5" NCoef="0" IVar="-1" Cut="0.0000000000000000e+00" cType="1" res="1.5982689335942268e-02" rms="3.5808491706848145e-01" purity="3.9405474066734314e-01" nType="-99"/>
                <Node pos="r" depth="5" NCoef="0" IVar="-1" Cut="0.0000000000000000e+00" cType="1" res="3.7343709263950586e-03" rms="3.4292846918106079e-01" purity="6.4215087890625000e-01" nType="-99"/>
              </Node>
              <Node pos="r" depth="4" NCoef="0" IVar="-1" Cut="0.0000000000000000e+00" cType="1" res="-5.1302751526236534e-03" rms="3.2155808806419373e-01" purity="3.5972559452056885e-01" nType="-99"/>
            </Node>
          </Node>
        </Node>
        <Node pos="r" depth="1" NCoef="0" IVar="4" Cut="1.3974073791503906e+02" cType="1" res="-1.5037666307762265e-03" rms="2.8412890434265137e-01" purity="6.2368905544281006e-01" nType="0">
          <Node pos="l" depth="2" NCoef="0" IVar="5" Cut="5.1914028167724609e+01" cType="1" res="1.1430011363700032e-03" rms="2.7897590398788452e-01" purity="6.9431549310684204e-01" nType="0">
            <Node pos="l" depth="3" NCoef="0" IVar="-1" Cut="0.0000000000000000e+00" cType="1" res="-6.5664905123412609e-03" rms="3.5633635520935059e-01" purity="5.0110280513763428e-01" nType="-99"/>
            <Node pos="r" depth="3" NCoef="0" IVar="3" Cut="1.0975610017776489e+00" cType="1" res="2.5693539064377546e-03" rms="2.7195751667022705e-01" purity="7.0940577983856201e-01" nType="0">
              <Node pos="l" depth="4" NCoef="0" IVar="9" Cut="3.2676392793655396e-01" cType="1" res="4.9979570321738720e-03" rms="2.6504573225975037e-01" purity="7.6275259256362915e-01" nType="0">
                <Node pos="l" depth="5" NCoef="0" IVar="-1" Cut="0.0000000000000000e+00" cType="1" res="-3.0743182287551463e-04" rms="2.8397375345230103e-01" purity="6.7485612630844116e-01" nType="-99"/>
                <Node pos="r" depth="5" NCoef="0" IVar="-1" Cut="0.0000000000000000e+00" cType="1" res="6.9913305342197418e-03" rms="2.4866072833538055e-01" purity="8.3356851339340210e-01" nType="-99"/>
              </Node>
              <Node pos="r" depth="4" NCoef="0" IVar="6" Cut="2.6687641143798828e+00" cType="1" res="-5.4449974559247494e-03" rms="2.9347166419029236e-01" purity="5.3336215019226074e-01" nType="0">
                <Node pos="l" depth="5" NCoef="0" IVar="-1" Cut="0.0000000000000000e+00" cType="1" res="-8.8657401502132416e-03" rms="2.9975539445877075e-01" purity="4.3767818808555603e-01" nType="-99"/>
                <Node pos="r" depth="5" NCoef="0" IVar="-1" Cut="0.0000000000000000e+00" cType="1" res="3.0646883533336222e-04" rms="2.8996828198432922e-01" purity="5.8312135934829712e-01" nType="-99"/>
              </Node>
            </Node>
          </Node>
          <Node pos="r" depth="2" NCoef="0" IVar="6" Cut="2.8743402957916260e+00" cType="1" res="-1.1035851202905178e-02" rms="3.0176696181297302e-01" purity="3.6933466792106628e-01" nType="0">
            <Node pos="l" depth="3" NCoef="0" IVar="9" Cut="2.4782820045948029e-01" cType="1" res="-1.6872551292181015e-02" rms="3.0050033330917358e-01" purity="3.0082899332046509e-01" nType="0">
              <Node pos="l" depth="4" NCoef="0" IVar="-1" Cut="0.0000000000000000e+00" cType="1" res="-4.1957963258028030e-03" rms="2.7475637197494507e-01" purity="1.6352133452892303e-01" nType="-99"/>
              <Node pos="r" depth="4" NCoef="0" IVar="-1" Cut="0.0000000000000000e+00" cType="1" res="-1.1569309048354626e-02" rms="3.2168325781822205e-01" purity="4.2464369535446167e-01" nType="-99"/>
            </Node>
            <Node pos="r" depth="3" NCoef="0" IVar="-1" Cut="0.0000000000000000e+00" cType="1" res="-1.2405903544276953e-03" rms="3.0338433384895325e-01" purity="4.6797978878021240e-01" nType="-99"/>
          </Node>
        </Node>
      </Node>
    </BinaryTree>
    <BinaryTree type="DecisionTree" boostWeight="1.0000000000000000e+00" itree="179">
      <Node pos="s" depth="0" NCoef="0" IVar="5" Cut="1.0948812866210938e+02" cType="1" res="-1.2823661090806127e-03" rms="2.9544496536254883e-01" purity="4.9848255515098572e-01" nType="0">
        <Node pos="l" depth="1" NCoef="0" IVar="5" Cut="1.0236015319824219e+02" cType="1" res="6.1082842876203358e-05" rms="3.0155643820762634e-01" purity="5.7611745595932007e-01" nType="0">
          <Node pos="l" depth="2" NCoef="0" IVar="6" Cut="1.6091078519821167e+00" cType="1" res="-7.8850379213690758e-04" rms="3.0103048682212830e-01" purity="5.9152281284332275e-01" nType="0">
            <Node pos="l" depth="3" NCoef="0" IVar="7" Cut="4.9072027206420898e-01" cType="1" res="-4.4997092336416245e-03" rms="3.1622484326362610e-01" purity="4.5228090882301331e-01" nType="0">
              <Node pos="l" depth="4" NCoef="0" IVar="4" Cut="1.1703703308105469e+02" cType="1" res="-1.7534032464027405e-02" rms="3.2401958107948303e-01" purity="5.1291865110397339e-01" nType="0">
                <Node pos="l" depth="5" NCoef="0" IVar="-1" Cut="0.0000000000000000e+00" cType="1" res="-1.3068967498838902e-02" rms="3.2257267832756042e-01" purity="5.4659944772720337e-01" nType="-99"/>
                <Node pos="r" depth="5" NCoef="0" IVar="-1" Cut="0.0000000000000000e+00" cType="1" res="-2.5054910220205784e-03" rms="3.2525312900543213e-01" purity="4.7360190749168396e-01" nType="-99"/>
              </Node>
              <Node pos="r" depth="4" NCoef="0" IVar="7" Cut="1.6576772928237915e+00" cType="1" res="-1.5089144289959222e-04" rms="3.1346052885055542e-01" purity="4.3204957246780396e-01" nType="0">
                <Node pos="l" depth="5" NCoef="0" IVar="-1" Cut="0.0000000000000000e+00" cType="1" res="2.3457778152078390e-03" rms="3.2606032490730286e-01" purity="5.1662206649780273e-01" nType="-99"/>
                <Node pos="r" depth="5" NCoef="0" IVar="-1" Cut="0.0000000000000000e+00" cType="1" res="-5.1507819443941116e-03" rms="2.8931358456611633e-01" purity="2.8074637055397034e-01" nType="-99"/>
              </Node>
            </Node>
            <Node pos="r" depth="3" NCoef="0" IVar="3" Cut="2.0731706619262695e+00" cType="1" res="1.0195714421570301e-03" rms="2.9332590103149414e-01" purity="6.5936052799224854e-01" nType="0">
              <Node pos="l" depth="4" NCoef="0" IVar="4" Cut="1.6887210083007812e+02" cType="1" res="2.6262269821017981e-03" rms="2.8876790404319763e-01" purity="7.0627593994140625e-01" nType="0">
                <Node pos="l" depth="5" NCoef="0" IVar="-1" Cut="0.0000000000000000e+00" cType="1" res="2.3288577795028687e-03" rms="2.8501534461975098e-01" purity="7.4894219636917114e-01" nType="-99"/>
                <Node pos="r" depth="5" NCoef="0" IVar="-1" Cut="0.0000000000000000e+00" cType="1" res="-4.2541027069091797e-03" rms="3.2026720046997070e-01" purity="3.2278606295585632e-01" nType="-99"/>
              </Node>
              <Node pos="r" depth="4" NCoef="0" IVar="6" Cut="2.8051886558532715e+00" cType="1" res="-7.7916011214256287e-03" rms="3.1701543927192688e-01" purity="4.0206867456436157e-01" nType="0">
                <Node pos="l" depth="5" NCoef="0" IVar="-1" Cut="0.0000000000000000e+00" cType="1" res="-9.0001983335241675e-04" rms="3.2493206858634949e-01" purity="3.7415376305580139e-01" nType="-99"/>
                <Node pos="r" depth="5" NCoef="0" IVar="-1" Cut="0.0000000000000000e+00" cType="1" res="-1.0758613236248493e-02" rms="2.9589685797691345e-01" purity="4.7151473164558411e-01" nType="-99"/>
              </Node>
            </Node>
          </Node>
          <Node pos="r" depth="2" NCoef="0" IVar="6" Cut="2.2987177371978760e+00" cType="1" res="1.1099555529654026e-02" rms="3.0809539556503296e-01" purity="3.7595948576927185e-01" nType="0">
            <Node pos="l" depth="3" NCoef="0" IVar="-1" Cut="0.0000000000000000e+00" cType="1" res="1.5566051937639713e-02" rms="3.2814601063728333e-01" purity="2.7450856566429138e-01" nType="-99"/>
            <Node pos="r" depth="3" NCoef="0" IVar="-1" Cut="0.0000000000000000e+00" cType="1" res="-6.5192254260182381e-03" rms="2.7794271707534790e-01" purity="5.0905132293701172e-01" nType="-99"/>
          </Node>
        </Node>
        <Node pos="r" depth="1" NCoef="0" IVar="8" Cut="6.1307209730148315e-01" cType="1" res="-4.9657328054308891e-03" rms="2.7796745300292969e-01" purity="2.8562894463539124e-01" nType="0">
          <Node pos="l" depth="2" NCoef="0" IVar="9" Cut="5.6969028711318970e-01" cType="1" res="-3.2894804608076811e-03" rms="2.7395239472389221e-01" purity="2.9222977161407471e-01" nType="0">
            <Node pos="l" depth="3" NCoef="0" IVar="6" Cut="2.6818451881408691e+00" cType="1" res="-1.5380018157884479e-03" rms="2.7202475070953369e-01" purity="2.9430189728736877e-01" nType="0">
              <Node pos="l" depth="4" NCoef="0" IVar="7" Cut="1.1898984909057617e+00" cType="1" res="2.6063425466418266e-03" rms="2.7119550108909607e-01" purity="1.8880833685398102e-01" nType="0">
                <Node pos="l" depth="5" NCoef="0" IVar="-1" Cut="0.0000000000000000e+00" cType="1" res="5.8221570216119289e-03" rms="3.0521014332771301e-01" purity="2.2845460474491119e-01" nType="-99"/>
                <Node pos="r" depth="5" NCoef="0" IVar="-1" Cut="0.0000000000000000e+00" cType="1" res="-2.6137407403439283e-03" rms="2.3924186825752258e-01" purity="1.5598502755165100e-01" nType="-99"/>
              </Node>
              <Node pos="r" depth="4" NCoef="0" IVar="9" Cut="3.1978747248649597e-01" cType="1" res="-1.0496979579329491e-02" rms="2.7359434962272644e-01" purity="5.2235108613967896e-01" nType="0">
                <Node pos="l" depth="5" NCoef="0" IVar="-1" Cut="0.0000000000000000e+00" cType="1" res="-1.1629209853708744e-02" rms="2.9488506913185120e-01" purity="2.9671981930732727e-01" nType="-99"/>
                <Node pos="r" depth="5" NCoef="0" IVar="-1" Cut="0.0000000000000000e+00" cType="1" res="-5.2931765094399452e-04" rms="2.5423637032508850e-01" purity="7.0901322364807129e-01" nType="-99"/>
              </Node>
            </Node>
            <Node pos="r" depth="3" NCoef="0" IVar="-1" Cut="0.0000000000000000e+00" cType="1" res="-8.0003114417195320e-03" rms="2.8613108396530151e-01" purity="2.7849453687667847e-01" nType="-99"/>
          </Node>
          <Node pos="r" depth="2" NCoef="0" IVar="-1" Cut="0.0000000000000000e+00" cType="1" res="-1.2026255950331688e-02" rms="3.2210379838943481e-01" purity="2.0539921522140503e-01" nType="-99"/>
        </Node>
      </Node>
    </BinaryTree>
    <BinaryTree type="DecisionTree" boostWeight="1.0000000000000000e+00" itree="180">
      <Node pos="s" depth="0" NCoef="0" IVar="5" Cut="3.3899757385253906e+01" cType="1" res="9.7481341799721122e-04" rms="2.9754126071929932e-01" purity="5.0162732601165771e-01" nType="0">
        <Node pos="l" depth="1" NCoef="0" IVar="-1" Cut="0.0000000000000000e+00" cType="1" res="-6.1346446163952351e-03" rms="3.3107879757881165e-01" purity="2.9137873649597168e-01" nType="-99"/>
        <Node pos="r" depth="1" NCoef="0" IVar="6" Cut="2.2987280786037445e-01" cType="1" res="1.3400677125900984e-03" rms="2.9667463898658752e-01" purity="5.0670641660690308e-01" nType="0">
          <Node pos="l" depth="2" NCoef="0" IVar="6" Cut="1.1773916333913803e-01" cType="1" res="1.2307413853704929e-02" rms="3.1915634870529175e-01" purity="2.9243630170822144e-01" nType="0">
            <Node pos="l" depth="3" NCoef="0" IVar="-1" Cut="0.0000000000000000e+00" cType="1" res="7.2658201679587364e-04" rms="3.1067731976509094e-01" purity="2.7752414345741272e-01" nType="-99"/>
            <Node pos="r" depth="3" NCoef="0" IVar="-1" Cut="0.0000000000000000e+00" cType="1" res="1.2355294078588486e-02" rms="3.2711753249168396e-01" purity="3.0748814344406128e-01" nType="-99"/>
          </Node>
          <Node pos="r" depth="2" NCoef="0" IVar="2" Cut="1.0975610017776489e+00" cType="1" res="8.6804071906954050e-04" rms="2.9565954208374023e-01" purity="5.1592844724655151e-01" nType="0">
            <Node pos="l" depth="3" NCoef="0" IVar="5" Cut="1.2001679992675781e+02" cType="1" res="2.2505060769617558e-03" rms="3.0914413928985596e-01" purity="6.2387019395828247e-01" nType="0">
              <Node pos="l" depth="4" NCoef="0" IVar="5" Cut="7.5908020019531250e+01" cType="1" res="3.5867595579475164e-03" rms="3.0961555242538452e-01" purity="6.7028838396072388e-01" nType="0">
                <Node pos="l" depth="5" NCoef="0" IVar="-1" Cut="0.0000000000000000e+00" cType="1" res="-5.9911457356065512e-04" rms="3.3376115560531616e-01" purity="6.1352521181106567e-01" nType="-99"/>
                <Node pos="r" depth="5" NCoef="0" IVar="-1" Cut="0.0000000000000000e+00" cType="1" res="3.5311996471136808e-03" rms="2.9513227939605713e-01" purity="7.0221453905105591e-01" nType="-99"/>
              </Node>
              <Node pos="r" depth="4" NCoef="0" IVar="3" Cut="2.0731706619262695e+00" cType="1" res="-4.2108530178666115e-03" rms="3.0677247047424316e-01" purity="3.9941826462745667e-01" nType="0">
                <Node pos="l" depth="5" NCoef="0" IVar="-1" Cut="0.0000000000000000e+00" cType="1" res="-5.7596946135163307e-03" rms="3.0279475450515747e-01" purity="4.2533242702484131e-01" nType="-99"/>
                <Node pos="r" depth="5" NCoef="0" IVar="-1" Cut="0.0000000000000000e+00" cType="1" res="5.2219559438526630e-03" rms="3.1439065933227539e-01" purity="3.4550741314888000e-01" nType="-99"/>
              </Node>
            </Node>
            <Node pos="r" depth="3" NCoef="0" IVar="3" Cut="2.0731706619262695e+00" cType="1" res="-2.4161683395504951e-03" rms="2.6081568002700806e-01" purity="2.5950014591217041e-01" nType="0">
              <Node pos="l" depth="4" NCoef="0" IVar="8" Cut="3.3135190606117249e-01" cType="1" res="1.2950248492415994e-04" rms="2.7445644140243530e-01" purity="3.0989339947700500e-01" nType="0">
                <Node pos="l" depth="5" NCoef="0" IVar="-1" Cut="0.0000000000000000e+00" cType="1" res="3.6339964717626572e-03" rms="2.5336048007011414e-01" purity="2.3778852820396423e-01" nType="-99"/>
                <Node pos="r" depth="5" NCoef="0" IVar="-1" Cut="0.0000000000000000e+00" cType="1" res="-2.7353907935321331e-03" rms="2.9597690701484680e-01" purity="3.8972774147987366e-01" nType="-99"/>
              </Node>
              <Node pos="r" depth="4" NCoef="0" IVar="9" Cut="3.3738902211189270e-01" cType="1" res="-1.0519101284444332e-02" rms="2.1141804754734039e-01" purity="9.9097207188606262e-02" nType="0">
                <Node pos="l" depth="5" NCoef="0" IVar="-1" Cut="0.0000000000000000e+00" cType="1" res="-3.1267839949578047e-03" rms="2.0027776062488556e-01" purity="7.4319414794445038e-02" nType="-99"/>
                <Node pos="r" depth="5" NCoef="0" IVar="-1" Cut="0.0000000000000000e+00" cType="1" res="-1.5390661545097828e-02" rms="2.2274434566497803e-01" purity="1.2643562257289886e-01" nType="-99"/>
              </Node>
            </Node>
          </Node>
        </Node>
      </Node>
    </BinaryTree>
    <BinaryTree type="DecisionTree" boostWeight="1.0000000000000000e+00" itree="181">
      <Node pos="s" depth="0" NCoef="0" IVar="7" Cut="2.6596245169639587e-01" cType="1" res="-4.5917200623080134e-04" rms="2.9651474952697754e-01" purity="4.9965852499008179e-01" nType="0">
        <Node pos="l" depth="1" NCoef="0" IVar="6" Cut="9.1950809955596924e-01" cType="1" res="-6.6571594215929508e-03" rms="3.0776950716972351e-01" purity="5.5733817815780640e-01" nType="0">
          <Node pos="l" depth="2" NCoef="0" IVar="-1" Cut="0.0000000000000000e+00" cType="1" res="-1.4160833321511745e-02" rms="3.2052320241928101e-01" purity="2.8815931081771851e-01" nType="-99"/>
          <Node pos="r" depth="2" NCoef="0" IVar="5" Cut="9.1891403198242188e+01" cType="1" res="-2.8303139843046665e-03" rms="3.0532646179199219e-01" purity="6.0434436798095703e-01" nType="0">
            <Node pos="l" depth="3" NCoef="0" IVar="7" Cut="1.3622614741325378e-01" cType="1" res="1.0677424725145102e-03" rms="3.0349421501159668e-01" purity="6.9874614477157593e-01" nType="0">
              <Node pos="l" depth="4" NCoef="0" IVar="-1" Cut="0.0000000000000000e+00" cType="1" res="2.7016405947506428e-03" rms="3.0341413617134094e-01" purity="7.0474827289581299e-01" nType="-99"/>
              <Node pos="r" depth="4" NCoef="0" IVar="-1" Cut="0.0000000000000000e+00" cType="1" res="-1.8341334071010351e-03" rms="3.0351999402046204e-01" purity="6.9210815429687500e-01" nType="-99"/>
            </Node>
            <Node pos="r" depth="3" NCoef="0" IVar="6" Cut="2.3828258514404297e+00" cType="1" res="-9.2415651306509972e-03" rms="3.0820915102958679e-01" purity="4.4907897710800171e-01" nType="0">
              <Node pos="l" depth="4" NCoef="0" IVar="-1" Cut="0.0000000000000000e+00" cType="1" res="-7.3868280742317438e-04" rms="3.1984829902648926e-01" purity="3.5034024715423584e-01" nType="-99"/>
              <Node pos="r" depth="4" NCoef="0" IVar="-1" Cut="0.0000000000000000e+00" cType="1" res="-9.2637017369270325e-03" rms="2.9597449302673340e-01" purity="5.4730564355850220e-01" nType="-99"/>
            </Node>
          </Node>
        </Node>
        <Node pos="r" depth="1" NCoef="0" IVar="8" Cut="2.3836138844490051e-01" cType="1" res="5.2814756054431200e-04" rms="2.9467016458511353e-01" purity="4.9047037959098816e-01" nType="0">
          <Node pos="l" depth="2" NCoef="0" IVar="7" Cut="3.6391434669494629e+00" cType="1" res="-3.1642713584005833e-03" rms="2.7787616848945618e-01" purity="3.2594996690750122e-01" nType="0">
            <Node pos="l" depth="3" NCoef="0" IVar="7" Cut="1.1709647178649902e+00" cType="1" res="-4.8802890814840794e-03" rms="2.8046494722366333e-01" purity="3.3299663662910461e-01" nType="0">
              <Node pos="l" depth="4" NCoef="0" IVar="3" Cut="1.0975610017776489e+00" cType="1" res="6.2590739689767361e-03" rms="3.0088552832603455e-01" purity="3.1517428159713745e-01" nType="0">
                <Node pos="l" depth="5" NCoef="0" IVar="-1" Cut="0.0000000000000000e+00" cType="1" res="-8.5027550812810659e-04" rms="3.0385652184486389e-01" purity="3.6460095643997192e-01" nType="-99"/>
                <Node pos="r" depth="5" NCoef="0" IVar="-1" Cut="0.0000000000000000e+00" cType="1" res="1.5649335458874702e-02" rms="2.9394868016242981e-01" purity="2.1234181523323059e-01" nType="-99"/>
              </Node>
              <Node pos="r" depth="4" NCoef="0" IVar="9" Cut="2.3274065554141998e-01" cType="1" res="-9.4512077048420906e-03" rms="2.7150952816009521e-01" purity="3.4030982851982117e-01" nType="0">
                <Node pos="l" depth="5" NCoef="0" IVar="-1" Cut="0.0000000000000000e+00" cType="1" res="-1.4722837135195732e-02" rms="2.2456881403923035e-01" purity="2.7043160796165466e-01" nType="-99"/>
                <Node pos="r" depth="5" NCoef="0" IVar="-1" Cut="0.0000000000000000e+00" cType="1" res="-2.7721775695681572e-03" rms="2.9074349999427795e-01" purity="3.7294965982437134e-01" nType="-99"/>
              </Node>
            </Node>
            <Node pos="r" depth="3" NCoef="0" IVar="-1" Cut="0.0000000000000000e+00" cType="1" res="7.0946989580988884e-03" rms="2.5528174638748169e-01" purity="2.6830035448074341e-01" nType="-99"/>
          </Node>
          <Node pos="r" depth="2" NCoef="0" IVar="4" Cut="7.0753593444824219e+01" cType="1" res="2.1037780679762363e-03" rms="3.0153816938400269e-01" purity="5.6067460775375366e-01" nType="0">
            <Node pos="l" depth="3" NCoef="0" IVar="5" Cut="9.5055984497070312e+01" cType="1" res="1.1048345826566219e-02" rms="3.4617641568183899e-01" purity="2.6950320601463318e-01" nType="0">
              <Node pos="l" depth="4" NCoef="0" IVar="0" Cut="2.0731706619262695e+00" cType="1" res="2.4541798047721386e-03" rms="3.6610072851181030e-01" purity="3.3887419104576111e-01" nType="0">
                <Node pos="l" depth="5" NCoef="0" IVar="-1" Cut="0.0000000000000000e+00" cType="1" res="5.4473313502967358e-03" rms="3.2192438840866089e-01" purity="2.0166431367397308e-01" nType="-99"/>
                <Node pos="r" depth="5" NCoef="0" IVar="-1" Cut="0.0000000000000000e+00" cType="1" res="-2.2527575492858887e-03" rms="4.0842345356941223e-01" purity="4.8772004246711731e-01" nType="-99"/>
              </Node>
              <Node pos="r" depth="4" NCoef="0" IVar="-1" Cut="0.0000000000000000e+00" cType="1" res="1.3317874632775784e-02" rms="3.1531924009323120e-01" purity="1.7096792161464691e-01" nType="-99"/>
            </Node>
            <Node pos="r" depth="3" NCoef="0" IVar="7" Cut="2.3577265739440918e+00" cType="1" res="7.3873042128980160e-04" rms="2.9410672187805176e-01" purity="6.0511076450347900e-01" nType="0">
              <Node pos="l" depth="4" NCoef="0" IVar="1" Cut="1.0975610017776489e+00" cType="1" res="-4.4665389577858150e-04" rms="2.9699283838272095e-01" purity="6.1680728197097778e-01" nType="0">
                <Node pos="l" depth="5" NCoef="0" IVar="-1" Cut="0.0000000000000000e+00" cType="1" res="-2.1692798472940922e-03" rms="3.2680395245552063e-01" purity="3.4427309036254883e-01" nType="-99"/>
                <Node pos="r" depth="5" NCoef="0" IVar="-1" Cut="0.0000000000000000e+00" cType="1" res="1.2635112507268786e-03" rms="2.7806183695793152e-01" purity="7.7610397338867188e-01" nType="-99"/>
              </Node>
              <Node pos="r" depth="4" NCoef="0" IVar="6" Cut="2.0688540935516357e+00" cType="1" res="1.1776120401918888e-02" rms="2.6547893881797791e-01" purity="4.9620240926742554e-01" nType="0">
                <Node pos="l" depth="5" NCoef="0" IVar="-1" Cut="0.0000000000000000e+00" cType="1" res="-2.0568502077367157e-04" rms="2.6864567399024963e-01" purity="2.6777014136314392e-01" nType="-99"/>
                <Node pos="r" depth="5" NCoef="0" IVar="-1" Cut="0.0000000000000000e+00" cType="1" res="1.1828028596937656e-02" rms="2.6294153928756714e-01" purity="6.5410733222961426e-01" nType="-99"/>
              </Node>
            </Node>
          </Node>
        </Node>
      </Node>
    </BinaryTree>
    <BinaryTree type="DecisionTree" boostWeight="1.0000000000000000e+00" itree="182">
      <Node pos="s" depth="0" NCoef="0" IVar="6" Cut="8.4286618232727051e-01" cType="1" res="-9.1222714399918914e-04" rms="2.9598838090896606e-01" purity="4.9866521358489990e-01" nType="0">
        <Node pos="l" depth="1" NCoef="0" IVar="7" Cut="1.8617358207702637e+00" cType="1" res="4.6094893477857113e-03" rms="3.0924266576766968e-01" purity="3.1068474054336548e-01" nType="0">
          <Node pos="l" depth="2" NCoef="0" IVar="3" Cut="2.0731706619262695e+00" cType="1" res="9.0459818020462990e-03" rms="3.2904085516929626e-01" purity="3.5997089743614197e-01" nType="0">
            <Node pos="l" depth="3" NCoef="0" IVar="5" Cut="9.5205017089843750e+01" cType="1" res="3.8124688435345888e-03" rms="3.2781645655632019e-01" purity="4.0049535036087036e-01" nType="0">
              <Node pos="l" depth="4" NCoef="0" IVar="7" Cut="8.6275345087051392e-01" cType="1" res="-2.8129725251346827e-03" rms="3.2902237772941589e-01" purity="5.0272351503372192e-01" nType="0">
                <Node pos="l" depth="5" NCoef="0" IVar="-1" Cut="0.0000000000000000e+00" cType="1" res="-9.7312247380614281e-03" rms="3.3269011974334717e-01" purity="4.6947094798088074e-01" nType="-99"/>
                <Node pos="r" depth="5" NCoef="0" IVar="-1" Cut="0.0000000000000000e+00" cType="1" res="7.3824045248329639e-03" rms="3.2406854629516602e-01" purity="5.3669583797454834e-01" nType="-99"/>
              </Node>
              <Node pos="r" depth="4" NCoef="0" IVar="-1" Cut="0.0000000000000000e+00" cType="1" res="7.9636313021183014e-03" rms="3.2550251483917236e-01" purity="2.3048070073127747e-01" nType="-99"/>
            </Node>
            <Node pos="r" depth="3" NCoef="0" IVar="-1" Cut="0.0000000000000000e+00" cType="1" res="1.3984231278300285e-02" rms="3.3243855834007263e-01" purity="2.2745157778263092e-01" nType="-99"/>
          </Node>
          <Node pos="r" depth="2" NCoef="0" IVar="5" Cut="9.2072814941406250e+01" cType="1" res="-8.4140067920088768e-03" rms="2.4146981537342072e-01" purity="1.6600321233272552e-01" nType="0">
            <Node pos="l" depth="3" NCoef="0" IVar="-1" Cut="0.0000000000000000e+00" cType="1" res="-6.9964770227670670e-04" rms="2.8456446528434753e-01" purity="2.6132759451866150e-01" nType="-99"/>
            <Node pos="r" depth="3" NCoef="0" IVar="-1" Cut="0.0000000000000000e+00" cType="1" res="-1.5974346548318863e-02" rms="1.8784826993942261e-01" purity="6.9636061787605286e-02" nType="-99"/>
          </Node>
        </Node>
        <Node pos="r" depth="1" NCoef="0" IVar="7" Cut="2.8375430107116699e+00" cType="1" res="-1.9652652554214001e-03" rms="2.9338088631629944e-01" purity="5.3451466560363770e-01" nType="0">
          <Node pos="l" depth="2" NCoef="0" IVar="5" Cut="4.1105472564697266e+01" cType="1" res="-3.0416115187108517e-03" rms="2.9609945416450500e-01" purity="5.4804182052612305e-01" nType="0">
            <Node pos="l" depth="3" NCoef="0" IVar="-1" Cut="0.0000000000000000e+00" cType="1" res="4.2186542414128780e-03" rms="3.6371257901191711e-01" purity="3.7475684285163879e-01" nType="-99"/>
            <Node pos="r" depth="3" NCoef="0" IVar="5" Cut="6.4304428100585938e+01" cType="1" res="-3.7190632428973913e-03" rms="2.9226961731910706e-01" purity="5.5675727128982544e-01" nType="0">
              <Node pos="l" depth="4" NCoef="0" IVar="6" Cut="2.1323950290679932e+00" cType="1" res="-1.2045427225530148e-02" rms="3.3727401494979858e-01" purity="4.6810403466224670e-01" nType="0">
                <Node pos="l" depth="5" NCoef="0" IVar="-1" Cut="0.0000000000000000e+00" cType="1" res="-1.3215159997344017e-03" rms="3.3784967660903931e-01" purity="4.3769311904907227e-01" nType="-99"/>
                <Node pos="r" depth="5" NCoef="0" IVar="-1" Cut="0.0000000000000000e+00" cType="1" res="-8.7329531088471413e-03" rms="3.3654850721359253e-01" purity="4.9543112516403198e-01" nType="-99"/>
              </Node>
              <Node pos="r" depth="4" NCoef="0" IVar="4" Cut="1.5163574218750000e+02" cType="1" res="-2.4923358578234911e-03" rms="2.8501862287521362e-01" purity="5.6981855630874634e-01" nType="0">
                <Node pos="l" depth="5" NCoef="0" IVar="-1" Cut="0.0000000000000000e+00" cType="1" res="-5.5294367484748363e-04" rms="2.8434151411056519e-01" purity="6.3447248935699463e-01" nType="-99"/>
                <Node pos="r" depth="5" NCoef="0" IVar="-1" Cut="0.0000000000000000e+00" cType="1" res="-5.4226880893111229e-03" rms="2.8812360763549805e-01" purity="2.6000547409057617e-01" nType="-99"/>
              </Node>
            </Node>
          </Node>
          <Node pos="r" depth="2" NCoef="0" IVar="8" Cut="1.2780897319316864e-01" cType="1" res="7.9723326489329338e-03" rms="2.6677152514457703e-01" purity="4.0962216258049011e-01" nType="0">
            <Node pos="l" depth="3" NCoef="0" IVar="-1" Cut="0.0000000000000000e+00" cType="1" res="-8.4852036088705063e-03" rms="2.5907790660858154e-01" purity="2.2506456077098846e-01" nType="-99"/>
            <Node pos="r" depth="3" NCoef="0" IVar="9" Cut="1.1926373839378357e-01" cType="1" res="1.8506402149796486e-02" rms="2.6983529329299927e-01" purity="5.0001800060272217e-01" nType="0">
              <Node pos="l" depth="4" NCoef="0" IVar="-1" Cut="0.0000000000000000e+00" cType="1" res="-1.3453803258016706e-03" rms="2.6573359966278076e-01" purity="2.1760334074497223e-01" nType="-99"/>
              <Node pos="r" depth="4" NCoef="0" IVar="-1" Cut="0.0000000000000000e+00" cType="1" res="1.7262291163206100e-02" rms="2.7153658866882324e-01" purity="6.7351496219635010e-01" nType="-99"/>
            </Node>
          </Node>
        </Node>
      </Node>
    </BinaryTree>
    <BinaryTree type="DecisionTree" boostWeight="1.0000000000000000e+00" itree="183">
      <Node pos="s" depth="0" NCoef="0" IVar="5" Cut="3.7328380584716797e+01" cType="1" res="1.0202670237049460e-03" rms="2.9790246486663818e-01" purity="5.0021618604660034e-01" nType="0">
        <Node pos="l" depth="1" NCoef="0" IVar="-1" Cut="0.0000000000000000e+00" cType="1" res="6.8665901198983192e-03" rms="3.5884582996368408e-01" purity="3.2852149009704590e-01" nType="-99"/>
        <Node pos="r" depth="1" NCoef="0" IVar="5" Cut="7.6224227905273438e+01" cType="1" res="4.6619656495749950e-04" rms="2.9542568325996399e-01" purity="5.0648277997970581e-01" nType="0">
          <Node pos="l" depth="2" NCoef="0" IVar="2" Cut="3.0487804412841797e+00" cType="1" res="-3.8733899127691984e-03" rms="3.1969574093818665e-01" purity="5.2794432640075684e-01" nType="0">
            <Node pos="l" depth="3" NCoef="0" IVar="4" Cut="7.6535430908203125e+01" cType="1" res="-1.8644960364326835e-03" rms="3.3062663674354553e-01" purity="6.0973560810089111e-01" nType="0">
              <Node pos="l" depth="4" NCoef="0" IVar="-1" Cut="0.0000000000000000e+00" cType="1" res="-3.9058087859302759e-03" rms="3.8683426380157471e-01" purity="3.7978100776672363e-01" nType="-99"/>
              <Node pos="r" depth="4" NCoef="0" IVar="7" Cut="1.4410173892974854e+00" cType="1" res="-1.9951445574406534e-04" rms="3.2050541043281555e-01" purity="6.4720225334167480e-01" nType="0">
                <Node pos="l" depth="5" NCoef="0" IVar="-1" Cut="0.0000000000000000e+00" cType="1" res="1.5814735088497400e-03" rms="3.2552525401115417e-01" purity="6.9607961177825928e-01" nType="-99"/>
                <Node pos="r" depth="5" NCoef="0" IVar="-1" Cut="0.0000000000000000e+00" cType="1" res="-3.4958187025040388e-03" rms="3.0970761179924011e-01" purity="5.4578316211700439e-01" nType="-99"/>
              </Node>
            </Node>
            <Node pos="r" depth="3" NCoef="0" IVar="8" Cut="3.3135190606117249e-01" cType="1" res="-1.3827269896864891e-02" rms="2.5858032703399658e-01" purity="1.2267640233039856e-01" nType="0">
              <Node pos="l" depth="4" NCoef="0" IVar="-1" Cut="0.0000000000000000e+00" cType="1" res="-2.4922369047999382e-03" rms="2.2841376066207886e-01" purity="9.1657996177673340e-02" nType="-99"/>
              <Node pos="r" depth="4" NCoef="0" IVar="-1" Cut="0.0000000000000000e+00" cType="1" res="-1.3219172134995461e-02" rms="2.8336387872695923e-01" purity="1.5150345861911774e-01" nType="-99"/>
            </Node>
          </Node>
          <Node pos="r" depth="2" NCoef="0" IVar="5" Cut="9.2570686340332031e+01" cType="1" res="2.1821595728397369e-03" rms="2.8524145483970642e-01" purity="4.9799638986587524e-01" nType="0">
            <Node pos="l" depth="3" NCoef="0" IVar="8" Cut="5.2715796232223511e-01" cType="1" res="5.4245255887508392e-03" rms="2.7780506014823914e-01" purity="7.1751713752746582e-01" nType="0">
              <Node pos="l" depth="4" NCoef="0" IVar="7" Cut="1.2363377809524536e+00" cType="1" res="3.1272440683096647e-03" rms="2.7380752563476562e-01" purity="7.1699887514114380e-01" nType="0">
                <Node pos="l" depth="5" NCoef="0" IVar="-1" Cut="0.0000000000000000e+00" cType="1" res="-1.0887878015637398e-03" rms="2.7957743406295776e-01" purity="7.3317545652389526e-01" nType="-99"/>
                <Node pos="r" depth="5" NCoef="0" IVar="-1" Cut="0.0000000000000000e+00" cType="1" res="4.7853398136794567e-03" rms="2.6796051859855652e-01" purity="7.0118385553359985e-01" nType="-99"/>
              </Node>
              <Node pos="r" depth="4" NCoef="0" IVar="-1" Cut="0.0000000000000000e+00" cType="1" res="8.3645433187484741e-03" rms="2.9498201608657837e-01" purity="7.1986055374145508e-01" nType="-99"/>
            </Node>
            <Node pos="r" depth="3" NCoef="0" IVar="3" Cut="4.0243902206420898e+00" cType="1" res="3.5850207495968789e-06" rms="2.9011064767837524e-01" purity="3.5049849748611450e-01" nType="0">
              <Node pos="l" depth="4" NCoef="0" IVar="3" Cut="1.0731707811355591e+00" cType="1" res="-1.8766555003821850e-03" rms="2.9087495803833008e-01" purity="3.8457718491554260e-01" nType="0">
                <Node pos="l" depth="5" NCoef="0" IVar="-1" Cut="0.0000000000000000e+00" cType="1" res="4.6775141527177766e-05" rms="2.9308748245239258e-01" purity="3.9882296323776245e-01" nType="-99"/>
                <Node pos="r" depth="5" NCoef="0" IVar="-1" Cut="0.0000000000000000e+00" cType="1" res="-7.3965508490800858e-03" rms="2.7881291508674622e-01" purity="3.1018608808517456e-01" nType="-99"/>
              </Node>
              <Node pos="r" depth="4" NCoef="0" IVar="5" Cut="1.1230622863769531e+02" cType="1" res="7.2322776541113853e-03" rms="2.8703856468200684e-01" purity="2.1948106586933136e-01" nType="0">
                <Node pos="l" depth="5" NCoef="0" IVar="-1" Cut="0.0000000000000000e+00" cType="1" res="-3.9109787903726101e-03" rms="2.9133394360542297e-01" purity="1.8721513450145721e-01" nType="-99"/>
                <Node pos="r" depth="5" NCoef="0" IVar="-1" Cut="0.0000000000000000e+00" cType="1" res="8.5565680637955666e-03" rms="2.8489768505096436e-01" purity="2.3384460806846619e-01" nType="-99"/>
              </Node>
            </Node>
          </Node>
        </Node>
      </Node>
    </BinaryTree>
    <BinaryTree type="DecisionTree" boostWeight="1.0000000000000000e+00" itree="184">
      <Node pos="s" depth="0" NCoef="0" IVar="8" Cut="9.9629533290863037e-01" cType="1" res="-7.8699539881199598e-04" rms="2.9615336656570435e-01" purity="4.9956429004669189e-01" nType="0">
        <Node pos="l" depth="1" NCoef="0" IVar="8" Cut="6.5613853931427002e-01" cType="1" res="-4.2710261186584830e-04" rms="2.9538723826408386e-01" purity="5.0435119867324829e-01" nType="0">
          <Node pos="l" depth="2" NCoef="0" IVar="6" Cut="2.1454780101776123e+00" cType="1" res="-1.0568936122581363e-03" rms="2.9124790430068970e-01" purity="5.0255459547042847e-01" nType="0">
            <Node pos="l" depth="3" NCoef="0" IVar="4" Cut="1.5151223754882812e+02" cType="1" res="-3.5559562966227531e-03" rms="2.9851830005645752e-01" purity="3.6679658293724060e-01" nType="0">
              <Node pos="l" depth="4" NCoef="0" IVar="9" Cut="7.1510863304138184e-01" cType="1" res="-5.4837237112224102e-03" rms="3.0537930130958557e-01" purity="4.3217080831527710e-01" nType="0">
                <Node pos="l" depth="5" NCoef="0" IVar="-1" Cut="0.0000000000000000e+00" cType="1" res="-3.8564635906368494e-03" rms="3.0427336692810059e-01" purity="4.1617670655250549e-01" nType="-99"/>
                <Node pos="r" depth="5" NCoef="0" IVar="-1" Cut="0.0000000000000000e+00" cType="1" res="3.8623218424618244e-03" rms="3.1297737360000610e-01" purity="5.4845172166824341e-01" nType="-99"/>
              </Node>
              <Node pos="r" depth="4" NCoef="0" IVar="7" Cut="1.9472430944442749e+00" cType="1" res="3.6411024630069733e-03" rms="2.7125430107116699e-01" purity="1.2273066490888596e-01" nType="0">
                <Node pos="l" depth="5" NCoef="0" IVar="-1" Cut="0.0000000000000000e+00" cType="1" res="6.1574606224894524e-03" rms="3.0207404494285583e-01" purity="1.5289250016212463e-01" nType="-99"/>
                <Node pos="r" depth="5" NCoef="0" IVar="-1" Cut="0.0000000000000000e+00" cType="1" res="-1.0257515124976635e-02" rms="1.8769556283950806e-01" purity="5.7693596929311752e-02" nType="-99"/>
              </Node>
            </Node>
            <Node pos="r" depth="3" NCoef="0" IVar="8" Cut="3.8420239090919495e-01" cType="1" res="1.1176225962117314e-03" rms="2.8475287556648254e-01" purity="6.2068223953247070e-01" nType="0">
              <Node pos="l" depth="4" NCoef="0" IVar="7" Cut="1.8010116815567017e+00" cType="1" res="-1.8436961108818650e-03" rms="2.8906545042991638e-01" purity="5.5645489692687988e-01" nType="0">
                <Node pos="l" depth="5" NCoef="0" IVar="-1" Cut="0.0000000000000000e+00" cType="1" res="-3.5100216045975685e-03" rms="3.0723056197166443e-01" purity="5.2913022041320801e-01" nType="-99"/>
                <Node pos="r" depth="5" NCoef="0" IVar="-1" Cut="0.0000000000000000e+00" cType="1" res="2.7905458118766546e-03" rms="2.6161363720893860e-01" purity="5.9440666437149048e-01" nType="-99"/>
              </Node>
              <Node pos="r" depth="4" NCoef="0" IVar="4" Cut="1.1092252349853516e+02" cType="1" res="6.5401080064475536e-03" rms="2.7659970521926880e-01" purity="7.3828905820846558e-01" nType="0">
                <Node pos="l" depth="5" NCoef="0" IVar="-1" Cut="0.0000000000000000e+00" cType="1" res="-1.6139014041982591e-04" rms="3.0871072411537170e-01" purity="6.5390002727508545e-01" nType="-99"/>
                <Node pos="r" depth="5" NCoef="0" IVar="-1" Cut="0.0000000000000000e+00" cType="1" res="7.4323844164609909e-03" rms="2.5405311584472656e-01" purity="7.9179042577743530e-01" nType="-99"/>
              </Node>
            </Node>
          </Node>
          <Node pos="r" depth="2" NCoef="0" IVar="7" Cut="8.3051604032516479e-01" cType="1" res="7.4831000529229641e-03" rms="3.4305313229560852e-01" purity="5.2691584825515747e-01" nType="0">
            <Node pos="l" depth="3" NCoef="0" IVar="-1" Cut="0.0000000000000000e+00" cType="1" res="6.7838784307241440e-03" rms="3.4542477130889893e-01" purity="6.0720211267471313e-01" nType="-99"/>
            <Node pos="r" depth="3" NCoef="0" IVar="-1" Cut="0.0000000000000000e+00" cType="1" res="-3.1194528564810753e-03" rms="3.3832558989524841e-01" purity="3.8512769341468811e-01" nType="-99"/>
          </Node>
        </Node>
        <Node pos="r" depth="1" NCoef="0" IVar="-1" Cut="0.0000000000000000e+00" cType="1" res="-7.1206646971404552e-03" rms="3.2513678073883057e-01" purity="3.0709618330001831e-01" nType="-99"/>
      </Node>
    </BinaryTree>
    <BinaryTree type="DecisionTree" boostWeight="1.0000000000000000e+00" itree="185">
      <Node pos="s" depth="0" NCoef="0" IVar="5" Cut="3.7328384399414062e+01" cType="1" res="1.1388065759092569e-03" rms="2.9826667904853821e-01" purity="5.0043815374374390e-01" nType="0">
        <Node pos="l" depth="1" NCoef="0" IVar="-1" Cut="0.0000000000000000e+00" cType="1" res="-3.8257264532148838e-03" rms="3.4011682868003845e-01" purity="3.0397379398345947e-01" nType="-99"/>
        <Node pos="r" depth="1" NCoef="0" IVar="0" Cut="1.0975610017776489e+00" cType="1" res="1.4867159770801663e-03" rms="2.9669377207756042e-01" purity="5.0729352235794067e-01" nType="0">
          <Node pos="l" depth="2" NCoef="0" IVar="4" Cut="7.0103363037109375e+01" cType="1" res="0.0000000000000000e+00" rms="0.0000000000000000e+00" purity="1.8580998480319977e-01" nType="0">
            <Node pos="l" depth="3" NCoef="0" IVar="7" Cut="1.3755173683166504e+00" cType="1" res="0.0000000000000000e+00" rms="0.0000000000000000e+00" purity="1.1837889254093170e-01" nType="0">
              <Node pos="l" depth="4" NCoef="0" IVar="-1" Cut="0.0000000000000000e+00" cType="1" res="8.8127832859754562e-03" rms="3.0841982364654541e-01" purity="1.5322238206863403e-01" nType="-99"/>
              <Node pos="r" depth="4" NCoef="0" IVar="-1" Cut="0.0000000000000000e+00" cType="1" res="-6.1626830138266087e-03" rms="2.1389681100845337e-01" purity="6.4152993261814117e-02" nType="-99"/>
            </Node>
            <Node pos="r" depth="3" NCoef="0" IVar="9" Cut="6.3114327192306519e-01" cType="1" res="0.0000000000000000e+00" rms="0.0000000000000000e+00" purity="2.0174421370029449e-01" nType="0">
              <Node pos="l" depth="4" NCoef="0" IVar="9" Cut="3.2332873344421387e-01" cType="1" res="0.0000000000000000e+00" rms="0.0000000000000000e+00" purity="1.9772762060165405e-01" nType="0">
                <Node pos="l" depth="5" NCoef="0" IVar="-1" Cut="0.0000000000000000e+00" cType="1" res="1.8678542692214251e-03" rms="2.3483914136886597e-01" purity="1.3113224506378174e-01" nType="-99"/>
                <Node pos="r" depth="5" NCoef="0" IVar="-1" Cut="0.0000000000000000e+00" cType="1" res="-4.4579608365893364e-03" rms="2.9940527677536011e-01" purity="3.1052601337432861e-01" nType="-99"/>
              </Node>
              <Node pos="r" depth="4" NCoef="0" IVar="-1" Cut="0.0000000000000000e+00" cType="1" res="-8.6429771035909653e-03" rms="3.0594408512115479e-01" purity="2.4517112970352173e-01" nType="-99"/>
            </Node>
          </Node>
          <Node pos="r" depth="2" NCoef="0" IVar="4" Cut="5.9476711273193359e+01" cType="1" res="2.8457948938012123e-03" rms="3.1033504009246826e-01" purity="6.6639089584350586e-01" nType="0">
            <Node pos="l" depth="3" NCoef="0" IVar="-1" Cut="0.0000000000000000e+00" cType="1" res="-3.8040517829358578e-03" rms="3.7884593009948730e-01" purity="3.3774796128273010e-01" nType="-99"/>
            <Node pos="r" depth="3" NCoef="0" IVar="5" Cut="5.2288475036621094e+01" cType="1" res="3.6413064226508141e-03" rms="3.0596193671226501e-01" purity="6.8506813049316406e-01" nType="0">
              <Node pos="l" depth="4" NCoef="0" IVar="-1" Cut="0.0000000000000000e+00" cType="1" res="5.1325801759958267e-03" rms="3.8428318500518799e-01" purity="5.7395166158676147e-01" nType="-99"/>
              <Node pos="r" depth="4" NCoef="0" IVar="5" Cut="7.0678291320800781e+01" cType="1" res="2.9433905147016048e-03" rms="3.0013465881347656e-01" purity="6.9231116771697998e-01" nType="0">
                <Node pos="l" depth="5" NCoef="0" IVar="-1" Cut="0.0000000000000000e+00" cType="1" res="-2.9921047389507294e-03" rms="3.2925516366958618e-01" purity="6.7796409130096436e-01" nType="-99"/>
                <Node pos="r" depth="5" NCoef="0" IVar="-1" Cut="0.0000000000000000e+00" cType="1" res="2.5871391408145428e-03" rms="2.9465389251708984e-01" purity="6.9484835863113403e-01" nType="-99"/>
              </Node>
            </Node>
          </Node>
        </Node>
      </Node>
    </BinaryTree>
    <BinaryTree type="DecisionTree" boostWeight="1.0000000000000000e+00" itree="186">
      <Node pos="s" depth="0" NCoef="0" IVar="9" Cut="9.3139421939849854e-01" cType="1" res="4.7324210754595697e-04" rms="2.9757514595985413e-01" purity="5.0004369020462036e-01" nType="0">
        <Node pos="l" depth="1" NCoef="0" IVar="9" Cut="6.8337045609951019e-02" cType="1" res="9.0713577810674906e-04" rms="2.9744192957878113e-01" purity="5.0248020887374878e-01" nType="0">
          <Node pos="l" depth="2" NCoef="0" IVar="-1" Cut="0.0000000000000000e+00" cType="1" res="-1.2211856432259083e-02" rms="2.0579771697521210e-01" purity="6.0978773981332779e-02" nType="-99"/>
          <Node pos="r" depth="2" NCoef="0" IVar="7" Cut="3.5696930885314941e+00" cType="1" res="1.2959570158272982e-03" rms="2.9975062608718872e-01" purity="5.1572883129119873e-01" nType="0">
            <Node pos="l" depth="3" NCoef="0" IVar="9" Cut="4.0513855218887329e-01" cType="1" res="8.7751477258279920e-04" rms="3.0047854781150818e-01" purity="5.2102190256118774e-01" nType="0">
              <Node pos="l" depth="4" NCoef="0" IVar="3" Cut="1.0975610017776489e+00" cType="1" res="-5.5838085245341063e-04" rms="3.0141130089759827e-01" purity="4.4915378093719482e-01" nType="0">
                <Node pos="l" depth="5" NCoef="0" IVar="-1" Cut="0.0000000000000000e+00" cType="1" res="-1.3982946984469891e-03" rms="3.0123171210289001e-01" purity="4.9977678060531616e-01" nType="-99"/>
                <Node pos="r" depth="5" NCoef="0" IVar="-1" Cut="0.0000000000000000e+00" cType="1" res="2.8430549427866936e-03" rms="3.0183228850364685e-01" purity="3.1028774380683899e-01" nType="-99"/>
              </Node>
              <Node pos="r" depth="4" NCoef="0" IVar="7" Cut="1.7412754297256470e+00" cType="1" res="3.4012948162853718e-03" rms="2.9881531000137329e-01" purity="6.4733982086181641e-01" nType="0">
                <Node pos="l" depth="5" NCoef="0" IVar="-1" Cut="0.0000000000000000e+00" cType="1" res="1.0289011988788843e-03" rms="2.9797253012657166e-01" purity="6.7110723257064819e-01" nType="-99"/>
                <Node pos="r" depth="5" NCoef="0" IVar="-1" Cut="0.0000000000000000e+00" cType="1" res="9.5627186819911003e-03" rms="3.0661094188690186e-01" purity="4.1279760003089905e-01" nType="-99"/>
              </Node>
            </Node>
            <Node pos="r" depth="3" NCoef="0" IVar="-1" Cut="0.0000000000000000e+00" cType="1" res="9.2994095757603645e-03" rms="2.7283656597137451e-01" purity="3.3166813850402832e-01" nType="-99"/>
          </Node>
        </Node>
        <Node pos="r" depth="1" NCoef="0" IVar="-1" Cut="0.0000000000000000e+00" cType="1" res="-9.1203320771455765e-03" rms="3.0279430747032166e-01" purity="3.9212197065353394e-01" nType="-99"/>
      </Node>
    </BinaryTree>
    <BinaryTree type="DecisionTree" boostWeight="1.0000000000000000e+00" itree="187">
      <Node pos="s" depth="0" NCoef="0" IVar="5" Cut="1.3113586425781250e+02" cType="1" res="-1.3646574225276709e-03" rms="2.9638537764549255e-01" purity="4.9739322066307068e-01" nType="0">
        <Node pos="l" depth="1" NCoef="0" IVar="9" Cut="5.3665947914123535e-01" cType="1" res="-2.3698110599070787e-03" rms="2.9836487770080566e-01" purity="5.2931243181228638e-01" nType="0">
          <Node pos="l" depth="2" NCoef="0" IVar="4" Cut="1.0545645904541016e+02" cType="1" res="-3.9108525961637497e-03" rms="2.9533824324607849e-01" purity="5.1013261079788208e-01" nType="0">
            <Node pos="l" depth="3" NCoef="0" IVar="7" Cut="1.4765455722808838e+00" cType="1" res="-7.9313497990369797e-03" rms="3.1389591097831726e-01" purity="4.4173300266265869e-01" nType="0">
              <Node pos="l" depth="4" NCoef="0" IVar="8" Cut="5.1835334300994873e-01" cType="1" res="-1.4320041984319687e-02" rms="3.2779458165168762e-01" purity="4.6996691823005676e-01" nType="0">
                <Node pos="l" depth="5" NCoef="0" IVar="-1" Cut="0.0000000000000000e+00" cType="1" res="-1.0720866732299328e-02" rms="3.1291827559471130e-01" purity="4.5412734150886536e-01" nType="-99"/>
                <Node pos="r" depth="5" NCoef="0" IVar="-1" Cut="0.0000000000000000e+00" cType="1" res="4.4418105971999466e-04" rms="3.5849702358245850e-01" purity="5.0555670261383057e-01" nType="-99"/>
              </Node>
              <Node pos="r" depth="4" NCoef="0" IVar="9" Cut="2.6189503073692322e-01" cType="1" res="1.2058864813297987e-03" rms="2.9263141751289368e-01" purity="4.0135231614112854e-01" nType="0">
                <Node pos="l" depth="5" NCoef="0" IVar="-1" Cut="0.0000000000000000e+00" cType="1" res="-5.9532625600695610e-03" rms="2.8711646795272827e-01" purity="3.0856826901435852e-01" nType="-99"/>
                <Node pos="r" depth="5" NCoef="0" IVar="-1" Cut="0.0000000000000000e+00" cType="1" res="7.3667312972247601e-03" rms="2.9815205931663513e-01" purity="5.0549840927124023e-01" nType="-99"/>
              </Node>
            </Node>
            <Node pos="r" depth="3" NCoef="0" IVar="5" Cut="8.7576095581054688e+01" cType="1" res="-1.7396161565557122e-03" rms="2.8479033708572388e-01" purity="5.4707127809524536e-01" nType="0">
              <Node pos="l" depth="4" NCoef="0" IVar="5" Cut="7.1002067565917969e+01" cType="1" res="6.7747954744845629e-04" rms="2.9132854938507080e-01" purity="6.0233390331268311e-01" nType="0">
                <Node pos="l" depth="5" NCoef="0" IVar="-1" Cut="0.0000000000000000e+00" cType="1" res="-1.8984153866767883e-03" rms="3.2318425178527832e-01" purity="4.4866088032722473e-01" nType="-99"/>
                <Node pos="r" depth="5" NCoef="0" IVar="-1" Cut="0.0000000000000000e+00" cType="1" res="2.9569386970251799e-03" rms="2.6138782501220703e-01" purity="7.3199319839477539e-01" nType="-99"/>
              </Node>
              <Node pos="r" depth="4" NCoef="0" IVar="1" Cut="3.0487804412841797e+00" cType="1" res="-5.3522237576544285e-03" rms="2.7468875050544739e-01" purity="4.6447527408599854e-01" nType="0">
                <Node pos="l" depth="5" NCoef="0" IVar="-1" Cut="0.0000000000000000e+00" cType="1" res="-2.5931771961040795e-04" rms="2.8030115365982056e-01" purity="2.8764092922210693e-01" nType="-99"/>
                <Node pos="r" depth="5" NCoef="0" IVar="-1" Cut="0.0000000000000000e+00" cType="1" res="-7.0769563317298889e-03" rms="2.6799878478050232e-01" purity="6.6719621419906616e-01" nType="-99"/>
              </Node>
            </Node>
          </Node>
          <Node pos="r" depth="2" NCoef="0" IVar="4" Cut="1.2233155059814453e+02" cType="1" res="5.2449307404458523e-03" rms="3.1277945637702942e-01" purity="6.2408548593521118e-01" nType="0">
            <Node pos="l" depth="3" NCoef="0" IVar="6" Cut="1.6857334375381470e+00" cType="1" res="9.1457115486264229e-03" rms="3.1402125954627991e-01" purity="6.3928401470184326e-01" nType="0">
              <Node pos="l" depth="4" NCoef="0" IVar="9" Cut="7.2507703304290771e-01" cType="1" res="3.4258845262229443e-03" rms="3.2443767786026001e-01" purity="5.9836179018020630e-01" nType="0">
                <Node pos="l" depth="5" NCoef="0" IVar="-1" Cut="0.0000000000000000e+00" cType="1" res="-2.8684404678642750e-03" rms="3.2505396008491516e-01" purity="5.9347397089004517e-01" nType="-99"/>
                <Node pos="r" depth="5" NCoef="0" IVar="-1" Cut="0.0000000000000000e+00" cType="1" res="6.3462932594120502e-03" rms="3.2346987724304199e-01" purity="6.0357540845870972e-01" nType="-99"/>
              </Node>
              <Node pos="r" depth="4" NCoef="0" IVar="-1" Cut="0.0000000000000000e+00" cType="1" res="8.2475319504737854e-03" rms="3.0098927021026611e-01" purity="6.8807512521743774e-01" nType="-99"/>
            </Node>
            <Node pos="r" depth="3" NCoef="0" IVar="-1" Cut="0.0000000000000000e+00" cType="1" res="-3.8456411566585302e-03" rms="3.0840069055557251e-01" purity="5.7502776384353638e-01" nType="-99"/>
          </Node>
        </Node>
        <Node pos="r" depth="1" NCoef="0" IVar="3" Cut="4.0243902206420898e+00" cType="1" res="4.9541275948286057e-03" rms="2.8354355692863464e-01" purity="2.9673671722412109e-01" nType="0">
          <Node pos="l" depth="2" NCoef="0" IVar="6" Cut="9.9611705541610718e-01" cType="1" res="-1.8545823404565454e-03" rms="2.7825066447257996e-01" purity="3.0147007107734680e-01" nType="0">
            <Node pos="l" depth="3" NCoef="0" IVar="-1" Cut="0.0000000000000000e+00" cType="1" res="8.3569269627332687e-03" rms="2.8355130553245544e-01" purity="1.3808824121952057e-01" nType="-99"/>
            <Node pos="r" depth="3" NCoef="0" IVar="0" Cut="4.0243902206420898e+00" cType="1" res="-5.7223807089030743e-03" rms="2.7663406729698181e-01" purity="3.4691274166107178e-01" nType="0">
              <Node pos="l" depth="4" NCoef="0" IVar="7" Cut="9.6067935228347778e-01" cType="1" res="1.0278519475832582e-03" rms="2.4458336830139160e-01" purity="2.5333061814308167e-01" nType="0">
                <Node pos="l" depth="5" NCoef="0" IVar="-1" Cut="0.0000000000000000e+00" cType="1" res="-5.3433487191796303e-03" rms="2.5579878687858582e-01" purity="2.9380473494529724e-01" nType="-99"/>
                <Node pos="r" depth="5" NCoef="0" IVar="-1" Cut="0.0000000000000000e+00" cType="1" res="5.7404902763664722e-03" rms="2.3615831136703491e-01" purity="2.2480817139148712e-01" nType="-99"/>
              </Node>
              <Node pos="r" depth="4" NCoef="0" IVar="-1" Cut="0.0000000000000000e+00" cType="1" res="-7.4498737230896950e-03" rms="3.1802260875701904e-01" purity="4.8572707176208496e-01" nType="-99"/>
            </Node>
          </Node>
          <Node pos="r" depth="2" NCoef="0" IVar="-1" Cut="0.0000000000000000e+00" cType="1" res="1.6207376495003700e-02" rms="2.9888793826103210e-01" purity="2.8150939941406250e-01" nType="-99"/>
        </Node>
      </Node>
    </BinaryTree>
    <BinaryTree type="DecisionTree" boostWeight="1.0000000000000000e+00" itree="188">
      <Node pos="s" depth="0" NCoef="0" IVar="4" Cut="2.1518125915527344e+02" cType="1" res="-3.9269702392630279e-04" rms="2.9578092694282532e-01" purity="4.9988871812820435e-01" nType="0">
        <Node pos="l" depth="1" NCoef="0" IVar="6" Cut="2.9117197990417480e+00" cType="1" res="6.8356319388840348e-05" rms="2.9759988188743591e-01" purity="5.1704996824264526e-01" nType="0">
          <Node pos="l" depth="2" NCoef="0" IVar="8" Cut="6.2254142761230469e-01" cType="1" res="-8.6489942623302341e-04" rms="3.0148506164550781e-01" purity="4.8349976539611816e-01" nType="0">
            <Node pos="l" depth="3" NCoef="0" IVar="5" Cut="5.2008621215820312e+01" cType="1" res="-1.7529964679852128e-03" rms="2.9537662863731384e-01" purity="4.7882086038589478e-01" nType="0">
              <Node pos="l" depth="4" NCoef="0" IVar="1" Cut="2.0731706619262695e+00" cType="1" res="-1.0363758541643620e-02" rms="3.3398592472076416e-01" purity="3.4069180488586426e-01" nType="0">
                <Node pos="l" depth="5" NCoef="0" IVar="-1" Cut="0.0000000000000000e+00" cType="1" res="-5.0540862139314413e-04" rms="3.2087823748588562e-01" purity="1.9180551171302795e-01" nType="-99"/>
                <Node pos="r" depth="5" NCoef="0" IVar="-1" Cut="0.0000000000000000e+00" cType="1" res="-8.6937015876173973e-03" rms="3.4970983862876892e-01" purity="5.3158015012741089e-01" nType="-99"/>
              </Node>
              <Node pos="r" depth="4" NCoef="0" IVar="6" Cut="1.1362808942794800e+00" cType="1" res="-9.1431190958246589e-04" rms="2.9132920503616333e-01" purity="4.9227458238601685e-01" nType="0">
                <Node pos="l" depth="5" NCoef="0" IVar="-1" Cut="0.0000000000000000e+00" cType="1" res="-3.3560346346348524e-03" rms="2.9158714413642883e-01" purity="3.0477932095527649e-01" nType="-99"/>
                <Node pos="r" depth="5" NCoef="0" IVar="-1" Cut="0.0000000000000000e+00" cType="1" res="3.2194465165957808e-04" rms="2.9123625159263611e-01" purity="5.4783397912979126e-01" nType="-99"/>
              </Node>
            </Node>
            <Node pos="r" depth="3" NCoef="0" IVar="7" Cut="9.5171344280242920e-01" cType="1" res="5.4497588425874710e-03" rms="3.4171807765960693e-01" purity="5.1676797866821289e-01" nType="0">
              <Node pos="l" depth="4" NCoef="0" IVar="9" Cut="2.9079815745353699e-01" cType="1" res="1.1762603186070919e-02" rms="3.4530103206634521e-01" purity="5.8168965578079224e-01" nType="0">
                <Node pos="l" depth="5" NCoef="0" IVar="-1" Cut="0.0000000000000000e+00" cType="1" res="9.5434738323092461e-03" rms="3.6264082789421082e-01" purity="4.5453646779060364e-01" nType="-99"/>
                <Node pos="r" depth="5" NCoef="0" IVar="-1" Cut="0.0000000000000000e+00" cType="1" res="1.9998799543827772e-03" rms="3.3421507477760315e-01" purity="6.5833264589309692e-01" nType="-99"/>
              </Node>
              <Node pos="r" depth="4" NCoef="0" IVar="-1" Cut="0.0000000000000000e+00" cType="1" res="-4.5243627391755581e-03" rms="3.3202919363975525e-01" purity="3.5385698080062866e-01" nType="-99"/>
            </Node>
          </Node>
          <Node pos="r" depth="2" NCoef="0" IVar="8" Cut="2.8169566392898560e-01" cType="1" res="5.1043652929365635e-03" rms="2.7563691139221191e-01" purity="6.9809287786483765e-01" nType="0">
            <Node pos="l" depth="3" NCoef="0" IVar="8" Cut="1.9249168038368225e-01" cType="1" res="-4.2144432663917542e-03" rms="2.9748252034187317e-01" purity="5.4752427339553833e-01" nType="0">
              <Node pos="l" depth="4" NCoef="0" IVar="-1" Cut="0.0000000000000000e+00" cType="1" res="-6.5387198701500893e-03" rms="2.9812812805175781e-01" purity="4.2201763391494751e-01" nType="-99"/>
              <Node pos="r" depth="4" NCoef="0" IVar="-1" Cut="0.0000000000000000e+00" cType="1" res="1.0547542478889227e-03" rms="2.9685774445533752e-01" purity="6.4017337560653687e-01" nType="-99"/>
            </Node>
            <Node pos="r" depth="3" NCoef="0" IVar="5" Cut="9.2072448730468750e+01" cType="1" res="9.6319541335105896e-03" rms="2.6425376534461975e-01" purity="7.7124744653701782e-01" nType="0">
              <Node pos="l" depth="4" NCoef="0" IVar="-1" Cut="0.0000000000000000e+00" cType="1" res="9.7489338368177414e-03" rms="2.6806735992431641e-01" purity="8.0206501483917236e-01" nType="-99"/>
              <Node pos="r" depth="4" NCoef="0" IVar="-1" Cut="0.0000000000000000e+00" cType="1" res="1.4002920361235738e-03" rms="2.5885406136512756e-01" purity="7.2983014583587646e-01" nType="-99"/>
            </Node>
          </Node>
        </Node>
        <Node pos="r" depth="1" NCoef="0" IVar="0" Cut="2.0731706619262695e+00" cType="1" res="-9.2507163062691689e-03" rms="2.5819972157478333e-01" purity="1.7017754912376404e-01" nType="0">
          <Node pos="l" depth="2" NCoef="0" IVar="-1" Cut="0.0000000000000000e+00" cType="1" res="-1.3108178973197937e-03" rms="2.0298118889331818e-01" purity="6.7871466279029846e-02" nType="-99"/>
          <Node pos="r" depth="2" NCoef="0" IVar="-1" Cut="0.0000000000000000e+00" cType="1" res="-8.2907732576131821e-03" rms="3.0794012546539307e-01" purity="2.8393524885177612e-01" nType="-99"/>
        </Node>
      </Node>
    </BinaryTree>
    <BinaryTree type="DecisionTree" boostWeight="1.0000000000000000e+00" itree="189">
      <Node pos="s" depth="0" NCoef="0" IVar="7" Cut="1.4256314039230347e+00" cType="1" res="1.5377037925645709e-03" rms="2.9836720228195190e-01" purity="4.9955764412879944e-01" nType="0">
        <Node pos="l" depth="1" NCoef="0" IVar="9" Cut="2.4105405807495117e-01" cType="1" res="3.5259502474218607e-03" rms="3.1338781118392944e-01" purity="5.4145330190658569e-01" nType="0">
          <Node pos="l" depth="2" NCoef="0" IVar="5" Cut="9.9039924621582031e+01" cType="1" res="1.2103890068829060e-02" rms="3.1499412655830383e-01" purity="2.5162678956985474e-01" nType="0">
            <Node pos="l" depth="3" NCoef="0" IVar="8" Cut="6.3163012266159058e-01" cType="1" res="3.2301894389092922e-03" rms="3.3177307248115540e-01" purity="3.3241841197013855e-01" nType="0">
              <Node pos="l" depth="4" NCoef="0" IVar="6" Cut="2.1454980373382568e+00" cType="1" res="-9.6659343689680099e-03" rms="3.1084948778152466e-01" purity="2.7624192833900452e-01" nType="0">
                <Node pos="l" depth="5" NCoef="0" IVar="-1" Cut="0.0000000000000000e+00" cType="1" res="-1.1467740871012211e-02" rms="2.8441670536994934e-01" purity="1.8047086894512177e-01" nType="-99"/>
                <Node pos="r" depth="5" NCoef="0" IVar="-1" Cut="0.0000000000000000e+00" cType="1" res="2.7115384000353515e-04" rms="3.3485284447669983e-01" purity="3.7186315655708313e-01" nType="-99"/>
              </Node>
              <Node pos="r" depth="4" NCoef="0" IVar="-1" Cut="0.0000000000000000e+00" cType="1" res="1.0643940418958664e-02" rms="3.6556643247604370e-01" purity="4.3442615866661072e-01" nType="-99"/>
            </Node>
            <Node pos="r" depth="3" NCoef="0" IVar="0" Cut="1.0975610017776489e+00" cType="1" res="2.2924831137061119e-02" rms="2.9287326335906982e-01" purity="1.5310621261596680e-01" nType="0">
              <Node pos="l" depth="4" NCoef="0" IVar="-1" Cut="0.0000000000000000e+00" cType="1" res="1.7546087503433228e-02" rms="1.9443531334400177e-01" purity="4.5865859836339951e-02" nType="-99"/>
              <Node pos="r" depth="4" NCoef="0" IVar="-1" Cut="0.0000000000000000e+00" cType="1" res="1.5574826858937740e-02" rms="3.5738995671272278e-01" purity="2.4747475981712341e-01" nType="-99"/>
            </Node>
          </Node>
          <Node pos="r" depth="2" NCoef="0" IVar="5" Cut="6.2584243774414062e+01" cType="1" res="1.6186735592782497e-03" rms="3.1299757957458496e-01" purity="6.0589528083801270e-01" nType="0">
            <Node pos="l" depth="3" NCoef="0" IVar="4" Cut="1.3403936767578125e+02" cType="1" res="1.1939507909119129e-02" rms="3.6371818184852600e-01" purity="5.0277620553970337e-01" nType="0">
              <Node pos="l" depth="4" NCoef="0" IVar="7" Cut="7.3020040988922119e-01" cType="1" res="7.9972678795456886e-03" rms="3.5858067870140076e-01" purity="5.5148893594741821e-01" nType="0">
                <Node pos="l" depth="5" NCoef="0" IVar="-1" Cut="0.0000000000000000e+00" cType="1" res="-1.8375931540504098e-04" rms="3.5493856668472290e-01" purity="5.6678390502929688e-01" nType="-99"/>
                <Node pos="r" depth="5" NCoef="0" IVar="-1" Cut="0.0000000000000000e+00" cType="1" res="7.9191941767930984e-03" rms="3.6363509297370911e-01" purity="5.2840310335159302e-01" nType="-99"/>
              </Node>
              <Node pos="r" depth="4" NCoef="0" IVar="-1" Cut="0.0000000000000000e+00" cType="1" res="1.0780184529721737e-02" rms="3.8057062029838562e-01" purity="3.3499819040298462e-01" nType="-99"/>
            </Node>
            <Node pos="r" depth="3" NCoef="0" IVar="7" Cut="2.4340094625949860e-01" cType="1" res="-7.1383168688043952e-04" rms="3.0030134320259094e-01" purity="6.2920016050338745e-01" nType="0">
              <Node pos="l" depth="4" NCoef="0" IVar="9" Cut="4.6798491477966309e-01" cType="1" res="-8.3249090239405632e-03" rms="3.0257910490036011e-01" purity="6.2765651941299438e-01" nType="0">
                <Node pos="l" depth="5" NCoef="0" IVar="-1" Cut="0.0000000000000000e+00" cType="1" res="-8.1981224939227104e-03" rms="3.1289154291152954e-01" purity="5.5915135145187378e-01" nType="-99"/>
                <Node pos="r" depth="5" NCoef="0" IVar="-1" Cut="0.0000000000000000e+00" cType="1" res="-8.6608523270115256e-04" rms="2.9184022545814514e-01" purity="6.9555461406707764e-01" nType="-99"/>
              </Node>
              <Node pos="r" depth="4" NCoef="0" IVar="2" Cut="4.0243902206420898e+00" cType="1" res="1.2225150130689144e-03" rms="2.9968824982643127e-01" purity="6.2959283590316772e-01" nType="0">
                <Node pos="l" depth="5" NCoef="0" IVar="-1" Cut="0.0000000000000000e+00" cType="1" res="1.5345243737101555e-03" rms="3.0777314305305481e-01" purity="7.1400082111358643e-01" nType="-99"/>
                <Node pos="r" depth="5" NCoef="0" IVar="-1" Cut="0.0000000000000000e+00" cType="1" res="-6.5412153489887714e-03" rms="2.4354651570320129e-01" purity="1.0756503790616989e-01" nType="-99"/>
              </Node>
            </Node>
          </Node>
        </Node>
        <Node pos="r" depth="1" NCoef="0" IVar="8" Cut="7.2086051106452942e-02" cType="1" res="-1.7919455422088504e-03" rms="2.7132430672645569e-01" purity="4.2939648032188416e-01" nType="0">
          <Node pos="l" depth="2" NCoef="0" IVar="-1" Cut="0.0000000000000000e+00" cType="1" res="-2.6319177821278572e-02" rms="2.0396363735198975e-01" purity="6.7764870822429657e-02" nType="-99"/>
          <Node pos="r" depth="2" NCoef="0" IVar="8" Cut="5.6281048059463501e-01" cType="1" res="-1.7188006313517690e-04" rms="2.7487474679946899e-01" purity="4.5180904865264893e-01" nType="0">
            <Node pos="l" depth="3" NCoef="0" IVar="8" Cut="3.9524531364440918e-01" cType="1" res="1.4402858214452863e-03" rms="2.7284753322601318e-01" purity="4.6633052825927734e-01" nType="0">
              <Node pos="l" depth="4" NCoef="0" IVar="7" Cut="3.6507914066314697e+00" cType="1" res="-1.2032934464514256e-03" rms="2.6894554495811462e-01" purity="4.5908910036087036e-01" nType="0">
                <Node pos="l" depth="5" NCoef="0" IVar="-1" Cut="0.0000000000000000e+00" cType="1" res="-1.8488632049411535e-03" rms="2.6890370249748230e-01" purity="4.7107583284378052e-01" nType="-99"/>
                <Node pos="r" depth="5" NCoef="0" IVar="-1" Cut="0.0000000000000000e+00" cType="1" res="1.3030408881604671e-02" rms="2.6841300725936890e-01" purity="3.1119987368583679e-01" nType="-99"/>
              </Node>
              <Node pos="r" depth="4" NCoef="0" IVar="5" Cut="8.4824050903320312e+01" cType="1" res="1.7334554344415665e-02" rms="2.9472330212593079e-01" purity="5.0986891984939575e-01" nType="0">
                <Node pos="l" depth="5" NCoef="0" IVar="-1" Cut="0.0000000000000000e+00" cType="1" res="1.4472643844783306e-02" rms="3.0416524410247803e-01" purity="5.7760322093963623e-01" nType="-99"/>
                <Node pos="r" depth="5" NCoef="0" IVar="-1" Cut="0.0000000000000000e+00" cType="1" res="3.1338520348072052e-03" rms="2.8416344523429871e-01" purity="4.3991437554359436e-01" nType="-99"/>
              </Node>
            </Node>
            <Node pos="r" depth="3" NCoef="0" IVar="-1" Cut="0.0000000000000000e+00" cType="1" res="-1.3124955818057060e-02" rms="3.0405125021934509e-01" purity="2.2183753550052643e-01" nType="-99"/>
          </Node>
        </Node>
      </Node>
    </BinaryTree>
    <BinaryTree type="DecisionTree" boostWeight="1.0000000000000000e+00" itree="190">
      <Node pos="s" depth="0" NCoef="0" IVar="8" Cut="5.9993648529052734e-01" cType="1" res="6.0767395189031959e-04" rms="2.9673996567726135e-01" purity="5.0056433677673340e-01" nType="0">
        <Node pos="l" depth="1" NCoef="0" IVar="4" Cut="7.6154891967773438e+01" cType="1" res="-4.4165397412143648e-04" rms="2.8999251127243042e-01" purity="4.9998947978019714e-01" nType="0">
          <Node pos="l" depth="2" NCoef="0" IVar="8" Cut="4.6830502152442932e-01" cType="1" res="-8.3541870117187500e-03" rms="3.1151345372200012e-01" purity="2.4229454994201660e-01" nType="0">
            <Node pos="l" depth="3" NCoef="0" IVar="5" Cut="6.6747817993164062e+01" cType="1" res="-5.4510938934981823e-03" rms="3.0466422438621521e-01" purity="2.3096787929534912e-01" nType="0">
              <Node pos="l" depth="4" NCoef="0" IVar="-1" Cut="0.0000000000000000e+00" cType="1" res="2.8723550494760275e-03" rms="3.3209517598152161e-01" purity="2.1900324523448944e-01" nType="-99"/>
              <Node pos="r" depth="4" NCoef="0" IVar="8" Cut="1.8294155597686768e-01" cType="1" res="-8.0328779295086861e-03" rms="2.9832842946052551e-01" purity="2.3355919122695923e-01" nType="0">
                <Node pos="l" depth="5" NCoef="0" IVar="-1" Cut="0.0000000000000000e+00" cType="1" res="3.8904156535863876e-03" rms="2.6102882623672485e-01" purity="1.7080149054527283e-01" nType="-99"/>
                <Node pos="r" depth="5" NCoef="0" IVar="-1" Cut="0.0000000000000000e+00" cType="1" res="-6.0087782330811024e-03" rms="3.0796611309051514e-01" purity="2.5135082006454468e-01" nType="-99"/>
              </Node>
            </Node>
            <Node pos="r" depth="3" NCoef="0" IVar="-1" Cut="0.0000000000000000e+00" cType="1" res="-9.2657878994941711e-03" rms="3.4562817215919495e-01" purity="3.0323740839958191e-01" nType="-99"/>
          </Node>
          <Node pos="r" depth="2" NCoef="0" IVar="5" Cut="5.8976264953613281e+01" cType="1" res="9.8609051201492548e-04" rms="2.8591349720954895e-01" purity="5.4648828506469727e-01" nType="0">
            <Node pos="l" depth="3" NCoef="0" IVar="6" Cut="2.3753523826599121e+00" cType="1" res="9.1549931094050407e-03" rms="3.4054827690124512e-01" purity="4.1700965166091919e-01" nType="0">
              <Node pos="l" depth="4" NCoef="0" IVar="8" Cut="3.6603957414627075e-01" cType="1" res="1.8579015508294106e-02" rms="3.4131050109863281e-01" purity="3.6843359470367432e-01" nType="0">
                <Node pos="l" depth="5" NCoef="0" IVar="-1" Cut="0.0000000000000000e+00" cType="1" res="1.4701021835207939e-02" rms="3.3250752091407776e-01" purity="3.0172988772392273e-01" nType="-99"/>
                <Node pos="r" depth="5" NCoef="0" IVar="-1" Cut="0.0000000000000000e+00" cType="1" res="9.7381521482020617e-04" rms="3.5428482294082642e-01" purity="4.7471532225608826e-01" nType="-99"/>
              </Node>
              <Node pos="r" depth="4" NCoef="0" IVar="-1" Cut="0.0000000000000000e+00" cType="1" res="-2.8279237449169159e-03" rms="3.3868730068206787e-01" purity="4.9813622236251831e-01" nType="-99"/>
            </Node>
            <Node pos="r" depth="3" NCoef="0" IVar="5" Cut="1.4521580505371094e+02" cType="1" res="-1.3733877858612686e-04" rms="2.7754110097885132e-01" purity="5.6429481506347656e-01" nType="0">
              <Node pos="l" depth="4" NCoef="0" IVar="7" Cut="2.2810108661651611e+00" cType="1" res="-1.0832359548658133e-03" rms="2.7643519639968872e-01" purity="5.8160597085952759e-01" nType="0">
                <Node pos="l" depth="5" NCoef="0" IVar="-1" Cut="0.0000000000000000e+00" cType="1" res="-1.6456570010632277e-03" rms="2.8048396110534668e-01" purity="6.0395574569702148e-01" nType="-99"/>
                <Node pos="r" depth="5" NCoef="0" IVar="-1" Cut="0.0000000000000000e+00" cType="1" res="3.1589588616043329e-03" rms="2.6029902696609497e-01" purity="4.9622970819473267e-01" nType="-99"/>
              </Node>
              <Node pos="r" depth="4" NCoef="0" IVar="7" Cut="1.3654285669326782e+00" cType="1" res="1.1460168287158012e-02" rms="2.9050859808921814e-01" purity="3.5204535722732544e-01" nType="0">
                <Node pos="l" depth="5" NCoef="0" IVar="-1" Cut="0.0000000000000000e+00" cType="1" res="1.1421349830925465e-02" rms="3.1781458854675293e-01" purity="4.1095203161239624e-01" nType="-99"/>
                <Node pos="r" depth="5" NCoef="0" IVar="-1" Cut="0.0000000000000000e+00" cType="1" res="6.8275228841230273e-04" rms="2.5126481056213379e-01" purity="2.7733823657035828e-01" nType="-99"/>
              </Node>
            </Node>
          </Node>
        </Node>
        <Node pos="r" depth="1" NCoef="0" IVar="6" Cut="6.1299663782119751e-01" cType="1" res="7.7686649747192860e-03" rms="3.3913588523864746e-01" purity="5.0448721647262573e-01" nType="0">
          <Node pos="l" depth="2" NCoef="0" IVar="-1" Cut="0.0000000000000000e+00" cType="1" res="1.1417706497013569e-02" rms="3.6700928211212158e-01" purity="4.2803221940994263e-01" nType="-99"/>
          <Node pos="r" depth="2" NCoef="0" IVar="5" Cut="9.8664039611816406e+01" cType="1" res="1.9503699149936438e-03" rms="3.3045104146003723e-01" purity="5.2648735046386719e-01" nType="0">
            <Node pos="l" depth="3" NCoef="0" IVar="8" Cut="8.0292952060699463e-01" cType="1" res="8.1500858068466187e-03" rms="3.3206564188003540e-01" purity="6.0079973936080933e-01" nType="0">
              <Node pos="l" depth="4" NCoef="0" IVar="-1" Cut="0.0000000000000000e+00" cType="1" res="6.3343336805701256e-03" rms="3.2215613126754761e-01" purity="6.6917729377746582e-01" nType="-99"/>
              <Node pos="r" depth="4" NCoef="0" IVar="-1" Cut="0.0000000000000000e+00" cType="1" res="-1.2426349567249417e-03" rms="3.5012161731719971e-01" purity="4.6890959143638611e-01" nType="-99"/>
            </Node>
            <Node pos="r" depth="3" NCoef="0" IVar="-1" Cut="0.0000000000000000e+00" cType="1" res="-8.9447414502501488e-03" rms="3.2400590181350708e-01" purity="2.7349218726158142e-01" nType="-99"/>
          </Node>
        </Node>
      </Node>
    </BinaryTree>
    <BinaryTree type="DecisionTree" boostWeight="1.0000000000000000e+00" itree="191">
      <Node pos="s" depth="0" NCoef="0" IVar="5" Cut="6.6192222595214844e+01" cType="1" res="6.6696951398625970e-04" rms="2.9711338877677917e-01" purity="4.9996656179428101e-01" nType="0">
        <Node pos="l" depth="1" NCoef="0" IVar="8" Cut="7.4705737829208374e-01" cType="1" res="-3.6115839611738920e-03" rms="3.3647972345352173e-01" purity="4.1577365994453430e-01" nType="0">
          <Node pos="l" depth="2" NCoef="0" IVar="4" Cut="7.6060119628906250e+01" cType="1" res="-6.3268202356994152e-03" rms="3.2998088002204895e-01" purity="4.1388744115829468e-01" nType="0">
            <Node pos="l" depth="3" NCoef="0" IVar="-1" Cut="0.0000000000000000e+00" cType="1" res="-8.6411824449896812e-03" rms="3.3264213800430298e-01" purity="2.0909848809242249e-01" nType="-99"/>
            <Node pos="r" depth="3" NCoef="0" IVar="9" Cut="4.5555388927459717e-01" cType="1" res="-3.3462506253272295e-03" rms="3.2935422658920288e-01" purity="4.5579534769058228e-01" nType="0">
              <Node pos="l" depth="4" NCoef="0" IVar="2" Cut="3.0487804412841797e+00" cType="1" res="-6.4347274601459503e-03" rms="3.2551768422126770e-01" purity="4.1259944438934326e-01" nType="0">
                <Node pos="l" depth="5" NCoef="0" IVar="-1" Cut="0.0000000000000000e+00" cType="1" res="-4.0939403697848320e-03" rms="3.3789461851119995e-01" purity="4.8390972614288330e-01" nType="-99"/>
                <Node pos="r" depth="5" NCoef="0" IVar="-1" Cut="0.0000000000000000e+00" cType="1" res="4.0412829257547855e-03" rms="2.6987272500991821e-01" purity="1.2643000483512878e-01" nType="-99"/>
              </Node>
              <Node pos="r" depth="4" NCoef="0" IVar="-1" Cut="0.0000000000000000e+00" cType="1" res="3.4043330233544111e-03" rms="3.4283435344696045e-01" purity="6.1439567804336548e-01" nType="-99"/>
            </Node>
          </Node>
          <Node pos="r" depth="2" NCoef="0" IVar="-1" Cut="0.0000000000000000e+00" cType="1" res="6.5562832169234753e-03" rms="3.8218989968299866e-01" purity="4.3029510974884033e-01" nType="-99"/>
        </Node>
        <Node pos="r" depth="1" NCoef="0" IVar="8" Cut="8.6755496263504028e-01" cType="1" res="1.6570836305618286e-03" rms="2.8722670674324036e-01" purity="5.1944988965988159e-01" nType="0">
          <Node pos="l" depth="2" NCoef="0" IVar="7" Cut="3.0874485969543457e+00" cType="1" res="2.0731282420456409e-03" rms="2.8620344400405884e-01" purity="5.2446025609970093e-01" nType="0">
            <Node pos="l" depth="3" NCoef="0" IVar="4" Cut="1.1113294982910156e+02" cType="1" res="1.5192714054137468e-03" rms="2.8830927610397339e-01" purity="5.3849375247955322e-01" nType="0">
              <Node pos="l" depth="4" NCoef="0" IVar="9" Cut="7.2141975164413452e-01" cType="1" res="-6.8736600223928690e-04" rms="3.0216240882873535e-01" purity="5.0565069913864136e-01" nType="0">
                <Node pos="l" depth="5" NCoef="0" IVar="-1" Cut="0.0000000000000000e+00" cType="1" res="-1.2663142988458276e-03" rms="2.9914990067481995e-01" purity="5.0412440299987793e-01" nType="-99"/>
                <Node pos="r" depth="5" NCoef="0" IVar="-1" Cut="0.0000000000000000e+00" cType="1" res="6.4657167531549931e-03" rms="3.2731106877326965e-01" purity="5.1918810606002808e-01" nType="-99"/>
              </Node>
              <Node pos="r" depth="4" NCoef="0" IVar="9" Cut="6.4122921228408813e-01" cType="1" res="3.3238246105611324e-03" rms="2.7645185589790344e-01" purity="5.6535232067108154e-01" nType="0">
                <Node pos="l" depth="5" NCoef="0" IVar="-1" Cut="0.0000000000000000e+00" cType="1" res="2.8874916024506092e-03" rms="2.7591994404792786e-01" purity="5.6692528724670410e-01" nType="-99"/>
                <Node pos="r" depth="5" NCoef="0" IVar="-1" Cut="0.0000000000000000e+00" cType="1" res="-7.7672936022281647e-03" rms="2.8302043676376343e-01" purity="5.4406309127807617e-01" nType="-99"/>
              </Node>
            </Node>
            <Node pos="r" depth="3" NCoef="0" IVar="9" Cut="1.0907814651727676e-01" cType="1" res="8.6710639297962189e-03" rms="2.5971680879592896e-01" purity="3.5728254914283752e-01" nType="0">
              <Node pos="l" depth="4" NCoef="0" IVar="-1" Cut="0.0000000000000000e+00" cType="1" res="-9.4181839376688004e-03" rms="2.2771473228931427e-01" purity="1.2616881728172302e-01" nType="-99"/>
              <Node pos="r" depth="4" NCoef="0" IVar="-1" Cut="0.0000000000000000e+00" cType="1" res="1.1112747713923454e-02" rms="2.7395251393318176e-01" purity="4.7488889098167419e-01" nType="-99"/>
            </Node>
          </Node>
          <Node pos="r" depth="2" NCoef="0" IVar="-1" Cut="0.0000000000000000e+00" cType="1" res="-5.3617893718183041e-03" rms="3.1689229607582092e-01" purity="3.6496907472610474e-01" nType="-99"/>
        </Node>
      </Node>
    </BinaryTree>
    <BinaryTree type="DecisionTree" boostWeight="1.0000000000000000e+00" itree="192">
      <Node pos="s" depth="0" NCoef="0" IVar="8" Cut="7.5500524044036865e-01" cType="1" res="1.4218909200280905e-03" rms="2.9808771610260010e-01" purity="5.0043636560440063e-01" nType="0">
        <Node pos="l" depth="1" NCoef="0" IVar="0" Cut="1.0975610017776489e+00" cType="1" res="2.1300173830240965e-03" rms="2.9528617858886719e-01" purity="5.0601774454116821e-01" nType="0">
          <Node pos="l" depth="2" NCoef="0" IVar="1" Cut="2.0731706619262695e+00" cType="1" res="0.0000000000000000e+00" rms="0.0000000000000000e+00" purity="1.8290829658508301e-01" nType="0">
            <Node pos="l" depth="3" NCoef="0" IVar="7" Cut="1.4256327152252197e+00" cType="1" res="0.0000000000000000e+00" rms="0.0000000000000000e+00" purity="7.4568539857864380e-02" nType="0">
              <Node pos="l" depth="4" NCoef="0" IVar="8" Cut="2.0341412723064423e-01" cType="1" res="0.0000000000000000e+00" rms="0.0000000000000000e+00" purity="9.2689402401447296e-02" nType="0">
                <Node pos="l" depth="5" NCoef="0" IVar="-1" Cut="0.0000000000000000e+00" cType="1" res="5.1266226917505264e-02" rms="2.3983733355998993e-01" purity="6.5419428050518036e-02" nType="-99"/>
                <Node pos="r" depth="5" NCoef="0" IVar="-1" Cut="0.0000000000000000e+00" cType="1" res="2.5970109272748232e-03" rms="2.6068547368049622e-01" purity="9.9754765629768372e-02" nType="-99"/>
              </Node>
              <Node pos="r" depth="4" NCoef="0" IVar="9" Cut="1.5105801820755005e-01" cType="1" res="0.0000000000000000e+00" rms="0.0000000000000000e+00" purity="5.2065923810005188e-02" nType="0">
                <Node pos="l" depth="5" NCoef="0" IVar="-1" Cut="0.0000000000000000e+00" cType="1" res="-2.9893545433878899e-02" rms="9.7859799861907959e-02" purity="1.2189589440822601e-02" nType="-99"/>
                <Node pos="r" depth="5" NCoef="0" IVar="-1" Cut="0.0000000000000000e+00" cType="1" res="2.7028119075112045e-04" rms="2.0282565057277679e-01" purity="6.8016014993190765e-02" nType="-99"/>
              </Node>
            </Node>
            <Node pos="r" depth="3" NCoef="0" IVar="8" Cut="4.6048432588577271e-01" cType="1" res="0.0000000000000000e+00" rms="0.0000000000000000e+00" purity="3.4233281016349792e-01" nType="0">
              <Node pos="l" depth="4" NCoef="0" IVar="3" Cut="1.0975610017776489e+00" cType="1" res="0.0000000000000000e+00" rms="0.0000000000000000e+00" purity="3.0749905109405518e-01" nType="0">
                <Node pos="l" depth="5" NCoef="0" IVar="-1" Cut="0.0000000000000000e+00" cType="1" res="-3.0929138883948326e-03" rms="3.1348615884780884e-01" purity="3.5230985283851624e-01" nType="-99"/>
                <Node pos="r" depth="5" NCoef="0" IVar="-1" Cut="0.0000000000000000e+00" cType="1" res="-1.1135145090520382e-02" rms="2.8266003727912903e-01" purity="2.0171348750591278e-01" nType="-99"/>
              </Node>
              <Node pos="r" depth="4" NCoef="0" IVar="-1" Cut="0.0000000000000000e+00" cType="1" res="2.7522428426891565e-03" rms="3.5695740580558777e-01" purity="4.7212278842926025e-01" nType="-99"/>
            </Node>
          </Node>
          <Node pos="r" depth="2" NCoef="0" IVar="5" Cut="1.3845375061035156e+02" cType="1" res="3.5813138820230961e-03" rms="3.0875393748283386e-01" purity="6.6726773977279663e-01" nType="0">
            <Node pos="l" depth="3" NCoef="0" IVar="7" Cut="4.8379930853843689e-01" cType="1" res="2.5672016199678183e-03" rms="3.0685567855834961e-01" purity="6.8588608503341675e-01" nType="0">
              <Node pos="l" depth="4" NCoef="0" IVar="4" Cut="8.2643493652343750e+01" cType="1" res="-3.8295905105769634e-03" rms="3.0899199843406677e-01" purity="7.2566241025924683e-01" nType="0">
                <Node pos="l" depth="5" NCoef="0" IVar="-1" Cut="0.0000000000000000e+00" cType="1" res="-1.0160280391573906e-02" rms="3.6998543143272400e-01" purity="5.2849519252777100e-01" nType="-99"/>
                <Node pos="r" depth="5" NCoef="0" IVar="-1" Cut="0.0000000000000000e+00" cType="1" res="4.8051241901703179e-04" rms="2.9650056362152100e-01" purity="7.6099228858947754e-01" nType="-99"/>
              </Node>
              <Node pos="r" depth="4" NCoef="0" IVar="5" Cut="4.3547210693359375e+01" cType="1" res="4.6503008343279362e-03" rms="3.0612793564796448e-01" purity="6.7293298244476318e-01" nType="0">
                <Node pos="l" depth="5" NCoef="0" IVar="-1" Cut="0.0000000000000000e+00" cType="1" res="-3.4902060870081186e-03" rms="3.7879711389541626e-01" purity="4.3679654598236084e-01" nType="-99"/>
                <Node pos="r" depth="5" NCoef="0" IVar="-1" Cut="0.0000000000000000e+00" cType="1" res="2.8474836144596338e-03" rms="3.0182862281799316e-01" purity="6.8527686595916748e-01" nType="-99"/>
              </Node>
            </Node>
            <Node pos="r" depth="3" NCoef="0" IVar="5" Cut="1.4896398925781250e+02" cType="1" res="1.4317995868623257e-02" rms="3.2798621058464050e-01" purity="4.7015067934989929e-01" nType="0">
              <Node pos="l" depth="4" NCoef="0" IVar="-1" Cut="0.0000000000000000e+00" cType="1" res="1.0560829192399979e-02" rms="3.3666500449180603e-01" purity="4.7543501853942871e-01" nType="-99"/>
              <Node pos="r" depth="4" NCoef="0" IVar="-1" Cut="0.0000000000000000e+00" cType="1" res="2.6329355314373970e-03" rms="3.1815552711486816e-01" purity="4.6447008848190308e-01" nType="-99"/>
            </Node>
          </Node>
        </Node>
        <Node pos="r" depth="1" NCoef="0" IVar="6" Cut="1.4558664560317993e+00" cType="1" res="-9.5566129311919212e-03" rms="3.3837956190109253e-01" purity="4.1390457749366760e-01" nType="0">
          <Node pos="l" depth="2" NCoef="0" IVar="-1" Cut="0.0000000000000000e+00" cType="1" res="1.4814196620136499e-03" rms="3.4073495864868164e-01" purity="4.5442339777946472e-01" nType="-99"/>
          <Node pos="r" depth="2" NCoef="0" IVar="-1" Cut="0.0000000000000000e+00" cType="1" res="-1.5306569635868073e-02" rms="3.3285716176033020e-01" purity="3.4127658605575562e-01" nType="-99"/>
        </Node>
      </Node>
    </BinaryTree>
    <BinaryTree type="DecisionTree" boostWeight="1.0000000000000000e+00" itree="193">
      <Node pos="s" depth="0" NCoef="0" IVar="5" Cut="1.2031208801269531e+02" cType="1" res="1.1887066066265106e-03" rms="2.9739227890968323e-01" purity="5.0200045108795166e-01" nType="0">
        <Node pos="l" depth="1" NCoef="0" IVar="6" Cut="3.0649739503860474e-01" cType="1" res="3.6354645999381319e-05" rms="3.0023559927940369e-01" purity="5.5340045690536499e-01" nType="0">
          <Node pos="l" depth="2" NCoef="0" IVar="7" Cut="1.1346579790115356e+00" cType="1" res="-1.3106576167047024e-02" rms="3.0742993950843811e-01" purity="3.1106665730476379e-01" nType="0">
            <Node pos="l" depth="3" NCoef="0" IVar="-1" Cut="0.0000000000000000e+00" cType="1" res="-1.2836411595344543e-02" rms="3.1752410531044006e-01" purity="3.4592458605766296e-01" nType="-99"/>
            <Node pos="r" depth="3" NCoef="0" IVar="-1" Cut="0.0000000000000000e+00" cType="1" res="6.1663723317906260e-04" rms="2.9633849859237671e-01" purity="2.7629986405372620e-01" nType="-99"/>
          </Node>
          <Node pos="r" depth="2" NCoef="0" IVar="9" Cut="5.1224571466445923e-01" cType="1" res="7.4187701102346182e-04" rms="2.9982820153236389e-01" purity="5.6640911102294922e-01" nType="0">
            <Node pos="l" depth="3" NCoef="0" IVar="5" Cut="8.8632202148437500e+01" cType="1" res="-9.3201303388923407e-04" rms="2.9796680808067322e-01" purity="5.4092043638229370e-01" nType="0">
              <Node pos="l" depth="4" NCoef="0" IVar="5" Cut="5.3153312683105469e+01" cType="1" res="1.0907308897003531e-03" rms="3.0279004573822021e-01" purity="5.8840435743331909e-01" nType="0">
                <Node pos="l" depth="5" NCoef="0" IVar="-1" Cut="0.0000000000000000e+00" cType="1" res="-3.5004455130547285e-03" rms="3.3846315741539001e-01" purity="3.5982143878936768e-01" nType="-99"/>
                <Node pos="r" depth="5" NCoef="0" IVar="-1" Cut="0.0000000000000000e+00" cType="1" res="1.8527610227465630e-03" rms="2.9334801435470581e-01" purity="6.4439326524734497e-01" nType="-99"/>
              </Node>
              <Node pos="r" depth="4" NCoef="0" IVar="4" Cut="1.5749189758300781e+02" cType="1" res="-4.9352184869349003e-03" rms="2.8814139962196350e-01" purity="4.4694510102272034e-01" nType="0">
                <Node pos="l" depth="5" NCoef="0" IVar="-1" Cut="0.0000000000000000e+00" cType="1" res="-4.6358006075024605e-03" rms="2.9008704423904419e-01" purity="5.0988954305648804e-01" nType="-99"/>
                <Node pos="r" depth="5" NCoef="0" IVar="-1" Cut="0.0000000000000000e+00" cType="1" res="4.8721511848270893e-03" rms="2.8000262379646301e-01" purity="1.9939266145229340e-01" nType="-99"/>
              </Node>
            </Node>
            <Node pos="r" depth="3" NCoef="0" IVar="0" Cut="1.0975610017776489e+00" cType="1" res="7.8639937564730644e-03" rms="3.0752047896385193e-01" purity="6.7485898733139038e-01" nType="0">
              <Node pos="l" depth="4" NCoef="0" IVar="4" Cut="8.7655548095703125e+01" cType="1" res="0.0000000000000000e+00" rms="0.0000000000000000e+00" purity="3.3948725461959839e-01" nType="0">
                <Node pos="l" depth="5" NCoef="0" IVar="-1" Cut="0.0000000000000000e+00" cType="1" res="9.4996280968189240e-03" rms="3.5262623429298401e-01" purity="2.7402612566947937e-01" nType="-99"/>
                <Node pos="r" depth="5" NCoef="0" IVar="-1" Cut="0.0000000000000000e+00" cType="1" res="3.0268393456935883e-03" rms="3.4277608990669250e-01" purity="4.0327313542366028e-01" nType="-99"/>
              </Node>
              <Node pos="r" depth="4" NCoef="0" IVar="-1" Cut="0.0000000000000000e+00" cType="1" res="2.7708560228347778e-03" rms="2.8969267010688782e-01" purity="8.0989128351211548e-01" nType="-99"/>
            </Node>
          </Node>
        </Node>
        <Node pos="r" depth="1" NCoef="0" IVar="9" Cut="4.7663125395774841e-01" cType="1" res="5.7682273909449577e-03" rms="2.8576743602752686e-01" purity="2.9773342609405518e-01" nType="0">
          <Node pos="l" depth="2" NCoef="0" IVar="3" Cut="2.0731706619262695e+00" cType="1" res="7.7590905129909515e-03" rms="2.8431206941604614e-01" purity="2.6877501606941223e-01" nType="0">
            <Node pos="l" depth="3" NCoef="0" IVar="8" Cut="4.0637063980102539e-01" cType="1" res="3.8555907085537910e-03" rms="2.8333383798599243e-01" purity="2.8063744306564331e-01" nType="0">
              <Node pos="l" depth="4" NCoef="0" IVar="6" Cut="2.6052231788635254e+00" cType="1" res="8.0073662102222443e-03" rms="2.7145951986312866e-01" purity="2.4286440014839172e-01" nType="0">
                <Node pos="l" depth="5" NCoef="0" IVar="-1" Cut="0.0000000000000000e+00" cType="1" res="9.9645331501960754e-03" rms="2.6190665364265442e-01" purity="1.4965204894542694e-01" nType="-99"/>
                <Node pos="r" depth="5" NCoef="0" IVar="-1" Cut="0.0000000000000000e+00" cType="1" res="-7.6249253470450640e-04" rms="2.9002806544303894e-01" purity="4.3602010607719421e-01" nType="-99"/>
              </Node>
              <Node pos="r" depth="4" NCoef="0" IVar="-1" Cut="0.0000000000000000e+00" cType="1" res="-3.2955606002360582e-03" rms="3.0993407964706421e-01" purity="3.7193912267684937e-01" nType="-99"/>
            </Node>
            <Node pos="r" depth="3" NCoef="0" IVar="7" Cut="1.3414084911346436e+00" cType="1" res="1.6317583620548248e-02" rms="2.8625890612602234e-01" purity="2.4276642501354218e-01" nType="0">
              <Node pos="l" depth="4" NCoef="0" IVar="-1" Cut="0.0000000000000000e+00" cType="1" res="1.5478054992854595e-02" rms="3.1932333111763000e-01" purity="2.7662214636802673e-01" nType="-99"/>
              <Node pos="r" depth="4" NCoef="0" IVar="-1" Cut="0.0000000000000000e+00" cType="1" res="4.3716100044548512e-03" rms="2.4629105627536774e-01" purity="2.0714069902896881e-01" nType="-99"/>
            </Node>
          </Node>
          <Node pos="r" depth="2" NCoef="0" IVar="7" Cut="6.8913513422012329e-01" cType="1" res="-1.2536918511614203e-03" rms="2.9073366522789001e-01" purity="3.9987194538116455e-01" nType="0">
            <Node pos="l" depth="3" NCoef="0" IVar="-1" Cut="0.0000000000000000e+00" cType="1" res="3.7490942049771547e-03" rms="3.1941068172454834e-01" purity="4.7743621468544006e-01" nType="-99"/>
            <Node pos="r" depth="3" NCoef="0" IVar="-1" Cut="0.0000000000000000e+00" cType="1" res="-6.1234431341290474e-03" rms="2.5815150141716003e-01" purity="3.2130691409111023e-01" nType="-99"/>
          </Node>
        </Node>
      </Node>
    </BinaryTree>
    <BinaryTree type="DecisionTree" boostWeight="1.0000000000000000e+00" itree="194">
      <Node pos="s" depth="0" NCoef="0" IVar="5" Cut="4.4544342041015625e+01" cType="1" res="-4.2725537787191570e-04" rms="2.9610484838485718e-01" purity="5.0054353475570679e-01" nType="0">
        <Node pos="l" depth="1" NCoef="0" IVar="9" Cut="3.0992799997329712e-01" cType="1" res="-1.1951803229749203e-02" rms="3.4191220998764038e-01" purity="3.2320117950439453e-01" nType="0">
          <Node pos="l" depth="2" NCoef="0" IVar="-1" Cut="0.0000000000000000e+00" cType="1" res="-1.1211683042347431e-02" rms="3.1661233305931091e-01" purity="2.2108311951160431e-01" nType="-99"/>
          <Node pos="r" depth="2" NCoef="0" IVar="-1" Cut="0.0000000000000000e+00" cType="1" res="-1.5596084995195270e-03" rms="3.5927978157997131e-01" purity="3.9875385165214539e-01" nType="-99"/>
        </Node>
        <Node pos="r" depth="1" NCoef="0" IVar="4" Cut="1.2813465881347656e+02" cType="1" res="3.0085089383646846e-04" rms="2.9295513033866882e-01" purity="5.1174777746200562e-01" nType="0">
          <Node pos="l" depth="2" NCoef="0" IVar="8" Cut="6.0655766725540161e-01" cType="1" res="2.2859612945467234e-03" rms="2.9633548855781555e-01" purity="5.7698875665664673e-01" nType="0">
            <Node pos="l" depth="3" NCoef="0" IVar="6" Cut="1.6091073751449585e+00" cType="1" res="1.0379975428804755e-03" rms="2.8951287269592285e-01" purity="5.7442224025726318e-01" nType="0">
              <Node pos="l" depth="4" NCoef="0" IVar="9" Cut="7.1625190973281860e-01" cType="1" res="-5.8733941987156868e-03" rms="3.0031219124794006e-01" purity="3.8505303859710693e-01" nType="0">
                <Node pos="l" depth="5" NCoef="0" IVar="-1" Cut="0.0000000000000000e+00" cType="1" res="-4.7884425148367882e-03" rms="2.9669791460037231e-01" purity="3.5101807117462158e-01" nType="-99"/>
                <Node pos="r" depth="5" NCoef="0" IVar="-1" Cut="0.0000000000000000e+00" cType="1" res="4.0464894846081734e-03" rms="3.1701412796974182e-01" purity="5.5155307054519653e-01" nType="-99"/>
              </Node>
              <Node pos="r" depth="4" NCoef="0" IVar="9" Cut="3.8319212198257446e-01" cType="1" res="3.8143780548125505e-03" rms="2.8501233458518982e-01" purity="6.5049391984939575e-01" nType="0">
                <Node pos="l" depth="5" NCoef="0" IVar="-1" Cut="0.0000000000000000e+00" cType="1" res="-3.0863189022056758e-04" rms="2.9052451252937317e-01" purity="5.8126938343048096e-01" nType="-99"/>
                <Node pos="r" depth="5" NCoef="0" IVar="-1" Cut="0.0000000000000000e+00" cType="1" res="5.5967490188777447e-03" rms="2.7815848588943481e-01" purity="7.3362195491790771e-01" nType="-99"/>
              </Node>
            </Node>
            <Node pos="r" depth="3" NCoef="0" IVar="1" Cut="1.0975610017776489e+00" cType="1" res="1.2502377852797508e-02" rms="3.4701442718505859e-01" purity="5.9799957275390625e-01" nType="0">
              <Node pos="l" depth="4" NCoef="0" IVar="-1" Cut="0.0000000000000000e+00" cType="1" res="1.1640476994216442e-02" rms="3.6797335743904114e-01" purity="3.8070476055145264e-01" nType="-99"/>
              <Node pos="r" depth="4" NCoef="0" IVar="-1" Cut="0.0000000000000000e+00" cType="1" res="2.6245269691571593e-04" rms="3.3158531785011292e-01" purity="7.4470335245132446e-01" nType="-99"/>
            </Node>
          </Node>
          <Node pos="r" depth="2" NCoef="0" IVar="6" Cut="8.4286636114120483e-01" cType="1" res="-3.6263808142393827e-03" rms="2.8610941767692566e-01" purity="3.8267868757247925e-01" nType="0">
            <Node pos="l" depth="3" NCoef="0" IVar="7" Cut="1.1830852031707764e+00" cType="1" res="3.2707962673157454e-03" rms="2.9166510701179504e-01" purity="2.0415867865085602e-01" nType="0">
              <Node pos="l" depth="4" NCoef="0" IVar="-1" Cut="0.0000000000000000e+00" cType="1" res="6.5022311173379421e-03" rms="3.2811382412910461e-01" purity="2.5562807917594910e-01" nType="-99"/>
              <Node pos="r" depth="4" NCoef="0" IVar="-1" Cut="0.0000000000000000e+00" cType="1" res="-5.5015003308653831e-03" rms="2.4335180222988129e-01" purity="1.4570888876914978e-01" nType="-99"/>
            </Node>
            <Node pos="r" depth="3" NCoef="0" IVar="6" Cut="2.9733924865722656e+00" cType="1" res="-5.0858366303145885e-03" rms="2.8489851951599121e-01" purity="4.2045387625694275e-01" nType="0">
              <Node pos="l" depth="4" NCoef="0" IVar="1" Cut="4.0243902206420898e+00" cType="1" res="-6.5668551251292229e-03" rms="2.8558892011642456e-01" purity="3.8586175441741943e-01" nType="0">
                <Node pos="l" depth="5" NCoef="0" IVar="-1" Cut="0.0000000000000000e+00" cType="1" res="-5.4144980385899544e-03" rms="2.8962105512619019e-01" purity="2.6294574141502380e-01" nType="-99"/>
                <Node pos="r" depth="5" NCoef="0" IVar="-1" Cut="0.0000000000000000e+00" cType="1" res="-9.7608868964016438e-04" rms="2.7842563390731812e-01" purity="5.9801012277603149e-01" nType="-99"/>
              </Node>
              <Node pos="r" depth="4" NCoef="0" IVar="-1" Cut="0.0000000000000000e+00" cType="1" res="1.9349140347912908e-03" rms="2.8072223067283630e-01" purity="6.2037432193756104e-01" nType="-99"/>
            </Node>
          </Node>
        </Node>
      </Node>
    </BinaryTree>
    <BinaryTree type="DecisionTree" boostWeight="1.0000000000000000e+00" itree="195">
      <Node pos="s" depth="0" NCoef="0" IVar="0" Cut="1.0975610017776489e+00" cType="1" res="9.4302813522517681e-04" rms="2.9677155613899231e-01" purity="5.0257742404937744e-01" nType="0">
        <Node pos="l" depth="1" NCoef="0" IVar="4" Cut="4.6891052246093750e+01" cType="1" res="0.0000000000000000e+00" rms="0.0000000000000000e+00" purity="1.7997729778289795e-01" nType="0">
          <Node pos="l" depth="2" NCoef="0" IVar="-1" Cut="0.0000000000000000e+00" cType="1" res="9.7721638157963753e-03" rms="2.6859587430953979e-01" purity="1.1168645322322845e-01" nType="-99"/>
          <Node pos="r" depth="2" NCoef="0" IVar="6" Cut="6.8961781263351440e-01" cType="1" res="0.0000000000000000e+00" rms="0.0000000000000000e+00" purity="1.8528197705745697e-01" nType="0">
            <Node pos="l" depth="3" NCoef="0" IVar="9" Cut="3.5830289125442505e-01" cType="1" res="0.0000000000000000e+00" rms="0.0000000000000000e+00" purity="1.0488922148942947e-01" nType="0">
              <Node pos="l" depth="4" NCoef="0" IVar="-1" Cut="0.0000000000000000e+00" cType="1" res="-8.4829572588205338e-03" rms="1.7808589339256287e-01" purity="4.0021207183599472e-02" nType="-99"/>
              <Node pos="r" depth="4" NCoef="0" IVar="-1" Cut="0.0000000000000000e+00" cType="1" res="1.1538255959749222e-02" rms="3.3512088656425476e-01" purity="1.8684954941272736e-01" nType="-99"/>
            </Node>
            <Node pos="r" depth="3" NCoef="0" IVar="8" Cut="1.1296100169420242e-01" cType="1" res="0.0000000000000000e+00" rms="0.0000000000000000e+00" purity="2.0199714601039886e-01" nType="0">
              <Node pos="l" depth="4" NCoef="0" IVar="-1" Cut="0.0000000000000000e+00" cType="1" res="9.3400217592716217e-03" rms="2.1409361064434052e-01" purity="6.4784131944179535e-02" nType="-99"/>
              <Node pos="r" depth="4" NCoef="0" IVar="6" Cut="2.7229611873626709e+00" cType="1" res="0.0000000000000000e+00" rms="0.0000000000000000e+00" purity="2.1913731098175049e-01" nType="0">
                <Node pos="l" depth="5" NCoef="0" IVar="-1" Cut="0.0000000000000000e+00" cType="1" res="-6.6196238622069359e-03" rms="2.6246577501296997e-01" purity="1.7790551483631134e-01" nType="-99"/>
                <Node pos="r" depth="5" NCoef="0" IVar="-1" Cut="0.0000000000000000e+00" cType="1" res="-6.9283408811315894e-04" rms="2.8822696208953857e-01" purity="3.4260830283164978e-01" nType="-99"/>
              </Node>
            </Node>
          </Node>
        </Node>
        <Node pos="r" depth="1" NCoef="0" IVar="9" Cut="2.0575292408466339e-01" cType="1" res="2.8540000785142183e-03" rms="3.1192165613174438e-01" purity="6.6233992576599121e-01" nType="0">
          <Node pos="l" depth="2" NCoef="0" IVar="6" Cut="1.8389790058135986e+00" cType="1" res="9.4122570008039474e-03" rms="3.3584603667259216e-01" purity="3.9615440368652344e-01" nType="0">
            <Node pos="l" depth="3" NCoef="0" IVar="7" Cut="1.7819238901138306e+00" cType="1" res="2.3215070366859436e-02" rms="3.3717513084411621e-01" purity="2.7449408173561096e-01" nType="0">
              <Node pos="l" depth="4" NCoef="0" IVar="-1" Cut="0.0000000000000000e+00" cType="1" res="1.7337210476398468e-02" rms="3.5892698168754578e-01" purity="2.7523660659790039e-01" nType="-99"/>
              <Node pos="r" depth="4" NCoef="0" IVar="-1" Cut="0.0000000000000000e+00" cType="1" res="4.9979812465608120e-03" rms="3.1591880321502686e-01" purity="2.7383095026016235e-01" nType="-99"/>
            </Node>
            <Node pos="r" depth="3" NCoef="0" IVar="7" Cut="1.1552412509918213e+00" cType="1" res="-6.1527491197921336e-05" rms="3.3460137248039246e-01" purity="4.7965794801712036e-01" nType="0">
              <Node pos="l" depth="4" NCoef="0" IVar="-1" Cut="0.0000000000000000e+00" cType="1" res="5.6236204691231251e-03" rms="3.7546798586845398e-01" purity="3.7729367613792419e-01" nType="-99"/>
              <Node pos="r" depth="4" NCoef="0" IVar="5" Cut="8.8259574890136719e+01" cType="1" res="-5.5788117460906506e-03" rms="3.1784537434577942e-01" purity="5.1782774925231934e-01" nType="0">
                <Node pos="l" depth="5" NCoef="0" IVar="-1" Cut="0.0000000000000000e+00" cType="1" res="1.8863801378756762e-03" rms="3.1182911992073059e-01" purity="6.5246659517288208e-01" nType="-99"/>
                <Node pos="r" depth="5" NCoef="0" IVar="-1" Cut="0.0000000000000000e+00" cType="1" res="-7.7257947996258736e-03" rms="3.2449483871459961e-01" purity="3.5720598697662354e-01" nType="-99"/>
              </Node>
            </Node>
          </Node>
          <Node pos="r" depth="2" NCoef="0" IVar="7" Cut="1.7939279079437256e+00" cType="1" res="1.2827620375901461e-03" rms="3.0589124560356140e-01" purity="7.2611314058303833e-01" nType="0">
            <Node pos="l" depth="3" NCoef="0" IVar="4" Cut="1.9229098510742188e+02" cType="1" res="-1.3704310404136777e-03" rms="3.1118366122245789e-01" purity="7.3112416267395020e-01" nType="0">
              <Node pos="l" depth="4" NCoef="0" IVar="5" Cut="4.8311180114746094e+01" cType="1" res="-1.2147056258982047e-04" rms="3.0893322825431824e-01" purity="7.5000745058059692e-01" nType="0">
                <Node pos="l" depth="5" NCoef="0" IVar="-1" Cut="0.0000000000000000e+00" cType="1" res="5.2233305759727955e-03" rms="3.9443606138229370e-01" purity="6.0799813270568848e-01" nType="-99"/>
                <Node pos="r" depth="5" NCoef="0" IVar="-1" Cut="0.0000000000000000e+00" cType="1" res="-8.9100102195516229e-04" rms="2.9973638057708740e-01" purity="7.6316392421722412e-01" nType="-99"/>
              </Node>
              <Node pos="r" depth="4" NCoef="0" IVar="-1" Cut="0.0000000000000000e+00" cType="1" res="-8.7560499086976051e-03" rms="3.4758034348487854e-01" purity="3.9982140064239502e-01" nType="-99"/>
            </Node>
            <Node pos="r" depth="3" NCoef="0" IVar="2" Cut="1.0975610017776489e+00" cType="1" res="1.2802605517208576e-02" rms="2.8147172927856445e-01" purity="7.0435583591461182e-01" nType="0">
              <Node pos="l" depth="4" NCoef="0" IVar="-1" Cut="0.0000000000000000e+00" cType="1" res="4.6309297904372215e-03" rms="2.8143754601478577e-01" purity="7.7349650859832764e-01" nType="-99"/>
              <Node pos="r" depth="4" NCoef="0" IVar="-1" Cut="0.0000000000000000e+00" cType="1" res="1.5718610957264900e-02" rms="2.8104329109191895e-01" purity="4.6942263841629028e-01" nType="-99"/>
            </Node>
          </Node>
        </Node>
      </Node>
    </BinaryTree>
    <BinaryTree type="DecisionTree" boostWeight="1.0000000000000000e+00" itree="196">
      <Node pos="s" depth="0" NCoef="0" IVar="4" Cut="7.0262443542480469e+01" cType="1" res="-9.3443517107516527e-04" rms="2.9500836133956909e-01" purity="5.0159019231796265e-01" nType="0">
        <Node pos="l" depth="1" NCoef="0" IVar="8" Cut="4.4738879799842834e-01" cType="1" res="4.0845056064426899e-03" rms="3.2622492313385010e-01" purity="2.5357326865196228e-01" nType="0">
          <Node pos="l" depth="2" NCoef="0" IVar="6" Cut="1.5324836969375610e+00" cType="1" res="-5.5803591385483742e-04" rms="3.0488869547843933e-01" purity="2.1600843966007233e-01" nType="0">
            <Node pos="l" depth="3" NCoef="0" IVar="-1" Cut="0.0000000000000000e+00" cType="1" res="-5.3260824643075466e-03" rms="2.5981467962265015e-01" purity="1.1411767452955246e-01" nType="-99"/>
            <Node pos="r" depth="3" NCoef="0" IVar="2" Cut="1.0975610017776489e+00" cType="1" res="2.8218524530529976e-03" rms="3.2428449392318726e-01" purity="2.6499941945075989e-01" nType="0">
              <Node pos="l" depth="4" NCoef="0" IVar="-1" Cut="0.0000000000000000e+00" cType="1" res="3.0908258631825447e-03" rms="3.7456583976745605e-01" purity="3.7945839762687683e-01" nType="-99"/>
              <Node pos="r" depth="4" NCoef="0" IVar="-1" Cut="0.0000000000000000e+00" cType="1" res="-5.2985977381467819e-03" rms="2.2974899411201477e-01" purity="9.4837129116058350e-02" nType="-99"/>
            </Node>
          </Node>
          <Node pos="r" depth="2" NCoef="0" IVar="-1" Cut="0.0000000000000000e+00" cType="1" res="5.3927856497466564e-03" rms="3.7048229575157166e-01" purity="3.4004884958267212e-01" nType="-99"/>
        </Node>
        <Node pos="r" depth="1" NCoef="0" IVar="0" Cut="1.0975610017776489e+00" cType="1" res="-1.6494987066835165e-03" rms="2.9028069972991943e-01" purity="5.3692591190338135e-01" nType="0">
          <Node pos="l" depth="2" NCoef="0" IVar="6" Cut="1.3026103973388672e+00" cType="1" res="0.0000000000000000e+00" rms="0.0000000000000000e+00" purity="1.9419322907924652e-01" nType="0">
            <Node pos="l" depth="3" NCoef="0" IVar="7" Cut="7.1671748161315918e-01" cType="1" res="0.0000000000000000e+00" rms="0.0000000000000000e+00" purity="1.2144529074430466e-01" nType="0">
              <Node pos="l" depth="4" NCoef="0" IVar="-1" Cut="0.0000000000000000e+00" cType="1" res="1.1555059812963009e-02" rms="3.0503669381141663e-01" purity="1.8619085848331451e-01" nType="-99"/>
              <Node pos="r" depth="4" NCoef="0" IVar="3" Cut="1.0975610017776489e+00" cType="1" res="0.0000000000000000e+00" rms="0.0000000000000000e+00" purity="8.8847450911998749e-02" nType="0">
                <Node pos="l" depth="5" NCoef="0" IVar="-1" Cut="0.0000000000000000e+00" cType="1" res="-1.0497313924133778e-02" rms="2.2802831232547760e-01" purity="9.7263224422931671e-02" nType="-99"/>
                <Node pos="r" depth="5" NCoef="0" IVar="-1" Cut="0.0000000000000000e+00" cType="1" res="4.6545895747840405e-03" rms="2.1279838681221008e-01" purity="7.3096446692943573e-02" nType="-99"/>
              </Node>
            </Node>
            <Node pos="r" depth="3" NCoef="0" IVar="4" Cut="9.2181564331054688e+01" cType="1" res="0.0000000000000000e+00" rms="0.0000000000000000e+00" purity="2.3030386865139008e-01" nType="0">
              <Node pos="l" depth="4" NCoef="0" IVar="-1" Cut="0.0000000000000000e+00" cType="1" res="-1.2107180431485176e-02" rms="2.7116271853446960e-01" purity="1.8395522236824036e-01" nType="-99"/>
              <Node pos="r" depth="4" NCoef="0" IVar="5" Cut="1.0227177429199219e+02" cType="1" res="0.0000000000000000e+00" rms="0.0000000000000000e+00" purity="2.4175496399402618e-01" nType="0">
                <Node pos="l" depth="5" NCoef="0" IVar="-1" Cut="0.0000000000000000e+00" cType="1" res="1.8581026233732700e-04" rms="2.9126557707786560e-01" purity="3.2464152574539185e-01" nType="-99"/>
                <Node pos="r" depth="5" NCoef="0" IVar="-1" Cut="0.0000000000000000e+00" cType="1" res="-1.2823483906686306e-02" rms="2.1232824027538300e-01" purity="1.1757028847932816e-01" nType="-99"/>
              </Node>
            </Node>
          </Node>
          <Node pos="r" depth="2" NCoef="0" IVar="8" Cut="8.8071358203887939e-01" cType="1" res="-3.3424796129111201e-05" rms="3.0226892232894897e-01" purity="6.8777120113372803e-01" nType="0">
            <Node pos="l" depth="3" NCoef="0" IVar="1" Cut="3.0487804412841797e+00" cType="1" res="5.7573581580072641e-04" rms="2.9955488443374634e-01" purity="6.9548386335372925e-01" nType="0">
              <Node pos="l" depth="4" NCoef="0" IVar="7" Cut="2.4189935624599457e-01" cType="1" res="-2.3962119594216347e-03" rms="3.4151896834373474e-01" purity="5.0371223688125610e-01" nType="0">
                <Node pos="l" depth="5" NCoef="0" IVar="-1" Cut="0.0000000000000000e+00" cType="1" res="-5.8098542504012585e-03" rms="3.5190960764884949e-01" purity="5.5787527561187744e-01" nType="-99"/>
                <Node pos="r" depth="5" NCoef="0" IVar="-1" Cut="0.0000000000000000e+00" cType="1" res="-3.3288417034782469e-04" rms="3.4003111720085144e-01" purity="4.9625054001808167e-01" nType="-99"/>
              </Node>
              <Node pos="r" depth="4" NCoef="0" IVar="5" Cut="9.5454093933105469e+01" cType="1" res="3.0940305441617966e-03" rms="2.5869613885879517e-01" purity="8.5798245668411255e-01" nType="0">
                <Node pos="l" depth="5" NCoef="0" IVar="-1" Cut="0.0000000000000000e+00" cType="1" res="3.9700260385870934e-03" rms="2.3636664450168610e-01" purity="8.9866840839385986e-01" nType="-99"/>
                <Node pos="r" depth="5" NCoef="0" IVar="-1" Cut="0.0000000000000000e+00" cType="1" res="-7.4045534711331129e-04" rms="3.0961450934410095e-01" purity="7.5137424468994141e-01" nType="-99"/>
              </Node>
            </Node>
            <Node pos="r" depth="3" NCoef="0" IVar="-1" Cut="0.0000000000000000e+00" cType="1" res="-5.9918933548033237e-03" rms="3.6388179659843445e-01" purity="4.9280294775962830e-01" nType="-99"/>
          </Node>
        </Node>
      </Node>
    </BinaryTree>
    <BinaryTree type="DecisionTree" boostWeight="1.0000000000000000e+00" itree="197">
      <Node pos="s" depth="0" NCoef="0" IVar="8" Cut="7.4733132123947144e-01" cType="1" res="8.2816142821684480e-04" rms="2.9678890109062195e-01" purity="5.0201827287673950e-01" nType="0">
        <Node pos="l" depth="1" NCoef="0" IVar="9" Cut="3.4618198871612549e-01" cType="1" res="2.5651691248640418e-04" rms="2.9303532838821411e-01" purity="5.0642544031143188e-01" nType="0">
          <Node pos="l" depth="2" NCoef="0" IVar="8" Cut="1.8243968486785889e-01" cType="1" res="-2.0062492694705725e-03" rms="2.8871008753776550e-01" purity="3.9113554358482361e-01" nType="0">
            <Node pos="l" depth="3" NCoef="0" IVar="4" Cut="9.3892730712890625e+01" cType="1" res="-8.2109291106462479e-03" rms="2.4295330047607422e-01" purity="2.1637339890003204e-01" nType="0">
              <Node pos="l" depth="4" NCoef="0" IVar="-1" Cut="0.0000000000000000e+00" cType="1" res="3.6881531123071909e-03" rms="2.5121253728866577e-01" purity="2.1621112525463104e-01" nType="-99"/>
              <Node pos="r" depth="4" NCoef="0" IVar="7" Cut="2.3216361999511719e+00" cType="1" res="-1.2336057610809803e-02" rms="2.4021241068840027e-01" purity="2.1642316877841949e-01" nType="0">
                <Node pos="l" depth="5" NCoef="0" IVar="-1" Cut="0.0000000000000000e+00" cType="1" res="1.9002145854756236e-03" rms="2.3288272321224213e-01" purity="8.6228251457214355e-02" nType="-99"/>
                <Node pos="r" depth="5" NCoef="0" IVar="-1" Cut="0.0000000000000000e+00" cType="1" res="-1.4543426223099232e-02" rms="2.4430227279663086e-01" purity="2.9856726527214050e-01" nType="-99"/>
              </Node>
            </Node>
            <Node pos="r" depth="3" NCoef="0" IVar="9" Cut="7.6114468276500702e-02" cType="1" res="-4.9459055298939347e-04" rms="2.9877874255180359e-01" purity="4.3371316790580750e-01" nType="0">
              <Node pos="l" depth="4" NCoef="0" IVar="-1" Cut="0.0000000000000000e+00" cType="1" res="-1.2189777567982674e-02" rms="2.1363197267055511e-01" purity="7.3578901588916779e-02" nType="-99"/>
              <Node pos="r" depth="4" NCoef="0" IVar="7" Cut="2.8172552585601807e+00" cType="1" res="3.1998084159567952e-04" rms="3.0330908298492432e-01" purity="4.5632079243659973e-01" nType="0">
                <Node pos="l" depth="5" NCoef="0" IVar="-1" Cut="0.0000000000000000e+00" cType="1" res="-7.2968075983226299e-04" rms="3.0634662508964539e-01" purity="4.4691944122314453e-01" nType="-99"/>
                <Node pos="r" depth="5" NCoef="0" IVar="-1" Cut="0.0000000000000000e+00" cType="1" res="1.0796624235808849e-02" rms="2.6720550656318665e-01" purity="5.5894851684570312e-01" nType="-99"/>
              </Node>
            </Node>
          </Node>
          <Node pos="r" depth="2" NCoef="0" IVar="7" Cut="1.0506547689437866e+00" cType="1" res="2.6324489153921604e-03" rms="2.9749071598052979e-01" purity="6.2748110294342041e-01" nType="0">
            <Node pos="l" depth="3" NCoef="0" IVar="8" Cut="1.8318177759647369e-01" cType="1" res="-5.6901283096522093e-04" rms="3.0127307772636414e-01" purity="6.6020762920379639e-01" nType="0">
              <Node pos="l" depth="4" NCoef="0" IVar="-1" Cut="0.0000000000000000e+00" cType="1" res="9.2834737151861191e-03" rms="3.2953336834907532e-01" purity="3.6475092172622681e-01" nType="-99"/>
              <Node pos="r" depth="4" NCoef="0" IVar="5" Cut="9.5148223876953125e+01" cType="1" res="-2.3967551533132792e-03" rms="2.9834362864494324e-01" purity="6.8869054317474365e-01" nType="0">
                <Node pos="l" depth="5" NCoef="0" IVar="-1" Cut="0.0000000000000000e+00" cType="1" res="5.2728713490068913e-04" rms="2.9166835546493530e-01" purity="7.5532263517379761e-01" nType="-99"/>
                <Node pos="r" depth="5" NCoef="0" IVar="-1" Cut="0.0000000000000000e+00" cType="1" res="-4.6556508168578148e-03" rms="3.1146079301834106e-01" purity="5.5219602584838867e-01" nType="-99"/>
              </Node>
            </Node>
            <Node pos="r" depth="3" NCoef="0" IVar="6" Cut="2.6818466186523438e+00" cType="1" res="8.4510073065757751e-03" rms="2.9039996862411499e-01" purity="5.6800168752670288e-01" nType="0">
              <Node pos="l" depth="4" NCoef="0" IVar="5" Cut="1.2055516815185547e+02" cType="1" res="2.4353936314582825e-03" rms="3.0296364426612854e-01" purity="4.7768881916999817e-01" nType="0">
                <Node pos="l" depth="5" NCoef="0" IVar="-1" Cut="0.0000000000000000e+00" cType="1" res="3.2714526169002056e-03" rms="3.1298711895942688e-01" purity="5.4069769382476807e-01" nType="-99"/>
                <Node pos="r" depth="5" NCoef="0" IVar="-1" Cut="0.0000000000000000e+00" cType="1" res="-1.0483989492058754e-02" rms="2.5295504927635193e-01" purity="1.9813174009323120e-01" nType="-99"/>
              </Node>
              <Node pos="r" depth="4" NCoef="0" IVar="-1" Cut="0.0000000000000000e+00" cType="1" res="1.3681582175195217e-02" rms="2.6126319169998169e-01" purity="7.5982034206390381e-01" nType="-99"/>
            </Node>
          </Node>
        </Node>
        <Node pos="r" depth="1" NCoef="0" IVar="6" Cut="8.4286880493164062e-01" cType="1" res="9.0988632291555405e-03" rms="3.4647154808044434e-01" purity="4.3825486302375793e-01" nType="0">
          <Node pos="l" depth="2" NCoef="0" IVar="-1" Cut="0.0000000000000000e+00" cType="1" res="1.1329522356390953e-02" rms="3.5951000452041626e-01" purity="4.5173418521881104e-01" nType="-99"/>
          <Node pos="r" depth="2" NCoef="0" IVar="-1" Cut="0.0000000000000000e+00" cType="1" res="-1.4222692698240280e-03" rms="3.3698260784149170e-01" purity="4.2931205034255981e-01" nType="-99"/>
        </Node>
      </Node>
    </BinaryTree>
    <BinaryTree type="DecisionTree" boostWeight="1.0000000000000000e+00" itree="198">
      <Node pos="s" depth="0" NCoef="0" IVar="5" Cut="1.4195999145507812e+02" cType="1" res="1.5223511727526784e-03" rms="2.9751741886138916e-01" purity="5.0150299072265625e-01" nType="0">
        <Node pos="l" depth="1" NCoef="0" IVar="5" Cut="1.3245600891113281e+02" cType="1" res="2.2110424470156431e-03" rms="2.9949235916137695e-01" purity="5.2008819580078125e-01" nType="0">
          <Node pos="l" depth="2" NCoef="0" IVar="3" Cut="3.0487804412841797e+00" cType="1" res="1.5601784689351916e-03" rms="2.9970550537109375e-01" purity="5.3227418661117554e-01" nType="0">
            <Node pos="l" depth="3" NCoef="0" IVar="4" Cut="2.0937786865234375e+02" cType="1" res="2.9359154868870974e-03" rms="2.9968750476837158e-01" purity="5.8562529087066650e-01" nType="0">
              <Node pos="l" depth="4" NCoef="0" IVar="4" Cut="1.9012757873535156e+02" cType="1" res="2.2473121061921120e-03" rms="2.9940178990364075e-01" purity="6.0558140277862549e-01" nType="0">
                <Node pos="l" depth="5" NCoef="0" IVar="-1" Cut="0.0000000000000000e+00" cType="1" res="1.5503044705837965e-03" rms="3.0010581016540527e-01" purity="6.1879944801330566e-01" nType="-99"/>
                <Node pos="r" depth="5" NCoef="0" IVar="-1" Cut="0.0000000000000000e+00" cType="1" res="-9.3480618670582771e-03" rms="2.7664369344711304e-01" purity="2.0713546872138977e-01" nType="-99"/>
              </Node>
              <Node pos="r" depth="4" NCoef="0" IVar="-1" Cut="0.0000000000000000e+00" cType="1" res="8.5520055145025253e-03" rms="3.0446481704711914e-01" purity="2.3067620396614075e-01" nType="-99"/>
            </Node>
            <Node pos="r" depth="3" NCoef="0" IVar="1" Cut="2.0731706619262695e+00" cType="1" res="-5.7649062946438789e-03" rms="2.9969498515129089e-01" purity="2.4820733070373535e-01" nType="0">
              <Node pos="l" depth="4" NCoef="0" IVar="4" Cut="1.1701943206787109e+02" cType="1" res="-8.0756627721711993e-04" rms="2.8157004714012146e-01" purity="1.5199993550777435e-01" nType="0">
                <Node pos="l" depth="5" NCoef="0" IVar="-1" Cut="0.0000000000000000e+00" cType="1" res="4.6966671943664551e-03" rms="2.9961821436882019e-01" purity="1.7460912466049194e-01" nType="-99"/>
                <Node pos="r" depth="5" NCoef="0" IVar="-1" Cut="0.0000000000000000e+00" cType="1" res="-8.4481928497552872e-03" rms="2.5683268904685974e-01" purity="1.2377873063087463e-01" nType="-99"/>
              </Node>
              <Node pos="r" depth="4" NCoef="0" IVar="4" Cut="1.1148204803466797e+02" cType="1" res="-1.5402837656438351e-02" rms="3.3190217614173889e-01" purity="4.3525126576423645e-01" nType="0">
                <Node pos="l" depth="5" NCoef="0" IVar="-1" Cut="0.0000000000000000e+00" cType="1" res="-9.4372304156422615e-03" rms="3.5217529535293579e-01" purity="4.3116888403892517e-01" nType="-99"/>
                <Node pos="r" depth="5" NCoef="0" IVar="-1" Cut="0.0000000000000000e+00" cType="1" res="-3.9297579787671566e-03" rms="3.1541466712951660e-01" purity="4.3835771083831787e-01" nType="-99"/>
              </Node>
            </Node>
          </Node>
          <Node pos="r" depth="2" NCoef="0" IVar="8" Cut="3.3733826875686646e-01" cType="1" res="1.3693152926862240e-02" rms="2.9547110199928284e-01" purity="3.0511018633842468e-01" nType="0">
            <Node pos="l" depth="3" NCoef="0" IVar="-1" Cut="0.0000000000000000e+00" cType="1" res="3.5508133005350828e-03" rms="2.6831007003784180e-01" purity="2.0803324878215790e-01" nType="-99"/>
            <Node pos="r" depth="3" NCoef="0" IVar="-1" Cut="0.0000000000000000e+00" cType="1" res="1.3183753937482834e-02" rms="3.2951405644416809e-01" purity="4.4162079691886902e-01" nType="-99"/>
          </Node>
        </Node>
        <Node pos="r" depth="1" NCoef="0" IVar="0" Cut="3.0487804412841797e+00" cType="1" res="-6.5578003413975239e-03" rms="2.7315273880958557e-01" purity="2.8345018625259399e-01" nType="0">
          <Node pos="l" depth="2" NCoef="0" IVar="6" Cut="1.9156008958816528e+00" cType="1" res="1.4753119321539998e-03" rms="2.3378013074398041e-01" purity="1.6470557451248169e-01" nType="0">
            <Node pos="l" depth="3" NCoef="0" IVar="-1" Cut="0.0000000000000000e+00" cType="1" res="6.5520810894668102e-03" rms="2.2929063439369202e-01" purity="6.9813720881938934e-02" nType="-99"/>
            <Node pos="r" depth="3" NCoef="0" IVar="-1" Cut="0.0000000000000000e+00" cType="1" res="-1.8800455145537853e-03" rms="2.3784674704074860e-01" purity="2.5377863645553589e-01" nType="-99"/>
          </Node>
          <Node pos="r" depth="2" NCoef="0" IVar="-1" Cut="0.0000000000000000e+00" cType="1" res="-7.7192005701363087e-03" rms="3.1516391038894653e-01" purity="4.3156972527503967e-01" nType="-99"/>
        </Node>
      </Node>
    </BinaryTree>
    <BinaryTree type="DecisionTree" boostWeight="1.0000000000000000e+00" itree="199">
      <Node pos="s" depth="0" NCoef="0" IVar="8" Cut="8.2510930299758911e-01" cType="1" res="-1.1208272917428985e-04" rms="2.9729601740837097e-01" purity="4.9904775619506836e-01" nType="0">
        <Node pos="l" depth="1" NCoef="0" IVar="1" Cut="4.0243902206420898e+00" cType="1" res="5.0012033898383379e-04" rms="2.9536458849906921e-01" purity="5.0495940446853638e-01" nType="0">
          <Node pos="l" depth="2" NCoef="0" IVar="6" Cut="1.5324842929840088e+00" cType="1" res="-1.5684547834098339e-03" rms="3.0461847782135010e-01" purity="3.6082458496093750e-01" nType="0">
            <Node pos="l" depth="3" NCoef="0" IVar="2" Cut="3.0487804412841797e+00" cType="1" res="-5.8566099032759666e-03" rms="2.9396590590476990e-01" purity="2.2758844494819641e-01" nType="0">
              <Node pos="l" depth="4" NCoef="0" IVar="8" Cut="3.4229817986488342e-01" cType="1" res="-1.1724371463060379e-02" rms="3.1894779205322266e-01" purity="2.9470655322074890e-01" nType="0">
                <Node pos="l" depth="5" NCoef="0" IVar="-1" Cut="0.0000000000000000e+00" cType="1" res="-5.7919247774407268e-04" rms="2.9428580403327942e-01" purity="2.1321199834346771e-01" nType="-99"/>
                <Node pos="r" depth="5" NCoef="0" IVar="-1" Cut="0.0000000000000000e+00" cType="1" res="-9.6270553767681122e-03" rms="3.4393125772476196e-01" purity="3.8540551066398621e-01" nType="-99"/>
              </Node>
              <Node pos="r" depth="4" NCoef="0" IVar="7" Cut="9.3080168962478638e-01" cType="1" res="8.3419531583786011e-03" rms="2.2154088318347931e-01" purity="6.5178886055946350e-02" nType="0">
                <Node pos="l" depth="5" NCoef="0" IVar="-1" Cut="0.0000000000000000e+00" cType="1" res="2.3124968633055687e-02" rms="2.8130534291267395e-01" purity="1.0502550005912781e-01" nType="-99"/>
                <Node pos="r" depth="5" NCoef="0" IVar="-1" Cut="0.0000000000000000e+00" cType="1" res="-6.2166261486709118e-03" rms="1.6791662573814392e-01" purity="3.7990000098943710e-02" nType="-99"/>
              </Node>
            </Node>
            <Node pos="r" depth="3" NCoef="0" IVar="8" Cut="3.2215946912765503e-01" cType="1" res="5.8971304679289460e-04" rms="3.0981880426406860e-01" purity="4.2788043618202209e-01" nType="0">
              <Node pos="l" depth="4" NCoef="0" IVar="7" Cut="1.1405072212219238e+00" cType="1" res="-2.8605768457055092e-03" rms="2.9975512623786926e-01" purity="3.2596668601036072e-01" nType="0">
                <Node pos="l" depth="5" NCoef="0" IVar="-1" Cut="0.0000000000000000e+00" cType="1" res="3.1658606603741646e-03" rms="3.2811701297760010e-01" purity="3.1574538350105286e-01" nType="-99"/>
                <Node pos="r" depth="5" NCoef="0" IVar="-1" Cut="0.0000000000000000e+00" cType="1" res="-4.6210954897105694e-03" rms="2.8159007430076599e-01" purity="3.3198443055152893e-01" nType="-99"/>
              </Node>
              <Node pos="r" depth="4" NCoef="0" IVar="7" Cut="1.0142215490341187e+00" cType="1" res="4.2838598601520061e-03" rms="3.2020217180252075e-01" purity="5.3699719905853271e-01" nType="0">
                <Node pos="l" depth="5" NCoef="0" IVar="-1" Cut="0.0000000000000000e+00" cType="1" res="-9.4925734447315335e-04" rms="3.3161649107933044e-01" purity="5.6774771213531494e-01" nType="-99"/>
                <Node pos="r" depth="5" NCoef="0" IVar="-1" Cut="0.0000000000000000e+00" cType="1" res="7.1791480295360088e-03" rms="3.0148208141326904e-01" purity="4.8955571651458740e-01" nType="-99"/>
              </Node>
            </Node>
          </Node>
          <Node pos="r" depth="2" NCoef="0" IVar="8" Cut="3.0208820104598999e-01" cType="1" res="3.6686526145786047e-03" rms="2.8056928515434265e-01" purity="7.2573739290237427e-01" nType="0">
            <Node pos="l" depth="3" NCoef="0" IVar="5" Cut="1.2049837493896484e+02" cType="1" res="-2.1094128023833036e-03" rms="2.9001754522323608e-01" purity="6.1777180433273315e-01" nType="0">
              <Node pos="l" depth="4" NCoef="0" IVar="4" Cut="1.3983761596679688e+02" cType="1" res="1.4075414510443807e-03" rms="2.8855791687965393e-01" purity="6.8092978000640869e-01" nType="0">
                <Node pos="l" depth="5" NCoef="0" IVar="-1" Cut="0.0000000000000000e+00" cType="1" res="2.2172930184751749e-03" rms="2.8423899412155151e-01" purity="7.7691638469696045e-01" nType="-99"/>
                <Node pos="r" depth="5" NCoef="0" IVar="-1" Cut="0.0000000000000000e+00" cType="1" res="-4.4452357105910778e-03" rms="3.0594506859779358e-01" purity="2.7518343925476074e-01" nType="-99"/>
              </Node>
              <Node pos="r" depth="4" NCoef="0" IVar="-1" Cut="0.0000000000000000e+00" cType="1" res="-9.4115277752280235e-03" rms="2.9608473181724548e-01" purity="3.2813584804534912e-01" nType="-99"/>
            </Node>
            <Node pos="r" depth="3" NCoef="0" IVar="5" Cut="1.0260692596435547e+02" cType="1" res="7.1991817094385624e-03" rms="2.7457639575004578e-01" purity="7.9170680046081543e-01" nType="0">
              <Node pos="l" depth="4" NCoef="0" IVar="7" Cut="1.2773587703704834e+00" cType="1" res="4.6197166666388512e-03" rms="2.6046994328498840e-01" purity="8.3145093917846680e-01" nType="0">
                <Node pos="l" depth="5" NCoef="0" IVar="-1" Cut="0.0000000000000000e+00" cType="1" res="1.2452992377802730e-03" rms="2.5853905081748962e-01" purity="8.4395796060562134e-01" nType="-99"/>
                <Node pos="r" depth="5" NCoef="0" IVar="-1" Cut="0.0000000000000000e+00" cType="1" res="7.4293650686740875e-03" rms="2.6505315303802490e-01" purity="8.0053806304931641e-01" nType="-99"/>
              </Node>
              <Node pos="r" depth="4" NCoef="0" IVar="-1" Cut="0.0000000000000000e+00" cType="1" res="7.7711427584290504e-03" rms="3.1616222858428955e-01" purity="6.6185700893402100e-01" nType="-99"/>
            </Node>
          </Node>
        </Node>
        <Node pos="r" depth="1" NCoef="0" IVar="6" Cut="1.0727367401123047e+00" cType="1" res="-1.3030964881181717e-02" rms="3.3520954847335815e-01" purity="3.7429833412170410e-01" nType="0">
          <Node pos="l" depth="2" NCoef="0" IVar="-1" Cut="0.0000000000000000e+00" cType="1" res="8.5712171858176589e-04" rms="3.4231725335121155e-01" purity="4.2255583405494690e-01" nType="-99"/>
          <Node pos="r" depth="2" NCoef="0" IVar="-1" Cut="0.0000000000000000e+00" cType="1" res="-1.4484829269349575e-02" rms="3.2606494426727295e-01" purity="3.1925529241561890e-01" nType="-99"/>
        </Node>
      </Node>
    </BinaryTree>
    <BinaryTree type="DecisionTree" boostWeight="1.0000000000000000e+00" itree="200">
      <Node pos="s" depth="0" NCoef="0" IVar="2" Cut="1.0975610017776489e+00" cType="1" res="-1.4126523165032268e-03" rms="2.9630088806152344e-01" purity="4.9816635251045227e-01" nType="0">
        <Node pos="l" depth="1" NCoef="0" IVar="3" Cut="2.0731706619262695e+00" cType="1" res="-2.7155142743140459e-03" rms="3.0821943283081055e-01" purity="6.0281407833099365e-01" nType="0">
          <Node pos="l" depth="2" NCoef="0" IVar="8" Cut="2.5187322497367859e-01" cType="1" res="-4.0593012236058712e-03" rms="3.0141565203666687e-01" purity="6.5627717971801758e-01" nType="0">
            <Node pos="l" depth="3" NCoef="0" IVar="7" Cut="1.0638567209243774e+00" cType="1" res="-9.3630887567996979e-03" rms="3.0989751219749451e-01" purity="5.0805860757827759e-01" nType="0">
              <Node pos="l" depth="4" NCoef="0" IVar="7" Cut="5.4490643739700317e-01" cType="1" res="3.8678424898535013e-03" rms="3.3672273159027100e-01" purity="5.0753438472747803e-01" nType="0">
                <Node pos="l" depth="5" NCoef="0" IVar="-1" Cut="0.0000000000000000e+00" cType="1" res="1.1479746317490935e-03" rms="3.3568900823593140e-01" purity="4.9579530954360962e-01" nType="-99"/>
                <Node pos="r" depth="5" NCoef="0" IVar="-1" Cut="0.0000000000000000e+00" cType="1" res="2.4640830233693123e-03" rms="3.3774319291114807e-01" purity="5.1922744512557983e-01" nType="-99"/>
              </Node>
              <Node pos="r" depth="4" NCoef="0" IVar="4" Cut="1.2858329772949219e+02" cType="1" res="-1.4549991115927696e-02" rms="2.9856473207473755e-01" purity="5.0826412439346313e-01" nType="0">
                <Node pos="l" depth="5" NCoef="0" IVar="-1" Cut="0.0000000000000000e+00" cType="1" res="-4.0486673824489117e-03" rms="3.0182898044586182e-01" purity="6.0482347011566162e-01" nType="-99"/>
                <Node pos="r" depth="5" NCoef="0" IVar="-1" Cut="0.0000000000000000e+00" cType="1" res="-1.4212022535502911e-02" rms="2.9133942723274231e-01" purity="3.1046295166015625e-01" nType="-99"/>
              </Node>
            </Node>
            <Node pos="r" depth="3" NCoef="0" IVar="7" Cut="1.9038379192352295e+00" cType="1" res="-2.1028472110629082e-03" rms="2.9820215702056885e-01" purity="7.1095180511474609e-01" nType="0">
              <Node pos="l" depth="4" NCoef="0" IVar="4" Cut="1.6295307922363281e+02" cType="1" res="-4.6970481052994728e-03" rms="3.0137300491333008e-01" purity="7.2462314367294312e-01" nType="0">
                <Node pos="l" depth="5" NCoef="0" IVar="-1" Cut="0.0000000000000000e+00" cType="1" res="-1.7382756341248751e-03" rms="2.9640793800354004e-01" purity="7.6892375946044922e-01" nType="-99"/>
                <Node pos="r" depth="5" NCoef="0" IVar="-1" Cut="0.0000000000000000e+00" cType="1" res="-7.1278787218034267e-03" rms="3.3894222974777222e-01" purity="3.6276191473007202e-01" nType="-99"/>
              </Node>
              <Node pos="r" depth="4" NCoef="0" IVar="7" Cut="2.4784753322601318e+00" cType="1" res="1.2378190644085407e-02" rms="2.7940085530281067e-01" purity="6.3463759422302246e-01" nType="0">
                <Node pos="l" depth="5" NCoef="0" IVar="-1" Cut="0.0000000000000000e+00" cType="1" res="4.3948297388851643e-03" rms="2.6749399304389954e-01" purity="6.8696838617324829e-01" nType="-99"/>
                <Node pos="r" depth="5" NCoef="0" IVar="-1" Cut="0.0000000000000000e+00" cType="1" res="1.1241672560572624e-02" rms="2.9747253656387329e-01" purity="5.4995948076248169e-01" nType="-99"/>
              </Node>
            </Node>
          </Node>
          <Node pos="r" depth="2" NCoef="0" IVar="5" Cut="1.0227175140380859e+02" cType="1" res="2.6427954435348511e-03" rms="3.3392009139060974e-01" purity="3.8963165879249573e-01" nType="0">
            <Node pos="l" depth="3" NCoef="0" IVar="5" Cut="5.8272117614746094e+01" cType="1" res="-2.2779733408242464e-03" rms="3.4290271997451782e-01" purity="4.3010103702545166e-01" nType="0">
              <Node pos="l" depth="4" NCoef="0" IVar="-1" Cut="0.0000000000000000e+00" cType="1" res="5.2857236005365849e-03" rms="3.6810007691383362e-01" purity="3.5623827576637268e-01" nType="-99"/>
              <Node pos="r" depth="4" NCoef="0" IVar="6" Cut="1.9156033992767334e+00" cType="1" res="-7.6564331538975239e-03" rms="3.3380222320556641e-01" purity="4.5501828193664551e-01" nType="0">
                <Node pos="l" depth="5" NCoef="0" IVar="-1" Cut="0.0000000000000000e+00" cType="1" res="-7.5316047295928001e-03" rms="3.2663309574127197e-01" purity="3.3718267083168030e-01" nType="-99"/>
                <Node pos="r" depth="5" NCoef="0" IVar="-1" Cut="0.0000000000000000e+00" cType="1" res="-2.8997022309340537e-04" rms="3.3920937776565552e-01" purity="5.4832708835601807e-01" nType="-99"/>
              </Node>
            </Node>
            <Node pos="r" depth="3" NCoef="0" IVar="4" Cut="1.1151459503173828e+02" cType="1" res="9.2720119282603264e-03" rms="3.2130298018455505e-01" purity="3.3511167764663696e-01" nType="0">
              <Node pos="l" depth="4" NCoef="0" IVar="-1" Cut="0.0000000000000000e+00" cType="1" res="7.9558789730072021e-03" rms="3.4229919314384460e-01" purity="3.1481131911277771e-01" nType="-99"/>
              <Node pos="r" depth="4" NCoef="0" IVar="-1" Cut="0.0000000000000000e+00" cType="1" res="1.3047967804595828e-03" rms="3.0187565088272095e-01" purity="3.5260415077209473e-01" nType="-99"/>
            </Node>
          </Node>
        </Node>
        <Node pos="r" depth="1" NCoef="0" IVar="5" Cut="6.7029777526855469e+01" cType="1" res="1.5990992542356253e-03" rms="2.6669424772262573e-01" purity="2.5625810027122498e-01" nType="0">
          <Node pos="l" depth="2" NCoef="0" IVar="6" Cut="1.4558603763580322e+00" cType="1" res="1.0307212360203266e-02" rms="3.0975845456123352e-01" purity="2.3632022738456726e-01" nType="0">
            <Node pos="l" depth="3" NCoef="0" IVar="-1" Cut="0.0000000000000000e+00" cType="1" res="1.0390892624855042e-02" rms="3.0464622378349304e-01" purity="1.9565874338150024e-01" nType="-99"/>
            <Node pos="r" depth="3" NCoef="0" IVar="-1" Cut="0.0000000000000000e+00" cType="1" res="3.7064456846565008e-03" rms="3.1246396899223328e-01" purity="2.5858199596405029e-01" nType="-99"/>
          </Node>
          <Node pos="r" depth="2" NCoef="0" IVar="7" Cut="2.5795921683311462e-01" cType="1" res="-4.4454552698880434e-04" rms="2.5549554824829102e-01" purity="2.6093715429306030e-01" nType="0">
            <Node pos="l" depth="3" NCoef="0" IVar="-1" Cut="0.0000000000000000e+00" cType="1" res="6.0156239196658134e-03" rms="3.0399900674819946e-01" purity="2.9966232180595398e-01" nType="-99"/>
            <Node pos="r" depth="3" NCoef="0" IVar="3" Cut="1.0975610017776489e+00" cType="1" res="-1.9605362322181463e-03" rms="2.4764883518218994e-01" purity="2.5532925128936768e-01" nType="0">
              <Node pos="l" depth="4" NCoef="0" IVar="9" Cut="2.3095646500587463e-01" cType="1" res="9.8936120048165321e-04" rms="2.6201701164245605e-01" purity="3.1648674607276917e-01" nType="0">
                <Node pos="l" depth="5" NCoef="0" IVar="-1" Cut="0.0000000000000000e+00" cType="1" res="-5.8930297382175922e-03" rms="2.2183659672737122e-01" purity="1.3776388764381409e-01" nType="-99"/>
                <Node pos="r" depth="5" NCoef="0" IVar="-1" Cut="0.0000000000000000e+00" cType="1" res="3.0064166057854891e-03" rms="2.8124767541885376e-01" purity="4.1296282410621643e-01" nType="-99"/>
              </Node>
              <Node pos="r" depth="4" NCoef="0" IVar="5" Cut="1.2598630523681641e+02" cType="1" res="-8.9721772819757462e-03" rms="2.0941354334354401e-01" purity="1.0996346920728683e-01" nType="0">
                <Node pos="l" depth="5" NCoef="0" IVar="-1" Cut="0.0000000000000000e+00" cType="1" res="-1.4099310152232647e-02" rms="2.0720469951629639e-01" purity="1.1030138283967972e-01" nType="-99"/>
                <Node pos="r" depth="5" NCoef="0" IVar="-1" Cut="0.0000000000000000e+00" cType="1" res="3.9462572894990444e-03" rms="2.1348726749420166e-01" purity="1.0924565792083740e-01" nType="-99"/>
              </Node>
            </Node>
          </Node>
        </Node>
      </Node>
    </BinaryTree>
    <BinaryTree type="DecisionTree" boostWeight="1.0000000000000000e+00" itree="201">
      <Node pos="s" depth="0" NCoef="0" IVar="5" Cut="5.8976261138916016e+01" cType="1" res="4.2857124935835600e-04" rms="2.9727527499198914e-01" purity="4.9973505735397339e-01" nType="0">
        <Node pos="l" depth="1" NCoef="0" IVar="3" Cut="1.0975610017776489e+00" cType="1" res="6.3390159048140049e-03" rms="3.4823563694953918e-01" purity="3.9066177606582642e-01" nType="0">
          <Node pos="l" depth="2" NCoef="0" IVar="4" Cut="1.4014608764648438e+02" cType="1" res="8.9869258226826787e-04" rms="3.4485045075416565e-01" purity="4.1033226251602173e-01" nType="0">
            <Node pos="l" depth="3" NCoef="0" IVar="6" Cut="2.1454813480377197e+00" cType="1" res="-2.4507131893187761e-03" rms="3.5401841998100281e-01" purity="4.8756158351898193e-01" nType="0">
              <Node pos="l" depth="4" NCoef="0" IVar="5" Cut="4.6499534606933594e+01" cType="1" res="-7.9523855820298195e-03" rms="3.4672248363494873e-01" purity="4.3325388431549072e-01" nType="0">
                <Node pos="l" depth="5" NCoef="0" IVar="-1" Cut="0.0000000000000000e+00" cType="1" res="-8.6982147768139839e-03" rms="3.4470656514167786e-01" purity="3.7813842296600342e-01" nType="-99"/>
                <Node pos="r" depth="5" NCoef="0" IVar="-1" Cut="0.0000000000000000e+00" cType="1" res="2.5790627114474773e-03" rms="3.4817007184028625e-01" purity="4.8934489488601685e-01" nType="-99"/>
              </Node>
              <Node pos="r" depth="4" NCoef="0" IVar="-1" Cut="0.0000000000000000e+00" cType="1" res="1.8068080535158515e-03" rms="3.6312395334243774e-01" purity="5.5788087844848633e-01" nType="-99"/>
            </Node>
            <Node pos="r" depth="3" NCoef="0" IVar="-1" Cut="0.0000000000000000e+00" cType="1" res="5.6184306740760803e-03" rms="3.1739315390586853e-01" purity="1.9261415302753448e-01" nType="-99"/>
          </Node>
          <Node pos="r" depth="2" NCoef="0" IVar="-1" Cut="0.0000000000000000e+00" cType="1" res="9.6308980137109756e-03" rms="3.5738703608512878e-01" purity="3.3372649550437927e-01" nType="-99"/>
        </Node>
        <Node pos="r" depth="1" NCoef="0" IVar="4" Cut="1.2813465881347656e+02" cType="1" res="-5.0603656563907862e-04" rms="2.8838253021240234e-01" purity="5.1698267459869385e-01" nType="0">
          <Node pos="l" depth="2" NCoef="0" IVar="9" Cut="7.1991229057312012e-01" cType="1" res="1.1432154569774866e-03" rms="2.9126423597335815e-01" purity="5.8181148767471313e-01" nType="0">
            <Node pos="l" depth="3" NCoef="0" IVar="4" Cut="4.3211082458496094e+01" cType="1" res="4.1769412928260863e-04" rms="2.8862637281417847e-01" purity="5.8340603113174438e-01" nType="0">
              <Node pos="l" depth="4" NCoef="0" IVar="-1" Cut="0.0000000000000000e+00" cType="1" res="-7.4271927587687969e-03" rms="2.8913441300392151e-01" purity="1.4963969588279724e-01" nType="-99"/>
              <Node pos="r" depth="4" NCoef="0" IVar="5" Cut="8.1152160644531250e+01" cType="1" res="1.0403586784377694e-03" rms="2.8858768939971924e-01" purity="6.0338383913040161e-01" nType="0">
                <Node pos="l" depth="5" NCoef="0" IVar="-1" Cut="0.0000000000000000e+00" cType="1" res="-1.9442299380898476e-03" rms="2.8537297248840332e-01" purity="7.1897518634796143e-01" nType="-99"/>
                <Node pos="r" depth="5" NCoef="0" IVar="-1" Cut="0.0000000000000000e+00" cType="1" res="1.8331756582483649e-03" rms="2.9007321596145630e-01" purity="5.4866713285446167e-01" nType="-99"/>
              </Node>
            </Node>
            <Node pos="r" depth="3" NCoef="0" IVar="-1" Cut="0.0000000000000000e+00" cType="1" res="4.5345015823841095e-03" rms="3.2011407613754272e-01" purity="5.6334513425827026e-01" nType="-99"/>
          </Node>
          <Node pos="r" depth="2" NCoef="0" IVar="6" Cut="7.6624226570129395e-01" cType="1" res="-3.7722256965935230e-03" rms="2.8256052732467651e-01" purity="3.8859507441520691e-01" nType="0">
            <Node pos="l" depth="3" NCoef="0" IVar="5" Cut="9.5935775756835938e+01" cType="1" res="-1.7647868022322655e-02" rms="2.6291480660438538e-01" purity="1.8041224777698517e-01" nType="0">
              <Node pos="l" depth="4" NCoef="0" IVar="-1" Cut="0.0000000000000000e+00" cType="1" res="-1.2994022108614445e-02" rms="2.8909489512443542e-01" purity="2.9030290246009827e-01" nType="-99"/>
              <Node pos="r" depth="4" NCoef="0" IVar="-1" Cut="0.0000000000000000e+00" cType="1" res="-9.4420416280627251e-03" rms="2.3877586424350739e-01" purity="8.8952295482158661e-02" nType="-99"/>
            </Node>
            <Node pos="r" depth="3" NCoef="0" IVar="9" Cut="5.3005307912826538e-01" cType="1" res="-1.2741888640448451e-03" rms="2.8588250279426575e-01" purity="4.2607429623603821e-01" nType="0">
              <Node pos="l" depth="4" NCoef="0" IVar="6" Cut="2.6781094074249268e+00" cType="1" res="1.2583128409460187e-04" rms="2.8484654426574707e-01" purity="4.1936379671096802e-01" nType="0">
                <Node pos="l" depth="5" NCoef="0" IVar="-1" Cut="0.0000000000000000e+00" cType="1" res="2.4537912104278803e-03" rms="2.9159459471702576e-01" purity="3.2782858610153198e-01" nType="-99"/>
                <Node pos="r" depth="5" NCoef="0" IVar="-1" Cut="0.0000000000000000e+00" cType="1" res="-4.0038768202066422e-03" rms="2.7218362689018250e-01" purity="5.8350676298141479e-01" nType="-99"/>
              </Node>
              <Node pos="r" depth="4" NCoef="0" IVar="-1" Cut="0.0000000000000000e+00" cType="1" res="-7.9647339880466461e-03" rms="2.9549470543861389e-01" purity="4.9185562133789062e-01" nType="-99"/>
            </Node>
          </Node>
        </Node>
      </Node>
    </BinaryTree>
    <BinaryTree type="DecisionTree" boostWeight="1.0000000000000000e+00" itree="202">
      <Node pos="s" depth="0" NCoef="0" IVar="3" Cut="4.0243902206420898e+00" cType="1" res="6.0651171952486038e-04" rms="2.9655659198760986e-01" purity="5.0130450725555420e-01" nType="0">
        <Node pos="l" depth="1" NCoef="0" IVar="5" Cut="1.3113586425781250e+02" cType="1" res="1.7762319184839725e-03" rms="2.9727351665496826e-01" purity="5.4614126682281494e-01" nType="0">
          <Node pos="l" depth="2" NCoef="0" IVar="5" Cut="3.8208374023437500e+01" cType="1" res="3.1709312461316586e-03" rms="3.0056947469711304e-01" purity="5.8019566535949707e-01" nType="0">
            <Node pos="l" depth="3" NCoef="0" IVar="-1" Cut="0.0000000000000000e+00" cType="1" res="-5.2235326729714870e-03" rms="3.3786147832870483e-01" purity="3.1559690833091736e-01" nType="-99"/>
            <Node pos="r" depth="3" NCoef="0" IVar="4" Cut="1.7455950927734375e+02" cType="1" res="3.8428937550634146e-03" rms="2.9881539940834045e-01" purity="5.9176039695739746e-01" nType="0">
              <Node pos="l" depth="4" NCoef="0" IVar="8" Cut="7.5510913133621216e-01" cType="1" res="3.0152103863656521e-03" rms="2.9783961176872253e-01" purity="6.3664686679840088e-01" nType="0">
                <Node pos="l" depth="5" NCoef="0" IVar="-1" Cut="0.0000000000000000e+00" cType="1" res="1.2078544823452830e-03" rms="2.9362535476684570e-01" purity="6.3999861478805542e-01" nType="-99"/>
                <Node pos="r" depth="5" NCoef="0" IVar="-1" Cut="0.0000000000000000e+00" cType="1" res="6.6453497856855392e-03" rms="3.5775166749954224e-01" purity="5.8357131481170654e-01" nType="-99"/>
              </Node>
              <Node pos="r" depth="4" NCoef="0" IVar="9" Cut="1.5546458959579468e-01" cType="1" res="1.0295959189534187e-02" rms="3.0623990297317505e-01" purity="2.4180103838443756e-01" nType="0">
                <Node pos="l" depth="5" NCoef="0" IVar="-1" Cut="0.0000000000000000e+00" cType="1" res="-5.3689079359173775e-03" rms="2.0274554193019867e-01" purity="6.3163265585899353e-02" nType="-99"/>
                <Node pos="r" depth="5" NCoef="0" IVar="-1" Cut="0.0000000000000000e+00" cType="1" res="7.1504111401736736e-03" rms="3.3529448509216309e-01" purity="3.0541142821311951e-01" nType="-99"/>
              </Node>
            </Node>
          </Node>
          <Node pos="r" depth="2" NCoef="0" IVar="8" Cut="3.7311825156211853e-01" cType="1" res="-8.5373008623719215e-03" rms="2.7143967151641846e-01" purity="2.9431614279747009e-01" nType="0">
            <Node pos="l" depth="3" NCoef="0" IVar="1" Cut="2.0731706619262695e+00" cType="1" res="-4.3508405797183514e-03" rms="2.5919380784034729e-01" purity="2.2765611112117767e-01" nType="0">
              <Node pos="l" depth="4" NCoef="0" IVar="8" Cut="2.1855871379375458e-01" cType="1" res="-9.3967998400330544e-03" rms="2.1591545641422272e-01" purity="1.0454539209604263e-01" nType="0">
                <Node pos="l" depth="5" NCoef="0" IVar="-1" Cut="0.0000000000000000e+00" cType="1" res="-1.7191644757986069e-02" rms="1.7222024500370026e-01" purity="4.8033457249403000e-02" nType="-99"/>
                <Node pos="r" depth="5" NCoef="0" IVar="-1" Cut="0.0000000000000000e+00" cType="1" res="-2.7751394081860781e-03" rms="2.5383514165878296e-01" purity="1.6407027840614319e-01" nType="-99"/>
              </Node>
              <Node pos="r" depth="4" NCoef="0" IVar="-1" Cut="0.0000000000000000e+00" cType="1" res="1.6590278828516603e-03" rms="3.1326809525489807e-01" purity="4.1357386112213135e-01" nType="-99"/>
            </Node>
            <Node pos="r" depth="3" NCoef="0" IVar="-1" Cut="0.0000000000000000e+00" cType="1" res="-9.3942275270819664e-03" rms="2.9396992921829224e-01" purity="4.2605441808700562e-01" nType="-99"/>
          </Node>
        </Node>
        <Node pos="r" depth="1" NCoef="0" IVar="5" Cut="1.1713659667968750e+02" cType="1" res="-6.7621958442032337e-03" rms="2.9189214110374451e-01" purity="2.1885287761688232e-01" nType="0">
          <Node pos="l" depth="2" NCoef="0" IVar="1" Cut="1.0975610017776489e+00" cType="1" res="-1.4769225381314754e-02" rms="2.9764363169670105e-01" purity="2.0847827196121216e-01" nType="0">
            <Node pos="l" depth="3" NCoef="0" IVar="7" Cut="1.2153443098068237e+00" cType="1" res="-6.9708293303847313e-03" rms="2.7074468135833740e-01" purity="1.2266676127910614e-01" nType="0">
              <Node pos="l" depth="4" NCoef="0" IVar="-1" Cut="0.0000000000000000e+00" cType="1" res="-1.2209883607283700e-05" rms="3.1506484746932983e-01" purity="1.7468366026878357e-01" nType="-99"/>
              <Node pos="r" depth="4" NCoef="0" IVar="-1" Cut="0.0000000000000000e+00" cType="1" res="-1.4596196822822094e-02" rms="2.0297357439994812e-01" purity="5.8611601591110229e-02" nType="-99"/>
            </Node>
            <Node pos="r" depth="3" NCoef="0" IVar="-1" Cut="0.0000000000000000e+00" cType="1" res="-1.1473635211586952e-02" rms="3.3757632970809937e-01" purity="3.5238024592399597e-01" nType="-99"/>
          </Node>
          <Node pos="r" depth="2" NCoef="0" IVar="7" Cut="1.3540385961532593e+00" cType="1" res="6.4169387333095074e-03" rms="2.8167515993118286e-01" purity="2.3592884838581085e-01" nType="0">
            <Node pos="l" depth="3" NCoef="0" IVar="-1" Cut="0.0000000000000000e+00" cType="1" res="8.6579341441392899e-03" rms="3.1824240088462830e-01" purity="2.8334918618202209e-01" nType="-99"/>
            <Node pos="r" depth="3" NCoef="0" IVar="-1" Cut="0.0000000000000000e+00" cType="1" res="-4.4959778897464275e-03" rms="2.2161388397216797e-01" purity="1.7113009095191956e-01" nType="-99"/>
          </Node>
        </Node>
      </Node>
    </BinaryTree>
    <BinaryTree type="DecisionTree" boostWeight="1.0000000000000000e+00" itree="203">
      <Node pos="s" depth="0" NCoef="0" IVar="4" Cut="9.9119125366210938e+01" cType="1" res="6.4090848900377750e-04" rms="2.9632002115249634e-01" purity="5.0206172466278076e-01" nType="0">
        <Node pos="l" depth="1" NCoef="0" IVar="0" Cut="1.0975610017776489e+00" cType="1" res="-3.2225386239588261e-03" rms="3.1753149628639221e-01" purity="3.9608779549598694e-01" nType="0">
          <Node pos="l" depth="2" NCoef="0" IVar="7" Cut="5.7025420665740967e-01" cType="1" res="0.0000000000000000e+00" rms="0.0000000000000000e+00" purity="1.6357164084911346e-01" nType="0">
            <Node pos="l" depth="3" NCoef="0" IVar="-1" Cut="0.0000000000000000e+00" cType="1" res="6.7776716314256191e-03" rms="3.2184949517250061e-01" purity="2.2384414076805115e-01" nType="-99"/>
            <Node pos="r" depth="3" NCoef="0" IVar="8" Cut="2.9921734333038330e-01" cType="1" res="0.0000000000000000e+00" rms="0.0000000000000000e+00" purity="1.3995455205440521e-01" nType="0">
              <Node pos="l" depth="4" NCoef="0" IVar="2" Cut="1.0975610017776489e+00" cType="1" res="0.0000000000000000e+00" rms="0.0000000000000000e+00" purity="1.2839308381080627e-01" nType="0">
                <Node pos="l" depth="5" NCoef="0" IVar="-1" Cut="0.0000000000000000e+00" cType="1" res="6.6255647689104080e-03" rms="3.0801346898078918e-01" purity="2.0440174639225006e-01" nType="-99"/>
                <Node pos="r" depth="5" NCoef="0" IVar="-1" Cut="0.0000000000000000e+00" cType="1" res="-1.2572793290019035e-02" rms="1.5008512139320374e-01" purity="3.9324540644884109e-02" nType="-99"/>
              </Node>
              <Node pos="r" depth="4" NCoef="0" IVar="5" Cut="9.1867752075195312e+01" cType="1" res="0.0000000000000000e+00" rms="0.0000000000000000e+00" purity="1.5333300828933716e-01" nType="0">
                <Node pos="l" depth="5" NCoef="0" IVar="-1" Cut="0.0000000000000000e+00" cType="1" res="-2.0299372263252735e-03" rms="3.0843421816825867e-01" purity="2.0852676033973694e-01" nType="-99"/>
                <Node pos="r" depth="5" NCoef="0" IVar="-1" Cut="0.0000000000000000e+00" cType="1" res="-1.5760812908411026e-02" rms="2.1712124347686768e-01" purity="8.4307894110679626e-02" nType="-99"/>
              </Node>
            </Node>
          </Node>
          <Node pos="r" depth="2" NCoef="0" IVar="7" Cut="9.8254621028900146e-01" cType="1" res="-6.6753928549587727e-03" rms="3.4365978837013245e-01" purity="5.6942641735076904e-01" nType="0">
            <Node pos="l" depth="3" NCoef="0" IVar="5" Cut="1.0600402832031250e+02" cType="1" res="-1.4448486268520355e-02" rms="3.5210901498794556e-01" purity="6.1478114128112793e-01" nType="0">
              <Node pos="l" depth="4" NCoef="0" IVar="6" Cut="1.8389811515808105e+00" cType="1" res="-1.7852265387773514e-02" rms="3.4377020597457886e-01" purity="6.8965476751327515e-01" nType="0">
                <Node pos="l" depth="5" NCoef="0" IVar="-1" Cut="0.0000000000000000e+00" cType="1" res="-1.0991653427481651e-02" rms="3.5287815332412720e-01" purity="6.3452744483947754e-01" nType="-99"/>
                <Node pos="r" depth="5" NCoef="0" IVar="-1" Cut="0.0000000000000000e+00" cType="1" res="-4.7115469351410866e-03" rms="3.3751699328422546e-01" purity="7.2562837600708008e-01" nType="-99"/>
              </Node>
              <Node pos="r" depth="4" NCoef="0" IVar="-1" Cut="0.0000000000000000e+00" cType="1" res="-1.3382930774241686e-03" rms="3.7745222449302673e-01" purity="3.7418755888938904e-01" nType="-99"/>
            </Node>
            <Node pos="r" depth="3" NCoef="0" IVar="8" Cut="3.5576739907264709e-01" cType="1" res="1.1992364889010787e-03" rms="3.3469888567924500e-01" purity="5.2347922325134277e-01" nType="0">
              <Node pos="l" depth="4" NCoef="0" IVar="9" Cut="2.8150478005409241e-01" cType="1" res="-3.6407194565981627e-03" rms="3.1571495532989502e-01" purity="5.2262133359909058e-01" nType="0">
                <Node pos="l" depth="5" NCoef="0" IVar="-1" Cut="0.0000000000000000e+00" cType="1" res="-6.9959005340933800e-03" rms="3.0172711610794067e-01" purity="4.0693622827529907e-01" nType="-99"/>
                <Node pos="r" depth="5" NCoef="0" IVar="-1" Cut="0.0000000000000000e+00" cType="1" res="1.1319168843328953e-03" rms="3.2367315888404846e-01" purity="5.9216827154159546e-01" nType="-99"/>
              </Node>
              <Node pos="r" depth="4" NCoef="0" IVar="-1" Cut="0.0000000000000000e+00" cType="1" res="4.3608681298792362e-03" rms="3.7268754839897156e-01" purity="5.2535766363143921e-01" nType="-99"/>
            </Node>
          </Node>
        </Node>
        <Node pos="r" depth="1" NCoef="0" IVar="8" Cut="9.3006414175033569e-01" cType="1" res="2.4555290583521128e-03" rms="2.8579634428024292e-01" purity="5.5183649063110352e-01" nType="0">
          <Node pos="l" depth="2" NCoef="0" IVar="8" Cut="6.5792912244796753e-01" cType="1" res="2.9209838248789310e-03" rms="2.8415140509605408e-01" purity="5.5979120731353760e-01" nType="0">
            <Node pos="l" depth="3" NCoef="0" IVar="1" Cut="1.0975610017776489e+00" cType="1" res="2.3029965814203024e-03" rms="2.8025862574577332e-01" purity="5.5829972028732300e-01" nType="0">
              <Node pos="l" depth="4" NCoef="0" IVar="8" Cut="3.6920168995857239e-01" cType="1" res="-1.1495610233396292e-03" rms="3.0102437734603882e-01" purity="2.8237685561180115e-01" nType="0">
                <Node pos="l" depth="5" NCoef="0" IVar="-1" Cut="0.0000000000000000e+00" cType="1" res="1.9926193635910749e-03" rms="2.8862872719764709e-01" purity="2.2036543488502502e-01" nType="-99"/>
                <Node pos="r" depth="5" NCoef="0" IVar="-1" Cut="0.0000000000000000e+00" cType="1" res="-4.8487777821719646e-03" rms="3.2588335871696472e-01" purity="4.1575026512145996e-01" nType="-99"/>
              </Node>
              <Node pos="r" depth="4" NCoef="0" IVar="1" Cut="2.0731706619262695e+00" cType="1" res="4.4695828109979630e-03" rms="2.6637929677963257e-01" purity="7.3144978284835815e-01" nType="0">
                <Node pos="l" depth="5" NCoef="0" IVar="-1" Cut="0.0000000000000000e+00" cType="1" res="7.9256081953644753e-03" rms="2.9782930016517639e-01" purity="5.9957164525985718e-01" nType="-99"/>
                <Node pos="r" depth="5" NCoef="0" IVar="-1" Cut="0.0000000000000000e+00" cType="1" res="2.3844512179493904e-03" rms="2.6331669092178345e-01" purity="7.4343311786651611e-01" nType="-99"/>
              </Node>
            </Node>
            <Node pos="r" depth="3" NCoef="0" IVar="-1" Cut="0.0000000000000000e+00" cType="1" res="5.3216475062072277e-03" rms="3.3330264687538147e-01" purity="5.8044677972793579e-01" nType="-99"/>
          </Node>
          <Node pos="r" depth="2" NCoef="0" IVar="-1" Cut="0.0000000000000000e+00" cType="1" res="-4.7985888086259365e-03" rms="3.2674419879913330e-01" purity="3.3763965964317322e-01" nType="-99"/>
        </Node>
      </Node>
    </BinaryTree>
    <BinaryTree type="DecisionTree" boostWeight="1.0000000000000000e+00" itree="204">
      <Node pos="s" depth="0" NCoef="0" IVar="7" Cut="2.4726776778697968e-01" cType="1" res="-1.2733780022244900e-04" rms="2.9653888940811157e-01" purity="4.9986410140991211e-01" nType="0">
        <Node pos="l" depth="1" NCoef="0" IVar="0" Cut="1.0975610017776489e+00" cType="1" res="7.3482682928442955e-03" rms="3.2316374778747559e-01" purity="5.5972963571548462e-01" nType="0">
          <Node pos="l" depth="2" NCoef="0" IVar="7" Cut="1.2061935663223267e-01" cType="1" res="0.0000000000000000e+00" rms="0.0000000000000000e+00" purity="2.6345017552375793e-01" nType="0">
            <Node pos="l" depth="3" NCoef="0" IVar="-1" Cut="0.0000000000000000e+00" cType="1" res="1.3524603098630905e-02" rms="3.2568243145942688e-01" purity="2.6400011777877808e-01" nType="-99"/>
            <Node pos="r" depth="3" NCoef="0" IVar="-1" Cut="0.0000000000000000e+00" cType="1" res="1.1764753609895706e-02" rms="3.1816688179969788e-01" purity="2.6292270421981812e-01" nType="-99"/>
          </Node>
          <Node pos="r" depth="2" NCoef="0" IVar="5" Cut="9.9020217895507812e+01" cType="1" res="1.4802493387833238e-04" rms="3.2351493835449219e-01" purity="6.9837325811386108e-01" nType="0">
            <Node pos="l" depth="3" NCoef="0" IVar="-1" Cut="0.0000000000000000e+00" cType="1" res="-2.3911132011562586e-03" rms="3.0573499202728271e-01" purity="7.6741695404052734e-01" nType="-99"/>
            <Node pos="r" depth="3" NCoef="0" IVar="-1" Cut="0.0000000000000000e+00" cType="1" res="5.0127170979976654e-03" rms="3.6285981535911560e-01" purity="5.3058320283889771e-01" nType="-99"/>
          </Node>
        </Node>
        <Node pos="r" depth="1" NCoef="0" IVar="4" Cut="1.2813453674316406e+02" cType="1" res="-1.2314359191805124e-03" rms="2.9238498210906982e-01" purity="4.9102237820625305e-01" nType="0">
          <Node pos="l" depth="2" NCoef="0" IVar="3" Cut="1.0975610017776489e+00" cType="1" res="7.2093767812475562e-04" rms="2.9772305488586426e-01" purity="5.5748742818832397e-01" nType="0">
            <Node pos="l" depth="3" NCoef="0" IVar="7" Cut="3.3621342182159424e+00" cType="1" res="2.4082476738840342e-03" rms="2.9640871286392212e-01" purity="6.1679488420486450e-01" nType="0">
              <Node pos="l" depth="4" NCoef="0" IVar="4" Cut="5.1703422546386719e+01" cType="1" res="1.2754346244037151e-03" rms="2.9639652371406555e-01" purity="6.2602096796035767e-01" nType="0">
                <Node pos="l" depth="5" NCoef="0" IVar="-1" Cut="0.0000000000000000e+00" cType="1" res="-7.0172883570194244e-03" rms="3.1884446740150452e-01" purity="2.0652620494365692e-01" nType="-99"/>
                <Node pos="r" depth="5" NCoef="0" IVar="-1" Cut="0.0000000000000000e+00" cType="1" res="1.4351713471114635e-03" rms="2.9454061388969421e-01" purity="6.5861165523529053e-01" nType="-99"/>
              </Node>
              <Node pos="r" depth="4" NCoef="0" IVar="-1" Cut="0.0000000000000000e+00" cType="1" res="1.2831483036279678e-02" rms="2.9584953188896179e-01" purity="4.4570085406303406e-01" nType="-99"/>
            </Node>
            <Node pos="r" depth="3" NCoef="0" IVar="5" Cut="6.2584114074707031e+01" cType="1" res="-4.3087936937808990e-03" rms="3.0155098438262939e-01" purity="3.8069683313369751e-01" nType="0">
              <Node pos="l" depth="4" NCoef="0" IVar="-1" Cut="0.0000000000000000e+00" cType="1" res="4.0760077536106110e-03" rms="3.5593089461326599e-01" purity="3.7600839138031006e-01" nType="-99"/>
              <Node pos="r" depth="4" NCoef="0" IVar="5" Cut="9.8223968505859375e+01" cType="1" res="-6.9127469323575497e-03" rms="2.9038146138191223e-01" purity="3.8155815005302429e-01" nType="0">
                <Node pos="l" depth="5" NCoef="0" IVar="-1" Cut="0.0000000000000000e+00" cType="1" res="-8.5577825084328651e-03" rms="2.9435569047927856e-01" purity="5.1121270656585693e-01" nType="-99"/>
                <Node pos="r" depth="5" NCoef="0" IVar="-1" Cut="0.0000000000000000e+00" cType="1" res="5.0913478480651975e-04" rms="2.8685873746871948e-01" purity="2.7561232447624207e-01" nType="-99"/>
              </Node>
            </Node>
          </Node>
          <Node pos="r" depth="2" NCoef="0" IVar="9" Cut="1.9844712316989899e-01" cType="1" res="-5.0241355784237385e-03" rms="2.8168758749961853e-01" purity="3.6190676689147949e-01" nType="0">
            <Node pos="l" depth="3" NCoef="0" IVar="6" Cut="2.6052227020263672e+00" cType="1" res="-1.1382080614566803e-02" rms="2.3526598513126373e-01" purity="1.4414739608764648e-01" nType="0">
              <Node pos="l" depth="4" NCoef="0" IVar="7" Cut="1.6832412481307983e+00" cType="1" res="-5.6682513095438480e-03" rms="2.2676667571067810e-01" purity="1.1708126217126846e-01" nType="0">
                <Node pos="l" depth="5" NCoef="0" IVar="-1" Cut="0.0000000000000000e+00" cType="1" res="2.9047182761132717e-03" rms="2.5242781639099121e-01" purity="1.1330105364322662e-01" nType="-99"/>
                <Node pos="r" depth="5" NCoef="0" IVar="-1" Cut="0.0000000000000000e+00" cType="1" res="-1.1183449998497963e-02" rms="2.0587758719921112e-01" purity="1.1982683837413788e-01" nType="-99"/>
              </Node>
              <Node pos="r" depth="4" NCoef="0" IVar="-1" Cut="0.0000000000000000e+00" cType="1" res="-1.6883969306945801e-02" rms="2.5884312391281128e-01" purity="2.2725388407707214e-01" nType="-99"/>
            </Node>
            <Node pos="r" depth="3" NCoef="0" IVar="7" Cut="2.2264528274536133e+00" cType="1" res="-2.1646267268806696e-03" rms="3.0019101500511169e-01" purity="4.5984482765197754e-01" nType="0">
              <Node pos="l" depth="4" NCoef="0" IVar="5" Cut="6.2722606658935547e+01" cType="1" res="-4.3013435788452625e-03" rms="3.0437141656875610e-01" purity="4.7122448682785034e-01" nType="0">
                <Node pos="l" depth="5" NCoef="0" IVar="-1" Cut="0.0000000000000000e+00" cType="1" res="3.2613112125545740e-03" rms="3.4752807021141052e-01" purity="3.3100032806396484e-01" nType="-99"/>
                <Node pos="r" depth="5" NCoef="0" IVar="-1" Cut="0.0000000000000000e+00" cType="1" res="-3.6544566974043846e-03" rms="2.9415756464004517e-01" purity="5.0152176618576050e-01" nType="-99"/>
              </Node>
              <Node pos="r" depth="4" NCoef="0" IVar="-1" Cut="0.0000000000000000e+00" cType="1" res="6.5854303538799286e-03" rms="2.7275708317756653e-01" purity="3.8997185230255127e-01" nType="-99"/>
            </Node>
          </Node>
        </Node>
      </Node>
    </BinaryTree>
    <BinaryTree type="DecisionTree" boostWeight="1.0000000000000000e+00" itree="205">
      <Node pos="s" depth="0" NCoef="0" IVar="7" Cut="3.7066414356231689e+00" cType="1" res="-9.7040302352979779e-04" rms="2.9637247323989868e-01" purity="4.9757653474807739e-01" nType="0">
        <Node pos="l" depth="1" NCoef="0" IVar="6" Cut="1.5324863791465759e-01" cType="1" res="-1.3138375943526626e-03" rms="2.9733267426490784e-01" purity="5.0570857524871826e-01" nType="0">
          <Node pos="l" depth="2" NCoef="0" IVar="-1" Cut="0.0000000000000000e+00" cType="1" res="4.9732467159628868e-03" rms="3.2568907737731934e-01" purity="2.8087928891181946e-01" nType="-99"/>
          <Node pos="r" depth="2" NCoef="0" IVar="1" Cut="4.0243902206420898e+00" cType="1" res="-1.6146097332239151e-03" rms="2.9650256037712097e-01" purity="5.1193922758102417e-01" nType="0">
            <Node pos="l" depth="3" NCoef="0" IVar="6" Cut="3.7190797924995422e-01" cType="1" res="-2.9701436869800091e-03" rms="3.0528706312179565e-01" purity="3.6815446615219116e-01" nType="0">
              <Node pos="l" depth="4" NCoef="0" IVar="-1" Cut="0.0000000000000000e+00" cType="1" res="-8.2040699198842049e-03" rms="2.8068742156028748e-01" purity="1.8639916181564331e-01" nType="-99"/>
              <Node pos="r" depth="4" NCoef="0" IVar="8" Cut="7.4777477979660034e-01" cType="1" res="-2.4266245309263468e-03" rms="3.0641338229179382e-01" purity="3.7692266702651978e-01" nType="0">
                <Node pos="l" depth="5" NCoef="0" IVar="-1" Cut="0.0000000000000000e+00" cType="1" res="-1.6010149847716093e-03" rms="3.0497261881828308e-01" purity="3.8001027703285217e-01" nType="-99"/>
                <Node pos="r" depth="5" NCoef="0" IVar="-1" Cut="0.0000000000000000e+00" cType="1" res="3.2602897845208645e-03" rms="3.2708647847175598e-01" purity="3.3067649602890015e-01" nType="-99"/>
              </Node>
            </Node>
            <Node pos="r" depth="3" NCoef="0" IVar="9" Cut="4.7733575105667114e-01" cType="1" res="4.3515180004760623e-04" rms="2.8268882632255554e-01" purity="7.2936248779296875e-01" nType="0">
              <Node pos="l" depth="4" NCoef="0" IVar="9" Cut="1.8675933778285980e-01" cType="1" res="-1.9086711108684540e-03" rms="2.8988701105117798e-01" purity="6.9597578048706055e-01" nType="0">
                <Node pos="l" depth="5" NCoef="0" IVar="-1" Cut="0.0000000000000000e+00" cType="1" res="-6.0862163081765175e-03" rms="3.2529067993164062e-01" purity="4.0179386734962463e-01" nType="-99"/>
                <Node pos="r" depth="5" NCoef="0" IVar="-1" Cut="0.0000000000000000e+00" cType="1" res="2.9135073418729007e-04" rms="2.8188404440879822e-01" purity="7.5733810663223267e-01" nType="-99"/>
              </Node>
              <Node pos="r" depth="4" NCoef="0" IVar="-1" Cut="0.0000000000000000e+00" cType="1" res="4.9696462228894234e-03" rms="2.5985452532768250e-01" purity="8.2918643951416016e-01" nType="-99"/>
            </Node>
          </Node>
        </Node>
        <Node pos="r" depth="1" NCoef="0" IVar="-1" Cut="0.0000000000000000e+00" cType="1" res="7.2544445283710957e-03" rms="2.6187926530838013e-01" purity="2.2484396398067474e-01" nType="-99"/>
      </Node>
    </BinaryTree>
    <BinaryTree type="DecisionTree" boostWeight="1.0000000000000000e+00" itree="206">
      <Node pos="s" depth="0" NCoef="0" IVar="6" Cut="4.5974612236022949e-01" cType="1" res="8.5768324788659811e-04" rms="2.9675120115280151e-01" purity="5.0201213359832764e-01" nType="0">
        <Node pos="l" depth="1" NCoef="0" IVar="9" Cut="3.5817992687225342e-01" cType="1" res="-6.8296012468636036e-03" rms="2.9890170693397522e-01" purity="2.7745538949966431e-01" nType="0">
          <Node pos="l" depth="2" NCoef="0" IVar="0" Cut="1.0975610017776489e+00" cType="1" res="3.8091135211288929e-03" rms="2.7382385730743408e-01" purity="1.6507644951343536e-01" nType="0">
            <Node pos="l" depth="3" NCoef="0" IVar="-1" Cut="0.0000000000000000e+00" cType="1" res="1.6377951949834824e-02" rms="2.0940437912940979e-01" purity="5.5261958390474319e-02" nType="-99"/>
            <Node pos="r" depth="3" NCoef="0" IVar="-1" Cut="0.0000000000000000e+00" cType="1" res="-1.5758131630718708e-03" rms="3.2439583539962769e-01" purity="2.7217766642570496e-01" nType="-99"/>
          </Node>
          <Node pos="r" depth="2" NCoef="0" IVar="-1" Cut="0.0000000000000000e+00" cType="1" res="-8.1202136352658272e-03" rms="3.2322555780410767e-01" purity="3.9782202243804932e-01" nType="-99"/>
        </Node>
        <Node pos="r" depth="1" NCoef="0" IVar="2" Cut="4.0243902206420898e+00" cType="1" res="1.5425522578880191e-03" rms="2.9654920101165771e-01" purity="5.2201813459396362e-01" nType="0">
          <Node pos="l" depth="2" NCoef="0" IVar="2" Cut="2.0243902206420898e+00" cType="1" res="2.4935733526945114e-03" rms="3.0890402197837830e-01" purity="6.0581094026565552e-01" nType="0">
            <Node pos="l" depth="3" NCoef="0" IVar="7" Cut="3.4575109481811523e+00" cType="1" res="1.5633063158020377e-03" rms="3.0811062455177307e-01" purity="6.2682062387466431e-01" nType="0">
              <Node pos="l" depth="4" NCoef="0" IVar="9" Cut="1.0610114783048630e-01" cType="1" res="9.5914816483855247e-04" rms="3.0854022502899170e-01" purity="6.3674598932266235e-01" nType="0">
                <Node pos="l" depth="5" NCoef="0" IVar="-1" Cut="0.0000000000000000e+00" cType="1" res="8.4211435168981552e-03" rms="2.9232478141784668e-01" purity="1.6231003403663635e-01" nType="-99"/>
                <Node pos="r" depth="5" NCoef="0" IVar="-1" Cut="0.0000000000000000e+00" cType="1" res="1.9749133207369596e-04" rms="3.0922508239746094e-01" purity="6.5772414207458496e-01" nType="-99"/>
              </Node>
              <Node pos="r" depth="4" NCoef="0" IVar="-1" Cut="0.0000000000000000e+00" cType="1" res="8.4183719009160995e-03" rms="2.9707229137420654e-01" purity="3.8499411940574646e-01" nType="-99"/>
            </Node>
            <Node pos="r" depth="3" NCoef="0" IVar="5" Cut="1.0279842376708984e+02" cType="1" res="1.1850316077470779e-02" rms="3.1662181019783020e-01" purity="3.9449256658554077e-01" nType="0">
              <Node pos="l" depth="4" NCoef="0" IVar="5" Cut="7.6639366149902344e+01" cType="1" res="2.4778919294476509e-02" rms="3.4176254272460938e-01" purity="4.9584832787513733e-01" nType="0">
                <Node pos="l" depth="5" NCoef="0" IVar="-1" Cut="0.0000000000000000e+00" cType="1" res="1.1326746083796024e-02" rms="3.6328685283660889e-01" purity="4.3379092216491699e-01" nType="-99"/>
                <Node pos="r" depth="5" NCoef="0" IVar="-1" Cut="0.0000000000000000e+00" cType="1" res="1.0880251415073872e-02" rms="3.2121726870536804e-01" purity="5.5152696371078491e-01" nType="-99"/>
              </Node>
              <Node pos="r" depth="4" NCoef="0" IVar="-1" Cut="0.0000000000000000e+00" cType="1" res="-6.1669778078794479e-03" rms="2.6789966225624084e-01" purity="2.2469142079353333e-01" nType="-99"/>
            </Node>
          </Node>
          <Node pos="r" depth="2" NCoef="0" IVar="0" Cut="3.0487804412841797e+00" cType="1" res="-3.4512521233409643e-03" rms="2.2052854299545288e-01" purity="8.2022771239280701e-02" nType="0">
            <Node pos="l" depth="3" NCoef="0" IVar="6" Cut="2.0950179100036621e+00" cType="1" res="-7.5300582684576511e-03" rms="1.5751990675926208e-01" purity="3.2095909118652344e-02" nType="0">
              <Node pos="l" depth="4" NCoef="0" IVar="8" Cut="3.3053115010261536e-01" cType="1" res="-3.6093718372285366e-03" rms="1.5808239579200745e-01" purity="2.7428332716226578e-02" nType="0">
                <Node pos="l" depth="5" NCoef="0" IVar="-1" Cut="0.0000000000000000e+00" cType="1" res="3.3762704115360975e-03" rms="1.3636006414890289e-01" purity="1.9528301432728767e-02" nType="-99"/>
                <Node pos="r" depth="5" NCoef="0" IVar="-1" Cut="0.0000000000000000e+00" cType="1" res="-1.2364166788756847e-02" rms="1.8397547304630280e-01" purity="3.8461223244667053e-02" nType="-99"/>
              </Node>
              <Node pos="r" depth="4" NCoef="0" IVar="5" Cut="9.9243324279785156e+01" cType="1" res="-1.1637161485850811e-02" rms="1.5682341158390045e-01" purity="3.6985408514738083e-02" nType="0">
                <Node pos="l" depth="5" NCoef="0" IVar="-1" Cut="0.0000000000000000e+00" cType="1" res="-1.8281122669577599e-02" rms="1.7077527940273285e-01" purity="4.6293102204799652e-02" nType="-99"/>
                <Node pos="r" depth="5" NCoef="0" IVar="-1" Cut="0.0000000000000000e+00" cType="1" res="-1.3080222532153130e-02" rms="1.4397042989730835e-01" purity="2.9196133837103844e-02" nType="-99"/>
              </Node>
            </Node>
            <Node pos="r" depth="3" NCoef="0" IVar="6" Cut="1.8333765268325806e+00" cType="1" res="4.3968502432107925e-03" rms="3.0720078945159912e-01" purity="1.7808793485164642e-01" nType="0">
              <Node pos="l" depth="4" NCoef="0" IVar="-1" Cut="0.0000000000000000e+00" cType="1" res="6.7699672654271126e-03" rms="3.0878761410713196e-01" purity="1.3217215240001678e-01" nType="-99"/>
              <Node pos="r" depth="4" NCoef="0" IVar="-1" Cut="0.0000000000000000e+00" cType="1" res="-1.5936249110382050e-04" rms="3.0604726076126099e-01" purity="2.0868207514286041e-01" nType="-99"/>
            </Node>
          </Node>
        </Node>
      </Node>
    </BinaryTree>
    <BinaryTree type="DecisionTree" boostWeight="1.0000000000000000e+00" itree="207">
      <Node pos="s" depth="0" NCoef="0" IVar="5" Cut="3.3720436096191406e+01" cType="1" res="-8.8386546121910214e-04" rms="2.9455417394638062e-01" purity="5.0118744373321533e-01" nType="0">
        <Node pos="l" depth="1" NCoef="0" IVar="-1" Cut="0.0000000000000000e+00" cType="1" res="7.6837888918817043e-03" rms="3.5937348008155823e-01" purity="3.1225526332855225e-01" nType="-99"/>
        <Node pos="r" depth="1" NCoef="0" IVar="4" Cut="9.9119125366210938e+01" cType="1" res="-1.3489794218912721e-03" rms="2.9277268052101135e-01" purity="5.0581085681915283e-01" nType="0">
          <Node pos="l" depth="2" NCoef="0" IVar="9" Cut="5.9699380397796631e-01" cType="1" res="-4.4771800749003887e-03" rms="3.1503152847290039e-01" purity="3.9650973677635193e-01" nType="0">
            <Node pos="l" depth="3" NCoef="0" IVar="5" Cut="1.3227975463867188e+02" cType="1" res="-6.3789072446525097e-03" rms="3.0901172757148743e-01" purity="3.7643465399742126e-01" nType="0">
              <Node pos="l" depth="4" NCoef="0" IVar="6" Cut="1.3026124238967896e+00" cType="1" res="-8.2817543298006058e-03" rms="3.1419560313224792e-01" purity="4.0868440270423889e-01" nType="0">
                <Node pos="l" depth="5" NCoef="0" IVar="-1" Cut="0.0000000000000000e+00" cType="1" res="-9.1152209788560867e-03" rms="2.9805505275726318e-01" purity="2.1448689699172974e-01" nType="-99"/>
                <Node pos="r" depth="5" NCoef="0" IVar="-1" Cut="0.0000000000000000e+00" cType="1" res="-2.6139726396650076e-03" rms="3.1896018981933594e-01" purity="4.6856728196144104e-01" nType="-99"/>
              </Node>
              <Node pos="r" depth="4" NCoef="0" IVar="-1" Cut="0.0000000000000000e+00" cType="1" res="3.1683943234384060e-03" rms="2.7646103501319885e-01" purity="1.8764354288578033e-01" nType="-99"/>
            </Node>
            <Node pos="r" depth="3" NCoef="0" IVar="8" Cut="2.4598369002342224e-01" cType="1" res="4.0964554063975811e-03" rms="3.4072154760360718e-01" purity="4.8701515793800354e-01" nType="0">
              <Node pos="l" depth="4" NCoef="0" IVar="-1" Cut="0.0000000000000000e+00" cType="1" res="-3.0035118106752634e-03" rms="3.2425355911254883e-01" purity="3.3820366859436035e-01" nType="-99"/>
              <Node pos="r" depth="4" NCoef="0" IVar="-1" Cut="0.0000000000000000e+00" cType="1" res="3.9539225399494171e-03" rms="3.4987181425094604e-01" purity="5.7422703504562378e-01" nType="-99"/>
            </Node>
          </Node>
          <Node pos="r" depth="2" NCoef="0" IVar="6" Cut="8.4286612272262573e-01" cType="1" res="1.0447758540976793e-04" rms="2.8182119131088257e-01" purity="5.5659550428390503e-01" nType="0">
            <Node pos="l" depth="3" NCoef="0" IVar="0" Cut="4.0243902206420898e+00" cType="1" res="8.1299962475895882e-03" rms="3.0438801646232605e-01" purity="3.5514050722122192e-01" nType="0">
              <Node pos="l" depth="4" NCoef="0" IVar="4" Cut="1.3591911315917969e+02" cType="1" res="2.0838654600083828e-03" rms="2.7633047103881836e-01" purity="2.0351906120777130e-01" nType="0">
                <Node pos="l" depth="5" NCoef="0" IVar="-1" Cut="0.0000000000000000e+00" cType="1" res="-3.8975945208221674e-03" rms="3.0257758498191833e-01" purity="3.4241294860839844e-01" nType="-99"/>
                <Node pos="r" depth="5" NCoef="0" IVar="-1" Cut="0.0000000000000000e+00" cType="1" res="9.7868349403142929e-03" rms="2.5328838825225830e-01" purity="9.3295112252235413e-02" nType="-99"/>
              </Node>
              <Node pos="r" depth="4" NCoef="0" IVar="6" Cut="4.3171057105064392e-01" cType="1" res="0.0000000000000000e+00" rms="0.0000000000000000e+00" purity="5.4873555898666382e-01" nType="0">
                <Node pos="l" depth="5" NCoef="0" IVar="-1" Cut="0.0000000000000000e+00" cType="1" res="2.6253776159137487e-03" rms="3.3421155810356140e-01" purity="5.0758773088455200e-01" nType="-99"/>
                <Node pos="r" depth="5" NCoef="0" IVar="-1" Cut="0.0000000000000000e+00" cType="1" res="1.0714578442275524e-02" rms="3.3856779336929321e-01" purity="5.8440071344375610e-01" nType="-99"/>
              </Node>
            </Node>
            <Node pos="r" depth="3" NCoef="0" IVar="8" Cut="8.0696624517440796e-01" cType="1" res="-1.3471454149112105e-03" rms="2.7751871943473816e-01" purity="5.9303385019302368e-01" nType="0">
              <Node pos="l" depth="4" NCoef="0" IVar="0" Cut="1.0975610017776489e+00" cType="1" res="-3.9734714664518833e-04" rms="2.7566438913345337e-01" purity="6.0188776254653931e-01" nType="0">
                <Node pos="l" depth="5" NCoef="0" IVar="-1" Cut="0.0000000000000000e+00" cType="1" res="-3.9979922585189342e-03" rms="2.5389322638511658e-01" purity="2.2923976182937622e-01" nType="-99"/>
                <Node pos="r" depth="5" NCoef="0" IVar="-1" Cut="0.0000000000000000e+00" cType="1" res="9.7810046281665564e-04" rms="2.8311145305633545e-01" purity="7.3688822984695435e-01" nType="-99"/>
              </Node>
              <Node pos="r" depth="4" NCoef="0" IVar="-1" Cut="0.0000000000000000e+00" cType="1" res="-1.3111236505210400e-02" rms="3.2148149609565735e-01" purity="3.6014604568481445e-01" nType="-99"/>
            </Node>
          </Node>
        </Node>
      </Node>
    </BinaryTree>
    <BinaryTree type="DecisionTree" boostWeight="1.0000000000000000e+00" itree="208">
      <Node pos="s" depth="0" NCoef="0" IVar="6" Cut="3.8312116265296936e-01" cType="1" res="-4.8356832121498883e-04" rms="2.9531416296958923e-01" purity="5.0068283081054688e-01" nType="0">
        <Node pos="l" depth="1" NCoef="0" IVar="8" Cut="2.3867332935333252e-01" cType="1" res="7.8539391979575157e-03" rms="3.1195819377899170e-01" purity="2.9095482826232910e-01" nType="0">
          <Node pos="l" depth="2" NCoef="0" IVar="-1" Cut="0.0000000000000000e+00" cType="1" res="-4.7669331543147564e-03" rms="2.3273070156574249e-01" purity="1.6111172735691071e-01" nType="-99"/>
          <Node pos="r" depth="2" NCoef="0" IVar="5" Cut="9.1448089599609375e+01" cType="1" res="1.3625381514430046e-02" rms="3.3913892507553101e-01" purity="3.4454560279846191e-01" nType="0">
            <Node pos="l" depth="3" NCoef="0" IVar="-1" Cut="0.0000000000000000e+00" cType="1" res="1.0297787375748158e-03" rms="3.3533355593681335e-01" purity="4.3106874823570251e-01" nType="-99"/>
            <Node pos="r" depth="3" NCoef="0" IVar="-1" Cut="0.0000000000000000e+00" cType="1" res="1.4414743520319462e-02" rms="3.4330365061759949e-01" purity="2.3666772246360779e-01" nType="-99"/>
          </Node>
        </Node>
        <Node pos="r" depth="1" NCoef="0" IVar="8" Cut="9.6040225028991699e-01" cType="1" res="-1.1062443954870105e-03" rms="2.9402384161949158e-01" purity="5.1634609699249268e-01" nType="0">
          <Node pos="l" depth="2" NCoef="0" IVar="5" Cut="5.5516956329345703e+01" cType="1" res="-7.4676494114100933e-04" rms="2.9313948750495911e-01" purity="5.2140426635742188e-01" nType="0">
            <Node pos="l" depth="3" NCoef="0" IVar="8" Cut="4.9208185076713562e-01" cType="1" res="-7.0657446049153805e-03" rms="3.3896327018737793e-01" purity="3.8535419106483459e-01" nType="0">
              <Node pos="l" depth="4" NCoef="0" IVar="7" Cut="1.1422060728073120e+00" cType="1" res="-1.7703379271551967e-03" rms="3.3211299777030945e-01" purity="3.4856465458869934e-01" nType="0">
                <Node pos="l" depth="5" NCoef="0" IVar="-1" Cut="0.0000000000000000e+00" cType="1" res="2.4044080637395382e-03" rms="3.5154810547828674e-01" purity="4.3538594245910645e-01" nType="-99"/>
                <Node pos="r" depth="5" NCoef="0" IVar="-1" Cut="0.0000000000000000e+00" cType="1" res="-4.7161597758531570e-03" rms="3.1130847334861755e-01" purity="2.6184231042861938e-01" nType="-99"/>
              </Node>
              <Node pos="r" depth="4" NCoef="0" IVar="-1" Cut="0.0000000000000000e+00" cType="1" res="-7.3123262263834476e-03" rms="3.5484066605567932e-01" purity="4.7540616989135742e-01" nType="-99"/>
            </Node>
            <Node pos="r" depth="3" NCoef="0" IVar="9" Cut="8.1493145227432251e-01" cType="1" res="2.2288248146651313e-05" rms="2.8705412149429321e-01" purity="5.3796225786209106e-01" nType="0">
              <Node pos="l" depth="4" NCoef="0" IVar="9" Cut="4.3733793497085571e-01" cType="1" res="4.8724986845627427e-04" rms="2.8633478283882141e-01" purity="5.4137885570526123e-01" nType="0">
                <Node pos="l" depth="5" NCoef="0" IVar="-1" Cut="0.0000000000000000e+00" cType="1" res="-7.5140356784686446e-04" rms="2.8557807207107544e-01" purity="4.8458042740821838e-01" nType="-99"/>
                <Node pos="r" depth="5" NCoef="0" IVar="-1" Cut="0.0000000000000000e+00" cType="1" res="2.9893547762185335e-03" rms="2.8826585412025452e-01" purity="6.9097048044204712e-01" nType="-99"/>
              </Node>
              <Node pos="r" depth="4" NCoef="0" IVar="-1" Cut="0.0000000000000000e+00" cType="1" res="-6.5081221982836723e-03" rms="3.0622956156730652e-01" purity="4.4226977229118347e-01" nType="-99"/>
            </Node>
          </Node>
          <Node pos="r" depth="2" NCoef="0" IVar="-1" Cut="0.0000000000000000e+00" cType="1" res="-7.7747236937284470e-03" rms="3.2947397232055664e-01" purity="2.9865351319313049e-01" nType="-99"/>
        </Node>
      </Node>
    </BinaryTree>
    <BinaryTree type="DecisionTree" boostWeight="1.0000000000000000e+00" itree="209">
      <Node pos="s" depth="0" NCoef="0" IVar="8" Cut="7.5500524044036865e-01" cType="1" res="2.3852534650359303e-04" rms="2.9674884676933289e-01" purity="4.9904823303222656e-01" nType="0">
        <Node pos="l" depth="1" NCoef="0" IVar="8" Cut="5.5250370502471924e-01" cType="1" res="8.8563608005642891e-04" rms="2.9396465420722961e-01" purity="5.0513511896133423e-01" nType="0">
          <Node pos="l" depth="2" NCoef="0" IVar="4" Cut="1.9777174377441406e+02" cType="1" res="-1.8992552668350982e-06" rms="2.8964287042617798e-01" purity="4.9485477805137634e-01" nType="0">
            <Node pos="l" depth="3" NCoef="0" IVar="4" Cut="1.3889141845703125e+02" cType="1" res="-7.9911918146535754e-04" rms="2.9060128331184387e-01" purity="5.2031761407852173e-01" nType="0">
              <Node pos="l" depth="4" NCoef="0" IVar="7" Cut="9.8907148838043213e-01" cType="1" res="6.3792773289605975e-04" rms="2.9083123803138733e-01" purity="5.7157337665557861e-01" nType="0">
                <Node pos="l" depth="5" NCoef="0" IVar="-1" Cut="0.0000000000000000e+00" cType="1" res="-1.7214430263265967e-03" rms="3.0047440528869629e-01" purity="6.0743218660354614e-01" nType="-99"/>
                <Node pos="r" depth="5" NCoef="0" IVar="-1" Cut="0.0000000000000000e+00" cType="1" res="2.0687398500740528e-03" rms="2.8314477205276489e-01" purity="5.4394978284835815e-01" nType="-99"/>
              </Node>
              <Node pos="r" depth="4" NCoef="0" IVar="5" Cut="1.2757417297363281e+02" cType="1" res="-7.3828077875077724e-03" rms="2.8945428133010864e-01" purity="2.8549471497535706e-01" nType="0">
                <Node pos="l" depth="5" NCoef="0" IVar="-1" Cut="0.0000000000000000e+00" cType="1" res="-5.3942771628499031e-03" rms="2.9885950684547424e-01" purity="3.0695250630378723e-01" nType="-99"/>
                <Node pos="r" depth="5" NCoef="0" IVar="-1" Cut="0.0000000000000000e+00" cType="1" res="2.1683936938643456e-03" rms="2.4985787272453308e-01" purity="2.0320399105548859e-01" nType="-99"/>
              </Node>
            </Node>
            <Node pos="r" depth="3" NCoef="0" IVar="8" Cut="2.6971921324729919e-01" cType="1" res="9.4192298129200935e-03" rms="2.7789330482482910e-01" purity="1.9394741952419281e-01" nType="0">
              <Node pos="l" depth="4" NCoef="0" IVar="-1" Cut="0.0000000000000000e+00" cType="1" res="8.7504362454637885e-05" rms="2.3966446518898010e-01" purity="9.5423884689807892e-02" nType="-99"/>
              <Node pos="r" depth="4" NCoef="0" IVar="-1" Cut="0.0000000000000000e+00" cType="1" res="9.6443686634302139e-03" rms="3.1206983327865601e-01" purity="2.9525172710418701e-01" nType="-99"/>
            </Node>
          </Node>
          <Node pos="r" depth="2" NCoef="0" IVar="4" Cut="1.1795845031738281e+02" cType="1" res="8.1551317125558853e-03" rms="3.2713100314140320e-01" purity="5.8933746814727783e-01" nType="0">
            <Node pos="l" depth="3" NCoef="0" IVar="5" Cut="8.0624137878417969e+01" cType="1" res="1.3920823112130165e-03" rms="3.3885353803634644e-01" purity="5.7388001680374146e-01" nType="0">
              <Node pos="l" depth="4" NCoef="0" IVar="-1" Cut="0.0000000000000000e+00" cType="1" res="-1.0906249517574906e-03" rms="3.3706414699554443e-01" purity="6.0389196872711182e-01" nType="-99"/>
              <Node pos="r" depth="4" NCoef="0" IVar="-1" Cut="0.0000000000000000e+00" cType="1" res="2.6327553205192089e-03" rms="3.4084519743919373e-01" purity="5.3932058811187744e-01" nType="-99"/>
            </Node>
            <Node pos="r" depth="3" NCoef="0" IVar="-1" Cut="0.0000000000000000e+00" cType="1" res="7.8819738700985909e-03" rms="3.1333717703819275e-01" purity="6.0661506652832031e-01" nType="-99"/>
          </Node>
        </Node>
        <Node pos="r" depth="1" NCoef="0" IVar="0" Cut="1.0975610017776489e+00" cType="1" res="-9.9540418013930321e-03" rms="3.3742293715476990e-01" purity="4.0317487716674805e-01" nType="0">
          <Node pos="l" depth="2" NCoef="0" IVar="-1" Cut="0.0000000000000000e+00" cType="1" res="8.0981506034731865e-03" rms="2.9177722334861755e-01" purity="1.7026966810226440e-01" nType="-99"/>
          <Node pos="r" depth="2" NCoef="0" IVar="-1" Cut="0.0000000000000000e+00" cType="1" res="-8.6526926606893539e-03" rms="3.5907602310180664e-01" purity="5.2919912338256836e-01" nType="-99"/>
        </Node>
      </Node>
    </BinaryTree>
    <BinaryTree type="DecisionTree" boostWeight="1.0000000000000000e+00" itree="210">
      <Node pos="s" depth="0" NCoef="0" IVar="5" Cut="3.3720405578613281e+01" cType="1" res="9.5176871400326490e-04" rms="2.9833176732063293e-01" purity="4.9862468242645264e-01" nType="0">
        <Node pos="l" depth="1" NCoef="0" IVar="-1" Cut="0.0000000000000000e+00" cType="1" res="8.8786715641617775e-03" rms="3.5340687632560730e-01" purity="3.3309686183929443e-01" nType="-99"/>
        <Node pos="r" depth="1" NCoef="0" IVar="8" Cut="5.9601730108261108e-01" cType="1" res="4.4295840780250728e-04" rms="2.9678821563720703e-01" purity="5.0281238555908203e-01" nType="0">
          <Node pos="l" depth="2" NCoef="0" IVar="7" Cut="5.7025325298309326e-01" cType="1" res="1.6015575965866446e-03" rms="2.9143938422203064e-01" purity="5.0480461120605469e-01" nType="0">
            <Node pos="l" depth="3" NCoef="0" IVar="5" Cut="1.0456002044677734e+02" cType="1" res="-2.8451380785554647e-03" rms="3.0541869997978210e-01" purity="5.5293375253677368e-01" nType="0">
              <Node pos="l" depth="4" NCoef="0" IVar="9" Cut="5.2003562450408936e-01" cType="1" res="-7.4052270501852036e-03" rms="2.9902541637420654e-01" purity="6.4506214857101440e-01" nType="0">
                <Node pos="l" depth="5" NCoef="0" IVar="-1" Cut="0.0000000000000000e+00" cType="1" res="-8.4405569359660149e-03" rms="2.9824736714363098e-01" purity="5.9418928623199463e-01" nType="-99"/>
                <Node pos="r" depth="5" NCoef="0" IVar="-1" Cut="0.0000000000000000e+00" cType="1" res="4.1255643591284752e-03" rms="2.9999488592147827e-01" purity="7.4652963876724243e-01" nType="-99"/>
              </Node>
              <Node pos="r" depth="4" NCoef="0" IVar="6" Cut="2.3753497600555420e+00" cType="1" res="6.9949696771800518e-03" rms="3.1855577230453491e-01" purity="3.5413208603858948e-01" nType="0">
                <Node pos="l" depth="5" NCoef="0" IVar="-1" Cut="0.0000000000000000e+00" cType="1" res="1.0978456586599350e-02" rms="3.2698351144790649e-01" purity="2.4061673879623413e-01" nType="-99"/>
                <Node pos="r" depth="5" NCoef="0" IVar="-1" Cut="0.0000000000000000e+00" cType="1" res="-5.3531141020357609e-03" rms="3.0638337135314941e-01" purity="5.0252777338027954e-01" nType="-99"/>
              </Node>
            </Node>
            <Node pos="r" depth="3" NCoef="0" IVar="8" Cut="3.1994062662124634e-01" cType="1" res="3.1763440929353237e-03" rms="2.8630846738815308e-01" purity="4.8775976896286011e-01" nType="0">
              <Node pos="l" depth="4" NCoef="0" IVar="6" Cut="1.4558601379394531e+00" cType="1" res="7.5063944677822292e-05" rms="2.8215524554252625e-01" purity="4.0378379821777344e-01" nType="0">
                <Node pos="l" depth="5" NCoef="0" IVar="-1" Cut="0.0000000000000000e+00" cType="1" res="3.9225993677973747e-03" rms="2.7593284845352173e-01" purity="2.3552404344081879e-01" nType="-99"/>
                <Node pos="r" depth="5" NCoef="0" IVar="-1" Cut="0.0000000000000000e+00" cType="1" res="-1.2857972178608179e-03" rms="2.8458368778228760e-01" purity="4.7138026356697083e-01" nType="-99"/>
              </Node>
              <Node pos="r" depth="4" NCoef="0" IVar="7" Cut="1.5513656139373779e+00" cType="1" res="7.4865487404167652e-03" rms="2.9192787408828735e-01" purity="6.0447084903717041e-01" nType="0">
                <Node pos="l" depth="5" NCoef="0" IVar="-1" Cut="0.0000000000000000e+00" cType="1" res="1.7808213597163558e-03" rms="2.9834467172622681e-01" purity="6.3619178533554077e-01" nType="-99"/>
                <Node pos="r" depth="5" NCoef="0" IVar="-1" Cut="0.0000000000000000e+00" cType="1" res="9.4772260636091232e-03" rms="2.7783289551734924e-01" purity="5.3818398714065552e-01" nType="-99"/>
              </Node>
            </Node>
          </Node>
          <Node pos="r" depth="2" NCoef="0" IVar="5" Cut="1.1072011566162109e+02" cType="1" res="-7.9149045050144196e-03" rms="3.3271712064743042e-01" purity="4.8844137787818909e-01" nType="0">
            <Node pos="l" depth="3" NCoef="0" IVar="3" Cut="1.0975610017776489e+00" cType="1" res="-3.3850753679871559e-03" rms="3.3544915914535522e-01" purity="5.4945605993270874e-01" nType="0">
              <Node pos="l" depth="4" NCoef="0" IVar="0" Cut="4.0243902206420898e+00" cType="1" res="-7.2624264284968376e-03" rms="3.2768574357032776e-01" purity="5.8599269390106201e-01" nType="0">
                <Node pos="l" depth="5" NCoef="0" IVar="-1" Cut="0.0000000000000000e+00" cType="1" res="-7.4621271342039108e-03" rms="3.2152205705642700e-01" purity="4.0855365991592407e-01" nType="-99"/>
                <Node pos="r" depth="5" NCoef="0" IVar="-1" Cut="0.0000000000000000e+00" cType="1" res="4.3037414434365928e-04" rms="3.3298239111900330e-01" purity="7.4743366241455078e-01" nType="-99"/>
              </Node>
              <Node pos="r" depth="4" NCoef="0" IVar="-1" Cut="0.0000000000000000e+00" cType="1" res="4.4596637599170208e-03" rms="3.6162078380584717e-01" purity="4.1822320222854614e-01" nType="-99"/>
            </Node>
            <Node pos="r" depth="3" NCoef="0" IVar="-1" Cut="0.0000000000000000e+00" cType="1" res="-1.3884221203625202e-02" rms="3.1899091601371765e-01" purity="2.0718163251876831e-01" nType="-99"/>
          </Node>
        </Node>
      </Node>
    </BinaryTree>
    <BinaryTree type="DecisionTree" boostWeight="1.0000000000000000e+00" itree="211">
      <Node pos="s" depth="0" NCoef="0" IVar="9" Cut="9.1136139631271362e-01" cType="1" res="1.5009547350928187e-03" rms="2.9814431071281433e-01" purity="5.0121086835861206e-01" nType="0">
        <Node pos="l" depth="1" NCoef="0" IVar="9" Cut="1.5576256811618805e-01" cType="1" res="1.8154639983549714e-03" rms="2.9781854152679443e-01" purity="5.0353562831878662e-01" nType="0">
          <Node pos="l" depth="2" NCoef="0" IVar="7" Cut="2.0636718273162842e+00" cType="1" res="-4.7604287974536419e-03" rms="2.6515570282936096e-01" purity="1.8255566060543060e-01" nType="0">
            <Node pos="l" depth="3" NCoef="0" IVar="9" Cut="1.0293076932430267e-01" cType="1" res="4.2034098878502846e-03" rms="2.7705779671669006e-01" purity="1.4775575697422028e-01" nType="0">
              <Node pos="l" depth="4" NCoef="0" IVar="-1" Cut="0.0000000000000000e+00" cType="1" res="1.7667755484580994e-02" rms="2.6387596130371094e-01" purity="1.1489575356245041e-01" nType="-99"/>
              <Node pos="r" depth="4" NCoef="0" IVar="-1" Cut="0.0000000000000000e+00" cType="1" res="-4.1830572299659252e-03" rms="2.8495606780052185e-01" purity="1.6965802013874054e-01" nType="-99"/>
            </Node>
            <Node pos="r" depth="3" NCoef="0" IVar="2" Cut="2.0731706619262695e+00" cType="1" res="-1.2464671395719051e-02" rms="2.5422918796539307e-01" purity="2.1246546506881714e-01" nType="0">
              <Node pos="l" depth="4" NCoef="0" IVar="7" Cut="3.2452805042266846e+00" cType="1" res="-1.8668310716748238e-02" rms="2.7559271454811096e-01" purity="2.7353745698928833e-01" nType="0">
                <Node pos="l" depth="5" NCoef="0" IVar="-1" Cut="0.0000000000000000e+00" cType="1" res="-1.5399818308651447e-02" rms="2.8610906004905701e-01" purity="2.3308604955673218e-01" nType="-99"/>
                <Node pos="r" depth="5" NCoef="0" IVar="-1" Cut="0.0000000000000000e+00" cType="1" res="-4.7419220209121704e-03" rms="2.6355957984924316e-01" purity="3.1651264429092407e-01" nType="-99"/>
              </Node>
              <Node pos="r" depth="4" NCoef="0" IVar="-1" Cut="0.0000000000000000e+00" cType="1" res="2.9754247516393661e-03" rms="1.9359214603900909e-01" purity="6.7611075937747955e-02" nType="-99"/>
            </Node>
          </Node>
          <Node pos="r" depth="2" NCoef="0" IVar="7" Cut="2.7725768089294434e+00" cType="1" res="2.8500114567577839e-03" rms="3.0262345075607300e-01" purity="5.5403357744216919e-01" nType="0">
            <Node pos="l" depth="3" NCoef="0" IVar="9" Cut="6.3491326570510864e-01" cType="1" res="1.8394113285467029e-03" rms="3.0494287610054016e-01" purity="5.5888932943344116e-01" nType="0">
              <Node pos="l" depth="4" NCoef="0" IVar="4" Cut="1.3974087524414062e+02" cType="1" res="1.1353662703186274e-03" rms="3.0290031433105469e-01" purity="5.5500346422195435e-01" nType="0">
                <Node pos="l" depth="5" NCoef="0" IVar="-1" Cut="0.0000000000000000e+00" cType="1" res="-1.3796974963042885e-04" rms="2.9823851585388184e-01" purity="6.2239229679107666e-01" nType="-99"/>
                <Node pos="r" depth="5" NCoef="0" IVar="-1" Cut="0.0000000000000000e+00" cType="1" res="2.9150864575058222e-03" rms="3.1814333796501160e-01" purity="3.2667502760887146e-01" nType="-99"/>
              </Node>
              <Node pos="r" depth="4" NCoef="0" IVar="8" Cut="2.2722986340522766e-01" cType="1" res="9.1973245143890381e-03" rms="3.2543244957923889e-01" purity="5.9950041770935059e-01" nType="0">
                <Node pos="l" depth="5" NCoef="0" IVar="-1" Cut="0.0000000000000000e+00" cType="1" res="1.0491168126463890e-02" rms="3.2270514965057373e-01" purity="4.8258933424949646e-01" nType="-99"/>
                <Node pos="r" depth="5" NCoef="0" IVar="-1" Cut="0.0000000000000000e+00" cType="1" res="1.2962588807567954e-03" rms="3.2668697834014893e-01" purity="6.6156256198883057e-01" nType="-99"/>
              </Node>
            </Node>
            <Node pos="r" depth="3" NCoef="0" IVar="8" Cut="1.1312736570835114e-01" cType="1" res="1.6744293272495270e-02" rms="2.6832690834999084e-01" purity="4.8727387189865112e-01" nType="0">
              <Node pos="l" depth="4" NCoef="0" IVar="-1" Cut="0.0000000000000000e+00" cType="1" res="-7.3817451484501362e-03" rms="2.6652988791465759e-01" purity="1.9998407363891602e-01" nType="-99"/>
              <Node pos="r" depth="4" NCoef="0" IVar="-1" Cut="0.0000000000000000e+00" cType="1" res="1.9330954179167747e-02" rms="2.6798444986343384e-01" purity="6.5529364347457886e-01" nType="-99"/>
            </Node>
          </Node>
        </Node>
        <Node pos="r" depth="1" NCoef="0" IVar="-1" Cut="0.0000000000000000e+00" cType="1" res="-5.3745359182357788e-03" rms="3.1067955493927002e-01" purity="4.0786132216453552e-01" nType="-99"/>
      </Node>
    </BinaryTree>
    <BinaryTree type="DecisionTree" boostWeight="1.0000000000000000e+00" itree="212">
      <Node pos="s" depth="0" NCoef="0" IVar="3" Cut="3.0487804412841797e+00" cType="1" res="6.4038234995678067e-04" rms="2.9679706692695618e-01" purity="5.0103622674942017e-01" nType="0">
        <Node pos="l" depth="1" NCoef="0" IVar="5" Cut="1.2049879455566406e+02" cType="1" res="1.7846038099378347e-03" rms="2.9732736945152283e-01" purity="5.5395615100860596e-01" nType="0">
          <Node pos="l" depth="2" NCoef="0" IVar="4" Cut="7.0103408813476562e+01" cType="1" res="2.9015683103352785e-03" rms="3.0053010582923889e-01" purity="6.0605865716934204e-01" nType="0">
            <Node pos="l" depth="3" NCoef="0" IVar="7" Cut="7.7387720346450806e-01" cType="1" res="-4.1609704494476318e-03" rms="3.5078844428062439e-01" purity="3.2308593392372131e-01" nType="0">
              <Node pos="l" depth="4" NCoef="0" IVar="-1" Cut="0.0000000000000000e+00" cType="1" res="-5.2692573517560959e-03" rms="3.6669895052909851e-01" purity="3.8644236326217651e-01" nType="-99"/>
              <Node pos="r" depth="4" NCoef="0" IVar="0" Cut="2.0731706619262695e+00" cType="1" res="3.3939597196877003e-03" rms="3.3929991722106934e-01" purity="2.7986624836921692e-01" nType="0">
                <Node pos="l" depth="5" NCoef="0" IVar="-1" Cut="0.0000000000000000e+00" cType="1" res="-6.7049602512270212e-04" rms="2.8550708293914795e-01" purity="1.4597798883914948e-01" nType="-99"/>
                <Node pos="r" depth="5" NCoef="0" IVar="-1" Cut="0.0000000000000000e+00" cType="1" res="2.7355651836842299e-03" rms="3.9231559634208679e-01" purity="4.3458238244056702e-01" nType="-99"/>
              </Node>
            </Node>
            <Node pos="r" depth="3" NCoef="0" IVar="6" Cut="1.7623605728149414e+00" cType="1" res="3.7455614656209946e-03" rms="2.9393848776817322e-01" purity="6.3987469673156738e-01" nType="0">
              <Node pos="l" depth="4" NCoef="0" IVar="9" Cut="2.3296210169792175e-01" cType="1" res="7.6515618711709976e-03" rms="3.1818696856498718e-01" purity="5.1034665107727051e-01" nType="0">
                <Node pos="l" depth="5" NCoef="0" IVar="-1" Cut="0.0000000000000000e+00" cType="1" res="8.6384676396846771e-03" rms="3.1249263882637024e-01" purity="2.6082375645637512e-01" nType="-99"/>
                <Node pos="r" depth="5" NCoef="0" IVar="-1" Cut="0.0000000000000000e+00" cType="1" res="2.1761667449027300e-03" rms="3.2026594877243042e-01" purity="6.0510319471359253e-01" nType="-99"/>
              </Node>
              <Node pos="r" depth="4" NCoef="0" IVar="1" Cut="1.0975610017776489e+00" cType="1" res="1.5423598233610392e-03" rms="2.7930992841720581e-01" purity="7.1293568611145020e-01" nType="0">
                <Node pos="l" depth="5" NCoef="0" IVar="-1" Cut="0.0000000000000000e+00" cType="1" res="-2.2468881215900183e-03" rms="3.3045625686645508e-01" purity="4.3138480186462402e-01" nType="-99"/>
                <Node pos="r" depth="5" NCoef="0" IVar="-1" Cut="0.0000000000000000e+00" cType="1" res="3.3252919092774391e-03" rms="2.5346407294273376e-01" purity="8.3699017763137817e-01" nType="-99"/>
              </Node>
            </Node>
          </Node>
          <Node pos="r" depth="2" NCoef="0" IVar="4" Cut="7.0869316101074219e+01" cType="1" res="-3.6819516681134701e-03" rms="2.8106313943862915e-01" purity="2.9896026849746704e-01" nType="0">
            <Node pos="l" depth="3" NCoef="0" IVar="-1" Cut="0.0000000000000000e+00" cType="1" res="8.8242730125784874e-03" rms="2.7341255545616150e-01" purity="1.1209279298782349e-01" nType="-99"/>
            <Node pos="r" depth="3" NCoef="0" IVar="6" Cut="1.8389792442321777e+00" cType="1" res="-6.3650910742580891e-03" rms="2.8227388858795166e-01" purity="3.3116292953491211e-01" nType="0">
              <Node pos="l" depth="4" NCoef="0" IVar="4" Cut="1.3640481567382812e+02" cType="1" res="4.0290359174832702e-04" rms="2.8510597348213196e-01" purity="1.6056984663009644e-01" nType="0">
                <Node pos="l" depth="5" NCoef="0" IVar="-1" Cut="0.0000000000000000e+00" cType="1" res="-4.8175100237131119e-03" rms="3.0865043401718140e-01" purity="2.1274593472480774e-01" nType="-99"/>
                <Node pos="r" depth="5" NCoef="0" IVar="-1" Cut="0.0000000000000000e+00" cType="1" res="1.1931655928492546e-02" rms="2.5156480073928833e-01" purity="9.4413079321384430e-02" nType="-99"/>
              </Node>
              <Node pos="r" depth="4" NCoef="0" IVar="9" Cut="2.9869091510772705e-01" cType="1" res="-1.0991378687322140e-02" rms="2.8022748231887817e-01" purity="4.4777250289916992e-01" nType="0">
                <Node pos="l" depth="5" NCoef="0" IVar="-1" Cut="0.0000000000000000e+00" cType="1" res="-1.3294358737766743e-02" rms="2.7881547808647156e-01" purity="2.3114638030529022e-01" nType="-99"/>
                <Node pos="r" depth="5" NCoef="0" IVar="-1" Cut="0.0000000000000000e+00" cType="1" res="-2.3045628040563315e-04" rms="2.8100651502609253e-01" purity="6.3419556617736816e-01" nType="-99"/>
              </Node>
            </Node>
          </Node>
        </Node>
        <Node pos="r" depth="1" NCoef="0" IVar="9" Cut="5.6962192058563232e-01" cType="1" res="-4.8559317365288734e-03" rms="2.9417437314987183e-01" purity="2.4683350324630737e-01" nType="0">
          <Node pos="l" depth="2" NCoef="0" IVar="6" Cut="1.8389806747436523e+00" cType="1" res="-2.2534795571118593e-03" rms="2.9362595081329346e-01" purity="2.4564421176910400e-01" nType="0">
            <Node pos="l" depth="3" NCoef="0" IVar="0" Cut="2.0731706619262695e+00" cType="1" res="-8.1902462989091873e-03" rms="2.7007314562797546e-01" purity="1.3217070698738098e-01" nType="0">
              <Node pos="l" depth="4" NCoef="0" IVar="-1" Cut="0.0000000000000000e+00" cType="1" res="1.0242711869068444e-04" rms="2.1017602086067200e-01" purity="6.4463287591934204e-02" nType="-99"/>
              <Node pos="r" depth="4" NCoef="0" IVar="-1" Cut="0.0000000000000000e+00" cType="1" res="-8.9922724291682243e-03" rms="3.4319099783897400e-01" purity="2.3836477100849152e-01" nType="-99"/>
            </Node>
            <Node pos="r" depth="3" NCoef="0" IVar="4" Cut="9.3892906188964844e+01" cType="1" res="1.8315198831260204e-03" rms="3.0872440338134766e-01" purity="3.2372361421585083e-01" nType="0">
              <Node pos="l" depth="4" NCoef="0" IVar="-1" Cut="0.0000000000000000e+00" cType="1" res="-3.6213204730302095e-03" rms="3.0748468637466431e-01" purity="2.0029452443122864e-01" nType="-99"/>
              <Node pos="r" depth="4" NCoef="0" IVar="5" Cut="1.2031135559082031e+02" cType="1" res="5.6365635246038437e-03" rms="3.0917149782180786e-01" purity="3.7620261311531067e-01" nType="0">
                <Node pos="l" depth="5" NCoef="0" IVar="-1" Cut="0.0000000000000000e+00" cType="1" res="2.1109908993821591e-04" rms="3.1051954627037048e-01" purity="3.7016904354095459e-01" nType="-99"/>
                <Node pos="r" depth="5" NCoef="0" IVar="-1" Cut="0.0000000000000000e+00" cType="1" res="9.0885600075125694e-03" rms="3.0608803033828735e-01" purity="3.8866218924522400e-01" nType="-99"/>
              </Node>
            </Node>
          </Node>
          <Node pos="r" depth="2" NCoef="0" IVar="-1" Cut="0.0000000000000000e+00" cType="1" res="-1.0407305322587490e-02" rms="2.9708310961723328e-01" purity="2.5432834029197693e-01" nType="-99"/>
        </Node>
      </Node>
    </BinaryTree>
    <BinaryTree type="DecisionTree" boostWeight="1.0000000000000000e+00" itree="213">
      <Node pos="s" depth="0" NCoef="0" IVar="5" Cut="7.3408187866210938e+01" cType="1" res="-2.1434843074530363e-03" rms="2.9399454593658447e-01" purity="4.9937576055526733e-01" nType="0">
        <Node pos="l" depth="1" NCoef="0" IVar="7" Cut="2.2148163318634033e+00" cType="1" res="-5.4331021383404732e-03" rms="3.2615217566490173e-01" purity="4.7434666752815247e-01" nType="0">
          <Node pos="l" depth="2" NCoef="0" IVar="6" Cut="6.8961775302886963e-01" cType="1" res="-3.5963640548288822e-03" rms="3.3359208703041077e-01" purity="5.0428730249404907e-01" nType="0">
            <Node pos="l" depth="3" NCoef="0" IVar="-1" Cut="0.0000000000000000e+00" cType="1" res="-7.0406035520136356e-03" rms="3.2688561081886292e-01" purity="3.3365821838378906e-01" nType="-99"/>
            <Node pos="r" depth="3" NCoef="0" IVar="7" Cut="8.6431884765625000e-01" cType="1" res="-1.6894420841708779e-03" rms="3.3456152677536011e-01" purity="5.3029799461364746e-01" nType="0">
              <Node pos="l" depth="4" NCoef="0" IVar="0" Cut="4.0243902206420898e+00" cType="1" res="3.3367190044373274e-03" rms="3.3783391118049622e-01" purity="5.8570218086242676e-01" nType="0">
                <Node pos="l" depth="5" NCoef="0" IVar="-1" Cut="0.0000000000000000e+00" cType="1" res="5.3099039942026138e-03" rms="3.3888366818428040e-01" purity="4.2894047498703003e-01" nType="-99"/>
                <Node pos="r" depth="5" NCoef="0" IVar="-1" Cut="0.0000000000000000e+00" cType="1" res="-1.9372703973203897e-03" rms="3.3668482303619385e-01" purity="7.2899764776229858e-01" nType="-99"/>
              </Node>
              <Node pos="r" depth="4" NCoef="0" IVar="6" Cut="2.0651197433471680e+00" cType="1" res="-8.3036990836262703e-03" rms="3.3008915185928345e-01" purity="4.5738786458969116e-01" nType="0">
                <Node pos="l" depth="5" NCoef="0" IVar="-1" Cut="0.0000000000000000e+00" cType="1" res="5.9590331511572003e-04" rms="3.3561450242996216e-01" purity="4.0643969178199768e-01" nType="-99"/>
                <Node pos="r" depth="5" NCoef="0" IVar="-1" Cut="0.0000000000000000e+00" cType="1" res="-7.6135140843689442e-03" rms="3.2519793510437012e-01" purity="4.9983164668083191e-01" nType="-99"/>
              </Node>
            </Node>
          </Node>
          <Node pos="r" depth="2" NCoef="0" IVar="8" Cut="2.1478597819805145e-01" cType="1" res="-1.5293755568563938e-02" rms="2.8268116712570190e-01" purity="3.1360837817192078e-01" nType="0">
            <Node pos="l" depth="3" NCoef="0" IVar="-1" Cut="0.0000000000000000e+00" cType="1" res="-1.8691681325435638e-02" rms="2.7198567986488342e-01" purity="2.2901736199855804e-01" nType="-99"/>
            <Node pos="r" depth="3" NCoef="0" IVar="-1" Cut="0.0000000000000000e+00" cType="1" res="6.3195475377142429e-04" rms="2.9231619834899902e-01" purity="4.0023270249366760e-01" nType="-99"/>
          </Node>
        </Node>
        <Node pos="r" depth="1" NCoef="0" IVar="4" Cut="2.0941401672363281e+02" cType="1" res="-9.4896281370893121e-04" rms="2.8139999508857727e-01" purity="5.0846433639526367e-01" nType="0">
          <Node pos="l" depth="2" NCoef="0" IVar="7" Cut="3.0266828536987305e+00" cType="1" res="-1.6226993175223470e-03" rms="2.8162205219268799e-01" purity="5.2800256013870239e-01" nType="0">
            <Node pos="l" depth="3" NCoef="0" IVar="1" Cut="3.0487804412841797e+00" cType="1" res="-2.4407289456576109e-03" rms="2.8379586338996887e-01" purity="5.4094082117080688e-01" nType="0">
              <Node pos="l" depth="4" NCoef="0" IVar="5" Cut="1.4943977355957031e+02" cType="1" res="-5.4422449320554733e-03" rms="2.9640609025955200e-01" purity="3.4223788976669312e-01" nType="0">
                <Node pos="l" depth="5" NCoef="0" IVar="-1" Cut="0.0000000000000000e+00" cType="1" res="-3.5369596444070339e-03" rms="2.9776296019554138e-01" purity="3.5304838418960571e-01" nType="-99"/>
                <Node pos="r" depth="5" NCoef="0" IVar="-1" Cut="0.0000000000000000e+00" cType="1" res="6.4131258986890316e-03" rms="2.7811437845230103e-01" purity="2.0455327630043030e-01" nType="-99"/>
              </Node>
              <Node pos="r" depth="4" NCoef="0" IVar="9" Cut="3.5035124421119690e-01" cType="1" res="7.6468038605526090e-04" rms="2.6964184641838074e-01" purity="7.5314170122146606e-01" nType="0">
                <Node pos="l" depth="5" NCoef="0" IVar="-1" Cut="0.0000000000000000e+00" cType="1" res="-2.6507077272981405e-03" rms="2.9863241314888000e-01" purity="6.3604146242141724e-01" nType="-99"/>
                <Node pos="r" depth="5" NCoef="0" IVar="-1" Cut="0.0000000000000000e+00" cType="1" res="3.9545386098325253e-03" rms="2.4424606561660767e-01" purity="8.4558916091918945e-01" nType="-99"/>
              </Node>
            </Node>
            <Node pos="r" depth="3" NCoef="0" IVar="9" Cut="1.7486809194087982e-01" cType="1" res="7.5795599259436131e-03" rms="2.5571867823600769e-01" purity="3.8245579600334167e-01" nType="0">
              <Node pos="l" depth="4" NCoef="0" IVar="-1" Cut="0.0000000000000000e+00" cType="1" res="-5.1398347131907940e-03" rms="2.4029284715652466e-01" purity="3.0496770143508911e-01" nType="-99"/>
              <Node pos="r" depth="4" NCoef="0" IVar="-1" Cut="0.0000000000000000e+00" cType="1" res="1.7458010464906693e-02" rms="2.7529308199882507e-01" purity="4.9603307247161865e-01" nType="-99"/>
            </Node>
          </Node>
          <Node pos="r" depth="2" NCoef="0" IVar="6" Cut="2.1454772949218750e+00" cType="1" res="9.2851100489497185e-03" rms="2.7780458331108093e-01" purity="2.1167759597301483e-01" nType="0">
            <Node pos="l" depth="3" NCoef="0" IVar="-1" Cut="0.0000000000000000e+00" cType="1" res="1.7727281665429473e-03" rms="2.5611621141433716e-01" purity="9.4027899205684662e-02" nType="-99"/>
            <Node pos="r" depth="3" NCoef="0" IVar="-1" Cut="0.0000000000000000e+00" cType="1" res="8.5816718637943268e-03" rms="2.9914847016334534e-01" purity="3.3795174956321716e-01" nType="-99"/>
          </Node>
        </Node>
      </Node>
    </BinaryTree>
    <BinaryTree type="DecisionTree" boostWeight="1.0000000000000000e+00" itree="214">
      <Node pos="s" depth="0" NCoef="0" IVar="8" Cut="3.7349641323089600e-01" cType="1" res="9.7654218552634120e-04" rms="2.9664483666419983e-01" purity="5.0197917222976685e-01" nType="0">
        <Node pos="l" depth="1" NCoef="0" IVar="8" Cut="3.2796317338943481e-01" cType="1" res="-3.8792518898844719e-04" rms="2.8689211606979370e-01" purity="4.3392425775527954e-01" nType="0">
          <Node pos="l" depth="2" NCoef="0" IVar="4" Cut="5.2694141387939453e+01" cType="1" res="-1.7367878463119268e-03" rms="2.8476065397262573e-01" purity="4.0375483036041260e-01" nType="0">
            <Node pos="l" depth="3" NCoef="0" IVar="-1" Cut="0.0000000000000000e+00" cType="1" res="-1.0364307090640068e-02" rms="2.6879921555519104e-01" purity="1.1893498897552490e-01" nType="-99"/>
            <Node pos="r" depth="3" NCoef="0" IVar="7" Cut="3.8183376789093018e+00" cType="1" res="-9.8956434521824121e-04" rms="2.8553333878517151e-01" purity="4.1832947731018066e-01" nType="0">
              <Node pos="l" depth="4" NCoef="0" IVar="9" Cut="1.1996948719024658e-01" cType="1" res="-1.6881595365703106e-03" rms="2.8692033886909485e-01" purity="4.2859870195388794e-01" nType="0">
                <Node pos="l" depth="5" NCoef="0" IVar="-1" Cut="0.0000000000000000e+00" cType="1" res="-1.6779024153947830e-02" rms="1.9601507484912872e-01" purity="8.7016113102436066e-02" nType="-99"/>
                <Node pos="r" depth="5" NCoef="0" IVar="-1" Cut="0.0000000000000000e+00" cType="1" res="-4.1399215115234256e-04" rms="2.9185897111892700e-01" purity="4.5095655322074890e-01" nType="-99"/>
              </Node>
              <Node pos="r" depth="4" NCoef="0" IVar="-1" Cut="0.0000000000000000e+00" cType="1" res="8.7299114093184471e-03" rms="2.5624266266822815e-01" purity="2.1566663682460785e-01" nType="-99"/>
            </Node>
          </Node>
          <Node pos="r" depth="2" NCoef="0" IVar="7" Cut="1.5946542024612427e+00" cType="1" res="6.1774910427629948e-03" rms="2.9696100950241089e-01" purity="5.8077013492584229e-01" nType="0">
            <Node pos="l" depth="3" NCoef="0" IVar="5" Cut="1.0642108154296875e+02" cType="1" res="1.4529715990647674e-03" rms="3.0895677208900452e-01" purity="5.7861596345901489e-01" nType="0">
              <Node pos="l" depth="4" NCoef="0" IVar="-1" Cut="0.0000000000000000e+00" cType="1" res="-2.3508309386670589e-03" rms="3.0012360215187073e-01" purity="6.4778900146484375e-01" nType="-99"/>
              <Node pos="r" depth="4" NCoef="0" IVar="-1" Cut="0.0000000000000000e+00" cType="1" res="7.9233516007661819e-03" rms="3.2881832122802734e-01" purity="4.1221642494201660e-01" nType="-99"/>
            </Node>
            <Node pos="r" depth="3" NCoef="0" IVar="-1" Cut="0.0000000000000000e+00" cType="1" res="1.1356946080923080e-02" rms="2.6462039351463318e-01" purity="5.8609616756439209e-01" nType="-99"/>
          </Node>
        </Node>
        <Node pos="r" depth="1" NCoef="0" IVar="6" Cut="6.8961787223815918e-01" cType="1" res="2.7672699652612209e-03" rms="3.0896839499473572e-01" purity="5.9129452705383301e-01" nType="0">
          <Node pos="l" depth="2" NCoef="0" IVar="2" Cut="1.0975610017776489e+00" cType="1" res="1.2493733316659927e-02" rms="3.4915721416473389e-01" purity="3.9638382196426392e-01" nType="0">
            <Node pos="l" depth="3" NCoef="0" IVar="4" Cut="1.1163016510009766e+02" cType="1" res="3.8893192540854216e-03" rms="3.5179993510246277e-01" purity="4.6785342693328857e-01" nType="0">
              <Node pos="l" depth="4" NCoef="0" IVar="-1" Cut="0.0000000000000000e+00" cType="1" res="-2.4783075787127018e-03" rms="3.6677476763725281e-01" purity="4.5072323083877563e-01" nType="-99"/>
              <Node pos="r" depth="4" NCoef="0" IVar="-1" Cut="0.0000000000000000e+00" cType="1" res="5.4254978895187378e-03" rms="3.3806458115577698e-01" purity="4.8265597224235535e-01" nType="-99"/>
            </Node>
            <Node pos="r" depth="3" NCoef="0" IVar="-1" Cut="0.0000000000000000e+00" cType="1" res="1.6504937782883644e-02" rms="3.4265276789665222e-01" purity="2.4222519993782043e-01" nType="-99"/>
          </Node>
          <Node pos="r" depth="2" NCoef="0" IVar="6" Cut="9.8864036798477173e-01" cType="1" res="1.0979181388393044e-03" rms="3.0150118470191956e-01" purity="6.2474709749221802e-01" nType="0">
            <Node pos="l" depth="3" NCoef="0" IVar="-1" Cut="0.0000000000000000e+00" cType="1" res="-7.7696917578577995e-03" rms="3.1472179293632507e-01" purity="4.6007391810417175e-01" nType="-99"/>
            <Node pos="r" depth="3" NCoef="0" IVar="4" Cut="7.0827033996582031e+01" cType="1" res="2.7107018977403641e-03" rms="3.0024102330207825e-01" purity="6.3943231105804443e-01" nType="0">
              <Node pos="l" depth="4" NCoef="0" IVar="5" Cut="8.1083778381347656e+01" cType="1" res="1.4339939691126347e-02" rms="3.6642917990684509e-01" purity="3.4975016117095947e-01" nType="0">
                <Node pos="l" depth="5" NCoef="0" IVar="-1" Cut="0.0000000000000000e+00" cType="1" res="3.5626976750791073e-03" rms="3.8365355134010315e-01" purity="3.7250277400016785e-01" nType="-99"/>
                <Node pos="r" depth="5" NCoef="0" IVar="-1" Cut="0.0000000000000000e+00" cType="1" res="7.5297662988305092e-03" rms="3.4818044304847717e-01" purity="3.2683584094047546e-01" nType="-99"/>
              </Node>
              <Node pos="r" depth="4" NCoef="0" IVar="4" Cut="1.6696858215332031e+02" cType="1" res="1.1214618571102619e-03" rms="2.8998878598213196e-01" purity="6.7901998758316040e-01" nType="0">
                <Node pos="l" depth="5" NCoef="0" IVar="-1" Cut="0.0000000000000000e+00" cType="1" res="1.6269084298983216e-03" rms="2.8941369056701660e-01" purity="7.3758208751678467e-01" nType="-99"/>
                <Node pos="r" depth="5" NCoef="0" IVar="-1" Cut="0.0000000000000000e+00" cType="1" res="-4.3637938797473907e-03" rms="2.9328545928001404e-01" purity="3.2026293873786926e-01" nType="-99"/>
              </Node>
            </Node>
          </Node>
        </Node>
      </Node>
    </BinaryTree>
    <BinaryTree type="DecisionTree" boostWeight="1.0000000000000000e+00" itree="215">
      <Node pos="s" depth="0" NCoef="0" IVar="8" Cut="4.8139095306396484e-01" cType="1" res="2.1535722771659493e-04" rms="2.9738038778305054e-01" purity="4.9840041995048523e-01" nType="0">
        <Node pos="l" depth="1" NCoef="0" IVar="7" Cut="3.7066414356231689e+00" cType="1" res="-1.5094446716830134e-03" rms="2.8794679045677185e-01" purity="4.7760647535324097e-01" nType="0">
          <Node pos="l" depth="2" NCoef="0" IVar="4" Cut="2.0937794494628906e+02" cType="1" res="-2.2328426130115986e-03" rms="2.8866818547248840e-01" purity="4.8695117235183716e-01" nType="0">
            <Node pos="l" depth="3" NCoef="0" IVar="1" Cut="4.0243902206420898e+00" cType="1" res="-2.9296793509274721e-03" rms="2.8916323184967041e-01" purity="5.0528132915496826e-01" nType="0">
              <Node pos="l" depth="4" NCoef="0" IVar="5" Cut="6.2584320068359375e+01" cType="1" res="-5.6491303257644176e-03" rms="2.9619982838630676e-01" purity="3.5544291138648987e-01" nType="0">
                <Node pos="l" depth="5" NCoef="0" IVar="-1" Cut="0.0000000000000000e+00" cType="1" res="1.6120042710099369e-04" rms="3.2999682426452637e-01" purity="2.6912632584571838e-01" nType="-99"/>
                <Node pos="r" depth="5" NCoef="0" IVar="-1" Cut="0.0000000000000000e+00" cType="1" res="-3.8022508379071951e-03" rms="2.8985354304313660e-01" purity="3.7058192491531372e-01" nType="-99"/>
              </Node>
              <Node pos="r" depth="4" NCoef="0" IVar="6" Cut="7.6624131202697754e-01" cType="1" res="1.2035326799377799e-03" rms="2.7807694673538208e-01" purity="7.3301625251770020e-01" nType="0">
                <Node pos="l" depth="5" NCoef="0" IVar="-1" Cut="0.0000000000000000e+00" cType="1" res="-5.5876737460494041e-03" rms="3.1515303254127502e-01" purity="4.6315634250640869e-01" nType="-99"/>
                <Node pos="r" depth="5" NCoef="0" IVar="-1" Cut="0.0000000000000000e+00" cType="1" res="1.5438114060088992e-03" rms="2.7436307072639465e-01" purity="7.5797539949417114e-01" nType="-99"/>
              </Node>
            </Node>
            <Node pos="r" depth="3" NCoef="0" IVar="6" Cut="2.0688500404357910e+00" cType="1" res="9.0998644009232521e-03" rms="2.8025126457214355e-01" purity="1.8884682655334473e-01" nType="0">
              <Node pos="l" depth="4" NCoef="0" IVar="-1" Cut="0.0000000000000000e+00" cType="1" res="1.5543593093752861e-02" rms="2.6348420977592468e-01" purity="9.6349768340587616e-02" nType="-99"/>
              <Node pos="r" depth="4" NCoef="0" IVar="-1" Cut="0.0000000000000000e+00" cType="1" res="7.6471967622637749e-04" rms="2.9531806707382202e-01" purity="2.7803686261177063e-01" nType="-99"/>
            </Node>
          </Node>
          <Node pos="r" depth="2" NCoef="0" IVar="-1" Cut="0.0000000000000000e+00" cType="1" res="1.1389727704226971e-02" rms="2.6832291483879089e-01" purity="2.4025993049144745e-01" nType="-99"/>
        </Node>
        <Node pos="r" depth="1" NCoef="0" IVar="4" Cut="7.1275192260742188e+01" cType="1" res="5.5306935682892799e-03" rms="3.2467532157897949e-01" purity="5.6248128414154053e-01" nType="0">
          <Node pos="l" depth="2" NCoef="0" IVar="-1" Cut="0.0000000000000000e+00" cType="1" res="8.9242001995444298e-03" rms="3.8317006826400757e-01" purity="3.5333663225173950e-01" nType="-99"/>
          <Node pos="r" depth="2" NCoef="0" IVar="5" Cut="1.2771659088134766e+02" cType="1" res="2.5751825887709856e-03" rms="3.1473234295845032e-01" purity="5.9426015615463257e-01" nType="0">
            <Node pos="l" depth="3" NCoef="0" IVar="4" Cut="1.4538063049316406e+02" cType="1" res="5.2345343865454197e-03" rms="3.1436917185783386e-01" purity="6.2375181913375854e-01" nType="0">
              <Node pos="l" depth="4" NCoef="0" IVar="6" Cut="8.4286606311798096e-01" cType="1" res="1.9372712122276425e-03" rms="3.0749937891960144e-01" purity="7.1546423435211182e-01" nType="0">
                <Node pos="l" depth="5" NCoef="0" IVar="-1" Cut="0.0000000000000000e+00" cType="1" res="-3.3226320520043373e-03" rms="3.4366080164909363e-01" purity="5.7924681901931763e-01" nType="-99"/>
                <Node pos="r" depth="5" NCoef="0" IVar="-1" Cut="0.0000000000000000e+00" cType="1" res="2.3725721985101700e-03" rms="2.9813763499259949e-01" purity="7.4809175729751587e-01" nType="-99"/>
              </Node>
              <Node pos="r" depth="4" NCoef="0" IVar="7" Cut="7.6373720169067383e-01" cType="1" res="1.6241572797298431e-02" rms="3.3605334162712097e-01" purity="3.1759425997734070e-01" nType="0">
                <Node pos="l" depth="5" NCoef="0" IVar="-1" Cut="0.0000000000000000e+00" cType="1" res="1.1383640579879284e-02" rms="3.6865723133087158e-01" purity="3.9151069521903992e-01" nType="-99"/>
                <Node pos="r" depth="5" NCoef="0" IVar="-1" Cut="0.0000000000000000e+00" cType="1" res="1.5699632931500673e-03" rms="2.9460775852203369e-01" purity="2.3457282781600952e-01" nType="-99"/>
              </Node>
            </Node>
            <Node pos="r" depth="3" NCoef="0" IVar="-1" Cut="0.0000000000000000e+00" cType="1" res="-1.0432054288685322e-02" rms="3.1695768237113953e-01" purity="3.3315762877464294e-01" nType="-99"/>
          </Node>
        </Node>
      </Node>
    </BinaryTree>
    <BinaryTree type="DecisionTree" boostWeight="1.0000000000000000e+00" itree="216">
      <Node pos="s" depth="0" NCoef="0" IVar="5" Cut="1.3113586425781250e+02" cType="1" res="7.6957468991167843e-05" rms="2.9656457901000977e-01" purity="4.9927273392677307e-01" nType="0">
        <Node pos="l" depth="1" NCoef="0" IVar="4" Cut="2.2680773925781250e+02" cType="1" res="8.9321070117875934e-04" rms="3.0010727047920227e-01" purity="5.3243660926818848e-01" nType="0">
          <Node pos="l" depth="2" NCoef="0" IVar="7" Cut="1.7107576131820679e+00" cType="1" res="1.3331174850463867e-03" rms="3.0110967159271240e-01" purity="5.4322034120559692e-01" nType="0">
            <Node pos="l" depth="3" NCoef="0" IVar="8" Cut="8.3646452426910400e-01" cType="1" res="-1.0123164247488603e-04" rms="3.1101724505424500e-01" purity="5.7336986064910889e-01" nType="0">
              <Node pos="l" depth="4" NCoef="0" IVar="4" Cut="6.4605819702148438e+01" cType="1" res="-7.5518660014495254e-04" rms="3.0735665559768677e-01" purity="5.8091914653778076e-01" nType="0">
                <Node pos="l" depth="5" NCoef="0" IVar="-1" Cut="0.0000000000000000e+00" cType="1" res="-3.6499998532235622e-03" rms="3.4828492999076843e-01" purity="2.8220096230506897e-01" nType="-99"/>
                <Node pos="r" depth="5" NCoef="0" IVar="-1" Cut="0.0000000000000000e+00" cType="1" res="1.2565190263558179e-04" rms="3.0218669772148132e-01" purity="6.1589682102203369e-01" nType="-99"/>
              </Node>
              <Node pos="r" depth="4" NCoef="0" IVar="-1" Cut="0.0000000000000000e+00" cType="1" res="4.2148497886955738e-03" rms="3.6533766984939575e-01" purity="4.5043748617172241e-01" nType="-99"/>
            </Node>
            <Node pos="r" depth="3" NCoef="0" IVar="8" Cut="3.0955260992050171e-01" cType="1" res="4.7996975481510162e-03" rms="2.7566775679588318e-01" purity="4.7035411000251770e-01" nType="0">
              <Node pos="l" depth="4" NCoef="0" IVar="3" Cut="4.0243902206420898e+00" cType="1" res="2.0391006546560675e-04" rms="2.7079862356185913e-01" purity="4.5365783572196960e-01" nType="0">
                <Node pos="l" depth="5" NCoef="0" IVar="-1" Cut="0.0000000000000000e+00" cType="1" res="1.7368503613397479e-03" rms="2.7923586964607239e-01" purity="5.0648760795593262e-01" nType="-99"/>
                <Node pos="r" depth="5" NCoef="0" IVar="-1" Cut="0.0000000000000000e+00" cType="1" res="-1.5959085896611214e-02" rms="2.0469006896018982e-01" purity="1.0049773007631302e-01" nType="-99"/>
              </Node>
              <Node pos="r" depth="4" NCoef="0" IVar="5" Cut="9.0479957580566406e+01" cType="1" res="1.5505875460803509e-02" rms="2.8640425205230713e-01" purity="5.0924915075302124e-01" nType="0">
                <Node pos="l" depth="5" NCoef="0" IVar="-1" Cut="0.0000000000000000e+00" cType="1" res="1.3808288611471653e-02" rms="2.9733663797378540e-01" purity="5.7552379369735718e-01" nType="-99"/>
                <Node pos="r" depth="5" NCoef="0" IVar="-1" Cut="0.0000000000000000e+00" cType="1" res="-2.9098328668624163e-03" rms="2.6161262392997742e-01" purity="3.7446105480194092e-01" nType="-99"/>
              </Node>
            </Node>
          </Node>
          <Node pos="r" depth="2" NCoef="0" IVar="-1" Cut="0.0000000000000000e+00" cType="1" res="-8.8231312111020088e-03" rms="2.6430365443229675e-01" purity="1.7476813495159149e-01" nType="-99"/>
        </Node>
        <Node pos="r" depth="1" NCoef="0" IVar="0" Cut="4.0243902206420898e+00" cType="1" res="-5.1618814468383789e-03" rms="2.7267575263977051e-01" purity="2.8642210364341736e-01" nType="0">
          <Node pos="l" depth="2" NCoef="0" IVar="2" Cut="2.0731706619262695e+00" cType="1" res="-6.2236160738393664e-04" rms="2.3858542740345001e-01" purity="2.0038138329982758e-01" nType="0">
            <Node pos="l" depth="3" NCoef="0" IVar="6" Cut="2.3753445148468018e+00" cType="1" res="4.5324377715587616e-03" rms="2.7652987837791443e-01" purity="2.9414728283882141e-01" nType="0">
              <Node pos="l" depth="4" NCoef="0" IVar="-1" Cut="0.0000000000000000e+00" cType="1" res="-1.6800865996629000e-03" rms="2.6459401845932007e-01" purity="1.3311797380447388e-01" nType="-99"/>
              <Node pos="r" depth="4" NCoef="0" IVar="-1" Cut="0.0000000000000000e+00" cType="1" res="7.3772682808339596e-03" rms="2.9213356971740723e-01" purity="5.1940661668777466e-01" nType="-99"/>
            </Node>
            <Node pos="r" depth="3" NCoef="0" IVar="-1" Cut="0.0000000000000000e+00" cType="1" res="-1.3775873929262161e-02" rms="1.5836188197135925e-01" purity="4.8158098012208939e-02" nType="-99"/>
          </Node>
          <Node pos="r" depth="2" NCoef="0" IVar="7" Cut="9.3540239334106445e-01" cType="1" res="0.0000000000000000e+00" rms="0.0000000000000000e+00" purity="4.3130353093147278e-01" nType="0">
            <Node pos="l" depth="3" NCoef="0" IVar="-1" Cut="0.0000000000000000e+00" cType="1" res="-9.2948967358097434e-04" rms="3.5045433044433594e-01" purity="4.9338313937187195e-01" nType="-99"/>
            <Node pos="r" depth="3" NCoef="0" IVar="-1" Cut="0.0000000000000000e+00" cType="1" res="-1.1021382175385952e-02" rms="2.9556727409362793e-01" purity="3.7936440110206604e-01" nType="-99"/>
          </Node>
        </Node>
      </Node>
    </BinaryTree>
    <BinaryTree type="DecisionTree" boostWeight="1.0000000000000000e+00" itree="217">
      <Node pos="s" depth="0" NCoef="0" IVar="7" Cut="3.0955011844635010e+00" cType="1" res="-2.0091849728487432e-04" rms="2.9511362314224243e-01" purity="5.0239121913909912e-01" nType="0">
        <Node pos="l" depth="1" NCoef="0" IVar="5" Cut="9.8664047241210938e+01" cType="1" res="-8.5747829871252179e-04" rms="2.9717186093330383e-01" purity="5.1505297422409058e-01" nType="0">
          <Node pos="l" depth="2" NCoef="0" IVar="0" Cut="1.0975610017776489e+00" cType="1" res="7.7686872100457549e-04" rms="3.0298793315887451e-01" purity="6.1307758092880249e-01" nType="0">
            <Node pos="l" depth="3" NCoef="0" IVar="8" Cut="5.8370757102966309e-01" cType="1" res="0.0000000000000000e+00" rms="0.0000000000000000e+00" purity="2.7002313733100891e-01" nType="0">
              <Node pos="l" depth="4" NCoef="0" IVar="1" Cut="2.0731706619262695e+00" cType="1" res="0.0000000000000000e+00" rms="0.0000000000000000e+00" purity="2.7134904265403748e-01" nType="0">
                <Node pos="l" depth="5" NCoef="0" IVar="-1" Cut="0.0000000000000000e+00" cType="1" res="7.4349744245409966e-03" rms="2.6800259947776794e-01" purity="1.1268851906061172e-01" nType="-99"/>
                <Node pos="r" depth="5" NCoef="0" IVar="-1" Cut="0.0000000000000000e+00" cType="1" res="-1.6277946997433901e-03" rms="3.3924591541290283e-01" purity="4.5937916636466980e-01" nType="-99"/>
              </Node>
              <Node pos="r" depth="4" NCoef="0" IVar="-1" Cut="0.0000000000000000e+00" cType="1" res="7.8540304675698280e-03" rms="3.3375030755996704e-01" purity="2.6371109485626221e-01" nType="-99"/>
            </Node>
            <Node pos="r" depth="3" NCoef="0" IVar="3" Cut="4.0243902206420898e+00" cType="1" res="-1.2604353250935674e-03" rms="3.0082178115844727e-01" purity="7.4674415588378906e-01" nType="0">
              <Node pos="l" depth="4" NCoef="0" IVar="5" Cut="6.0648231506347656e+01" cType="1" res="1.5747203724458814e-04" rms="2.9588648676872253e-01" purity="7.7201151847839355e-01" nType="0">
                <Node pos="l" depth="5" NCoef="0" IVar="-1" Cut="0.0000000000000000e+00" cType="1" res="-3.8217811379581690e-03" rms="3.7376168370246887e-01" purity="5.6097024679183960e-01" nType="-99"/>
                <Node pos="r" depth="5" NCoef="0" IVar="-1" Cut="0.0000000000000000e+00" cType="1" res="1.6167046269401908e-03" rms="2.7508792281150818e-01" purity="8.1994205713272095e-01" nType="-99"/>
              </Node>
              <Node pos="r" depth="4" NCoef="0" IVar="-1" Cut="0.0000000000000000e+00" cType="1" res="-7.6141706667840481e-03" rms="3.6364480853080750e-01" purity="3.8479843735694885e-01" nType="-99"/>
            </Node>
          </Node>
          <Node pos="r" depth="2" NCoef="0" IVar="9" Cut="6.8962842226028442e-01" cType="1" res="-3.9664073847234249e-03" rms="2.8575590252876282e-01" purity="3.2858613133430481e-01" nType="0">
            <Node pos="l" depth="3" NCoef="0" IVar="1" Cut="2.0731706619262695e+00" cType="1" res="-2.2682712879031897e-03" rms="2.8502705693244934e-01" purity="3.3708006143569946e-01" nType="0">
              <Node pos="l" depth="4" NCoef="0" IVar="6" Cut="2.7584655284881592e+00" cType="1" res="8.3584361709654331e-04" rms="2.6997795701026917e-01" purity="1.7654667794704437e-01" nType="0">
                <Node pos="l" depth="5" NCoef="0" IVar="-1" Cut="0.0000000000000000e+00" cType="1" res="2.6042931713163853e-03" rms="2.6508867740631104e-01" purity="1.2837472558021545e-01" nType="-99"/>
                <Node pos="r" depth="5" NCoef="0" IVar="-1" Cut="0.0000000000000000e+00" cType="1" res="-4.4914963655173779e-03" rms="2.8651791810989380e-01" purity="3.4819114208221436e-01" nType="-99"/>
              </Node>
              <Node pos="r" depth="4" NCoef="0" IVar="6" Cut="2.2987270355224609e+00" cType="1" res="-6.2972130253911018e-03" rms="3.0340147018432617e-01" purity="5.4544216394424438e-01" nType="0">
                <Node pos="l" depth="5" NCoef="0" IVar="-1" Cut="0.0000000000000000e+00" cType="1" res="-5.4414267651736736e-03" rms="3.2842096686363220e-01" purity="3.3797279000282288e-01" nType="-99"/>
                <Node pos="r" depth="5" NCoef="0" IVar="-1" Cut="0.0000000000000000e+00" cType="1" res="-1.0798508301377296e-03" rms="2.8251630067825317e-01" purity="7.0544052124023438e-01" nType="-99"/>
              </Node>
            </Node>
            <Node pos="r" depth="3" NCoef="0" IVar="-1" Cut="0.0000000000000000e+00" cType="1" res="-1.2526455335319042e-02" rms="2.9358354210853577e-01" purity="2.2684442996978760e-01" nType="-99"/>
          </Node>
        </Node>
        <Node pos="r" depth="1" NCoef="0" IVar="1" Cut="3.0487804412841797e+00" cType="1" res="8.3895148709416389e-03" rms="2.6657530665397644e-01" purity="3.3672443032264709e-01" nType="0">
          <Node pos="l" depth="2" NCoef="0" IVar="0" Cut="1.0975610017776489e+00" cType="1" res="1.6116127371788025e-02" rms="2.6283532381057739e-01" purity="2.1221132576465607e-01" nType="0">
            <Node pos="l" depth="3" NCoef="0" IVar="-1" Cut="0.0000000000000000e+00" cType="1" res="6.2979147769510746e-03" rms="1.8294265866279602e-01" purity="5.3298581391572952e-02" nType="-99"/>
            <Node pos="r" depth="3" NCoef="0" IVar="-1" Cut="0.0000000000000000e+00" cType="1" res="1.2766890227794647e-02" rms="3.1738579273223877e-01" purity="3.5449102520942688e-01" nType="-99"/>
          </Node>
          <Node pos="r" depth="2" NCoef="0" IVar="-1" Cut="0.0000000000000000e+00" cType="1" res="-2.3300570901483297e-03" rms="2.7212098240852356e-01" purity="5.4083466529846191e-01" nType="-99"/>
        </Node>
      </Node>
    </BinaryTree>
    <BinaryTree type="DecisionTree" boostWeight="1.0000000000000000e+00" itree="218">
      <Node pos="s" depth="0" NCoef="0" IVar="7" Cut="3.4575085639953613e+00" cType="1" res="-5.1716127200052142e-04" rms="2.9597362875938416e-01" purity="4.9927717447280884e-01" nType="0">
        <Node pos="l" depth="1" NCoef="0" IVar="9" Cut="1.2084323912858963e-01" cType="1" res="-9.7856123466044664e-04" rms="2.9728963971138000e-01" purity="5.0878459215164185e-01" nType="0">
          <Node pos="l" depth="2" NCoef="0" IVar="4" Cut="1.1125593566894531e+02" cType="1" res="6.8954629823565483e-03" rms="2.6414790749549866e-01" purity="1.3614754378795624e-01" nType="0">
            <Node pos="l" depth="3" NCoef="0" IVar="-1" Cut="0.0000000000000000e+00" cType="1" res="-5.0141843967139721e-03" rms="2.5991341471672058e-01" purity="1.1690084636211395e-01" nType="-99"/>
            <Node pos="r" depth="3" NCoef="0" IVar="7" Cut="1.7709174156188965e+00" cType="1" res="1.3871549628674984e-02" rms="2.6595109701156616e-01" purity="1.4570951461791992e-01" nType="0">
              <Node pos="l" depth="4" NCoef="0" IVar="-1" Cut="0.0000000000000000e+00" cType="1" res="2.2768432274460793e-02" rms="2.8155654668807983e-01" purity="1.3597254455089569e-01" nType="-99"/>
              <Node pos="r" depth="4" NCoef="0" IVar="-1" Cut="0.0000000000000000e+00" cType="1" res="-4.9282668624073267e-04" rms="2.4931715428829193e-01" purity="1.5498206019401550e-01" nType="-99"/>
            </Node>
          </Node>
          <Node pos="r" depth="2" NCoef="0" IVar="4" Cut="4.1088054656982422e+01" cType="1" res="-1.5356529038399458e-03" rms="2.9948770999908447e-01" purity="5.3514885902404785e-01" nType="0">
            <Node pos="l" depth="3" NCoef="0" IVar="-1" Cut="0.0000000000000000e+00" cType="1" res="-6.1920816078782082e-03" rms="3.0722230672836304e-01" purity="1.5952251851558685e-01" nType="-99"/>
            <Node pos="r" depth="3" NCoef="0" IVar="2" Cut="4.0243902206420898e+00" cType="1" res="-1.2239757925271988e-03" rms="2.9925200343132019e-01" purity="5.4617285728454590e-01" nType="0">
              <Node pos="l" depth="4" NCoef="0" IVar="6" Cut="6.8961799144744873e-01" cType="1" res="-6.1383564025163651e-04" rms="3.0988731980323792e-01" purity="6.3016951084136963e-01" nType="0">
                <Node pos="l" depth="5" NCoef="0" IVar="-1" Cut="0.0000000000000000e+00" cType="1" res="-3.2465930562466383e-03" rms="3.3095020055770874e-01" purity="4.0110510587692261e-01" nType="-99"/>
                <Node pos="r" depth="5" NCoef="0" IVar="-1" Cut="0.0000000000000000e+00" cType="1" res="1.3130310981068760e-04" rms="3.0706092715263367e-01" purity="6.5964955091476440e-01" nType="-99"/>
              </Node>
              <Node pos="r" depth="4" NCoef="0" IVar="6" Cut="1.1493637561798096e+00" cType="1" res="-4.5658764429390430e-03" rms="2.3249670863151550e-01" purity="8.6100637912750244e-02" nType="0">
                <Node pos="l" depth="5" NCoef="0" IVar="-1" Cut="0.0000000000000000e+00" cType="1" res="6.8175341002643108e-03" rms="2.4766658246517181e-01" purity="7.3855392634868622e-02" nType="-99"/>
                <Node pos="r" depth="5" NCoef="0" IVar="-1" Cut="0.0000000000000000e+00" cType="1" res="-7.4214250780642033e-03" rms="2.2625282406806946e-01" purity="9.0795688331127167e-02" nType="-99"/>
              </Node>
            </Node>
          </Node>
        </Node>
        <Node pos="r" depth="1" NCoef="0" IVar="6" Cut="2.0688550472259521e+00" cType="1" res="9.6762925386428833e-03" rms="2.6503494381904602e-01" purity="2.8923535346984863e-01" nType="0">
          <Node pos="l" depth="2" NCoef="0" IVar="-1" Cut="0.0000000000000000e+00" cType="1" res="-4.0133949369192123e-04" rms="2.3219339549541473e-01" purity="1.7584826052188873e-01" nType="-99"/>
          <Node pos="r" depth="2" NCoef="0" IVar="-1" Cut="0.0000000000000000e+00" cType="1" res="1.1489802971482277e-02" rms="2.9754954576492310e-01" purity="4.1799852252006531e-01" nType="-99"/>
        </Node>
      </Node>
    </BinaryTree>
    <BinaryTree type="DecisionTree" boostWeight="1.0000000000000000e+00" itree="219">
      <Node pos="s" depth="0" NCoef="0" IVar="6" Cut="9.1949081420898438e-01" cType="1" res="1.6032099665608257e-04" rms="2.9648986458778381e-01" purity="4.9996119737625122e-01" nType="0">
        <Node pos="l" depth="1" NCoef="0" IVar="4" Cut="1.5748506164550781e+02" cType="1" res="6.1714691109955311e-03" rms="3.1238931417465210e-01" purity="3.1751292943954468e-01" nType="0">
          <Node pos="l" depth="2" NCoef="0" IVar="9" Cut="7.2055500745773315e-01" cType="1" res="2.8081927448511124e-03" rms="3.1987893581390381e-01" purity="3.7226027250289917e-01" nType="0">
            <Node pos="l" depth="3" NCoef="0" IVar="7" Cut="7.6366913318634033e-01" cType="1" res="-3.2918294891715050e-04" rms="3.1681704521179199e-01" purity="3.2958403229713440e-01" nType="0">
              <Node pos="l" depth="4" NCoef="0" IVar="-1" Cut="0.0000000000000000e+00" cType="1" res="-8.9129079133272171e-03" rms="3.3200246095657349e-01" purity="3.2338845729827881e-01" nType="-99"/>
              <Node pos="r" depth="4" NCoef="0" IVar="2" Cut="1.0975610017776489e+00" cType="1" res="7.5575285591185093e-03" rms="3.0983412265777588e-01" purity="3.3220410346984863e-01" nType="0">
                <Node pos="l" depth="5" NCoef="0" IVar="-1" Cut="0.0000000000000000e+00" cType="1" res="5.8729099109768867e-03" rms="3.3528712391853333e-01" purity="4.2397147417068481e-01" nType="-99"/>
                <Node pos="r" depth="5" NCoef="0" IVar="-1" Cut="0.0000000000000000e+00" cType="1" res="-3.7009357474744320e-03" rms="2.4659347534179688e-01" purity="1.3676050305366516e-01" nType="-99"/>
              </Node>
            </Node>
            <Node pos="r" depth="3" NCoef="0" IVar="-1" Cut="0.0000000000000000e+00" cType="1" res="7.6235048472881317e-03" rms="3.3309996128082275e-01" purity="5.6669986248016357e-01" nType="-99"/>
          </Node>
          <Node pos="r" depth="2" NCoef="0" IVar="-1" Cut="0.0000000000000000e+00" cType="1" res="1.2850367464125156e-02" rms="2.8440454602241516e-01" purity="1.2647739052772522e-01" nType="-99"/>
        </Node>
        <Node pos="r" depth="1" NCoef="0" IVar="9" Cut="7.8766560554504395e-01" cType="1" res="-1.1330394772812724e-03" rms="2.9294002056121826e-01" purity="5.3921675682067871e-01" nType="0">
          <Node pos="l" depth="2" NCoef="0" IVar="9" Cut="4.6115282177925110e-01" cType="1" res="-6.8104325328022242e-04" rms="2.9245916008949280e-01" purity="5.4281407594680786e-01" nType="0">
            <Node pos="l" depth="3" NCoef="0" IVar="7" Cut="2.8375427722930908e+00" cType="1" res="-2.6044647675007582e-03" rms="2.9268422722816467e-01" purity="5.0053799152374268e-01" nType="0">
              <Node pos="l" depth="4" NCoef="0" IVar="7" Cut="1.1073340177536011e+00" cType="1" res="-3.4354960080236197e-03" rms="2.9620441794395447e-01" purity="5.1250141859054565e-01" nType="0">
                <Node pos="l" depth="5" NCoef="0" IVar="-1" Cut="0.0000000000000000e+00" cType="1" res="-2.3796330788172781e-04" rms="3.1865119934082031e-01" purity="5.1677399873733521e-01" nType="-99"/>
                <Node pos="r" depth="5" NCoef="0" IVar="-1" Cut="0.0000000000000000e+00" cType="1" res="-3.9350530132651329e-03" rms="2.7140298485755920e-01" purity="5.0814908742904663e-01" nType="-99"/>
              </Node>
              <Node pos="r" depth="4" NCoef="0" IVar="9" Cut="1.1262204498052597e-01" cType="1" res="3.2741851173341274e-03" rms="2.6638406515121460e-01" purity="4.1590920090675354e-01" nType="0">
                <Node pos="l" depth="5" NCoef="0" IVar="-1" Cut="0.0000000000000000e+00" cType="1" res="-1.0129883885383606e-02" rms="2.4448747932910919e-01" purity="1.5656819939613342e-01" nType="-99"/>
                <Node pos="r" depth="5" NCoef="0" IVar="-1" Cut="0.0000000000000000e+00" cType="1" res="5.9261312708258629e-03" rms="2.7437588572502136e-01" purity="5.2032589912414551e-01" nType="-99"/>
              </Node>
            </Node>
            <Node pos="r" depth="3" NCoef="0" IVar="6" Cut="2.4370193481445312e+00" cType="1" res="6.1423103325068951e-03" rms="2.9155698418617249e-01" purity="6.9278901815414429e-01" nType="0">
              <Node pos="l" depth="4" NCoef="0" IVar="8" Cut="2.7524805068969727e-01" cType="1" res="-1.2629035627469420e-03" rms="3.0667439103126526e-01" purity="6.2672519683837891e-01" nType="0">
                <Node pos="l" depth="5" NCoef="0" IVar="-1" Cut="0.0000000000000000e+00" cType="1" res="3.3255331218242645e-03" rms="3.1907442212104797e-01" purity="4.8245501518249512e-01" nType="-99"/>
                <Node pos="r" depth="5" NCoef="0" IVar="-1" Cut="0.0000000000000000e+00" cType="1" res="-3.3467987086623907e-03" rms="2.9845520853996277e-01" purity="7.1799075603485107e-01" nType="-99"/>
              </Node>
              <Node pos="r" depth="4" NCoef="0" IVar="-1" Cut="0.0000000000000000e+00" cType="1" res="9.2236408963799477e-03" rms="2.7223506569862366e-01" purity="7.7132344245910645e-01" nType="-99"/>
            </Node>
          </Node>
          <Node pos="r" depth="2" NCoef="0" IVar="-1" Cut="0.0000000000000000e+00" cType="1" res="-9.2695029452443123e-03" rms="3.0987736582756042e-01" purity="4.0500971674919128e-01" nType="-99"/>
        </Node>
      </Node>
    </BinaryTree>
    <BinaryTree type="DecisionTree" boostWeight="1.0000000000000000e+00" itree="220">
      <Node pos="s" depth="0" NCoef="0" IVar="8" Cut="9.6250855922698975e-01" cType="1" res="5.2642205264419317e-04" rms="2.9776194691658020e-01" purity="4.9881190061569214e-01" nType="0">
        <Node pos="l" depth="1" NCoef="0" IVar="2" Cut="3.0487804412841797e+00" cType="1" res="9.2395284445956349e-04" rms="2.9696756601333618e-01" purity="5.0400769710540771e-01" nType="0">
          <Node pos="l" depth="2" NCoef="0" IVar="3" Cut="3.0487804412841797e+00" cType="1" res="-2.6624309248290956e-04" rms="3.0851340293884277e-01" purity="6.0127079486846924e-01" nType="0">
            <Node pos="l" depth="3" NCoef="0" IVar="5" Cut="5.5976356506347656e+01" cType="1" res="-1.6427866648882627e-03" rms="3.0330461263656616e-01" purity="6.5253967046737671e-01" nType="0">
              <Node pos="l" depth="4" NCoef="0" IVar="6" Cut="1.4558564424514771e+00" cType="1" res="-1.3985734432935715e-02" rms="3.5403245687484741e-01" purity="4.6436667442321777e-01" nType="0">
                <Node pos="l" depth="5" NCoef="0" IVar="-1" Cut="0.0000000000000000e+00" cType="1" res="-1.2682797387242317e-02" rms="3.3458751440048218e-01" purity="3.4106478095054626e-01" nType="-99"/>
                <Node pos="r" depth="5" NCoef="0" IVar="-1" Cut="0.0000000000000000e+00" cType="1" res="-2.2883913479745388e-03" rms="3.6262032389640808e-01" purity="5.2282518148422241e-01" nType="-99"/>
              </Node>
              <Node pos="r" depth="4" NCoef="0" IVar="4" Cut="7.0103591918945312e+01" cType="1" res="-1.6644092102069408e-04" rms="2.9662236571311951e-01" purity="6.7504709959030151e-01" nType="0">
                <Node pos="l" depth="5" NCoef="0" IVar="-1" Cut="0.0000000000000000e+00" cType="1" res="-2.9303359333425760e-03" rms="3.6844575405120850e-01" purity="3.7668344378471375e-01" nType="-99"/>
                <Node pos="r" depth="5" NCoef="0" IVar="-1" Cut="0.0000000000000000e+00" cType="1" res="3.9993808604776859e-04" rms="2.8801542520523071e-01" purity="7.0642966032028198e-01" nType="-99"/>
              </Node>
            </Node>
            <Node pos="r" depth="3" NCoef="0" IVar="5" Cut="1.0235401153564453e+02" cType="1" res="6.7829270847141743e-03" rms="3.3382731676101685e-01" purity="3.3872720599174500e-01" nType="0">
              <Node pos="l" depth="4" NCoef="0" IVar="6" Cut="2.5285968780517578e+00" cType="1" res="-1.8647559918463230e-03" rms="3.4326505661010742e-01" purity="3.4928947687149048e-01" nType="0">
                <Node pos="l" depth="5" NCoef="0" IVar="-1" Cut="0.0000000000000000e+00" cType="1" res="1.3524853857234120e-03" rms="3.4465286135673523e-01" purity="3.0015966296195984e-01" nType="-99"/>
                <Node pos="r" depth="5" NCoef="0" IVar="-1" Cut="0.0000000000000000e+00" cType="1" res="-5.0614457577466965e-03" rms="3.3987098932266235e-01" purity="4.5939356088638306e-01" nType="-99"/>
              </Node>
              <Node pos="r" depth="4" NCoef="0" IVar="8" Cut="3.2881125807762146e-01" cType="1" res="1.6201872378587723e-02" rms="3.2297116518020630e-01" purity="3.2722294330596924e-01" nType="0">
                <Node pos="l" depth="5" NCoef="0" IVar="-1" Cut="0.0000000000000000e+00" cType="1" res="3.5694169346243143e-03" rms="2.9240468144416809e-01" purity="2.1039769053459167e-01" nType="-99"/>
                <Node pos="r" depth="5" NCoef="0" IVar="-1" Cut="0.0000000000000000e+00" cType="1" res="1.2850183993577957e-02" rms="3.5870411992073059e-01" purity="4.8045971989631653e-01" nType="-99"/>
              </Node>
            </Node>
          </Node>
          <Node pos="r" depth="2" NCoef="0" IVar="5" Cut="7.4120368957519531e+01" cType="1" res="5.5767698213458061e-03" rms="2.4664463102817535e-01" purity="1.2377820163965225e-01" nType="0">
            <Node pos="l" depth="3" NCoef="0" IVar="8" Cut="3.2908713817596436e-01" cType="1" res="1.5587062574923038e-02" rms="2.8970178961753845e-01" purity="1.4877720177173615e-01" nType="0">
              <Node pos="l" depth="4" NCoef="0" IVar="-1" Cut="0.0000000000000000e+00" cType="1" res="4.1970652528107166e-03" rms="2.3267368972301483e-01" purity="9.1740980744361877e-02" nType="-99"/>
              <Node pos="r" depth="4" NCoef="0" IVar="-1" Cut="0.0000000000000000e+00" cType="1" res="1.3830991461873055e-02" rms="3.3286350965499878e-01" purity="2.0063368976116180e-01" nType="-99"/>
            </Node>
            <Node pos="r" depth="3" NCoef="0" IVar="3" Cut="1.0975610017776489e+00" cType="1" res="2.2708799224346876e-03" rms="2.3057086765766144e-01" purity="1.1552230268716812e-01" nType="0">
              <Node pos="l" depth="4" NCoef="0" IVar="4" Cut="1.2861251831054688e+02" cType="1" res="6.2563181854784489e-03" rms="2.5436994433403015e-01" purity="1.4887787401676178e-01" nType="0">
                <Node pos="l" depth="5" NCoef="0" IVar="-1" Cut="0.0000000000000000e+00" cType="1" res="8.2931835204362869e-03" rms="2.7466896176338196e-01" purity="1.8290197849273682e-01" nType="-99"/>
                <Node pos="r" depth="5" NCoef="0" IVar="-1" Cut="0.0000000000000000e+00" cType="1" res="-3.5387002862989902e-03" rms="2.1721056103706360e-01" purity="9.3860298395156860e-02" nType="-99"/>
              </Node>
              <Node pos="r" depth="4" NCoef="0" IVar="9" Cut="3.1062191724777222e-01" cType="1" res="-5.6741628795862198e-03" rms="1.7338010668754578e-01" purity="4.9027368426322937e-02" nType="0">
                <Node pos="l" depth="5" NCoef="0" IVar="-1" Cut="0.0000000000000000e+00" cType="1" res="2.6685544289648533e-03" rms="1.6898828744888306e-01" purity="4.1581485420465469e-02" nType="-99"/>
                <Node pos="r" depth="5" NCoef="0" IVar="-1" Cut="0.0000000000000000e+00" cType="1" res="-1.4436913654208183e-02" rms="1.7724066972732544e-01" purity="5.6217942386865616e-02" nType="-99"/>
              </Node>
            </Node>
          </Node>
        </Node>
        <Node pos="r" depth="1" NCoef="0" IVar="-1" Cut="0.0000000000000000e+00" cType="1" res="-6.3145193271338940e-03" rms="3.2483130693435669e-01" purity="3.1113106012344360e-01" nType="-99"/>
      </Node>
    </BinaryTree>
    <BinaryTree type="DecisionTree" boostWeight="1.0000000000000000e+00" itree="221">
      <Node pos="s" depth="0" NCoef="0" IVar="8" Cut="1.2050180137157440e-01" cType="1" res="1.1050231842091307e-04" rms="2.9639211297035217e-01" purity="5.0019729137420654e-01" nType="0">
        <Node pos="l" depth="1" NCoef="0" IVar="7" Cut="2.8001146316528320e+00" cType="1" res="-6.7544258199632168e-03" rms="2.5207522511482239e-01" purity="1.6722175478935242e-01" nType="0">
          <Node pos="l" depth="2" NCoef="0" IVar="7" Cut="1.5024996995925903e+00" cType="1" res="6.6589009948074818e-03" rms="2.6183885335922241e-01" purity="1.6974808275699615e-01" nType="0">
            <Node pos="l" depth="3" NCoef="0" IVar="-1" Cut="0.0000000000000000e+00" cType="1" res="1.2453551404178143e-02" rms="2.7434569597244263e-01" purity="1.7892472445964813e-01" nType="-99"/>
            <Node pos="r" depth="3" NCoef="0" IVar="-1" Cut="0.0000000000000000e+00" cType="1" res="-2.1448645275086164e-03" rms="2.4877360463142395e-01" purity="1.6087272763252258e-01" nType="-99"/>
          </Node>
          <Node pos="r" depth="2" NCoef="0" IVar="-1" Cut="0.0000000000000000e+00" cType="1" res="-1.8526414409279823e-02" rms="2.3608867824077606e-01" purity="1.6360744833946228e-01" nType="-99"/>
        </Node>
        <Node pos="r" depth="1" NCoef="0" IVar="6" Cut="1.8389803171157837e+00" cType="1" res="6.7135354038327932e-04" rms="2.9971638321876526e-01" purity="5.2740073204040527e-01" nType="0">
          <Node pos="l" depth="2" NCoef="0" IVar="4" Cut="4.7639087677001953e+01" cType="1" res="-1.8727296264842153e-03" rms="3.0992338061332703e-01" purity="3.9403200149536133e-01" nType="0">
            <Node pos="l" depth="3" NCoef="0" IVar="-1" Cut="0.0000000000000000e+00" cType="1" res="-1.1863813735544682e-02" rms="2.7540627121925354e-01" purity="1.3456623256206512e-01" nType="-99"/>
            <Node pos="r" depth="3" NCoef="0" IVar="6" Cut="1.6147127151489258e+00" cType="1" res="-7.0671638241037726e-04" rms="3.1185096502304077e-01" purity="4.0973001718521118e-01" nType="0">
              <Node pos="l" depth="4" NCoef="0" IVar="4" Cut="9.6995750427246094e+01" cType="1" res="1.2043786700814962e-03" rms="3.1400299072265625e-01" purity="3.9607378840446472e-01" nType="0">
                <Node pos="l" depth="5" NCoef="0" IVar="-1" Cut="0.0000000000000000e+00" cType="1" res="3.4028892405331135e-03" rms="3.3116781711578369e-01" purity="3.4188434481620789e-01" nType="-99"/>
                <Node pos="r" depth="5" NCoef="0" IVar="-1" Cut="0.0000000000000000e+00" cType="1" res="-7.2372698923572898e-04" rms="3.0634438991546631e-01" purity="4.1921299695968628e-01" nType="-99"/>
              </Node>
              <Node pos="r" depth="4" NCoef="0" IVar="7" Cut="9.2452615499496460e-01" cType="1" res="-1.1083634570240974e-02" rms="2.9968369007110596e-01" purity="4.8388108611106873e-01" nType="0">
                <Node pos="l" depth="5" NCoef="0" IVar="-1" Cut="0.0000000000000000e+00" cType="1" res="-2.1565582137554884e-03" rms="3.0544832348823547e-01" purity="5.7776898145675659e-01" nType="-99"/>
                <Node pos="r" depth="5" NCoef="0" IVar="-1" Cut="0.0000000000000000e+00" cType="1" res="-1.0388466529548168e-02" rms="2.9291605949401855e-01" purity="3.7899622321128845e-01" nType="-99"/>
              </Node>
            </Node>
          </Node>
          <Node pos="r" depth="2" NCoef="0" IVar="5" Cut="4.4544345855712891e+01" cType="1" res="2.3245390038937330e-03" rms="2.9288125038146973e-01" purity="6.1406594514846802e-01" nType="0">
            <Node pos="l" depth="3" NCoef="0" IVar="-1" Cut="0.0000000000000000e+00" cType="1" res="8.5099227726459503e-03" rms="3.7434044480323792e-01" purity="4.2657953500747681e-01" nType="-99"/>
            <Node pos="r" depth="3" NCoef="0" IVar="7" Cut="2.2118270397186279e+00" cType="1" res="1.1707246303558350e-03" rms="2.8733515739440918e-01" purity="6.2508350610733032e-01" nType="0">
              <Node pos="l" depth="4" NCoef="0" IVar="8" Cut="4.1501158475875854e-01" cType="1" res="-2.8710660990327597e-04" rms="2.9265159368515015e-01" purity="6.2753176689147949e-01" nType="0">
                <Node pos="l" depth="5" NCoef="0" IVar="-1" Cut="0.0000000000000000e+00" cType="1" res="-2.0634285174310207e-03" rms="2.9618939757347107e-01" purity="5.7885557413101196e-01" nType="-99"/>
                <Node pos="r" depth="5" NCoef="0" IVar="-1" Cut="0.0000000000000000e+00" cType="1" res="3.0298719648271799e-03" rms="2.8674331307411194e-01" purity="7.0639365911483765e-01" nType="-99"/>
              </Node>
              <Node pos="r" depth="4" NCoef="0" IVar="9" Cut="1.9606196880340576e-01" cType="1" res="7.9598547890782356e-03" rms="2.6104739308357239e-01" purity="6.1368185281753540e-01" nType="0">
                <Node pos="l" depth="5" NCoef="0" IVar="-1" Cut="0.0000000000000000e+00" cType="1" res="-8.4128016605973244e-03" rms="2.7469217777252197e-01" purity="4.2110893130302429e-01" nType="-99"/>
                <Node pos="r" depth="5" NCoef="0" IVar="-1" Cut="0.0000000000000000e+00" cType="1" res="1.7924522981047630e-02" rms="2.4702127277851105e-01" purity="7.7961808443069458e-01" nType="-99"/>
              </Node>
            </Node>
          </Node>
        </Node>
      </Node>
    </BinaryTree>
    <BinaryTree type="DecisionTree" boostWeight="1.0000000000000000e+00" itree="222">
      <Node pos="s" depth="0" NCoef="0" IVar="4" Cut="1.2830831909179688e+02" cType="1" res="2.3914840130601078e-04" rms="2.9675257205963135e-01" purity="4.9964058399200439e-01" nType="0">
        <Node pos="l" depth="1" NCoef="0" IVar="8" Cut="7.8287035226821899e-01" cType="1" res="2.2866420913487673e-03" rms="3.0076041817665100e-01" purity="5.6677567958831787e-01" nType="0">
          <Node pos="l" depth="2" NCoef="0" IVar="8" Cut="9.5694944262504578e-02" cType="1" res="1.8115368438884616e-03" rms="2.9684072732925415e-01" purity="5.6893485784530640e-01" nType="0">
            <Node pos="l" depth="3" NCoef="0" IVar="-1" Cut="0.0000000000000000e+00" cType="1" res="-7.3570571839809418e-03" rms="2.5980070233345032e-01" purity="1.7031753063201904e-01" nType="-99"/>
            <Node pos="r" depth="3" NCoef="0" IVar="7" Cut="9.3937623500823975e-01" cType="1" res="2.3923402186483145e-03" rms="2.9841545224189758e-01" purity="5.8720624446868896e-01" nType="0">
              <Node pos="l" depth="4" NCoef="0" IVar="6" Cut="1.3792353868484497e+00" cType="1" res="-8.6403085151687264e-04" rms="3.0641201138496399e-01" purity="6.2095487117767334e-01" nType="0">
                <Node pos="l" depth="5" NCoef="0" IVar="-1" Cut="0.0000000000000000e+00" cType="1" res="-7.7264350838959217e-03" rms="3.1484255194664001e-01" purity="4.5097458362579346e-01" nType="-99"/>
                <Node pos="r" depth="5" NCoef="0" IVar="-1" Cut="0.0000000000000000e+00" cType="1" res="1.9830346573144197e-03" rms="3.0371180176734924e-01" purity="6.7155385017395020e-01" nType="-99"/>
              </Node>
              <Node pos="r" depth="4" NCoef="0" IVar="6" Cut="2.2987210750579834e+00" cType="1" res="5.2202525548636913e-03" rms="2.9126349091529846e-01" purity="5.5789810419082642e-01" nType="0">
                <Node pos="l" depth="5" NCoef="0" IVar="-1" Cut="0.0000000000000000e+00" cType="1" res="5.3714336827397346e-03" rms="3.1316405534744263e-01" purity="4.3164020776748657e-01" nType="-99"/>
                <Node pos="r" depth="5" NCoef="0" IVar="-1" Cut="0.0000000000000000e+00" cType="1" res="-3.0947086634114385e-04" rms="2.6601451635360718e-01" purity="6.9149953126907349e-01" nType="-99"/>
              </Node>
            </Node>
          </Node>
          <Node pos="r" depth="2" NCoef="0" IVar="-1" Cut="0.0000000000000000e+00" cType="1" res="4.5600500889122486e-03" rms="3.7164983153343201e-01" purity="5.2274560928344727e-01" nType="-99"/>
        </Node>
        <Node pos="r" depth="1" NCoef="0" IVar="1" Cut="1.0975610017776489e+00" cType="1" res="-3.8523611146956682e-03" rms="2.8853344917297363e-01" purity="3.6548438668251038e-01" nType="0">
          <Node pos="l" depth="2" NCoef="0" IVar="9" Cut="1.4198119938373566e-01" cType="1" res="5.8249902212992311e-04" rms="2.9020208120346069e-01" purity="2.0552122592926025e-01" nType="0">
            <Node pos="l" depth="3" NCoef="0" IVar="-1" Cut="0.0000000000000000e+00" cType="1" res="-1.5936072915792465e-02" rms="1.6556604206562042e-01" purity="3.7277627736330032e-02" nType="-99"/>
            <Node pos="r" depth="3" NCoef="0" IVar="4" Cut="1.7876574707031250e+02" cType="1" res="3.6032136995345354e-03" rms="3.1276649236679077e-01" purity="2.4595740437507629e-01" nType="0">
              <Node pos="l" depth="4" NCoef="0" IVar="3" Cut="2.0731706619262695e+00" cType="1" res="-2.4590827524662018e-03" rms="3.2010155916213989e-01" purity="2.6645651459693909e-01" nType="0">
                <Node pos="l" depth="5" NCoef="0" IVar="-1" Cut="0.0000000000000000e+00" cType="1" res="-3.6287389229983091e-03" rms="3.2669043540954590e-01" purity="3.0021652579307556e-01" nType="-99"/>
                <Node pos="r" depth="5" NCoef="0" IVar="-1" Cut="0.0000000000000000e+00" cType="1" res="6.7612198181450367e-03" rms="3.0240494012832642e-01" purity="1.8118116259574890e-01" nType="-99"/>
              </Node>
              <Node pos="r" depth="4" NCoef="0" IVar="8" Cut="3.4022545814514160e-01" cType="1" res="1.1665984056890011e-02" rms="3.0254760384559631e-01" purity="2.1869388222694397e-01" nType="0">
                <Node pos="l" depth="5" NCoef="0" IVar="-1" Cut="0.0000000000000000e+00" cType="1" res="1.5061492100358009e-02" rms="2.8729194402694702e-01" purity="1.4716655015945435e-01" nType="-99"/>
                <Node pos="r" depth="5" NCoef="0" IVar="-1" Cut="0.0000000000000000e+00" cType="1" res="4.3284983257763088e-04" rms="3.2015365362167358e-01" purity="3.0749991536140442e-01" nType="-99"/>
              </Node>
            </Node>
          </Node>
          <Node pos="r" depth="2" NCoef="0" IVar="0" Cut="4.0243902206420898e+00" cType="1" res="-8.3890669047832489e-03" rms="2.8674548864364624e-01" purity="5.2912110090255737e-01" nType="0">
            <Node pos="l" depth="3" NCoef="0" IVar="6" Cut="1.3026114702224731e+00" cType="1" res="-1.4751961454749107e-02" rms="2.6922032237052917e-01" purity="3.4955939650535583e-01" nType="0">
              <Node pos="l" depth="4" NCoef="0" IVar="-1" Cut="0.0000000000000000e+00" cType="1" res="-4.1048726998269558e-03" rms="2.7995681762695312e-01" purity="1.9439512491226196e-01" nType="-99"/>
              <Node pos="r" depth="4" NCoef="0" IVar="4" Cut="1.6392526245117188e+02" cType="1" res="-1.8045790493488312e-02" rms="2.6474493741989136e-01" purity="4.1144499182701111e-01" nType="0">
                <Node pos="l" depth="5" NCoef="0" IVar="-1" Cut="0.0000000000000000e+00" cType="1" res="-7.1161156520247459e-03" rms="2.8157860040664673e-01" purity="5.8962982892990112e-01" nType="-99"/>
                <Node pos="r" depth="5" NCoef="0" IVar="-1" Cut="0.0000000000000000e+00" cType="1" res="-1.6950242221355438e-02" rms="2.3793283104896545e-01" purity="1.5233761072158813e-01" nType="-99"/>
              </Node>
            </Node>
            <Node pos="r" depth="3" NCoef="0" IVar="5" Cut="9.5698814392089844e+01" cType="1" res="0.0000000000000000e+00" rms="0.0000000000000000e+00" purity="7.2162640094757080e-01" nType="0">
              <Node pos="l" depth="4" NCoef="0" IVar="-1" Cut="0.0000000000000000e+00" cType="1" res="2.2984093520790339e-03" rms="2.9729536175727844e-01" purity="7.8741204738616943e-01" nType="-99"/>
              <Node pos="r" depth="4" NCoef="0" IVar="-1" Cut="0.0000000000000000e+00" cType="1" res="-6.5631647594273090e-03" rms="3.1874907016754150e-01" purity="5.7642000913619995e-01" nType="-99"/>
            </Node>
          </Node>
        </Node>
      </Node>
    </BinaryTree>
    <BinaryTree type="DecisionTree" boostWeight="1.0000000000000000e+00" itree="223">
      <Node pos="s" depth="0" NCoef="0" IVar="5" Cut="8.0624137878417969e+01" cType="1" res="3.2188222394324839e-04" rms="2.9660239815711975e-01" purity="5.0042039155960083e-01" nType="0">
        <Node pos="l" depth="1" NCoef="0" IVar="8" Cut="8.7203538417816162e-01" cType="1" res="-2.9295561835169792e-03" rms="3.1283786892890930e-01" purity="5.4956394433975220e-01" nType="0">
          <Node pos="l" depth="2" NCoef="0" IVar="4" Cut="8.1709800720214844e+01" cType="1" res="-4.3415632098913193e-03" rms="3.0895352363586426e-01" purity="5.5594944953918457e-01" nType="0">
            <Node pos="l" depth="3" NCoef="0" IVar="4" Cut="5.4534198760986328e+01" cType="1" res="-1.1879003606736660e-02" rms="3.4722837805747986e-01" purity="3.4119334816932678e-01" nType="0">
              <Node pos="l" depth="4" NCoef="0" IVar="-1" Cut="0.0000000000000000e+00" cType="1" res="-5.4019276285544038e-04" rms="3.6288094520568848e-01" purity="2.5093623995780945e-01" nType="-99"/>
              <Node pos="r" depth="4" NCoef="0" IVar="9" Cut="4.0983155369758606e-01" cType="1" res="-1.7224431037902832e-02" rms="3.3885070681571960e-01" purity="3.8717913627624512e-01" nType="0">
                <Node pos="l" depth="5" NCoef="0" IVar="-1" Cut="0.0000000000000000e+00" cType="1" res="-9.7956778481602669e-03" rms="3.2408186793327332e-01" purity="3.1553179025650024e-01" nType="-99"/>
                <Node pos="r" depth="5" NCoef="0" IVar="-1" Cut="0.0000000000000000e+00" cType="1" res="-4.0462361648678780e-03" rms="3.5398131608963013e-01" purity="4.6449413895606995e-01" nType="-99"/>
              </Node>
            </Node>
            <Node pos="r" depth="3" NCoef="0" IVar="1" Cut="4.0243902206420898e+00" cType="1" res="-2.6574120856821537e-03" rms="2.9970824718475342e-01" purity="6.0393416881561279e-01" nType="0">
              <Node pos="l" depth="4" NCoef="0" IVar="9" Cut="1.7816747725009918e-01" cType="1" res="-5.9500779025256634e-03" rms="3.2095178961753845e-01" purity="4.4777354598045349e-01" nType="0">
                <Node pos="l" depth="5" NCoef="0" IVar="-1" Cut="0.0000000000000000e+00" cType="1" res="1.8744074623100460e-04" rms="2.9100859165191650e-01" purity="2.1174570918083191e-01" nType="-99"/>
                <Node pos="r" depth="5" NCoef="0" IVar="-1" Cut="0.0000000000000000e+00" cType="1" res="-3.3103746827691793e-03" rms="3.2647433876991272e-01" purity="4.9394664168357849e-01" nType="-99"/>
              </Node>
              <Node pos="r" depth="4" NCoef="0" IVar="4" Cut="1.4327923583984375e+02" cType="1" res="1.2174064759165049e-03" rms="2.7254557609558105e-01" purity="7.8770440816879272e-01" nType="0">
                <Node pos="l" depth="5" NCoef="0" IVar="-1" Cut="0.0000000000000000e+00" cType="1" res="1.9124179380014539e-03" rms="2.6178961992263794e-01" purity="8.6489892005920410e-01" nType="-99"/>
                <Node pos="r" depth="5" NCoef="0" IVar="-1" Cut="0.0000000000000000e+00" cType="1" res="-3.1477548182010651e-03" rms="3.2538086175918579e-01" purity="3.6225935816764832e-01" nType="-99"/>
              </Node>
            </Node>
          </Node>
          <Node pos="r" depth="2" NCoef="0" IVar="-1" Cut="0.0000000000000000e+00" cType="1" res="8.3767799660563469e-03" rms="3.7143155932426453e-01" purity="4.4197881221771240e-01" nType="-99"/>
        </Node>
        <Node pos="r" depth="1" NCoef="0" IVar="8" Cut="6.6089212894439697e-01" cType="1" res="2.3545671720057726e-03" rms="2.8596591949462891e-01" purity="4.6969750523567200e-01" nType="0">
          <Node pos="l" depth="2" NCoef="0" IVar="4" Cut="4.6891162872314453e+01" cType="1" res="3.3109451178461313e-03" rms="2.8315797448158264e-01" purity="4.7508576512336731e-01" nType="0">
            <Node pos="l" depth="3" NCoef="0" IVar="-1" Cut="0.0000000000000000e+00" cType="1" res="-6.0345032252371311e-03" rms="2.6957517862319946e-01" purity="1.3782934844493866e-01" nType="-99"/>
            <Node pos="r" depth="3" NCoef="0" IVar="4" Cut="6.1752803802490234e+01" cType="1" res="3.9188191294670105e-03" rms="2.8375884890556335e-01" purity="4.9076113104820251e-01" nType="0">
              <Node pos="l" depth="4" NCoef="0" IVar="-1" Cut="0.0000000000000000e+00" cType="1" res="8.6022000759840012e-03" rms="3.2690238952636719e-01" purity="2.2430948913097382e-01" nType="-99"/>
              <Node pos="r" depth="4" NCoef="0" IVar="9" Cut="7.9084616899490356e-01" cType="1" res="3.2287973444908857e-03" rms="2.8124335408210754e-01" purity="5.0504034757614136e-01" nType="0">
                <Node pos="l" depth="5" NCoef="0" IVar="-1" Cut="0.0000000000000000e+00" cType="1" res="2.3477850481867790e-03" rms="2.8075233101844788e-01" purity="5.0814867019653320e-01" nType="-99"/>
                <Node pos="r" depth="5" NCoef="0" IVar="-1" Cut="0.0000000000000000e+00" cType="1" res="-4.9823131412267685e-03" rms="2.9145377874374390e-01" purity="4.3730986118316650e-01" nType="-99"/>
              </Node>
            </Node>
          </Node>
          <Node pos="r" depth="2" NCoef="0" IVar="8" Cut="8.1741631031036377e-01" cType="1" res="-1.0366007685661316e-02" rms="3.2071471214294434e-01" purity="3.9802944660186768e-01" nType="0">
            <Node pos="l" depth="3" NCoef="0" IVar="-1" Cut="0.0000000000000000e+00" cType="1" res="1.1097686365246773e-03" rms="3.3042877912521362e-01" purity="5.0023955106735229e-01" nType="-99"/>
            <Node pos="r" depth="3" NCoef="0" IVar="-1" Cut="0.0000000000000000e+00" cType="1" res="-1.2394447810947895e-02" rms="3.0950886011123657e-01" purity="2.8969946503639221e-01" nType="-99"/>
          </Node>
        </Node>
      </Node>
    </BinaryTree>
    <BinaryTree type="DecisionTree" boostWeight="1.0000000000000000e+00" itree="224">
      <Node pos="s" depth="0" NCoef="0" IVar="5" Cut="6.2584239959716797e+01" cType="1" res="-3.7726172013208270e-04" rms="2.9581269621849060e-01" purity="4.9974063038825989e-01" nType="0">
        <Node pos="l" depth="1" NCoef="0" IVar="7" Cut="2.5796052813529968e-01" cType="1" res="-7.3037943802773952e-03" rms="3.3473956584930420e-01" purity="3.9438667893409729e-01" nType="0">
          <Node pos="l" depth="2" NCoef="0" IVar="-1" Cut="0.0000000000000000e+00" cType="1" res="-9.1362707316875458e-03" rms="3.3677241206169128e-01" purity="4.8289293050765991e-01" nType="-99"/>
          <Node pos="r" depth="2" NCoef="0" IVar="7" Cut="2.0196304321289062e+00" cType="1" res="-4.7503020614385605e-03" rms="3.3432048559188843e-01" purity="3.7907364964485168e-01" nType="0">
            <Node pos="l" depth="3" NCoef="0" IVar="8" Cut="3.6188206076622009e-01" cType="1" res="-9.0729782823473215e-04" rms="3.4799340367317200e-01" purity="4.2254179716110229e-01" nType="0">
              <Node pos="l" depth="4" NCoef="0" IVar="7" Cut="1.0313789844512939e+00" cType="1" res="7.7838390134274960e-03" rms="3.3436948060989380e-01" purity="3.6328902840614319e-01" nType="0">
                <Node pos="l" depth="5" NCoef="0" IVar="-1" Cut="0.0000000000000000e+00" cType="1" res="9.1152656823396683e-03" rms="3.4547376632690430e-01" purity="4.1241240501403809e-01" nType="-99"/>
                <Node pos="r" depth="5" NCoef="0" IVar="-1" Cut="0.0000000000000000e+00" cType="1" res="-1.8095234408974648e-03" rms="3.2320567965507507e-01" purity="3.1730520725250244e-01" nType="-99"/>
              </Node>
              <Node pos="r" depth="4" NCoef="0" IVar="7" Cut="6.8763190507888794e-01" cType="1" res="-6.6853533498942852e-03" rms="3.5664591193199158e-01" purity="4.6193429827690125e-01" nType="0">
                <Node pos="l" depth="5" NCoef="0" IVar="-1" Cut="0.0000000000000000e+00" cType="1" res="-6.7859021946787834e-03" rms="3.5385867953300476e-01" purity="5.0119090080261230e-01" nType="-99"/>
                <Node pos="r" depth="5" NCoef="0" IVar="-1" Cut="0.0000000000000000e+00" cType="1" res="2.7939147548750043e-04" rms="3.5827851295471191e-01" purity="4.3606686592102051e-01" nType="-99"/>
              </Node>
            </Node>
            <Node pos="r" depth="3" NCoef="0" IVar="-1" Cut="0.0000000000000000e+00" cType="1" res="-1.0998735204339027e-02" rms="2.7809393405914307e-01" purity="2.1980978548526764e-01" nType="-99"/>
          </Node>
        </Node>
        <Node pos="r" depth="1" NCoef="0" IVar="8" Cut="4.9611395597457886e-01" cType="1" res="9.2879048315808177e-04" rms="2.8786483407020569e-01" purity="5.1960599422454834e-01" nType="0">
          <Node pos="l" depth="2" NCoef="0" IVar="5" Cut="1.1485597229003906e+02" cType="1" res="-3.6839375388808548e-04" rms="2.8138396143913269e-01" purity="5.0294530391693115e-01" nType="0">
            <Node pos="l" depth="3" NCoef="0" IVar="7" Cut="3.1363887786865234e+00" cType="1" res="-2.3674743715673685e-03" rms="2.8355959057807922e-01" purity="5.9582865238189697e-01" nType="0">
              <Node pos="l" depth="4" NCoef="0" IVar="4" Cut="5.3445938110351562e+01" cType="1" res="-3.2837565522640944e-03" rms="2.8419601917266846e-01" purity="6.0886448621749878e-01" nType="0">
                <Node pos="l" depth="5" NCoef="0" IVar="-1" Cut="0.0000000000000000e+00" cType="1" res="-7.2477026842534542e-03" rms="3.3048936724662781e-01" purity="2.4028782546520233e-01" nType="-99"/>
                <Node pos="r" depth="5" NCoef="0" IVar="-1" Cut="0.0000000000000000e+00" cType="1" res="-1.5325851272791624e-03" rms="2.8147432208061218e-01" purity="6.2866556644439697e-01" nType="-99"/>
              </Node>
              <Node pos="r" depth="4" NCoef="0" IVar="-1" Cut="0.0000000000000000e+00" cType="1" res="4.4177551753818989e-03" rms="2.7631932497024536e-01" purity="4.5352366566658020e-01" nType="-99"/>
            </Node>
            <Node pos="r" depth="3" NCoef="0" IVar="9" Cut="5.7736867666244507e-01" cType="1" res="4.3261395767331123e-03" rms="2.7615055441856384e-01" purity="2.8482297062873840e-01" nType="0">
              <Node pos="l" depth="4" NCoef="0" IVar="6" Cut="2.5285987854003906e+00" cType="1" res="6.0678068548440933e-03" rms="2.7410900592803955e-01" purity="2.8796148300170898e-01" nType="0">
                <Node pos="l" depth="5" NCoef="0" IVar="-1" Cut="0.0000000000000000e+00" cType="1" res="7.9468246549367905e-03" rms="2.6979681849479675e-01" purity="1.6076973080635071e-01" nType="-99"/>
                <Node pos="r" depth="5" NCoef="0" IVar="-1" Cut="0.0000000000000000e+00" cType="1" res="-7.0465193130075932e-04" rms="2.8055655956268311e-01" purity="4.8663854598999023e-01" nType="-99"/>
              </Node>
              <Node pos="r" depth="4" NCoef="0" IVar="-1" Cut="0.0000000000000000e+00" cType="1" res="-4.1958936490118504e-03" rms="2.8912779688835144e-01" purity="2.6389461755752563e-01" nType="-99"/>
            </Node>
          </Node>
          <Node pos="r" depth="2" NCoef="0" IVar="5" Cut="1.1723195648193359e+02" cType="1" res="5.9306751936674118e-03" rms="3.1154480576515198e-01" purity="5.8384889364242554e-01" nType="0">
            <Node pos="l" depth="3" NCoef="0" IVar="2" Cut="2.0731706619262695e+00" cType="1" res="9.8098469898104668e-03" rms="3.0902606248855591e-01" purity="6.4345955848693848e-01" nType="0">
              <Node pos="l" depth="4" NCoef="0" IVar="0" Cut="1.0975610017776489e+00" cType="1" res="7.2757001034915447e-03" rms="3.0387726426124573e-01" purity="7.2240358591079712e-01" nType="0">
                <Node pos="l" depth="5" NCoef="0" IVar="-1" Cut="0.0000000000000000e+00" cType="1" res="-1.9696564413607121e-03" rms="3.3095425367355347e-01" purity="3.7063661217689514e-01" nType="-99"/>
                <Node pos="r" depth="5" NCoef="0" IVar="-1" Cut="0.0000000000000000e+00" cType="1" res="5.7475022040307522e-03" rms="2.9585713148117065e-01" purity="8.1979453563690186e-01" nType="-99"/>
              </Node>
              <Node pos="r" depth="4" NCoef="0" IVar="-1" Cut="0.0000000000000000e+00" cType="1" res="1.0661918669939041e-02" rms="3.3041799068450928e-01" purity="2.9747414588928223e-01" nType="-99"/>
            </Node>
            <Node pos="r" depth="3" NCoef="0" IVar="-1" Cut="0.0000000000000000e+00" cType="1" res="-5.4543423466384411e-03" rms="3.2178241014480591e-01" purity="3.2308658957481384e-01" nType="-99"/>
          </Node>
        </Node>
      </Node>
    </BinaryTree>
    <BinaryTree type="DecisionTree" boostWeight="1.0000000000000000e+00" itree="225">
      <Node pos="s" depth="0" NCoef="0" IVar="5" Cut="3.7328384399414062e+01" cType="1" res="-2.7066402253694832e-04" rms="2.9530137777328491e-01" purity="5.0088042020797729e-01" nType="0">
        <Node pos="l" depth="1" NCoef="0" IVar="-1" Cut="0.0000000000000000e+00" cType="1" res="-4.2538237757980824e-03" rms="3.3282244205474854e-01" purity="3.0888134241104126e-01" nType="-99"/>
        <Node pos="r" depth="1" NCoef="0" IVar="4" Cut="7.0360122680664062e+01" cType="1" res="6.7233901063445956e-05" rms="2.9388633370399475e-01" purity="5.0764513015747070e-01" nType="0">
          <Node pos="l" depth="2" NCoef="0" IVar="1" Cut="1.0975610017776489e+00" cType="1" res="5.4451269097626209e-03" rms="3.2436206936836243e-01" purity="2.5621384382247925e-01" nType="0">
            <Node pos="l" depth="3" NCoef="0" IVar="5" Cut="7.9216209411621094e+01" cType="1" res="1.1205561459064484e-02" rms="3.0765524506568909e-01" purity="2.0228213071823120e-01" nType="0">
              <Node pos="l" depth="4" NCoef="0" IVar="-1" Cut="0.0000000000000000e+00" cType="1" res="9.8302206024527550e-03" rms="3.5037875175476074e-01" purity="2.7382791042327881e-01" nType="-99"/>
              <Node pos="r" depth="4" NCoef="0" IVar="4" Cut="5.0572734832763672e+01" cType="1" res="4.9544363282620907e-03" rms="2.8451815247535706e-01" purity="1.6771948337554932e-01" nType="0">
                <Node pos="l" depth="5" NCoef="0" IVar="-1" Cut="0.0000000000000000e+00" cType="1" res="1.0233362205326557e-02" rms="2.8239536285400391e-01" purity="1.5498918294906616e-01" nType="-99"/>
                <Node pos="r" depth="5" NCoef="0" IVar="-1" Cut="0.0000000000000000e+00" cType="1" res="-2.2543573286384344e-03" rms="2.8593179583549500e-01" purity="1.7807486653327942e-01" nType="-99"/>
              </Node>
            </Node>
            <Node pos="r" depth="3" NCoef="0" IVar="5" Cut="8.8192962646484375e+01" cType="1" res="-5.8350916951894760e-03" rms="3.5453546047210693e-01" purity="3.6182427406311035e-01" nType="0">
              <Node pos="l" depth="4" NCoef="0" IVar="-1" Cut="0.0000000000000000e+00" cType="1" res="-3.4475184511393309e-03" rms="3.7498766183853149e-01" purity="4.7603809833526611e-01" nType="-99"/>
              <Node pos="r" depth="4" NCoef="0" IVar="-1" Cut="0.0000000000000000e+00" cType="1" res="-5.0973281031474471e-04" rms="3.3331897854804993e-01" purity="2.5044807791709900e-01" nType="-99"/>
            </Node>
          </Node>
          <Node pos="r" depth="2" NCoef="0" IVar="9" Cut="9.0344890952110291e-02" cType="1" res="-6.9387606345117092e-04" rms="2.8930598497390747e-01" purity="5.4322910308837891e-01" nType="0">
            <Node pos="l" depth="3" NCoef="0" IVar="5" Cut="1.0016040039062500e+02" cType="1" res="-1.0656641796231270e-02" rms="2.2553950548171997e-01" purity="8.8147707283496857e-02" nType="0">
              <Node pos="l" depth="4" NCoef="0" IVar="-1" Cut="0.0000000000000000e+00" cType="1" res="-1.3070746324956417e-02" rms="2.5498026609420776e-01" purity="1.2447760254144669e-01" nType="-99"/>
              <Node pos="r" depth="4" NCoef="0" IVar="-1" Cut="0.0000000000000000e+00" cType="1" res="-6.5617036307230592e-04" rms="1.8899777531623840e-01" purity="4.9763262271881104e-02" nType="-99"/>
            </Node>
            <Node pos="r" depth="3" NCoef="0" IVar="9" Cut="1.7829011380672455e-01" cType="1" res="-1.7576955724507570e-04" rms="2.9223245382308960e-01" purity="5.6689524650573730e-01" nType="0">
              <Node pos="l" depth="4" NCoef="0" IVar="7" Cut="1.5752341747283936e+00" cType="1" res="5.7283225469291210e-03" rms="2.9855734109878540e-01" purity="2.9397609829902649e-01" nType="0">
                <Node pos="l" depth="5" NCoef="0" IVar="-1" Cut="0.0000000000000000e+00" cType="1" res="1.0239340364933014e-02" rms="3.1658664345741272e-01" purity="2.2460125386714935e-01" nType="-99"/>
                <Node pos="r" depth="5" NCoef="0" IVar="-1" Cut="0.0000000000000000e+00" cType="1" res="-1.9433273700997233e-03" rms="2.8471511602401733e-01" purity="3.4321618080139160e-01" nType="-99"/>
              </Node>
              <Node pos="r" depth="4" NCoef="0" IVar="6" Cut="2.7584698200225830e+00" cType="1" res="-1.1060695396736264e-03" rms="2.9121240973472595e-01" purity="6.0989874601364136e-01" nType="0">
                <Node pos="l" depth="5" NCoef="0" IVar="-1" Cut="0.0000000000000000e+00" cType="1" res="-1.4861430972814560e-03" rms="3.0267819762229919e-01" purity="5.5096775293350220e-01" nType="-99"/>
                <Node pos="r" depth="5" NCoef="0" IVar="-1" Cut="0.0000000000000000e+00" cType="1" res="2.1422696299850941e-03" rms="2.5878235697746277e-01" purity="7.6403766870498657e-01" nType="-99"/>
              </Node>
            </Node>
          </Node>
        </Node>
      </Node>
    </BinaryTree>
    <BinaryTree type="DecisionTree" boostWeight="1.0000000000000000e+00" itree="226">
      <Node pos="s" depth="0" NCoef="0" IVar="3" Cut="2.0731706619262695e+00" cType="1" res="1.0473711881786585e-03" rms="2.9848819971084595e-01" purity="4.9837064743041992e-01" nType="0">
        <Node pos="l" depth="1" NCoef="0" IVar="5" Cut="1.2761561584472656e+02" cType="1" res="-3.3693827572278678e-04" rms="2.9606178402900696e-01" purity="5.5320560932159424e-01" nType="0">
          <Node pos="l" depth="2" NCoef="0" IVar="4" Cut="6.4300430297851562e+01" cType="1" res="7.1844243211671710e-04" rms="2.9904735088348389e-01" purity="5.9304964542388916e-01" nType="0">
            <Node pos="l" depth="3" NCoef="0" IVar="6" Cut="2.0688660144805908e+00" cType="1" res="7.3547447100281715e-03" rms="3.5338550806045532e-01" purity="3.0950516462326050e-01" nType="0">
              <Node pos="l" depth="4" NCoef="0" IVar="-1" Cut="0.0000000000000000e+00" cType="1" res="-1.1921569239348173e-03" rms="3.3626508712768555e-01" purity="2.5500804185867310e-01" nType="-99"/>
              <Node pos="r" depth="4" NCoef="0" IVar="-1" Cut="0.0000000000000000e+00" cType="1" res="7.1536563336849213e-03" rms="3.7320643663406372e-01" purity="3.7730151414871216e-01" nType="-99"/>
            </Node>
            <Node pos="r" depth="3" NCoef="0" IVar="7" Cut="1.8010116815567017e+00" cType="1" res="8.2211408880539238e-05" rms="2.9330164194107056e-01" purity="6.2023341655731201e-01" nType="0">
              <Node pos="l" depth="4" NCoef="0" IVar="4" Cut="7.7888084411621094e+01" cType="1" res="-9.6375419525429606e-04" rms="2.9905396699905396e-01" purity="6.4862763881683350e-01" nType="0">
                <Node pos="l" depth="5" NCoef="0" IVar="-1" Cut="0.0000000000000000e+00" cType="1" res="-5.1817586645483971e-03" rms="3.4664285182952881e-01" purity="4.5359799265861511e-01" nType="-99"/>
                <Node pos="r" depth="5" NCoef="0" IVar="-1" Cut="0.0000000000000000e+00" cType="1" res="-6.2661369156558067e-05" rms="2.9542368650436401e-01" purity="6.6225445270538330e-01" nType="-99"/>
              </Node>
              <Node pos="r" depth="4" NCoef="0" IVar="8" Cut="2.2614242136478424e-01" cType="1" res="2.8654125053435564e-03" rms="2.7739578485488892e-01" purity="5.4467928409576416e-01" nType="0">
                <Node pos="l" depth="5" NCoef="0" IVar="-1" Cut="0.0000000000000000e+00" cType="1" res="-2.7917339466512203e-03" rms="2.8392603993415833e-01" purity="4.5994368195533752e-01" nType="-99"/>
                <Node pos="r" depth="5" NCoef="0" IVar="-1" Cut="0.0000000000000000e+00" cType="1" res="5.9302900917828083e-03" rms="2.7133518457412720e-01" purity="6.1919093132019043e-01" nType="-99"/>
              </Node>
            </Node>
          </Node>
          <Node pos="r" depth="2" NCoef="0" IVar="0" Cut="1.0975610017776489e+00" cType="1" res="-7.1822186000645161e-03" rms="2.7581608295440674e-01" purity="2.9477450251579285e-01" nType="0">
            <Node pos="l" depth="3" NCoef="0" IVar="5" Cut="1.4341281127929688e+02" cType="1" res="0.0000000000000000e+00" rms="0.0000000000000000e+00" purity="9.3573272228240967e-02" nType="0">
              <Node pos="l" depth="4" NCoef="0" IVar="-1" Cut="0.0000000000000000e+00" cType="1" res="8.1245657056570053e-03" rms="2.2572091221809387e-01" purity="9.7446896135807037e-02" nType="-99"/>
              <Node pos="r" depth="4" NCoef="0" IVar="-1" Cut="0.0000000000000000e+00" cType="1" res="-1.9617672078311443e-03" rms="2.0167213678359985e-01" purity="8.9270256459712982e-02" nType="-99"/>
            </Node>
            <Node pos="r" depth="3" NCoef="0" IVar="4" Cut="1.1214799499511719e+02" cType="1" res="-1.4575396664440632e-02" rms="3.1172144412994385e-01" purity="4.3728157877922058e-01" nType="0">
              <Node pos="l" depth="4" NCoef="0" IVar="-1" Cut="0.0000000000000000e+00" cType="1" res="-2.8191730380058289e-03" rms="3.4527564048767090e-01" purity="3.9735013246536255e-01" nType="-99"/>
              <Node pos="r" depth="4" NCoef="0" IVar="-1" Cut="0.0000000000000000e+00" cType="1" res="-1.0809397324919701e-02" rms="2.8678393363952637e-01" purity="4.6417501568794250e-01" nType="-99"/>
            </Node>
          </Node>
        </Node>
        <Node pos="r" depth="1" NCoef="0" IVar="6" Cut="4.5974540710449219e-01" cType="1" res="6.2025105580687523e-03" rms="3.0730080604553223e-01" purity="2.9416638612747192e-01" nType="0">
          <Node pos="l" depth="2" NCoef="0" IVar="-1" Cut="0.0000000000000000e+00" cType="1" res="1.5292164869606495e-02" rms="3.1357336044311523e-01" purity="1.7805932462215424e-01" nType="-99"/>
          <Node pos="r" depth="2" NCoef="0" IVar="5" Cut="1.3835182189941406e+02" cType="1" res="4.2855180799961090e-03" rms="3.0655887722969055e-01" purity="3.0661261081695557e-01" nType="0">
            <Node pos="l" depth="3" NCoef="0" IVar="5" Cut="6.7512138366699219e+01" cType="1" res="1.5054584946483374e-03" rms="3.0769389867782593e-01" purity="3.0652362108230591e-01" nType="0">
              <Node pos="l" depth="4" NCoef="0" IVar="-1" Cut="0.0000000000000000e+00" cType="1" res="7.6004322618246078e-03" rms="3.4701803326606750e-01" purity="3.3095923066139221e-01" nType="-99"/>
              <Node pos="r" depth="4" NCoef="0" IVar="8" Cut="2.4219527840614319e-01" cType="1" res="-3.1326562166213989e-03" rms="2.9500868916511536e-01" purity="2.9935735464096069e-01" nType="0">
                <Node pos="l" depth="5" NCoef="0" IVar="-1" Cut="0.0000000000000000e+00" cType="1" res="5.7885600253939629e-03" rms="2.6356267929077148e-01" purity="1.7519591748714447e-01" nType="-99"/>
                <Node pos="r" depth="5" NCoef="0" IVar="-1" Cut="0.0000000000000000e+00" cType="1" res="-4.7028362751007080e-03" rms="3.1101417541503906e-01" purity="3.6864495277404785e-01" nType="-99"/>
              </Node>
            </Node>
            <Node pos="r" depth="3" NCoef="0" IVar="-1" Cut="0.0000000000000000e+00" cType="1" res="1.2253291904926300e-02" rms="2.9930648207664490e-01" purity="3.0713376402854919e-01" nType="-99"/>
          </Node>
        </Node>
      </Node>
    </BinaryTree>
    <BinaryTree type="DecisionTree" boostWeight="1.0000000000000000e+00" itree="227">
      <Node pos="s" depth="0" NCoef="0" IVar="5" Cut="4.8152378082275391e+01" cType="1" res="-5.5273954058066010e-04" rms="2.9574117064476013e-01" purity="5.0012606382369995e-01" nType="0">
        <Node pos="l" depth="1" NCoef="0" IVar="9" Cut="2.6256585121154785e-01" cType="1" res="-9.4160567969083786e-03" rms="3.3872672915458679e-01" purity="3.4547960758209229e-01" nType="0">
          <Node pos="l" depth="2" NCoef="0" IVar="-1" Cut="0.0000000000000000e+00" cType="1" res="-1.6274848952889442e-02" rms="2.9468137025833130e-01" purity="1.8389815092086792e-01" nType="-99"/>
          <Node pos="r" depth="2" NCoef="0" IVar="1" Cut="1.0975610017776489e+00" cType="1" res="-1.2312752660363913e-03" rms="3.5387739539146423e-01" purity="4.0765088796615601e-01" nType="0">
            <Node pos="l" depth="3" NCoef="0" IVar="-1" Cut="0.0000000000000000e+00" cType="1" res="4.2277951724827290e-03" rms="3.5498863458633423e-01" purity="2.2381804883480072e-01" nType="-99"/>
            <Node pos="r" depth="3" NCoef="0" IVar="-1" Cut="0.0000000000000000e+00" cType="1" res="-4.5722373761236668e-03" rms="3.5245448350906372e-01" purity="5.8562666177749634e-01" nType="-99"/>
          </Node>
        </Node>
        <Node pos="r" depth="1" NCoef="0" IVar="4" Cut="5.8497375488281250e+01" cType="1" res="1.7553595534991473e-04" rms="2.9191595315933228e-01" purity="5.1283299922943115e-01" nType="0">
          <Node pos="l" depth="2" NCoef="0" IVar="8" Cut="4.3478977680206299e-01" cType="1" res="8.2505596801638603e-03" rms="3.2573071122169495e-01" purity="2.2770345211029053e-01" nType="0">
            <Node pos="l" depth="3" NCoef="0" IVar="6" Cut="1.8389867544174194e+00" cType="1" res="-9.7006093710660934e-04" rms="2.9969415068626404e-01" purity="1.8366706371307373e-01" nType="0">
              <Node pos="l" depth="4" NCoef="0" IVar="-1" Cut="0.0000000000000000e+00" cType="1" res="5.8348430320620537e-03" rms="2.7537110447883606e-01" purity="1.3280482590198517e-01" nType="-99"/>
              <Node pos="r" depth="4" NCoef="0" IVar="-1" Cut="0.0000000000000000e+00" cType="1" res="-3.7924412172287703e-03" rms="3.1682786345481873e-01" purity="2.2251412272453308e-01" nType="-99"/>
            </Node>
            <Node pos="r" depth="3" NCoef="0" IVar="-1" Cut="0.0000000000000000e+00" cType="1" res="1.0614036582410336e-02" rms="3.7540215253829956e-01" purity="3.2347118854522705e-01" nType="-99"/>
          </Node>
          <Node pos="r" depth="2" NCoef="0" IVar="6" Cut="6.1299377679824829e-01" cType="1" res="-4.8822895041666925e-04" rms="2.8895038366317749e-01" purity="5.3627055883407593e-01" nType="0">
            <Node pos="l" depth="3" NCoef="0" IVar="9" Cut="2.2066017985343933e-01" cType="1" res="-7.1116280741989613e-03" rms="2.9971438646316528e-01" purity="3.0488318204879761e-01" nType="0">
              <Node pos="l" depth="4" NCoef="0" IVar="-1" Cut="0.0000000000000000e+00" cType="1" res="1.9103789236396551e-03" rms="2.5984057784080505e-01" purity="1.2082654982805252e-01" nType="-99"/>
              <Node pos="r" depth="4" NCoef="0" IVar="7" Cut="6.0722130537033081e-01" cType="1" res="-1.1239037849009037e-02" rms="3.1538438796997070e-01" purity="3.8485953211784363e-01" nType="0">
                <Node pos="l" depth="5" NCoef="0" IVar="-1" Cut="0.0000000000000000e+00" cType="1" res="-9.9476510658860207e-03" rms="3.3849453926086426e-01" purity="3.4003338217735291e-01" nType="-99"/>
                <Node pos="r" depth="5" NCoef="0" IVar="-1" Cut="0.0000000000000000e+00" cType="1" res="-2.9546497389674187e-03" rms="3.0392411351203918e-01" purity="4.0565103292465210e-01" nType="-99"/>
              </Node>
            </Node>
            <Node pos="r" depth="3" NCoef="0" IVar="9" Cut="7.3594391345977783e-01" cType="1" res="3.0161501490511000e-04" rms="2.8762972354888916e-01" purity="5.6386357545852661e-01" nType="0">
              <Node pos="l" depth="4" NCoef="0" IVar="4" Cut="7.2509803771972656e+01" cType="1" res="8.2252523861825466e-04" rms="2.8744891285896301e-01" purity="5.6480294466018677e-01" nType="0">
                <Node pos="l" depth="5" NCoef="0" IVar="-1" Cut="0.0000000000000000e+00" cType="1" res="-4.0589333511888981e-03" rms="3.2349693775177002e-01" purity="3.0350589752197266e-01" nType="-99"/>
                <Node pos="r" depth="5" NCoef="0" IVar="-1" Cut="0.0000000000000000e+00" cType="1" res="8.2851829938590527e-04" rms="2.8517803549766541e-01" purity="5.8016175031661987e-01" nType="-99"/>
              </Node>
              <Node pos="r" depth="4" NCoef="0" IVar="-1" Cut="0.0000000000000000e+00" cType="1" res="-6.5374132245779037e-03" rms="2.9150566458702087e-01" purity="5.4222840070724487e-01" nType="-99"/>
            </Node>
          </Node>
        </Node>
      </Node>
    </BinaryTree>
    <BinaryTree type="DecisionTree" boostWeight="1.0000000000000000e+00" itree="228">
      <Node pos="s" depth="0" NCoef="0" IVar="5" Cut="8.4232124328613281e+01" cType="1" res="5.1160837756469846e-04" rms="2.9602518677711487e-01" purity="5.0149548053741455e-01" nType="0">
        <Node pos="l" depth="1" NCoef="0" IVar="2" Cut="1.0975610017776489e+00" cType="1" res="2.8003023471683264e-03" rms="3.1019321084022522e-01" purity="5.8174329996109009e-01" nType="0">
          <Node pos="l" depth="2" NCoef="0" IVar="4" Cut="1.6899407958984375e+02" cType="1" res="7.6400645775720477e-04" rms="3.1399255990982056e-01" purity="6.6077315807342529e-01" nType="0">
            <Node pos="l" depth="3" NCoef="0" IVar="9" Cut="5.7396572828292847e-01" cType="1" res="2.2847694344818592e-03" rms="3.1222519278526306e-01" purity="7.0971333980560303e-01" nType="0">
              <Node pos="l" depth="4" NCoef="0" IVar="3" Cut="4.0243902206420898e+00" cType="1" res="6.8221183028072119e-04" rms="3.1176489591598511e-01" purity="6.9784325361251831e-01" nType="0">
                <Node pos="l" depth="5" NCoef="0" IVar="-1" Cut="0.0000000000000000e+00" cType="1" res="1.1004370171576738e-03" rms="3.0716708302497864e-01" purity="7.3289632797241211e-01" nType="-99"/>
                <Node pos="r" depth="5" NCoef="0" IVar="-1" Cut="0.0000000000000000e+00" cType="1" res="-5.9248716570436954e-03" rms="3.5775884985923767e-01" purity="3.1512880325317383e-01" nType="-99"/>
              </Node>
              <Node pos="r" depth="4" NCoef="0" IVar="-1" Cut="0.0000000000000000e+00" cType="1" res="5.4996307007968426e-03" rms="3.1464132666587830e-01" purity="7.7623605728149414e-01" nType="-99"/>
            </Node>
            <Node pos="r" depth="3" NCoef="0" IVar="-1" Cut="0.0000000000000000e+00" cType="1" res="-5.5397679097950459e-03" rms="3.2842642068862915e-01" purity="2.4239525198936462e-01" nType="-99"/>
          </Node>
          <Node pos="r" depth="2" NCoef="0" IVar="6" Cut="1.1493645906448364e+00" cType="1" res="8.8574104011058807e-03" rms="2.9852405190467834e-01" purity="3.4666317701339722e-01" nType="0">
            <Node pos="l" depth="3" NCoef="0" IVar="-1" Cut="0.0000000000000000e+00" cType="1" res="1.1893170885741711e-02" rms="3.1274369359016418e-01" purity="2.4609948694705963e-01" nType="-99"/>
            <Node pos="r" depth="3" NCoef="0" IVar="6" Cut="2.5099108219146729e+00" cType="1" res="5.0225909799337387e-03" rms="2.9357156157493591e-01" purity="3.7990447878837585e-01" nType="0">
              <Node pos="l" depth="4" NCoef="0" IVar="2" Cut="4.0487804412841797e+00" cType="1" res="-8.9052639668807387e-04" rms="2.8907564282417297e-01" purity="3.1885781884193420e-01" nType="0">
                <Node pos="l" depth="5" NCoef="0" IVar="-1" Cut="0.0000000000000000e+00" cType="1" res="3.4985716920346022e-03" rms="3.3002963662147522e-01" purity="5.4826194047927856e-01" nType="-99"/>
                <Node pos="r" depth="5" NCoef="0" IVar="-1" Cut="0.0000000000000000e+00" cType="1" res="-7.2857560589909554e-03" rms="2.4060460925102234e-01" purity="8.7876699864864349e-02" nType="-99"/>
              </Node>
              <Node pos="r" depth="4" NCoef="0" IVar="-1" Cut="0.0000000000000000e+00" cType="1" res="6.9440621882677078e-03" rms="2.9926389455795288e-01" purity="4.6107184886932373e-01" nType="-99"/>
            </Node>
          </Node>
        </Node>
        <Node pos="r" depth="1" NCoef="0" IVar="7" Cut="7.5667136907577515e-01" cType="1" res="-1.4019949594512582e-03" rms="2.8362223505973816e-01" purity="4.3439945578575134e-01" nType="0">
          <Node pos="l" depth="2" NCoef="0" IVar="6" Cut="1.0727429389953613e+00" cType="1" res="2.4573758710175753e-03" rms="3.0891934037208557e-01" purity="4.8450207710266113e-01" nType="0">
            <Node pos="l" depth="3" NCoef="0" IVar="5" Cut="1.1195200347900391e+02" cType="1" res="1.3922140002250671e-02" rms="3.3355900645256042e-01" purity="3.0275374650955200e-01" nType="0">
              <Node pos="l" depth="4" NCoef="0" IVar="-1" Cut="0.0000000000000000e+00" cType="1" res="1.6200572717934847e-03" rms="3.3727541565895081e-01" purity="4.0786394476890564e-01" nType="-99"/>
              <Node pos="r" depth="4" NCoef="0" IVar="-1" Cut="0.0000000000000000e+00" cType="1" res="1.2659523636102676e-02" rms="3.2962337136268616e-01" purity="2.0151896774768829e-01" nType="-99"/>
            </Node>
            <Node pos="r" depth="3" NCoef="0" IVar="9" Cut="2.5175091624259949e-01" cType="1" res="-6.3837203197181225e-04" rms="3.0184683203697205e-01" purity="5.3357827663421631e-01" nType="0">
              <Node pos="l" depth="4" NCoef="0" IVar="-1" Cut="0.0000000000000000e+00" cType="1" res="7.6192733831703663e-03" rms="3.1482750177383423e-01" purity="2.4002228677272797e-01" nType="-99"/>
              <Node pos="r" depth="4" NCoef="0" IVar="5" Cut="1.1564794921875000e+02" cType="1" res="-4.4496799819171429e-03" rms="2.9821190237998962e-01" purity="6.1101418733596802e-01" nType="0">
                <Node pos="l" depth="5" NCoef="0" IVar="-1" Cut="0.0000000000000000e+00" cType="1" res="1.0004448704421520e-03" rms="2.9126831889152527e-01" purity="7.0539522171020508e-01" nType="-99"/>
                <Node pos="r" depth="5" NCoef="0" IVar="-1" Cut="0.0000000000000000e+00" cType="1" res="-7.7728880569338799e-03" rms="3.0947002768516541e-01" purity="4.4916355609893799e-01" nType="-99"/>
              </Node>
            </Node>
          </Node>
          <Node pos="r" depth="2" NCoef="0" IVar="8" Cut="5.2289938926696777e-01" cType="1" res="-3.5696306731551886e-03" rms="2.6834589242935181e-01" purity="4.0625900030136108e-01" nType="0">
            <Node pos="l" depth="3" NCoef="0" IVar="1" Cut="1.0975610017776489e+00" cType="1" res="-1.8042906885966659e-03" rms="2.6399806141853333e-01" purity="4.1386219859123230e-01" nType="0">
              <Node pos="l" depth="4" NCoef="0" IVar="5" Cut="9.5320205688476562e+01" cType="1" res="-6.1409240588545799e-03" rms="2.5357323884963989e-01" purity="1.7719621956348419e-01" nType="0">
                <Node pos="l" depth="5" NCoef="0" IVar="-1" Cut="0.0000000000000000e+00" cType="1" res="-8.2995537668466568e-03" rms="3.0819317698478699e-01" purity="3.6435911059379578e-01" nType="-99"/>
                <Node pos="r" depth="5" NCoef="0" IVar="-1" Cut="0.0000000000000000e+00" cType="1" res="-2.3957886733114719e-03" rms="2.3677714169025421e-01" purity="1.2724068760871887e-01" nType="-99"/>
              </Node>
              <Node pos="r" depth="4" NCoef="0" IVar="4" Cut="1.5182617187500000e+02" cType="1" res="2.0618420094251633e-03" rms="2.7289825677871704e-01" purity="6.2485116720199585e-01" nType="0">
                <Node pos="l" depth="5" NCoef="0" IVar="-1" Cut="0.0000000000000000e+00" cType="1" res="2.4943226017057896e-03" rms="2.7590817213058472e-01" purity="6.9993287324905396e-01" nType="-99"/>
                <Node pos="r" depth="5" NCoef="0" IVar="-1" Cut="0.0000000000000000e+00" cType="1" res="-5.7314308360219002e-03" rms="2.5521111488342285e-01" purity="2.0697851479053497e-01" nType="-99"/>
              </Node>
            </Node>
            <Node pos="r" depth="3" NCoef="0" IVar="-1" Cut="0.0000000000000000e+00" cType="1" res="-1.0233320295810699e-02" rms="3.0498334765434265e-01" purity="3.3629652857780457e-01" nType="-99"/>
          </Node>
        </Node>
      </Node>
    </BinaryTree>
    <BinaryTree type="DecisionTree" boostWeight="1.0000000000000000e+00" itree="229">
      <Node pos="s" depth="0" NCoef="0" IVar="5" Cut="8.7840103149414062e+01" cType="1" res="1.1385129764676094e-03" rms="2.9794523119926453e-01" purity="4.9929299950599670e-01" nType="0">
        <Node pos="l" depth="1" NCoef="0" IVar="8" Cut="8.4046447277069092e-01" cType="1" res="-9.6537882927805185e-04" rms="3.0487257242202759e-01" purity="5.9367471933364868e-01" nType="0">
          <Node pos="l" depth="2" NCoef="0" IVar="6" Cut="6.8961721658706665e-01" cType="1" res="-1.7711620312184095e-03" rms="3.0174663662910461e-01" purity="6.0079652070999146e-01" nType="0">
            <Node pos="l" depth="3" NCoef="0" IVar="7" Cut="1.2268180847167969e+00" cType="1" res="-1.2931535020470619e-02" rms="3.1227409839630127e-01" purity="3.6882311105728149e-01" nType="0">
              <Node pos="l" depth="4" NCoef="0" IVar="-1" Cut="0.0000000000000000e+00" cType="1" res="-1.5069436281919479e-02" rms="3.1462323665618896e-01" purity="4.0453657507896423e-01" nType="-99"/>
              <Node pos="r" depth="4" NCoef="0" IVar="-1" Cut="0.0000000000000000e+00" cType="1" res="3.1177722848951817e-03" rms="3.0875489115715027e-01" purity="3.3341217041015625e-01" nType="-99"/>
            </Node>
            <Node pos="r" depth="3" NCoef="0" IVar="3" Cut="4.0243902206420898e+00" cType="1" res="-4.5726203825324774e-04" rms="3.0045571923255920e-01" purity="6.2810653448104858e-01" nType="0">
              <Node pos="l" depth="4" NCoef="0" IVar="8" Cut="3.0772215127944946e-01" cType="1" res="9.0241018915548921e-04" rms="2.9909679293632507e-01" purity="6.6479176282882690e-01" nType="0">
                <Node pos="l" depth="5" NCoef="0" IVar="-1" Cut="0.0000000000000000e+00" cType="1" res="-1.6734931850805879e-03" rms="3.0541345477104187e-01" purity="5.8058369159698486e-01" nType="-99"/>
                <Node pos="r" depth="5" NCoef="0" IVar="-1" Cut="0.0000000000000000e+00" cType="1" res="1.9458901369944215e-03" rms="2.9491969943046570e-01" purity="7.1912699937820435e-01" nType="-99"/>
              </Node>
              <Node pos="r" depth="4" NCoef="0" IVar="-1" Cut="0.0000000000000000e+00" cType="1" res="-6.8774856626987457e-03" rms="3.1396904587745667e-01" purity="2.4427679181098938e-01" nType="-99"/>
            </Node>
          </Node>
          <Node pos="r" depth="2" NCoef="0" IVar="-1" Cut="0.0000000000000000e+00" cType="1" res="5.1066153682768345e-03" rms="3.5352176427841187e-01" purity="4.7263038158416748e-01" nType="-99"/>
        </Node>
        <Node pos="r" depth="1" NCoef="0" IVar="5" Cut="1.2127994537353516e+02" cType="1" res="3.3688151743263006e-03" rms="2.9040464758872986e-01" purity="3.9924043416976929e-01" nType="0">
          <Node pos="l" depth="2" NCoef="0" IVar="8" Cut="5.0347483158111572e-01" cType="1" res="6.5606669522821903e-03" rms="2.9857784509658813e-01" purity="4.7428247332572937e-01" nType="0">
            <Node pos="l" depth="3" NCoef="0" IVar="6" Cut="1.3792353868484497e+00" cType="1" res="4.8973662778735161e-03" rms="2.8942379355430603e-01" purity="4.6531695127487183e-01" nType="0">
              <Node pos="l" depth="4" NCoef="0" IVar="8" Cut="2.7040404081344604e-01" cType="1" res="-4.9615190364420414e-03" rms="2.8520151972770691e-01" purity="2.3592436313629150e-01" nType="0">
                <Node pos="l" depth="5" NCoef="0" IVar="-1" Cut="0.0000000000000000e+00" cType="1" res="3.1653258483856916e-03" rms="2.6152127981185913e-01" purity="1.9362805783748627e-01" nType="-99"/>
                <Node pos="r" depth="5" NCoef="0" IVar="-1" Cut="0.0000000000000000e+00" cType="1" res="-8.2119656726717949e-03" rms="3.0957329273223877e-01" purity="2.8395757079124451e-01" nType="-99"/>
              </Node>
              <Node pos="r" depth="4" NCoef="0" IVar="9" Cut="1.9435682892799377e-01" cType="1" res="7.9905679449439049e-03" rms="2.9066696763038635e-01" purity="5.3728830814361572e-01" nType="0">
                <Node pos="l" depth="5" NCoef="0" IVar="-1" Cut="0.0000000000000000e+00" cType="1" res="-1.8141571199521422e-03" rms="2.7160504460334778e-01" purity="2.3993766307830811e-01" nType="-99"/>
                <Node pos="r" depth="5" NCoef="0" IVar="-1" Cut="0.0000000000000000e+00" cType="1" res="5.9159598313271999e-03" rms="2.9477193951606750e-01" purity="6.0485959053039551e-01" nType="-99"/>
              </Node>
            </Node>
            <Node pos="r" depth="3" NCoef="0" IVar="6" Cut="1.3026103973388672e+00" cType="1" res="1.3920835219323635e-02" rms="3.3600670099258423e-01" purity="5.1395523548126221e-01" nType="0">
              <Node pos="l" depth="4" NCoef="0" IVar="-1" Cut="0.0000000000000000e+00" cType="1" res="1.2963517569005489e-02" rms="3.6839470267295837e-01" purity="4.2893564701080322e-01" nType="-99"/>
              <Node pos="r" depth="4" NCoef="0" IVar="-1" Cut="0.0000000000000000e+00" cType="1" res="1.4261690666899085e-03" rms="3.1221976876258850e-01" purity="5.7024872303009033e-01" nType="-99"/>
            </Node>
          </Node>
          <Node pos="r" depth="2" NCoef="0" IVar="1" Cut="2.0731706619262695e+00" cType="1" res="-1.4832185115665197e-03" rms="2.7744933962821960e-01" purity="2.8516659140586853e-01" nType="0">
            <Node pos="l" depth="3" NCoef="0" IVar="0" Cut="2.0731706619262695e+00" cType="1" res="2.7878640685230494e-03" rms="2.5813007354736328e-01" purity="1.5447254478931427e-01" nType="0">
              <Node pos="l" depth="4" NCoef="0" IVar="7" Cut="1.2008501291275024e+00" cType="1" res="-4.4941315427422523e-03" rms="1.7058178782463074e-01" purity="4.7368299216032028e-02" nType="0">
                <Node pos="l" depth="5" NCoef="0" IVar="-1" Cut="0.0000000000000000e+00" cType="1" res="6.3292827690020204e-04" rms="2.1023374795913696e-01" purity="6.6432744264602661e-02" nType="-99"/>
                <Node pos="r" depth="5" NCoef="0" IVar="-1" Cut="0.0000000000000000e+00" cType="1" res="-1.6755888238549232e-02" rms="1.2124068289995193e-01" purity="2.9248742386698723e-02" nType="-99"/>
              </Node>
              <Node pos="r" depth="4" NCoef="0" IVar="7" Cut="1.3862891197204590e+00" cType="1" res="1.0935048572719097e-02" rms="3.2939004898071289e-01" purity="2.7430209517478943e-01" nType="0">
                <Node pos="l" depth="5" NCoef="0" IVar="-1" Cut="0.0000000000000000e+00" cType="1" res="7.8682620078325272e-03" rms="3.6411932110786438e-01" purity="3.2512098550796509e-01" nType="-99"/>
                <Node pos="r" depth="5" NCoef="0" IVar="-1" Cut="0.0000000000000000e+00" cType="1" res="-1.6712392971385270e-04" rms="2.6711186766624451e-01" purity="1.9635835289955139e-01" nType="-99"/>
              </Node>
            </Node>
            <Node pos="r" depth="3" NCoef="0" IVar="6" Cut="2.3753395080566406e+00" cType="1" res="-7.8618396073579788e-03" rms="3.0391258001327515e-01" purity="4.8035079240798950e-01" nType="0">
              <Node pos="l" depth="4" NCoef="0" IVar="-1" Cut="0.0000000000000000e+00" cType="1" res="-6.1806784942746162e-03" rms="3.2278829813003540e-01" purity="2.7245774865150452e-01" nType="-99"/>
              <Node pos="r" depth="4" NCoef="0" IVar="-1" Cut="0.0000000000000000e+00" cType="1" res="-1.5142067568376660e-03" rms="2.8516247868537903e-01" purity="6.7346864938735962e-01" nType="-99"/>
            </Node>
          </Node>
        </Node>
      </Node>
    </BinaryTree>
    <BinaryTree type="DecisionTree" boostWeight="1.0000000000000000e+00" itree="230">
      <Node pos="s" depth="0" NCoef="0" IVar="4" Cut="1.9202006530761719e+02" cType="1" res="-9.6266897162422538e-04" rms="2.9498594999313354e-01" purity="4.9885335564613342e-01" nType="0">
        <Node pos="l" depth="1" NCoef="0" IVar="5" Cut="6.2584320068359375e+01" cType="1" res="-1.2496019189711660e-04" rms="2.9815846681594849e-01" purity="5.3131359815597534e-01" nType="0">
          <Node pos="l" depth="2" NCoef="0" IVar="4" Cut="1.4821296691894531e+02" cType="1" res="4.5710336416959763e-03" rms="3.4990108013153076e-01" purity="4.3503335118293762e-01" nType="0">
            <Node pos="l" depth="3" NCoef="0" IVar="0" Cut="3.0487804412841797e+00" cType="1" res="2.2084973752498627e-03" rms="3.5218119621276855e-01" purity="4.7379443049430847e-01" nType="0">
              <Node pos="l" depth="4" NCoef="0" IVar="8" Cut="3.3885949850082397e-01" cType="1" res="8.4977895021438599e-03" rms="3.3057269454002380e-01" purity="2.5852453708648682e-01" nType="0">
                <Node pos="l" depth="5" NCoef="0" IVar="-1" Cut="0.0000000000000000e+00" cType="1" res="-4.1239494457840919e-03" rms="2.8928214311599731e-01" purity="1.7522986233234406e-01" nType="-99"/>
                <Node pos="r" depth="5" NCoef="0" IVar="-1" Cut="0.0000000000000000e+00" cType="1" res="8.0815115943551064e-03" rms="3.5721927881240845e-01" purity="3.1916797161102295e-01" nType="-99"/>
              </Node>
              <Node pos="r" depth="4" NCoef="0" IVar="9" Cut="3.2358425855636597e-01" cType="1" res="-2.8702472336590290e-03" rms="3.6862915754318237e-01" purity="6.4762973785400391e-01" nType="0">
                <Node pos="l" depth="5" NCoef="0" IVar="-1" Cut="0.0000000000000000e+00" cType="1" res="-4.6428069472312927e-03" rms="3.8366833329200745e-01" purity="5.7920634746551514e-01" nType="-99"/>
                <Node pos="r" depth="5" NCoef="0" IVar="-1" Cut="0.0000000000000000e+00" cType="1" res="1.3615001225844026e-03" rms="3.5884383320808411e-01" purity="6.9000667333602905e-01" nType="-99"/>
              </Node>
            </Node>
            <Node pos="r" depth="3" NCoef="0" IVar="-1" Cut="0.0000000000000000e+00" cType="1" res="9.7421901300549507e-03" rms="3.3503738045692444e-01" purity="1.9456706941127777e-01" nType="-99"/>
          </Node>
          <Node pos="r" depth="2" NCoef="0" IVar="8" Cut="2.0553338527679443e-01" cType="1" res="-1.0199806420132518e-03" rms="2.8723242878913879e-01" purity="5.4966390132904053e-01" nType="0">
            <Node pos="l" depth="3" NCoef="0" IVar="7" Cut="3.0266830921173096e+00" cType="1" res="-6.0338946059346199e-03" rms="2.7586564421653748e-01" purity="3.3513662219047546e-01" nType="0">
              <Node pos="l" depth="4" NCoef="0" IVar="6" Cut="2.7584714889526367e+00" cType="1" res="-1.0252264328300953e-02" rms="2.7941498160362244e-01" purity="3.1176489591598511e-01" nType="0">
                <Node pos="l" depth="5" NCoef="0" IVar="-1" Cut="0.0000000000000000e+00" cType="1" res="-3.5951323807239532e-03" rms="2.7685794234275818e-01" purity="2.8636187314987183e-01" nType="-99"/>
                <Node pos="r" depth="5" NCoef="0" IVar="-1" Cut="0.0000000000000000e+00" cType="1" res="-1.5639515593647957e-02" rms="2.8896349668502808e-01" purity="4.1645681858062744e-01" nType="-99"/>
              </Node>
              <Node pos="r" depth="4" NCoef="0" IVar="7" Cut="3.5618908405303955e+00" cType="1" res="5.7508363388478756e-03" rms="2.6534369587898254e-01" purity="4.0042954683303833e-01" nType="0">
                <Node pos="l" depth="5" NCoef="0" IVar="-1" Cut="0.0000000000000000e+00" cType="1" res="1.6221718396991491e-03" rms="2.6506206393241882e-01" purity="4.8204559087753296e-01" nType="-99"/>
                <Node pos="r" depth="5" NCoef="0" IVar="-1" Cut="0.0000000000000000e+00" cType="1" res="5.4229744710028172e-03" rms="2.6557520031929016e-01" purity="3.2370069622993469e-01" nType="-99"/>
              </Node>
            </Node>
            <Node pos="r" depth="3" NCoef="0" IVar="9" Cut="6.9242596626281738e-01" cType="1" res="3.4345139283686876e-04" rms="2.9023143649101257e-01" purity="6.0800021886825562e-01" nType="0">
              <Node pos="l" depth="4" NCoef="0" IVar="6" Cut="1.6857320070266724e+00" cType="1" res="-3.1448560184799135e-04" rms="2.8807407617568970e-01" purity="6.0522937774658203e-01" nType="0">
                <Node pos="l" depth="5" NCoef="0" IVar="-1" Cut="0.0000000000000000e+00" cType="1" res="-3.1110267154872417e-03" rms="3.1049579381942749e-01" purity="4.1305747628211975e-01" nType="-99"/>
                <Node pos="r" depth="5" NCoef="0" IVar="-1" Cut="0.0000000000000000e+00" cType="1" res="1.3200182002037764e-03" rms="2.7801993489265442e-01" purity="6.8643665313720703e-01" nType="-99"/>
              </Node>
              <Node pos="r" depth="4" NCoef="0" IVar="-1" Cut="0.0000000000000000e+00" cType="1" res="4.4230734929442406e-03" rms="3.1843107938766479e-01" purity="6.4631789922714233e-01" nType="-99"/>
            </Node>
          </Node>
        </Node>
        <Node pos="r" depth="1" NCoef="0" IVar="1" Cut="3.0487804412841797e+00" cType="1" res="-9.3806255608797073e-03" rms="2.6082444190979004e-01" purity="1.7266725003719330e-01" nType="0">
          <Node pos="l" depth="2" NCoef="0" IVar="7" Cut="9.4646680355072021e-01" cType="1" res="-4.1781156323850155e-03" rms="2.5865507125854492e-01" purity="1.6912488639354706e-01" nType="0">
            <Node pos="l" depth="3" NCoef="0" IVar="-1" Cut="0.0000000000000000e+00" cType="1" res="-6.9970386102795601e-03" rms="2.8462547063827515e-01" purity="1.9792680442333221e-01" nType="-99"/>
            <Node pos="r" depth="3" NCoef="0" IVar="-1" Cut="0.0000000000000000e+00" cType="1" res="5.5143295321613550e-04" rms="2.3955145478248596e-01" purity="1.4981827139854431e-01" nType="-99"/>
          </Node>
          <Node pos="r" depth="2" NCoef="0" IVar="-1" Cut="0.0000000000000000e+00" cType="1" res="-1.2939648702740669e-02" rms="2.6582130789756775e-01" purity="1.8171092867851257e-01" nType="-99"/>
        </Node>
      </Node>
    </BinaryTree>
    <BinaryTree type="DecisionTree" boostWeight="1.0000000000000000e+00" itree="231">
      <Node pos="s" depth="0" NCoef="0" IVar="4" Cut="5.8666481018066406e+01" cType="1" res="4.1389596299268305e-04" rms="2.9641065001487732e-01" purity="5.0017762184143066e-01" nType="0">
        <Node pos="l" depth="1" NCoef="0" IVar="1" Cut="1.0975610017776489e+00" cType="1" res="6.5979734063148499e-03" rms="3.2726806402206421e-01" purity="2.2572900354862213e-01" nType="0">
          <Node pos="l" depth="2" NCoef="0" IVar="2" Cut="1.0975610017776489e+00" cType="1" res="1.5477699227631092e-02" rms="3.1303009390830994e-01" purity="1.9388547539710999e-01" nType="0">
            <Node pos="l" depth="3" NCoef="0" IVar="-1" Cut="0.0000000000000000e+00" cType="1" res="1.0582386516034603e-02" rms="3.6714112758636475e-01" purity="2.7975216507911682e-01" nType="-99"/>
            <Node pos="r" depth="3" NCoef="0" IVar="-1" Cut="0.0000000000000000e+00" cType="1" res="-1.1430733866291121e-04" rms="2.1691192686557770e-01" purity="7.6028503477573395e-02" nType="-99"/>
          </Node>
          <Node pos="r" depth="2" NCoef="0" IVar="-1" Cut="0.0000000000000000e+00" cType="1" res="-4.8263208009302616e-03" rms="3.5583639144897461e-01" purity="2.9583546519279480e-01" nType="-99"/>
        </Node>
        <Node pos="r" depth="1" NCoef="0" IVar="5" Cut="4.4544342041015625e+01" cType="1" res="-1.1093712964793667e-04" rms="2.9363659024238586e-01" purity="5.2346968650817871e-01" nType="0">
          <Node pos="l" depth="2" NCoef="0" IVar="1" Cut="3.0487804412841797e+00" cType="1" res="8.0447541549801826e-03" rms="3.5011506080627441e-01" purity="3.6956030130386353e-01" nType="0">
            <Node pos="l" depth="3" NCoef="0" IVar="-1" Cut="0.0000000000000000e+00" cType="1" res="8.7262028828263283e-03" rms="3.4564039111137390e-01" purity="2.4119377136230469e-01" nType="-99"/>
            <Node pos="r" depth="3" NCoef="0" IVar="-1" Cut="0.0000000000000000e+00" cType="1" res="-2.8892019763588905e-03" rms="3.5593298077583313e-01" purity="5.5609244108200073e-01" nType="-99"/>
          </Node>
          <Node pos="r" depth="2" NCoef="0" IVar="8" Cut="7.1461278200149536e-01" cType="1" res="-6.4018304692581296e-04" rms="2.8958326578140259e-01" purity="5.3345733880996704e-01" nType="0">
            <Node pos="l" depth="3" NCoef="0" IVar="8" Cut="8.7338045239448547e-02" cType="1" res="2.0688865333795547e-04" rms="2.8656408190727234e-01" purity="5.4040020704269409e-01" nType="0">
              <Node pos="l" depth="4" NCoef="0" IVar="-1" Cut="0.0000000000000000e+00" cType="1" res="-1.1455736123025417e-02" rms="2.2475433349609375e-01" purity="1.1531102657318115e-01" nType="-99"/>
              <Node pos="r" depth="4" NCoef="0" IVar="7" Cut="9.7543597221374512e-01" cType="1" res="8.7134307250380516e-04" rms="2.8919219970703125e-01" purity="5.6088179349899292e-01" nType="0">
                <Node pos="l" depth="5" NCoef="0" IVar="-1" Cut="0.0000000000000000e+00" cType="1" res="-8.3217432256788015e-04" rms="2.9880318045616150e-01" purity="5.9927594661712646e-01" nType="-99"/>
                <Node pos="r" depth="5" NCoef="0" IVar="-1" Cut="0.0000000000000000e+00" cType="1" res="1.6834354028105736e-03" rms="2.8080925345420837e-01" purity="5.2847665548324585e-01" nType="-99"/>
              </Node>
            </Node>
            <Node pos="r" depth="3" NCoef="0" IVar="6" Cut="1.3026152849197388e+00" cType="1" res="-1.2142697349190712e-02" rms="3.2762363553047180e-01" purity="4.3917801976203918e-01" nType="0">
              <Node pos="l" depth="4" NCoef="0" IVar="-1" Cut="0.0000000000000000e+00" cType="1" res="1.3142760144546628e-04" rms="3.3339497447013855e-01" purity="4.7301846742630005e-01" nType="-99"/>
              <Node pos="r" depth="4" NCoef="0" IVar="-1" Cut="0.0000000000000000e+00" cType="1" res="-1.3792937621474266e-02" rms="3.1934884190559387e-01" purity="3.9571604132652283e-01" nType="-99"/>
            </Node>
          </Node>
        </Node>
      </Node>
    </BinaryTree>
    <BinaryTree type="DecisionTree" boostWeight="1.0000000000000000e+00" itree="232">
      <Node pos="s" depth="0" NCoef="0" IVar="9" Cut="2.4024894833564758e-01" cType="1" res="-5.1362317753955722e-04" rms="2.9422751069068909e-01" purity="5.0127875804901123e-01" nType="0">
        <Node pos="l" depth="1" NCoef="0" IVar="9" Cut="5.8745004236698151e-02" cType="1" res="-4.0784231387078762e-03" rms="2.8155502676963806e-01" purity="2.8378874063491821e-01" nType="0">
          <Node pos="l" depth="2" NCoef="0" IVar="-1" Cut="0.0000000000000000e+00" cType="1" res="-2.1656144410371780e-02" rms="1.7897094786167145e-01" purity="4.8440743237733841e-02" nType="-99"/>
          <Node pos="r" depth="2" NCoef="0" IVar="7" Cut="3.6284775733947754e+00" cType="1" res="-2.8276904486119747e-03" rms="2.8812506794929504e-01" purity="3.0253988504409790e-01" nType="0">
            <Node pos="l" depth="3" NCoef="0" IVar="3" Cut="2.0731706619262695e+00" cType="1" res="-4.1484064422547817e-03" rms="2.9006069898605347e-01" purity="3.0036756396293640e-01" nType="0">
              <Node pos="l" depth="4" NCoef="0" IVar="9" Cut="1.0301426053047180e-01" cType="1" res="-6.8135852925479412e-03" rms="2.9445496201515198e-01" purity="3.4194171428680420e-01" nType="0">
                <Node pos="l" depth="5" NCoef="0" IVar="-1" Cut="0.0000000000000000e+00" cType="1" res="4.5677446760237217e-03" rms="2.7831912040710449e-01" purity="1.5429712831974030e-01" nType="-99"/>
                <Node pos="r" depth="5" NCoef="0" IVar="-1" Cut="0.0000000000000000e+00" cType="1" res="-4.7761346213519573e-03" rms="2.9668921232223511e-01" purity="3.6941248178482056e-01" nType="-99"/>
              </Node>
              <Node pos="r" depth="4" NCoef="0" IVar="7" Cut="1.5929893255233765e+00" cType="1" res="4.6426975168287754e-03" rms="2.7488586306571960e-01" purity="1.6323499381542206e-01" nType="0">
                <Node pos="l" depth="5" NCoef="0" IVar="-1" Cut="0.0000000000000000e+00" cType="1" res="1.4387335628271103e-02" rms="3.0275094509124756e-01" purity="1.6466493904590607e-01" nType="-99"/>
                <Node pos="r" depth="5" NCoef="0" IVar="-1" Cut="0.0000000000000000e+00" cType="1" res="-1.0257983580231667e-02" rms="2.3959586024284363e-01" purity="1.6168150305747986e-01" nType="-99"/>
              </Node>
            </Node>
            <Node pos="r" depth="3" NCoef="0" IVar="-1" Cut="0.0000000000000000e+00" cType="1" res="7.7268602326512337e-03" rms="2.6376211643218994e-01" purity="3.2812836766242981e-01" nType="-99"/>
          </Node>
        </Node>
        <Node pos="r" depth="1" NCoef="0" IVar="4" Cut="5.8666481018066406e+01" cType="1" res="9.5107028027996421e-04" rms="2.9926654696464539e-01" purity="5.9064030647277832e-01" nType="0">
          <Node pos="l" depth="2" NCoef="0" IVar="5" Cut="7.7741737365722656e+01" cType="1" res="-9.3483226373791695e-03" rms="3.3613032102584839e-01" purity="2.4343681335449219e-01" nType="0">
            <Node pos="l" depth="3" NCoef="0" IVar="-1" Cut="0.0000000000000000e+00" cType="1" res="-8.2570724189281464e-03" rms="3.5635906457901001e-01" purity="2.5877270102500916e-01" nType="-99"/>
            <Node pos="r" depth="3" NCoef="0" IVar="-1" Cut="0.0000000000000000e+00" cType="1" res="-8.0650154268369079e-04" rms="3.2390430569648743e-01" purity="2.3477827012538910e-01" nType="-99"/>
          </Node>
          <Node pos="r" depth="2" NCoef="0" IVar="2" Cut="1.0975610017776489e+00" cType="1" res="1.8674191087484360e-03" rms="2.9574686288833618e-01" purity="6.2153142690658569e-01" nType="0">
            <Node pos="l" depth="3" NCoef="0" IVar="4" Cut="7.7333351135253906e+01" cType="1" res="3.9007379673421383e-03" rms="3.0174818634986877e-01" purity="7.2457265853881836e-01" nType="0">
              <Node pos="l" depth="4" NCoef="0" IVar="-1" Cut="0.0000000000000000e+00" cType="1" res="4.9330219626426697e-03" rms="3.7792918086051941e-01" purity="5.0900393724441528e-01" nType="-99"/>
              <Node pos="r" depth="4" NCoef="0" IVar="5" Cut="4.1666080474853516e+01" cType="1" res="2.9167139437049627e-03" rms="2.9354518651962280e-01" purity="7.4485594034194946e-01" nType="0">
                <Node pos="l" depth="5" NCoef="0" IVar="-1" Cut="0.0000000000000000e+00" cType="1" res="6.3718645833432674e-03" rms="3.7638011574745178e-01" purity="5.1784336566925049e-01" nType="-99"/>
                <Node pos="r" depth="5" NCoef="0" IVar="-1" Cut="0.0000000000000000e+00" cType="1" res="1.2538273585960269e-03" rms="2.8852769732475281e-01" purity="7.5675606727600098e-01" nType="-99"/>
              </Node>
            </Node>
            <Node pos="r" depth="3" NCoef="0" IVar="9" Cut="5.8073049783706665e-01" cType="1" res="-3.6370935849845409e-03" rms="2.7877855300903320e-01" purity="3.4258249402046204e-01" nType="0">
              <Node pos="l" depth="4" NCoef="0" IVar="7" Cut="8.6656087636947632e-01" cType="1" res="-1.0626434814184904e-03" rms="2.7967685461044312e-01" purity="3.5132345557212830e-01" nType="0">
                <Node pos="l" depth="5" NCoef="0" IVar="-1" Cut="0.0000000000000000e+00" cType="1" res="-3.6159590817987919e-03" rms="2.9735153913497925e-01" purity="3.6348587274551392e-01" nType="-99"/>
                <Node pos="r" depth="5" NCoef="0" IVar="-1" Cut="0.0000000000000000e+00" cType="1" res="2.4487690534442663e-03" rms="2.6363503932952881e-01" purity="3.4098815917968750e-01" nType="-99"/>
              </Node>
              <Node pos="r" depth="4" NCoef="0" IVar="-1" Cut="0.0000000000000000e+00" cType="1" res="-9.0086860582232475e-03" rms="2.7415931224822998e-01" purity="3.0121156573295593e-01" nType="-99"/>
            </Node>
          </Node>
        </Node>
      </Node>
    </BinaryTree>
    <BinaryTree type="DecisionTree" boostWeight="1.0000000000000000e+00" itree="233">
      <Node pos="s" depth="0" NCoef="0" IVar="4" Cut="1.1072533416748047e+02" cType="1" res="9.4904453726485372e-04" rms="2.9639866948127747e-01" purity="5.0130045413970947e-01" nType="0">
        <Node pos="l" depth="1" NCoef="0" IVar="5" Cut="4.0936363220214844e+01" cType="1" res="-1.1392636224627495e-03" rms="3.1026056408882141e-01" purity="4.7743570804595947e-01" nType="0">
          <Node pos="l" depth="2" NCoef="0" IVar="-1" Cut="0.0000000000000000e+00" cType="1" res="-6.4944438636302948e-03" rms="3.4580746293067932e-01" purity="3.1213498115539551e-01" nType="-99"/>
          <Node pos="r" depth="2" NCoef="0" IVar="8" Cut="1.7422777414321899e-01" cType="1" res="-3.5320856841281056e-04" rms="3.0834129452705383e-01" purity="4.8575973510742188e-01" nType="0">
            <Node pos="l" depth="3" NCoef="0" IVar="5" Cut="9.0304786682128906e+01" cType="1" res="-8.6815152317285538e-03" rms="2.7871817350387573e-01" purity="2.7601444721221924e-01" nType="0">
              <Node pos="l" depth="4" NCoef="0" IVar="-1" Cut="0.0000000000000000e+00" cType="1" res="-8.8086407631635666e-03" rms="3.0812981724739075e-01" purity="4.3226763606071472e-01" nType="-99"/>
              <Node pos="r" depth="4" NCoef="0" IVar="-1" Cut="0.0000000000000000e+00" cType="1" res="-1.0414584539830685e-03" rms="2.5509926676750183e-01" purity="1.6301557421684265e-01" nType="-99"/>
            </Node>
            <Node pos="r" depth="3" NCoef="0" IVar="9" Cut="5.9544515609741211e-01" cType="1" res="1.1571095092222095e-03" rms="3.1338986754417419e-01" purity="5.2379649877548218e-01" nType="0">
              <Node pos="l" depth="4" NCoef="0" IVar="7" Cut="8.8985300064086914e-01" cType="1" res="-1.0554050095379353e-03" rms="3.1035622954368591e-01" purity="5.0370717048645020e-01" nType="0">
                <Node pos="l" depth="5" NCoef="0" IVar="-1" Cut="0.0000000000000000e+00" cType="1" res="-3.1054758001118898e-03" rms="3.1923615932464600e-01" purity="5.3744107484817505e-01" nType="-99"/>
                <Node pos="r" depth="5" NCoef="0" IVar="-1" Cut="0.0000000000000000e+00" cType="1" res="1.6626956639811397e-03" rms="3.0302307009696960e-01" purity="4.7680321335792542e-01" nType="-99"/>
              </Node>
              <Node pos="r" depth="4" NCoef="0" IVar="8" Cut="3.2927694916725159e-01" cType="1" res="1.2429731898009777e-02" rms="3.2817977666854858e-01" purity="6.2615060806274414e-01" nType="0">
                <Node pos="l" depth="5" NCoef="0" IVar="-1" Cut="0.0000000000000000e+00" cType="1" res="3.7743980064988136e-03" rms="3.2222589850425720e-01" purity="5.8106964826583862e-01" nType="-99"/>
                <Node pos="r" depth="5" NCoef="0" IVar="-1" Cut="0.0000000000000000e+00" cType="1" res="7.0176492445170879e-03" rms="3.3350571990013123e-01" purity="6.6757726669311523e-01" nType="-99"/>
              </Node>
            </Node>
          </Node>
        </Node>
        <Node pos="r" depth="1" NCoef="0" IVar="5" Cut="4.4544311523437500e+01" cType="1" res="2.6184397283941507e-03" rms="2.8482168912887573e-01" purity="5.2037793397903442e-01" nType="0">
          <Node pos="l" depth="2" NCoef="0" IVar="-1" Cut="0.0000000000000000e+00" cType="1" res="9.6303895115852356e-03" rms="3.5248464345932007e-01" purity="3.6152818799018860e-01" nType="-99"/>
          <Node pos="r" depth="2" NCoef="0" IVar="9" Cut="2.4033762514591217e-01" cType="1" res="1.4478405937552452e-03" rms="2.7987679839134216e-01" purity="5.3058058023452759e-01" nType="0">
            <Node pos="l" depth="3" NCoef="0" IVar="9" Cut="2.1104326844215393e-01" cType="1" res="4.9776774831116199e-03" rms="2.8056496381759644e-01" purity="3.1097874045372009e-01" nType="0">
              <Node pos="l" depth="4" NCoef="0" IVar="7" Cut="7.1671992540359497e-01" cType="1" res="2.5020386092364788e-03" rms="2.7468302845954895e-01" purity="2.7077692747116089e-01" nType="0">
                <Node pos="l" depth="5" NCoef="0" IVar="-1" Cut="0.0000000000000000e+00" cType="1" res="8.8596818968653679e-03" rms="3.0202478170394897e-01" purity="2.1827939152717590e-01" nType="-99"/>
                <Node pos="r" depth="5" NCoef="0" IVar="-1" Cut="0.0000000000000000e+00" cType="1" res="-3.0620512552559376e-04" rms="2.6768445968627930e-01" purity="2.8326120972633362e-01" nType="-99"/>
              </Node>
              <Node pos="r" depth="4" NCoef="0" IVar="-1" Cut="0.0000000000000000e+00" cType="1" res="8.3294184878468513e-03" rms="3.0290597677230835e-01" purity="4.7296598553657532e-01" nType="-99"/>
            </Node>
            <Node pos="r" depth="3" NCoef="0" IVar="6" Cut="1.1493643522262573e+00" cType="1" res="-4.0587803232483566e-04" rms="2.7949690818786621e-01" purity="6.4590603113174438e-01" nType="0">
              <Node pos="l" depth="4" NCoef="0" IVar="7" Cut="8.2734185457229614e-01" cType="1" res="-7.8405765816569328e-03" rms="3.0774056911468506e-01" purity="4.3644386529922485e-01" nType="0">
                <Node pos="l" depth="5" NCoef="0" IVar="-1" Cut="0.0000000000000000e+00" cType="1" res="1.7331703566014767e-03" rms="3.3349183201789856e-01" purity="4.6636918187141418e-01" nType="-99"/>
                <Node pos="r" depth="5" NCoef="0" IVar="-1" Cut="0.0000000000000000e+00" cType="1" res="-1.0485504753887653e-02" rms="2.7939900755882263e-01" purity="4.0677025914192200e-01" nType="-99"/>
              </Node>
              <Node pos="r" depth="4" NCoef="0" IVar="4" Cut="1.6167955017089844e+02" cType="1" res="1.4799108030274510e-03" rms="2.7183455228805542e-01" purity="6.9903546571731567e-01" nType="0">
                <Node pos="l" depth="5" NCoef="0" IVar="-1" Cut="0.0000000000000000e+00" cType="1" res="2.6194211095571518e-03" rms="2.5712037086486816e-01" purity="7.8609794378280640e-01" nType="-99"/>
                <Node pos="r" depth="5" NCoef="0" IVar="-1" Cut="0.0000000000000000e+00" cType="1" res="-3.0946210026741028e-03" rms="3.2323589920997620e-01" purity="3.5588374733924866e-01" nType="-99"/>
              </Node>
            </Node>
          </Node>
        </Node>
      </Node>
    </BinaryTree>
    <BinaryTree type="DecisionTree" boostWeight="1.0000000000000000e+00" itree="234">
      <Node pos="s" depth="0" NCoef="0" IVar="9" Cut="6.9855910539627075e-01" cType="1" res="-7.8045042755547911e-05" rms="2.9564553499221802e-01" purity="5.0072568655014038e-01" nType="0">
        <Node pos="l" depth="1" NCoef="0" IVar="6" Cut="2.9117197990417480e+00" cType="1" res="-6.8214919883757830e-04" rms="2.9340553283691406e-01" purity="4.9928402900695801e-01" nType="0">
          <Node pos="l" depth="2" NCoef="0" IVar="6" Cut="1.4203545451164246e-01" cType="1" res="-1.5461936127394438e-03" rms="2.9834693670272827e-01" purity="4.5988264679908752e-01" nType="0">
            <Node pos="l" depth="3" NCoef="0" IVar="-1" Cut="0.0000000000000000e+00" cType="1" res="-6.9437874481081963e-03" rms="2.8396835923194885e-01" purity="2.2398830950260162e-01" nType="-99"/>
            <Node pos="r" depth="3" NCoef="0" IVar="6" Cut="3.4469568729400635e-01" cType="1" res="-1.2485253391787410e-03" rms="2.9872590303421021e-01" purity="4.6635082364082336e-01" nType="0">
              <Node pos="l" depth="4" NCoef="0" IVar="-1" Cut="0.0000000000000000e+00" cType="1" res="5.0945915281772614e-03" rms="3.0685108900070190e-01" purity="2.5482216477394104e-01" nType="-99"/>
              <Node pos="r" depth="4" NCoef="0" IVar="6" Cut="6.5774738788604736e-01" cType="1" res="-1.6946411924436688e-03" rms="2.9836550354957581e-01" purity="4.7539335489273071e-01" nType="0">
                <Node pos="l" depth="5" NCoef="0" IVar="-1" Cut="0.0000000000000000e+00" cType="1" res="-4.4529028236865997e-03" rms="2.9175892472267151e-01" purity="2.5440356135368347e-01" nType="-99"/>
                <Node pos="r" depth="5" NCoef="0" IVar="-1" Cut="0.0000000000000000e+00" cType="1" res="-6.8011926487088203e-04" rms="2.9883053898811340e-01" purity="4.9131587147712708e-01" nType="-99"/>
              </Node>
            </Node>
          </Node>
          <Node pos="r" depth="2" NCoef="0" IVar="9" Cut="2.9004201292991638e-01" cType="1" res="3.6251840647310019e-03" rms="2.6737174391746521e-01" purity="6.9570332765579224e-01" nType="0">
            <Node pos="l" depth="3" NCoef="0" IVar="7" Cut="1.9351954460144043e+00" cType="1" res="-6.5007582306861877e-03" rms="2.8618526458740234e-01" purity="5.2984309196472168e-01" nType="0">
              <Node pos="l" depth="4" NCoef="0" IVar="-1" Cut="0.0000000000000000e+00" cType="1" res="-6.9092656485736370e-03" rms="3.1958350539207458e-01" purity="4.1382899880409241e-01" nType="-99"/>
              <Node pos="r" depth="4" NCoef="0" IVar="-1" Cut="0.0000000000000000e+00" cType="1" res="7.2337052552029490e-04" rms="2.5027903914451599e-01" purity="6.3960409164428711e-01" nType="-99"/>
            </Node>
            <Node pos="r" depth="3" NCoef="0" IVar="7" Cut="8.6632472276687622e-01" cType="1" res="9.5154577866196632e-03" rms="2.5560763478279114e-01" purity="7.9218447208404541e-01" nType="0">
              <Node pos="l" depth="4" NCoef="0" IVar="-1" Cut="0.0000000000000000e+00" cType="1" res="-3.7186031113378704e-04" rms="2.5880962610244751e-01" purity="7.9301589727401733e-01" nType="-99"/>
              <Node pos="r" depth="4" NCoef="0" IVar="-1" Cut="0.0000000000000000e+00" cType="1" res="1.2954994104802608e-02" rms="2.5209590792655945e-01" purity="7.9138165712356567e-01" nType="-99"/>
            </Node>
          </Node>
        </Node>
        <Node pos="r" depth="1" NCoef="0" IVar="6" Cut="1.3026018142700195e+00" cType="1" res="8.2486756145954132e-03" rms="3.2483696937561035e-01" purity="5.2059662342071533e-01" nType="0">
          <Node pos="l" depth="2" NCoef="0" IVar="-1" Cut="0.0000000000000000e+00" cType="1" res="9.3032857403159142e-03" rms="3.3296594023704529e-01" purity="5.5625021457672119e-01" nType="-99"/>
          <Node pos="r" depth="2" NCoef="0" IVar="-1" Cut="0.0000000000000000e+00" cType="1" res="-4.7784503549337387e-03" rms="3.1164720654487610e-01" purity="4.6805337071418762e-01" nType="-99"/>
        </Node>
      </Node>
    </BinaryTree>
    <BinaryTree type="DecisionTree" boostWeight="1.0000000000000000e+00" itree="235">
      <Node pos="s" depth="0" NCoef="0" IVar="3" Cut="2.0731706619262695e+00" cType="1" res="-5.1352410810068250e-04" rms="2.9580155014991760e-01" purity="4.9882742762565613e-01" nType="0">
        <Node pos="l" depth="1" NCoef="0" IVar="9" Cut="3.4630629420280457e-01" cType="1" res="-1.5067601343616843e-03" rms="2.9405725002288818e-01" purity="5.5349069833755493e-01" nType="0">
          <Node pos="l" depth="2" NCoef="0" IVar="5" Cut="1.3845393371582031e+02" cType="1" res="-3.6500270944088697e-03" rms="2.9232636094093323e-01" purity="4.3916094303131104e-01" nType="0">
            <Node pos="l" depth="3" NCoef="0" IVar="9" Cut="3.2097834348678589e-01" cType="1" res="-2.4259206838905811e-03" rms="2.9699501395225525e-01" purity="4.6688386797904968e-01" nType="0">
              <Node pos="l" depth="4" NCoef="0" IVar="7" Cut="2.5661394596099854e+00" cType="1" res="-3.6883063148707151e-03" rms="2.9681915044784546e-01" purity="4.4381135702133179e-01" nType="0">
                <Node pos="l" depth="5" NCoef="0" IVar="-1" Cut="0.0000000000000000e+00" cType="1" res="-3.0429805628955364e-03" rms="3.0686888098716736e-01" purity="4.3172219395637512e-01" nType="-99"/>
                <Node pos="r" depth="5" NCoef="0" IVar="-1" Cut="0.0000000000000000e+00" cType="1" res="1.5428634360432625e-03" rms="2.6545971632003784e-01" purity="4.7884413599967957e-01" nType="-99"/>
              </Node>
              <Node pos="r" depth="4" NCoef="0" IVar="-1" Cut="0.0000000000000000e+00" cType="1" res="4.1167968884110451e-03" rms="2.9820474982261658e-01" purity="6.5128517150878906e-01" nType="-99"/>
            </Node>
            <Node pos="r" depth="3" NCoef="0" IVar="-1" Cut="0.0000000000000000e+00" cType="1" res="-1.1259913444519043e-02" rms="2.4088305234909058e-01" purity="1.6440322995185852e-01" nType="-99"/>
          </Node>
          <Node pos="r" depth="2" NCoef="0" IVar="4" Cut="1.5134654235839844e+02" cType="1" res="8.3210802404209971e-04" rms="2.9591682553291321e-01" purity="6.7825454473495483e-01" nType="0">
            <Node pos="l" depth="3" NCoef="0" IVar="9" Cut="5.6018674373626709e-01" cType="1" res="-3.5785796353593469e-04" rms="2.8681418299674988e-01" purity="7.0942020416259766e-01" nType="0">
              <Node pos="l" depth="4" NCoef="0" IVar="7" Cut="1.0447787046432495e+00" cType="1" res="-2.8496873565018177e-03" rms="2.7701115608215332e-01" purity="7.2239470481872559e-01" nType="0">
                <Node pos="l" depth="5" NCoef="0" IVar="-1" Cut="0.0000000000000000e+00" cType="1" res="-4.2889309115707874e-03" rms="2.7634686231613159e-01" purity="7.4449813365936279e-01" nType="-99"/>
                <Node pos="r" depth="5" NCoef="0" IVar="-1" Cut="0.0000000000000000e+00" cType="1" res="2.3704739287495613e-03" rms="2.7799373865127563e-01" purity="6.8525582551956177e-01" nType="-99"/>
              </Node>
              <Node pos="r" depth="4" NCoef="0" IVar="1" Cut="1.0975610017776489e+00" cType="1" res="5.1643354818224907e-03" rms="3.0735492706298828e-01" purity="6.8066716194152832e-01" nType="0">
                <Node pos="l" depth="5" NCoef="0" IVar="-1" Cut="0.0000000000000000e+00" cType="1" res="-1.1482101399451494e-03" rms="3.5971510410308838e-01" purity="4.2450031638145447e-01" nType="-99"/>
                <Node pos="r" depth="5" NCoef="0" IVar="-1" Cut="0.0000000000000000e+00" cType="1" res="6.5776584669947624e-03" rms="2.7004891633987427e-01" purity="8.3816814422607422e-01" nType="-99"/>
              </Node>
            </Node>
            <Node pos="r" depth="3" NCoef="0" IVar="7" Cut="7.3011523485183716e-01" cType="1" res="1.0477730073034763e-02" rms="3.6119058728218079e-01" purity="4.2563131451606750e-01" nType="0">
              <Node pos="l" depth="4" NCoef="0" IVar="-1" Cut="0.0000000000000000e+00" cType="1" res="8.9418785646557808e-03" rms="3.8077682256698608e-01" purity="4.7323071956634521e-01" nType="-99"/>
              <Node pos="r" depth="4" NCoef="0" IVar="-1" Cut="0.0000000000000000e+00" cType="1" res="-7.0842704735696316e-04" rms="3.4079962968826294e-01" purity="3.7972837686538696e-01" nType="-99"/>
            </Node>
          </Node>
        </Node>
        <Node pos="r" depth="1" NCoef="0" IVar="6" Cut="2.5285983085632324e+00" cType="1" res="3.1588231213390827e-03" rms="3.0213510990142822e-01" purity="2.9671782255172729e-01" nType="0">
          <Node pos="l" depth="2" NCoef="0" IVar="7" Cut="9.8907011747360229e-01" cType="1" res="7.4855382554233074e-03" rms="3.0414372682571411e-01" purity="2.3410609364509583e-01" nType="0">
            <Node pos="l" depth="3" NCoef="0" IVar="5" Cut="9.5055770874023438e+01" cType="1" res="1.5626160427927971e-02" rms="3.4230345487594604e-01" purity="3.0721974372863770e-01" nType="0">
              <Node pos="l" depth="4" NCoef="0" IVar="-1" Cut="0.0000000000000000e+00" cType="1" res="1.1023158440366387e-03" rms="3.4044939279556274e-01" purity="3.9653411507606506e-01" nType="-99"/>
              <Node pos="r" depth="4" NCoef="0" IVar="-1" Cut="0.0000000000000000e+00" cType="1" res="1.5545788221061230e-02" rms="3.4364008903503418e-01" purity="2.1888183057308197e-01" nType="-99"/>
            </Node>
            <Node pos="r" depth="3" NCoef="0" IVar="8" Cut="3.1900718808174133e-01" cType="1" res="1.8012744840234518e-04" rms="2.6505327224731445e-01" purity="1.6849377751350403e-01" nType="0">
              <Node pos="l" depth="4" NCoef="0" IVar="0" Cut="1.0975610017776489e+00" cType="1" res="5.3082583472132683e-03" rms="2.4832001328468323e-01" purity="1.3712176680564880e-01" nType="0">
                <Node pos="l" depth="5" NCoef="0" IVar="-1" Cut="0.0000000000000000e+00" cType="1" res="-4.2829657904803753e-03" rms="1.7141881585121155e-01" purity="3.9469040930271149e-02" nType="-99"/>
                <Node pos="r" depth="5" NCoef="0" IVar="-1" Cut="0.0000000000000000e+00" cType="1" res="8.1670274958014488e-03" rms="3.2165518403053284e-01" purity="2.6415842771530151e-01" nType="-99"/>
              </Node>
              <Node pos="r" depth="4" NCoef="0" IVar="-1" Cut="0.0000000000000000e+00" cType="1" res="-5.2446061745285988e-03" rms="2.9388785362243652e-01" purity="2.2787806391716003e-01" nType="-99"/>
            </Node>
          </Node>
          <Node pos="r" depth="2" NCoef="0" IVar="4" Cut="1.2294945526123047e+02" cType="1" res="-5.7846526615321636e-03" rms="2.9774102568626404e-01" purity="4.2613843083381653e-01" nType="0">
            <Node pos="l" depth="3" NCoef="0" IVar="6" Cut="2.8575208187103271e+00" cType="1" res="1.4098178362473845e-03" rms="3.1018242239952087e-01" purity="4.6493351459503174e-01" nType="0">
              <Node pos="l" depth="4" NCoef="0" IVar="-1" Cut="0.0000000000000000e+00" cType="1" res="2.4230766575783491e-03" rms="3.1972289085388184e-01" purity="4.3212288618087769e-01" nType="-99"/>
              <Node pos="r" depth="4" NCoef="0" IVar="-1" Cut="0.0000000000000000e+00" cType="1" res="-1.0639944812282920e-03" rms="3.0063027143478394e-01" purity="4.9665027856826782e-01" nType="-99"/>
            </Node>
            <Node pos="r" depth="3" NCoef="0" IVar="-1" Cut="0.0000000000000000e+00" cType="1" res="-9.1702248901128769e-03" rms="2.7859884500503540e-01" purity="3.7047725915908813e-01" nType="-99"/>
          </Node>
        </Node>
      </Node>
    </BinaryTree>
    <BinaryTree type="DecisionTree" boostWeight="1.0000000000000000e+00" itree="236">
      <Node pos="s" depth="0" NCoef="0" IVar="4" Cut="1.6295329284667969e+02" cType="1" res="1.8069681245833635e-03" rms="2.9639494419097900e-01" purity="5.0288569927215576e-01" nType="0">
        <Node pos="l" depth="1" NCoef="0" IVar="8" Cut="6.0032850503921509e-01" cType="1" res="2.9087609145790339e-03" rms="2.9984024167060852e-01" purity="5.6108707189559937e-01" nType="0">
          <Node pos="l" depth="2" NCoef="0" IVar="8" Cut="1.9048841297626495e-01" cType="1" res="1.9046838860958815e-03" rms="2.9266306757926941e-01" purity="5.5851429700851440e-01" nType="0">
            <Node pos="l" depth="3" NCoef="0" IVar="6" Cut="2.5285971164703369e+00" cType="1" res="-5.2857217378914356e-03" rms="2.8468430042266846e-01" purity="3.2644981145858765e-01" nType="0">
              <Node pos="l" depth="4" NCoef="0" IVar="8" Cut="1.2087268382310867e-01" cType="1" res="-1.6950416611507535e-03" rms="2.8127175569534302e-01" purity="2.7246829867362976e-01" nType="0">
                <Node pos="l" depth="5" NCoef="0" IVar="-1" Cut="0.0000000000000000e+00" cType="1" res="3.4726064186543226e-03" rms="2.7020177245140076e-01" purity="1.8266962468624115e-01" nType="-99"/>
                <Node pos="r" depth="5" NCoef="0" IVar="-1" Cut="0.0000000000000000e+00" cType="1" res="-3.8449515122920275e-03" rms="2.8926378488540649e-01" purity="3.4040284156799316e-01" nType="-99"/>
              </Node>
              <Node pos="r" depth="4" NCoef="0" IVar="8" Cut="1.3946050405502319e-01" cType="1" res="-1.3474825769662857e-02" rms="2.9215314984321594e-01" purity="4.4956302642822266e-01" nType="0">
                <Node pos="l" depth="5" NCoef="0" IVar="-1" Cut="0.0000000000000000e+00" cType="1" res="-1.1353789828717709e-02" rms="2.8890776634216309e-01" purity="3.2978734374046326e-01" nType="-99"/>
                <Node pos="r" depth="5" NCoef="0" IVar="-1" Cut="0.0000000000000000e+00" cType="1" res="-3.4709805622696877e-03" rms="2.9484993219375610e-01" purity="5.5666363239288330e-01" nType="-99"/>
              </Node>
            </Node>
            <Node pos="r" depth="3" NCoef="0" IVar="7" Cut="2.3974454402923584e+00" cType="1" res="3.6306718830019236e-03" rms="2.9452002048492432e-01" purity="6.1421918869018555e-01" nType="0">
              <Node pos="l" depth="4" NCoef="0" IVar="6" Cut="1.1493628025054932e+00" cType="1" res="2.3709679953753948e-03" rms="2.9803737998008728e-01" purity="6.1977916955947876e-01" nType="0">
                <Node pos="l" depth="5" NCoef="0" IVar="-1" Cut="0.0000000000000000e+00" cType="1" res="-3.1097561586648226e-03" rms="3.1526055932044983e-01" purity="3.9704322814941406e-01" nType="-99"/>
                <Node pos="r" depth="5" NCoef="0" IVar="-1" Cut="0.0000000000000000e+00" cType="1" res="2.3842772934585810e-03" rms="2.9434934258460999e-01" purity="6.6544377803802490e-01" nType="-99"/>
              </Node>
              <Node pos="r" depth="4" NCoef="0" IVar="8" Cut="3.0044627189636230e-01" cType="1" res="1.4082192443311214e-02" rms="2.6330029964447021e-01" purity="5.6808859109878540e-01" nType="0">
                <Node pos="l" depth="5" NCoef="0" IVar="-1" Cut="0.0000000000000000e+00" cType="1" res="5.7666697539389133e-03" rms="2.4203407764434814e-01" purity="6.2018555402755737e-01" nType="-99"/>
                <Node pos="r" depth="5" NCoef="0" IVar="-1" Cut="0.0000000000000000e+00" cType="1" res="1.4232420362532139e-02" rms="3.0235621333122253e-01" purity="4.6003580093383789e-01" nType="-99"/>
              </Node>
            </Node>
          </Node>
          <Node pos="r" depth="2" NCoef="0" IVar="4" Cut="1.2288880920410156e+02" cType="1" res="1.0117214173078537e-02" rms="3.4695023298263550e-01" purity="5.7955741882324219e-01" nType="0">
            <Node pos="l" depth="3" NCoef="0" IVar="4" Cut="8.2913108825683594e+01" cType="1" res="2.2755502723157406e-03" rms="3.4878829121589661e-01" purity="5.5665111541748047e-01" nType="0">
              <Node pos="l" depth="4" NCoef="0" IVar="-1" Cut="0.0000000000000000e+00" cType="1" res="4.7386400401592255e-03" rms="3.7694367766380310e-01" purity="3.7867373228073120e-01" nType="-99"/>
              <Node pos="r" depth="4" NCoef="0" IVar="-1" Cut="0.0000000000000000e+00" cType="1" res="-1.4569952618330717e-03" rms="3.3380350470542908e-01" purity="6.4492624998092651e-01" nType="-99"/>
            </Node>
            <Node pos="r" depth="3" NCoef="0" IVar="-1" Cut="0.0000000000000000e+00" cType="1" res="1.1642528697848320e-02" rms="3.4258970618247986e-01" purity="6.2652552127838135e-01" nType="-99"/>
          </Node>
        </Node>
        <Node pos="r" depth="1" NCoef="0" IVar="7" Cut="7.7186232805252075e-01" cType="1" res="-4.1498620994389057e-03" rms="2.7695092558860779e-01" purity="1.8822064995765686e-01" nType="0">
          <Node pos="l" depth="2" NCoef="0" IVar="8" Cut="3.7561109662055969e-01" cType="1" res="7.4258269742131233e-03" rms="3.2332876324653625e-01" purity="2.4268740415573120e-01" nType="0">
            <Node pos="l" depth="3" NCoef="0" IVar="-1" Cut="0.0000000000000000e+00" cType="1" res="1.4025971293449402e-02" rms="3.0859127640724182e-01" purity="1.5348982810974121e-01" nType="-99"/>
            <Node pos="r" depth="3" NCoef="0" IVar="-1" Cut="0.0000000000000000e+00" cType="1" res="-2.0989961922168732e-03" rms="3.3513021469116211e-01" purity="3.2016286253929138e-01" nType="-99"/>
          </Node>
          <Node pos="r" depth="2" NCoef="0" IVar="7" Cut="1.9641704559326172e+00" cType="1" res="-1.0333923622965813e-02" rms="2.4843356013298035e-01" purity="1.5912295877933502e-01" nType="0">
            <Node pos="l" depth="3" NCoef="0" IVar="0" Cut="2.0731706619262695e+00" cType="1" res="-1.9013250246644020e-02" rms="2.6039382815361023e-01" purity="1.7840437591075897e-01" nType="0">
              <Node pos="l" depth="4" NCoef="0" IVar="-1" Cut="0.0000000000000000e+00" cType="1" res="-8.3459578454494476e-03" rms="1.9568605720996857e-01" purity="6.6096216440200806e-02" nType="-99"/>
              <Node pos="r" depth="4" NCoef="0" IVar="-1" Cut="0.0000000000000000e+00" cType="1" res="-1.3316945172846317e-02" rms="3.1332781910896301e-01" purity="2.9502525925636292e-01" nType="-99"/>
            </Node>
            <Node pos="r" depth="3" NCoef="0" IVar="6" Cut="2.0688676834106445e+00" cType="1" res="8.8912242790684104e-04" rms="2.3157411813735962e-01" purity="1.3419055938720703e-01" nType="0">
              <Node pos="l" depth="4" NCoef="0" IVar="-1" Cut="0.0000000000000000e+00" cType="1" res="-1.0856688953936100e-02" rms="1.7495498061180115e-01" purity="4.5962028205394745e-02" nType="-99"/>
              <Node pos="r" depth="4" NCoef="0" IVar="-1" Cut="0.0000000000000000e+00" cType="1" res="6.1454414390027523e-03" rms="2.8047406673431396e-01" purity="2.3097550868988037e-01" nType="-99"/>
            </Node>
          </Node>
        </Node>
      </Node>
    </BinaryTree>
    <BinaryTree type="DecisionTree" boostWeight="1.0000000000000000e+00" itree="237">
      <Node pos="s" depth="0" NCoef="0" IVar="8" Cut="9.6242362260818481e-01" cType="1" res="3.9588764775544405e-04" rms="2.9675436019897461e-01" purity="4.9962449073791504e-01" nType="0">
        <Node pos="l" depth="1" NCoef="0" IVar="4" Cut="2.2678746032714844e+02" cType="1" res="8.8071305071935058e-04" rms="2.9589802026748657e-01" purity="5.0513809919357300e-01" nType="0">
          <Node pos="l" depth="2" NCoef="0" IVar="9" Cut="2.4009531736373901e-01" cType="1" res="5.3979747463017702e-04" rms="2.9650676250457764e-01" purity="5.1451867818832397e-01" nType="0">
            <Node pos="l" depth="3" NCoef="0" IVar="4" Cut="1.3252220153808594e+02" cType="1" res="4.0104030631482601e-03" rms="2.9153460264205933e-01" purity="3.1074151396751404e-01" nType="0">
              <Node pos="l" depth="4" NCoef="0" IVar="6" Cut="9.9611389636993408e-01" cType="1" res="-5.0979911065951455e-06" rms="3.0130389332771301e-01" purity="3.8662624359130859e-01" nType="0">
                <Node pos="l" depth="5" NCoef="0" IVar="-1" Cut="0.0000000000000000e+00" cType="1" res="7.5529357418417931e-03" rms="2.9557532072067261e-01" purity="1.9651839137077332e-01" nType="-99"/>
                <Node pos="r" depth="5" NCoef="0" IVar="-1" Cut="0.0000000000000000e+00" cType="1" res="-1.4379419153556228e-03" rms="3.0251681804656982e-01" purity="4.2964398860931396e-01" nType="-99"/>
              </Node>
              <Node pos="r" depth="4" NCoef="0" IVar="8" Cut="1.8826675415039062e-01" cType="1" res="1.0545440018177032e-02" rms="2.7476885914802551e-01" purity="1.8724270164966583e-01" nType="0">
                <Node pos="l" depth="5" NCoef="0" IVar="-1" Cut="0.0000000000000000e+00" cType="1" res="-5.4107024334371090e-03" rms="2.0397962629795074e-01" purity="9.2646777629852295e-02" nType="-99"/>
                <Node pos="r" depth="5" NCoef="0" IVar="-1" Cut="0.0000000000000000e+00" cType="1" res="9.5308776944875717e-03" rms="2.9407295584678650e-01" purity="2.1817722916603088e-01" nType="-99"/>
              </Node>
            </Node>
            <Node pos="r" depth="3" NCoef="0" IVar="7" Cut="2.1135940551757812e+00" cType="1" res="-8.1858504563570023e-04" rms="2.9841929674148560e-01" purity="5.9427624940872192e-01" nType="0">
              <Node pos="l" depth="4" NCoef="0" IVar="8" Cut="1.1839198321104050e-01" cType="1" res="-2.0522777922451496e-03" rms="3.0161678791046143e-01" purity="6.0575121641159058e-01" nType="0">
                <Node pos="l" depth="5" NCoef="0" IVar="-1" Cut="0.0000000000000000e+00" cType="1" res="9.1988863423466682e-03" rms="2.8763526678085327e-01" purity="2.2283497452735901e-01" nType="-99"/>
                <Node pos="r" depth="5" NCoef="0" IVar="-1" Cut="0.0000000000000000e+00" cType="1" res="-1.4522095443680882e-03" rms="3.0214762687683105e-01" purity="6.2118899822235107e-01" nType="-99"/>
              </Node>
              <Node pos="r" depth="4" NCoef="0" IVar="9" Cut="3.0062386393547058e-01" cType="1" res="9.0833120048046112e-03" rms="2.7119123935699463e-01" purity="5.0217592716217041e-01" nType="0">
                <Node pos="l" depth="5" NCoef="0" IVar="-1" Cut="0.0000000000000000e+00" cType="1" res="-1.1967708269366995e-04" rms="2.4464018642902374e-01" purity="5.9494739770889282e-01" nType="-99"/>
                <Node pos="r" depth="5" NCoef="0" IVar="-1" Cut="0.0000000000000000e+00" cType="1" res="9.6468804404139519e-03" rms="2.9019880294799805e-01" purity="4.2907857894897461e-01" nType="-99"/>
              </Node>
            </Node>
          </Node>
          <Node pos="r" depth="2" NCoef="0" IVar="-1" Cut="0.0000000000000000e+00" cType="1" res="7.1561760269105434e-03" rms="2.7640873193740845e-01" purity="2.1792694926261902e-01" nType="-99"/>
        </Node>
        <Node pos="r" depth="1" NCoef="0" IVar="-1" Cut="0.0000000000000000e+00" cType="1" res="-7.9398341476917267e-03" rms="3.2622855901718140e-01" purity="2.9658457636833191e-01" nType="-99"/>
      </Node>
    </BinaryTree>
    <BinaryTree type="DecisionTree" boostWeight="1.0000000000000000e+00" itree="238">
      <Node pos="s" depth="0" NCoef="0" IVar="2" Cut="1.0975610017776489e+00" cType="1" res="1.0305761825293303e-03" rms="2.9635077714920044e-01" purity="5.0225394964218140e-01" nType="0">
        <Node pos="l" depth="1" NCoef="0" IVar="6" Cut="3.0649727582931519e-01" cType="1" res="2.3298209998756647e-03" rms="3.0988538265228271e-01" purity="6.0852211713790894e-01" nType="0">
          <Node pos="l" depth="2" NCoef="0" IVar="-1" Cut="0.0000000000000000e+00" cType="1" res="-6.1764004640281200e-03" rms="3.2125163078308105e-01" purity="3.2942810654640198e-01" nType="-99"/>
          <Node pos="r" depth="2" NCoef="0" IVar="6" Cut="5.1394337415695190e-01" cType="1" res="3.1296103261411190e-03" rms="3.0927354097366333e-01" purity="6.2274676561355591e-01" nType="0">
            <Node pos="l" depth="3" NCoef="0" IVar="-1" Cut="0.0000000000000000e+00" cType="1" res="7.7525554224848747e-03" rms="3.3489844202995300e-01" purity="4.0219217538833618e-01" nType="-99"/>
            <Node pos="r" depth="3" NCoef="0" IVar="4" Cut="1.6295329284667969e+02" cType="1" res="2.5681655388325453e-03" rms="3.0817371606826782e-01" purity="6.3171273469924927e-01" nType="0">
              <Node pos="l" depth="4" NCoef="0" IVar="4" Cut="1.2983299255371094e+02" cType="1" res="1.5218672342598438e-03" rms="3.0538696050643921e-01" purity="6.8553096055984497e-01" nType="0">
                <Node pos="l" depth="5" NCoef="0" IVar="-1" Cut="0.0000000000000000e+00" cType="1" res="1.5556749422103167e-03" rms="3.0481734871864319e-01" purity="6.9791734218597412e-01" nType="-99"/>
                <Node pos="r" depth="5" NCoef="0" IVar="-1" Cut="0.0000000000000000e+00" cType="1" res="-2.5072442367672920e-03" rms="3.0778294801712036e-01" purity="6.3143742084503174e-01" nType="-99"/>
              </Node>
              <Node pos="r" depth="4" NCoef="0" IVar="6" Cut="2.2443463802337646e+00" cType="1" res="9.3356389552354813e-03" rms="3.2554170489311218e-01" purity="2.8361529111862183e-01" nType="0">
                <Node pos="l" depth="5" NCoef="0" IVar="-1" Cut="0.0000000000000000e+00" cType="1" res="7.4255041545256972e-04" rms="3.0309963226318359e-01" purity="1.6594590246677399e-01" nType="-99"/>
                <Node pos="r" depth="5" NCoef="0" IVar="-1" Cut="0.0000000000000000e+00" cType="1" res="7.1560409851372242e-03" rms="3.4728655219078064e-01" purity="4.0678098797798157e-01" nType="-99"/>
              </Node>
            </Node>
          </Node>
        </Node>
        <Node pos="r" depth="1" NCoef="0" IVar="4" Cut="8.7512832641601562e+01" cType="1" res="-2.0350117702037096e-03" rms="2.6162981986999512e-01" purity="2.5151267647743225e-01" nType="0">
          <Node pos="l" depth="2" NCoef="0" IVar="9" Cut="3.5831987857818604e-01" cType="1" res="4.1457228362560272e-03" rms="2.5997760891914368e-01" purity="1.4509835839271545e-01" nType="0">
            <Node pos="l" depth="3" NCoef="0" IVar="6" Cut="2.0688529014587402e+00" cType="1" res="1.0602306574583054e-02" rms="2.4384865164756775e-01" purity="1.0681662708520889e-01" nType="0">
              <Node pos="l" depth="4" NCoef="0" IVar="-1" Cut="0.0000000000000000e+00" cType="1" res="1.9600711762905121e-02" rms="2.2993992269039154e-01" purity="8.0975271761417389e-02" nType="-99"/>
              <Node pos="r" depth="4" NCoef="0" IVar="-1" Cut="0.0000000000000000e+00" cType="1" res="3.9480556733906269e-03" rms="2.5742939114570618e-01" purity="1.3375049829483032e-01" nType="-99"/>
            </Node>
            <Node pos="r" depth="3" NCoef="0" IVar="6" Cut="1.9156072139739990e+00" cType="1" res="-2.1234734449535608e-03" rms="2.7458864450454712e-01" purity="1.8226902186870575e-01" nType="0">
              <Node pos="l" depth="4" NCoef="0" IVar="-1" Cut="0.0000000000000000e+00" cType="1" res="-6.3191344961524010e-03" rms="2.6296329498291016e-01" purity="1.4043553173542023e-01" nType="-99"/>
              <Node pos="r" depth="4" NCoef="0" IVar="-1" Cut="0.0000000000000000e+00" cType="1" res="3.4772267099469900e-03" rms="2.8669378161430359e-01" purity="2.2858941555023193e-01" nType="-99"/>
            </Node>
          </Node>
          <Node pos="r" depth="2" NCoef="0" IVar="5" Cut="7.7698669433593750e+01" cType="1" res="-4.4485293328762054e-03" rms="2.6223263144493103e-01" purity="2.9306641221046448e-01" nType="0">
            <Node pos="l" depth="3" NCoef="0" IVar="6" Cut="2.3753497600555420e+00" cType="1" res="-1.1105868034064770e-02" rms="2.8655219078063965e-01" purity="3.2337033748626709e-01" nType="0">
              <Node pos="l" depth="4" NCoef="0" IVar="6" Cut="1.3904495239257812e+00" cType="1" res="-6.6753234714269638e-03" rms="2.8852248191833496e-01" purity="2.7923685312271118e-01" nType="0">
                <Node pos="l" depth="5" NCoef="0" IVar="-1" Cut="0.0000000000000000e+00" cType="1" res="-3.5985163412988186e-03" rms="2.9098179936408997e-01" purity="2.3735961318016052e-01" nType="-99"/>
                <Node pos="r" depth="5" NCoef="0" IVar="-1" Cut="0.0000000000000000e+00" cType="1" res="-4.1793859563767910e-03" rms="2.8604918718338013e-01" purity="3.2097756862640381e-01" nType="-99"/>
              </Node>
              <Node pos="r" depth="4" NCoef="0" IVar="-1" Cut="0.0000000000000000e+00" cType="1" res="-1.0374017059803009e-02" rms="2.8280803561210632e-01" purity="4.0257027745246887e-01" nType="-99"/>
            </Node>
            <Node pos="r" depth="3" NCoef="0" IVar="5" Cut="9.9779525756835938e+01" cType="1" res="-1.7236705170944333e-03" rms="2.5155073404312134e-01" purity="2.8066298365592957e-01" nType="0">
              <Node pos="l" depth="4" NCoef="0" IVar="8" Cut="3.5621926188468933e-01" cType="1" res="4.2854193598031998e-03" rms="2.7425420284271240e-01" purity="4.6394750475883484e-01" nType="0">
                <Node pos="l" depth="5" NCoef="0" IVar="-1" Cut="0.0000000000000000e+00" cType="1" res="7.2220945730805397e-03" rms="2.6795181632041931e-01" purity="4.0381908416748047e-01" nType="-99"/>
                <Node pos="r" depth="5" NCoef="0" IVar="-1" Cut="0.0000000000000000e+00" cType="1" res="-2.6151831261813641e-03" rms="2.8223732113838196e-01" purity="5.4449486732482910e-01" nType="-99"/>
              </Node>
              <Node pos="r" depth="4" NCoef="0" IVar="2" Cut="4.0487804412841797e+00" cType="1" res="-5.3467988036572933e-03" rms="2.3673865199089050e-01" purity="1.7015320062637329e-01" nType="0">
                <Node pos="l" depth="5" NCoef="0" IVar="-1" Cut="0.0000000000000000e+00" cType="1" res="-8.2782665267586708e-03" rms="2.7906304597854614e-01" purity="3.3084848523139954e-01" nType="-99"/>
                <Node pos="r" depth="5" NCoef="0" IVar="-1" Cut="0.0000000000000000e+00" cType="1" res="4.2481897980906069e-04" rms="2.0513106882572174e-01" purity="6.7969456315040588e-02" nType="-99"/>
              </Node>
            </Node>
          </Node>
        </Node>
      </Node>
    </BinaryTree>
    <BinaryTree type="DecisionTree" boostWeight="1.0000000000000000e+00" itree="239">
      <Node pos="s" depth="0" NCoef="0" IVar="5" Cut="3.3720401763916016e+01" cType="1" res="6.7873211810365319e-04" rms="2.9675382375717163e-01" purity="5.0062602758407593e-01" nType="0">
        <Node pos="l" depth="1" NCoef="0" IVar="-1" Cut="0.0000000000000000e+00" cType="1" res="-6.9855470210313797e-03" rms="3.3019688725471497e-01" purity="2.8329250216484070e-01" nType="-99"/>
        <Node pos="r" depth="1" NCoef="0" IVar="6" Cut="2.0688538551330566e+00" cType="1" res="1.0742360027506948e-03" rms="2.9590901732444763e-01" purity="5.0574541091918945e-01" nType="0">
          <Node pos="l" depth="2" NCoef="0" IVar="8" Cut="2.4011726677417755e-01" cType="1" res="2.8637081850320101e-03" rms="3.0739197134971619e-01" purity="3.8871514797210693e-01" nType="0">
            <Node pos="l" depth="3" NCoef="0" IVar="7" Cut="1.5273393392562866e+00" cType="1" res="8.7280850857496262e-03" rms="2.7346748113632202e-01" purity="2.4775508046150208e-01" nType="0">
              <Node pos="l" depth="4" NCoef="0" IVar="4" Cut="1.1703652954101562e+02" cType="1" res="1.9725527614355087e-02" rms="2.9533824324607849e-01" purity="2.8192088007926941e-01" nType="0">
                <Node pos="l" depth="5" NCoef="0" IVar="-1" Cut="0.0000000000000000e+00" cType="1" res="3.1961479689925909e-03" rms="2.9606470465660095e-01" purity="3.1627163290977478e-01" nType="-99"/>
                <Node pos="r" depth="5" NCoef="0" IVar="-1" Cut="0.0000000000000000e+00" cType="1" res="2.3716265335679054e-02" rms="2.9401612281799316e-01" purity="2.4944129586219788e-01" nType="-99"/>
              </Node>
              <Node pos="r" depth="4" NCoef="0" IVar="8" Cut="1.6990558803081512e-01" cType="1" res="6.5880100009962916e-04" rms="2.5593492388725281e-01" purity="2.2268623113632202e-01" nType="0">
                <Node pos="l" depth="5" NCoef="0" IVar="-1" Cut="0.0000000000000000e+00" cType="1" res="-2.7965805493295193e-03" rms="2.4314662814140320e-01" purity="1.7650243639945984e-01" nType="-99"/>
                <Node pos="r" depth="5" NCoef="0" IVar="-1" Cut="0.0000000000000000e+00" cType="1" res="4.9905655905604362e-03" rms="2.7652823925018311e-01" purity="3.0264899134635925e-01" nType="-99"/>
              </Node>
            </Node>
            <Node pos="r" depth="3" NCoef="0" IVar="8" Cut="8.1058090925216675e-01" cType="1" res="3.1606428092345595e-04" rms="3.2098120450973511e-01" purity="4.4995200634002686e-01" nType="0">
              <Node pos="l" depth="4" NCoef="0" IVar="8" Cut="4.0708199143409729e-01" cType="1" res="-1.2058634310960770e-03" rms="3.1821274757385254e-01" purity="4.5145484805107117e-01" nType="0">
                <Node pos="l" depth="5" NCoef="0" IVar="-1" Cut="0.0000000000000000e+00" cType="1" res="2.1843616850674152e-03" rms="3.1028842926025391e-01" purity="3.9813280105590820e-01" nType="-99"/>
                <Node pos="r" depth="5" NCoef="0" IVar="-1" Cut="0.0000000000000000e+00" cType="1" res="-2.9067702125757933e-03" rms="3.2551553845405579e-01" purity="5.0233417749404907e-01" nType="-99"/>
              </Node>
              <Node pos="r" depth="4" NCoef="0" IVar="-1" Cut="0.0000000000000000e+00" cType="1" res="5.1142866723239422e-03" rms="3.4086841344833374e-01" purity="4.3864741921424866e-01" nType="-99"/>
            </Node>
          </Node>
          <Node pos="r" depth="2" NCoef="0" IVar="9" Cut="3.8299083709716797e-01" cType="1" res="-5.1834108307957649e-04" rms="2.8529167175292969e-01" purity="6.0989892482757568e-01" nType="0">
            <Node pos="l" depth="3" NCoef="0" IVar="4" Cut="9.3892906188964844e+01" cType="1" res="-3.1729589682072401e-03" rms="2.9373419284820557e-01" purity="5.3380352258682251e-01" nType="0">
              <Node pos="l" depth="4" NCoef="0" IVar="9" Cut="2.9898408055305481e-01" cType="1" res="-1.2240288779139519e-02" rms="3.1849917769432068e-01" purity="3.4611552953720093e-01" nType="0">
                <Node pos="l" depth="5" NCoef="0" IVar="-1" Cut="0.0000000000000000e+00" cType="1" res="-9.2806434258818626e-03" rms="3.0748638510704041e-01" purity="2.7905729413032532e-01" nType="-99"/>
                <Node pos="r" depth="5" NCoef="0" IVar="-1" Cut="0.0000000000000000e+00" cType="1" res="-3.9124378236010671e-04" rms="3.3817434310913086e-01" purity="4.7370037436485291e-01" nType="-99"/>
              </Node>
              <Node pos="r" depth="4" NCoef="0" IVar="7" Cut="7.3157680034637451e-01" cType="1" res="-6.9114612415432930e-04" rms="2.8653296828269958e-01" purity="5.8517551422119141e-01" nType="0">
                <Node pos="l" depth="5" NCoef="0" IVar="-1" Cut="0.0000000000000000e+00" cType="1" res="-5.5651771835982800e-03" rms="3.1767788529396057e-01" purity="5.3455215692520142e-01" nType="-99"/>
                <Node pos="r" depth="5" NCoef="0" IVar="-1" Cut="0.0000000000000000e+00" cType="1" res="1.6702824505046010e-03" rms="2.7526888251304626e-01" purity="6.0207343101501465e-01" nType="-99"/>
              </Node>
            </Node>
            <Node pos="r" depth="3" NCoef="0" IVar="8" Cut="2.6584234833717346e-01" cType="1" res="3.8195545785129070e-03" rms="2.7087426185607910e-01" purity="7.3424583673477173e-01" nType="0">
              <Node pos="l" depth="4" NCoef="0" IVar="7" Cut="1.5817737579345703e+00" cType="1" res="-5.4630758240818977e-03" rms="3.1433576345443726e-01" purity="5.1964926719665527e-01" nType="0">
                <Node pos="l" depth="5" NCoef="0" IVar="-1" Cut="0.0000000000000000e+00" cType="1" res="-5.9596304781734943e-03" rms="3.1546700000762939e-01" purity="5.3158450126647949e-01" nType="-99"/>
                <Node pos="r" depth="5" NCoef="0" IVar="-1" Cut="0.0000000000000000e+00" cType="1" res="4.8774518072605133e-03" rms="3.1123691797256470e-01" purity="4.9286803603172302e-01" nType="-99"/>
              </Node>
              <Node pos="r" depth="4" NCoef="0" IVar="6" Cut="2.6706342697143555e+00" cType="1" res="8.5366042330861092e-03" rms="2.4572803080081940e-01" purity="8.4329497814178467e-01" nType="0">
                <Node pos="l" depth="5" NCoef="0" IVar="-1" Cut="0.0000000000000000e+00" cType="1" res="5.3678901167586446e-04" rms="2.7363923192024231e-01" purity="7.8264015913009644e-01" nType="-99"/>
                <Node pos="r" depth="5" NCoef="0" IVar="-1" Cut="0.0000000000000000e+00" cType="1" res="1.0706312023103237e-02" rms="2.2681573033332825e-01" purity="8.8044577836990356e-01" nType="-99"/>
              </Node>
            </Node>
          </Node>
        </Node>
      </Node>
    </BinaryTree>
    <BinaryTree type="DecisionTree" boostWeight="1.0000000000000000e+00" itree="240">
      <Node pos="s" depth="0" NCoef="0" IVar="7" Cut="2.9672091007232666e+00" cType="1" res="1.1490358883747831e-04" rms="2.9609987139701843e-01" purity="5.0108861923217773e-01" nType="0">
        <Node pos="l" depth="1" NCoef="0" IVar="8" Cut="6.2319403886795044e-01" cType="1" res="-6.1050249496474862e-04" rms="2.9867100715637207e-01" purity="5.1482522487640381e-01" nType="0">
          <Node pos="l" depth="2" NCoef="0" IVar="5" Cut="4.0936363220214844e+01" cType="1" res="-1.3923783553764224e-03" rms="2.9231750965118408e-01" purity="5.1810193061828613e-01" nType="0">
            <Node pos="l" depth="3" NCoef="0" IVar="-1" Cut="0.0000000000000000e+00" cType="1" res="-6.3637723214924335e-03" rms="3.2861173152923584e-01" purity="3.1066468358039856e-01" nType="-99"/>
            <Node pos="r" depth="3" NCoef="0" IVar="9" Cut="7.2087937593460083e-01" cType="1" res="-8.3547621034085751e-04" rms="2.9066088795661926e-01" purity="5.2692157030105591e-01" nType="0">
              <Node pos="l" depth="4" NCoef="0" IVar="4" Cut="7.6416275024414062e+01" cType="1" res="-1.5810180921107531e-03" rms="2.8859731554985046e-01" purity="5.2861124277114868e-01" nType="0">
                <Node pos="l" depth="5" NCoef="0" IVar="-1" Cut="0.0000000000000000e+00" cType="1" res="-4.1468036361038685e-03" rms="3.1558051705360413e-01" purity="2.5305852293968201e-01" nType="-99"/>
                <Node pos="r" depth="5" NCoef="0" IVar="-1" Cut="0.0000000000000000e+00" cType="1" res="-2.5400437880307436e-04" rms="2.8379240632057190e-01" purity="5.7493853569030762e-01" nType="-99"/>
              </Node>
              <Node pos="r" depth="4" NCoef="0" IVar="7" Cut="6.5133500099182129e-01" cType="1" res="9.2697674408555031e-03" rms="3.1713736057281494e-01" purity="5.0401937961578369e-01" nType="0">
                <Node pos="l" depth="5" NCoef="0" IVar="-1" Cut="0.0000000000000000e+00" cType="1" res="1.0063608177006245e-02" rms="3.2883998751640320e-01" purity="5.7875514030456543e-01" nType="-99"/>
                <Node pos="r" depth="5" NCoef="0" IVar="-1" Cut="0.0000000000000000e+00" cType="1" res="-2.2201375104486942e-03" rms="3.0364993214607239e-01" purity="4.2475256323814392e-01" nType="-99"/>
              </Node>
            </Node>
          </Node>
          <Node pos="r" depth="2" NCoef="0" IVar="9" Cut="3.3205845952033997e-01" cType="1" res="5.0542261451482773e-03" rms="3.4113317728042603e-01" purity="4.9108511209487915e-01" nType="0">
            <Node pos="l" depth="3" NCoef="0" IVar="7" Cut="8.6845970153808594e-01" cType="1" res="1.2094168923795223e-02" rms="3.4724068641662598e-01" purity="3.9554998278617859e-01" nType="0">
              <Node pos="l" depth="4" NCoef="0" IVar="-1" Cut="0.0000000000000000e+00" cType="1" res="1.1067483574151993e-02" rms="3.6283922195434570e-01" purity="4.7019231319427490e-01" nType="-99"/>
              <Node pos="r" depth="4" NCoef="0" IVar="-1" Cut="0.0000000000000000e+00" cType="1" res="-2.5469586253166199e-03" rms="3.2646259665489197e-01" purity="3.0497536063194275e-01" nType="-99"/>
            </Node>
            <Node pos="r" depth="3" NCoef="0" IVar="-1" Cut="0.0000000000000000e+00" cType="1" res="-2.7679551858454943e-03" rms="3.3056175708770752e-01" purity="6.4757287502288818e-01" nType="-99"/>
          </Node>
        </Node>
        <Node pos="r" depth="1" NCoef="0" IVar="8" Cut="1.3432781398296356e-01" cType="1" res="8.0439560115337372e-03" rms="2.6625409722328186e-01" purity="3.5094124078750610e-01" nType="0">
          <Node pos="l" depth="2" NCoef="0" IVar="-1" Cut="0.0000000000000000e+00" cType="1" res="-2.0627640187740326e-03" rms="2.6159170269966125e-01" purity="2.2383582592010498e-01" nType="-99"/>
          <Node pos="r" depth="2" NCoef="0" IVar="9" Cut="1.1499267816543579e-01" cType="1" res="1.5581289306282997e-02" rms="2.6910090446472168e-01" purity="4.3692606687545776e-01" nType="0">
            <Node pos="l" depth="3" NCoef="0" IVar="-1" Cut="0.0000000000000000e+00" cType="1" res="2.5157392956316471e-03" rms="2.6816767454147339e-01" purity="1.8145523965358734e-01" nType="-99"/>
            <Node pos="r" depth="3" NCoef="0" IVar="-1" Cut="0.0000000000000000e+00" cType="1" res="1.4243961311876774e-02" rms="2.6946818828582764e-01" purity="6.3857537508010864e-01" nType="-99"/>
          </Node>
        </Node>
      </Node>
    </BinaryTree>
    <BinaryTree type="DecisionTree" boostWeight="1.0000000000000000e+00" itree="241">
      <Node pos="s" depth="0" NCoef="0" IVar="5" Cut="4.4544345855712891e+01" cType="1" res="2.7766526909545064e-04" rms="2.9579043388366699e-01" purity="5.0187385082244873e-01" nType="0">
        <Node pos="l" depth="1" NCoef="0" IVar="4" Cut="1.2830760192871094e+02" cType="1" res="7.3488522320985794e-03" rms="3.4483960270881653e-01" purity="3.5703670978546143e-01" nType="0">
          <Node pos="l" depth="2" NCoef="0" IVar="-1" Cut="0.0000000000000000e+00" cType="1" res="5.1472834311425686e-03" rms="3.6247134208679199e-01" purity="4.2877033352851868e-01" nType="-99"/>
          <Node pos="r" depth="2" NCoef="0" IVar="-1" Cut="0.0000000000000000e+00" cType="1" res="-2.4151280522346497e-03" rms="3.0867257714271545e-01" purity="2.2232805192470551e-01" nType="-99"/>
        </Node>
        <Node pos="r" depth="1" NCoef="0" IVar="8" Cut="9.5485609769821167e-01" cType="1" res="-1.9142107339575887e-04" rms="2.9223954677581787e-01" purity="5.1148200035095215e-01" nType="0">
          <Node pos="l" depth="2" NCoef="0" IVar="5" Cut="5.5808311462402344e+01" cType="1" res="1.4754987205378711e-04" rms="2.9145041108131409e-01" purity="5.1650571823120117e-01" nType="0">
            <Node pos="l" depth="3" NCoef="0" IVar="9" Cut="3.3307600021362305e-01" cType="1" res="-7.3864944279193878e-03" rms="3.4006553888320923e-01" purity="4.0487897396087646e-01" nType="0">
              <Node pos="l" depth="4" NCoef="0" IVar="-1" Cut="0.0000000000000000e+00" cType="1" res="-1.0153058916330338e-02" rms="3.1453260779380798e-01" purity="2.9325300455093384e-01" nType="-99"/>
              <Node pos="r" depth="4" NCoef="0" IVar="-1" Cut="0.0000000000000000e+00" cType="1" res="1.6109839780256152e-03" rms="3.5948243737220764e-01" purity="4.9747902154922485e-01" nType="-99"/>
            </Node>
            <Node pos="r" depth="3" NCoef="0" IVar="5" Cut="6.0890979766845703e+01" cType="1" res="5.8985291980206966e-04" rms="2.8833562135696411e-01" purity="5.2305901050567627e-01" nType="0">
              <Node pos="l" depth="4" NCoef="0" IVar="-1" Cut="0.0000000000000000e+00" cType="1" res="5.8210291899740696e-03" rms="3.4335035085678101e-01" purity="4.6988141536712646e-01" nType="-99"/>
              <Node pos="r" depth="4" NCoef="0" IVar="6" Cut="1.9156048297882080e+00" cType="1" res="1.2302481627557427e-04" rms="2.8607028722763062e-01" purity="5.2504092454910278e-01" nType="0">
                <Node pos="l" depth="5" NCoef="0" IVar="-1" Cut="0.0000000000000000e+00" cType="1" res="-1.2083317851647735e-03" rms="2.9551789164543152e-01" purity="3.8041901588439941e-01" nType="-99"/>
                <Node pos="r" depth="5" NCoef="0" IVar="-1" Cut="0.0000000000000000e+00" cType="1" res="9.9246657919138670e-04" rms="2.7955105900764465e-01" purity="6.2194454669952393e-01" nType="-99"/>
              </Node>
            </Node>
          </Node>
          <Node pos="r" depth="2" NCoef="0" IVar="-1" Cut="0.0000000000000000e+00" cType="1" res="-6.2890364788472652e-03" rms="3.2095164060592651e-01" purity="3.1754738092422485e-01" nType="-99"/>
        </Node>
      </Node>
    </BinaryTree>
    <BinaryTree type="DecisionTree" boostWeight="1.0000000000000000e+00" itree="242">
      <Node pos="s" depth="0" NCoef="0" IVar="6" Cut="9.9611461162567139e-01" cType="1" res="-3.4785858588293195e-04" rms="2.9586717486381531e-01" purity="4.9970209598541260e-01" nType="0">
        <Node pos="l" depth="1" NCoef="0" IVar="7" Cut="2.5455589294433594e+00" cType="1" res="4.0515912696719170e-03" rms="3.0770057439804077e-01" purity="3.2421955466270447e-01" nType="0">
          <Node pos="l" depth="2" NCoef="0" IVar="7" Cut="3.7252175807952881e-01" cType="1" res="6.6846115514636040e-03" rms="3.1829541921615601e-01" purity="3.5485416650772095e-01" nType="0">
            <Node pos="l" depth="3" NCoef="0" IVar="-1" Cut="0.0000000000000000e+00" cType="1" res="-3.9899973198771477e-03" rms="3.3359143137931824e-01" purity="3.3299928903579712e-01" nType="-99"/>
            <Node pos="r" depth="3" NCoef="0" IVar="0" Cut="3.0487804412841797e+00" cType="1" res="1.0392499156296253e-02" rms="3.1431260704994202e-01" purity="3.6022377014160156e-01" nType="0">
              <Node pos="l" depth="4" NCoef="0" IVar="3" Cut="1.0975610017776489e+00" cType="1" res="2.8357945848256350e-03" rms="2.7725097537040710e-01" purity="1.7380420863628387e-01" nType="0">
                <Node pos="l" depth="5" NCoef="0" IVar="-1" Cut="0.0000000000000000e+00" cType="1" res="-5.0121452659368515e-03" rms="2.7254316210746765e-01" purity="1.9134615361690521e-01" nType="-99"/>
                <Node pos="r" depth="5" NCoef="0" IVar="-1" Cut="0.0000000000000000e+00" cType="1" res="1.8621647730469704e-02" rms="2.8508570790290833e-01" purity="1.3918603956699371e-01" nType="-99"/>
              </Node>
              <Node pos="r" depth="4" NCoef="0" IVar="4" Cut="1.1158247375488281e+02" cType="1" res="1.8305154517292976e-02" rms="3.4875068068504333e-01" purity="5.5542445182800293e-01" nType="0">
                <Node pos="l" depth="5" NCoef="0" IVar="-1" Cut="0.0000000000000000e+00" cType="1" res="1.0464564897119999e-02" rms="3.6498335003852844e-01" purity="5.7633173465728760e-01" nType="-99"/>
                <Node pos="r" depth="5" NCoef="0" IVar="-1" Cut="0.0000000000000000e+00" cType="1" res="4.6725533902645111e-03" rms="3.3446002006530762e-01" purity="5.3802508115768433e-01" nType="-99"/>
              </Node>
            </Node>
          </Node>
          <Node pos="r" depth="2" NCoef="0" IVar="-1" Cut="0.0000000000000000e+00" cType="1" res="-1.0869744233787060e-02" rms="2.2596076130867004e-01" purity="1.2430578470230103e-01" nType="-99"/>
        </Node>
        <Node pos="r" depth="1" NCoef="0" IVar="8" Cut="8.4877580404281616e-01" cType="1" res="-1.4053568011149764e-03" rms="2.9294165968894958e-01" purity="5.4188293218612671e-01" nType="0">
          <Node pos="l" depth="2" NCoef="0" IVar="2" Cut="4.0243902206420898e+00" cType="1" res="-1.0033483849838376e-03" rms="2.9180189967155457e-01" purity="5.4770874977111816e-01" nType="0">
            <Node pos="l" depth="3" NCoef="0" IVar="6" Cut="1.2054299116134644e+00" cType="1" res="1.4834523608442396e-04" rms="3.0422428250312805e-01" purity="6.3308018445968628e-01" nType="0">
              <Node pos="l" depth="4" NCoef="0" IVar="-1" Cut="0.0000000000000000e+00" cType="1" res="-6.6152806393802166e-03" rms="3.1271365284919739e-01" purity="4.4702905416488647e-01" nType="-99"/>
              <Node pos="r" depth="4" NCoef="0" IVar="4" Cut="1.5749209594726562e+02" cType="1" res="8.9398340787738562e-04" rms="3.0373540520668030e-01" purity="6.4325743913650513e-01" nType="0">
                <Node pos="l" depth="5" NCoef="0" IVar="-1" Cut="0.0000000000000000e+00" cType="1" res="-2.1895993268117309e-04" rms="2.9927286505699158e-01" purity="6.9758933782577515e-01" nType="-99"/>
                <Node pos="r" depth="5" NCoef="0" IVar="-1" Cut="0.0000000000000000e+00" cType="1" res="3.8453796878457069e-03" rms="3.2878148555755615e-01" purity="3.2201147079467773e-01" nType="-99"/>
              </Node>
            </Node>
            <Node pos="r" depth="3" NCoef="0" IVar="8" Cut="4.1416633129119873e-01" cType="1" res="-7.2916615754365921e-03" rms="2.1136441826820374e-01" purity="8.1575416028499603e-02" nType="0">
              <Node pos="l" depth="4" NCoef="0" IVar="5" Cut="7.7910461425781250e+01" cType="1" res="-4.4831531122326851e-03" rms="1.9290977716445923e-01" purity="6.6308818757534027e-02" nType="0">
                <Node pos="l" depth="5" NCoef="0" IVar="-1" Cut="0.0000000000000000e+00" cType="1" res="-1.1141437105834484e-02" rms="2.0981846749782562e-01" purity="7.2559364140033722e-02" nType="-99"/>
                <Node pos="r" depth="5" NCoef="0" IVar="-1" Cut="0.0000000000000000e+00" cType="1" res="-2.1789856255054474e-03" rms="1.8699504435062408e-01" purity="6.4272738993167877e-02" nType="-99"/>
              </Node>
              <Node pos="r" depth="4" NCoef="0" IVar="-1" Cut="0.0000000000000000e+00" cType="1" res="-9.5811272040009499e-03" rms="2.6151293516159058e-01" purity="1.3031664490699768e-01" nType="-99"/>
            </Node>
          </Node>
          <Node pos="r" depth="2" NCoef="0" IVar="-1" Cut="0.0000000000000000e+00" cType="1" res="-8.1522595137357712e-03" rms="3.3328685164451599e-01" purity="3.1890982389450073e-01" nType="-99"/>
        </Node>
      </Node>
    </BinaryTree>
    <BinaryTree type="DecisionTree" boostWeight="1.0000000000000000e+00" itree="243">
      <Node pos="s" depth="0" NCoef="0" IVar="5" Cut="5.1760303497314453e+01" cType="1" res="6.6954572685062885e-04" rms="2.9695850610733032e-01" purity="5.0058484077453613e-01" nType="0">
        <Node pos="l" depth="1" NCoef="0" IVar="6" Cut="2.6052148342132568e+00" cType="1" res="8.9246500283479691e-03" rms="3.4982472658157349e-01" purity="3.7650653719902039e-01" nType="0">
          <Node pos="l" depth="2" NCoef="0" IVar="4" Cut="1.4014596557617188e+02" cType="1" res="4.7748326323926449e-03" rms="3.4508752822875977e-01" purity="3.4578394889831543e-01" nType="0">
            <Node pos="l" depth="3" NCoef="0" IVar="4" Cut="1.0601976013183594e+02" cType="1" res="-1.0582546237856150e-03" rms="3.5750752687454224e-01" purity="4.1310116648674011e-01" nType="0">
              <Node pos="l" depth="4" NCoef="0" IVar="-1" Cut="0.0000000000000000e+00" cType="1" res="4.2276489548385143e-03" rms="3.5981860756874084e-01" purity="3.3260199427604675e-01" nType="-99"/>
              <Node pos="r" depth="4" NCoef="0" IVar="-1" Cut="0.0000000000000000e+00" cType="1" res="-6.8798824213445187e-03" rms="3.5347515344619751e-01" purity="5.2915483713150024e-01" nType="-99"/>
            </Node>
            <Node pos="r" depth="3" NCoef="0" IVar="-1" Cut="0.0000000000000000e+00" cType="1" res="1.1896551586687565e-02" rms="3.1029435992240906e-01" purity="1.7229491472244263e-01" nType="-99"/>
          </Node>
          <Node pos="r" depth="2" NCoef="0" IVar="-1" Cut="0.0000000000000000e+00" cType="1" res="8.4192268550395966e-03" rms="3.6347576975822449e-01" purity="4.6933451294898987e-01" nType="-99"/>
        </Node>
        <Node pos="r" depth="1" NCoef="0" IVar="6" Cut="4.5974487066268921e-01" cType="1" res="-2.0688370568677783e-04" rms="2.9076817631721497e-01" purity="5.1375800371170044e-01" nType="0">
          <Node pos="l" depth="2" NCoef="0" IVar="5" Cut="1.1248017883300781e+02" cType="1" res="6.4754392951726913e-03" rms="3.1099849939346313e-01" purity="2.9258504509925842e-01" nType="0">
            <Node pos="l" depth="3" NCoef="0" IVar="5" Cut="8.5822860717773438e+01" cType="1" res="2.4850571062415838e-03" rms="3.2113081216812134e-01" purity="3.6999103426933289e-01" nType="0">
              <Node pos="l" depth="4" NCoef="0" IVar="-1" Cut="0.0000000000000000e+00" cType="1" res="4.5395083725452423e-03" rms="3.3247119188308716e-01" purity="4.2560425400733948e-01" nType="-99"/>
              <Node pos="r" depth="4" NCoef="0" IVar="-1" Cut="0.0000000000000000e+00" cType="1" res="-4.1470229625701904e-03" rms="3.0454137921333313e-01" purity="2.9347604513168335e-01" nType="-99"/>
            </Node>
            <Node pos="r" depth="3" NCoef="0" IVar="-1" Cut="0.0000000000000000e+00" cType="1" res="1.0085434652864933e-02" rms="2.8928649425506592e-01" purity="1.3624531030654907e-01" nType="-99"/>
          </Node>
          <Node pos="r" depth="2" NCoef="0" IVar="9" Cut="2.1288689970970154e-01" cType="1" res="-8.0347142647951841e-04" rms="2.8888565301895142e-01" purity="5.3350400924682617e-01" nType="0">
            <Node pos="l" depth="3" NCoef="0" IVar="7" Cut="1.4256334304809570e+00" cType="1" res="-4.8905215226113796e-03" rms="2.7732098102569580e-01" purity="2.7630665898323059e-01" nType="0">
              <Node pos="l" depth="4" NCoef="0" IVar="5" Cut="9.1360107421875000e+01" cType="1" res="4.6268687583506107e-03" rms="3.0483078956604004e-01" purity="2.2175809741020203e-01" nType="0">
                <Node pos="l" depth="5" NCoef="0" IVar="-1" Cut="0.0000000000000000e+00" cType="1" res="-5.2921851165592670e-03" rms="3.2190102338790894e-01" purity="3.1771907210350037e-01" nType="-99"/>
                <Node pos="r" depth="5" NCoef="0" IVar="-1" Cut="0.0000000000000000e+00" cType="1" res="1.0741833597421646e-02" rms="2.9173728823661804e-01" purity="1.5448619425296783e-01" nType="-99"/>
              </Node>
              <Node pos="r" depth="4" NCoef="0" IVar="5" Cut="1.0720003509521484e+02" cType="1" res="-1.0290661826729774e-02" rms="2.6026824116706848e-01" purity="3.0725738406181335e-01" nType="0">
                <Node pos="l" depth="5" NCoef="0" IVar="-1" Cut="0.0000000000000000e+00" cType="1" res="-3.1493089627474546e-03" rms="2.8148129582405090e-01" purity="4.1945180296897888e-01" nType="-99"/>
                <Node pos="r" depth="5" NCoef="0" IVar="-1" Cut="0.0000000000000000e+00" cType="1" res="-1.5583870932459831e-02" rms="2.1727488934993744e-01" purity="1.0787865519523621e-01" nType="-99"/>
              </Node>
            </Node>
            <Node pos="r" depth="3" NCoef="0" IVar="7" Cut="1.9038366079330444e+00" cType="1" res="4.9661291996017098e-04" rms="2.9245656728744507e-01" purity="6.1531805992126465e-01" nType="0">
              <Node pos="l" depth="4" NCoef="0" IVar="3" Cut="4.0243902206420898e+00" cType="1" res="-1.2295054038986564e-03" rms="2.9810705780982971e-01" purity="6.2385386228561401e-01" nType="0">
                <Node pos="l" depth="5" NCoef="0" IVar="-1" Cut="0.0000000000000000e+00" cType="1" res="-3.8859066989971325e-05" rms="2.9528194665908813e-01" purity="6.7068672180175781e-01" nType="-99"/>
                <Node pos="r" depth="5" NCoef="0" IVar="-1" Cut="0.0000000000000000e+00" cType="1" res="-4.3805348686873913e-03" rms="3.1652539968490601e-01" purity="3.0559739470481873e-01" nType="-99"/>
              </Node>
              <Node pos="r" depth="4" NCoef="0" IVar="8" Cut="1.7921207845211029e-01" cType="1" res="8.6643211543560028e-03" rms="2.6393184065818787e-01" purity="5.7492810487747192e-01" nType="0">
                <Node pos="l" depth="5" NCoef="0" IVar="-1" Cut="0.0000000000000000e+00" cType="1" res="-4.0276832878589630e-03" rms="2.8910496830940247e-01" purity="3.2362622022628784e-01" nType="-99"/>
                <Node pos="r" depth="5" NCoef="0" IVar="-1" Cut="0.0000000000000000e+00" cType="1" res="1.3311547227203846e-02" rms="2.4432532489299774e-01" purity="7.4951440095901489e-01" nType="-99"/>
              </Node>
            </Node>
          </Node>
        </Node>
      </Node>
    </BinaryTree>
    <BinaryTree type="DecisionTree" boostWeight="1.0000000000000000e+00" itree="244">
      <Node pos="s" depth="0" NCoef="0" IVar="3" Cut="3.0487804412841797e+00" cType="1" res="5.8963347692042589e-04" rms="2.9595300555229187e-01" purity="5.0185000896453857e-01" nType="0">
        <Node pos="l" depth="1" NCoef="0" IVar="7" Cut="5.7025325298309326e-01" cType="1" res="-2.3139420954976231e-04" rms="2.9464778304100037e-01" purity="5.5293679237365723e-01" nType="0">
          <Node pos="l" depth="2" NCoef="0" IVar="4" Cut="6.4843849182128906e+01" cType="1" res="-3.5240191500633955e-03" rms="3.0320268869400024e-01" purity="6.0597497224807739e-01" nType="0">
            <Node pos="l" depth="3" NCoef="0" IVar="-1" Cut="0.0000000000000000e+00" cType="1" res="-6.4584030769765377e-03" rms="3.5010978579521179e-01" purity="3.2115587592124939e-01" nType="-99"/>
            <Node pos="r" depth="3" NCoef="0" IVar="9" Cut="3.7988197803497314e-01" cType="1" res="-2.1061555016785860e-03" rms="2.9781913757324219e-01" purity="6.3585048913955688e-01" nType="0">
              <Node pos="l" depth="4" NCoef="0" IVar="7" Cut="4.3116492033004761e-01" cType="1" res="-7.2226729243993759e-03" rms="3.2267460227012634e-01" purity="4.5571309328079224e-01" nType="0">
                <Node pos="l" depth="5" NCoef="0" IVar="-1" Cut="0.0000000000000000e+00" cType="1" res="-1.4469085726886988e-03" rms="3.2529309391975403e-01" purity="4.6257114410400391e-01" nType="-99"/>
                <Node pos="r" depth="5" NCoef="0" IVar="-1" Cut="0.0000000000000000e+00" cType="1" res="-1.0814218781888485e-02" rms="3.1340259313583374e-01" purity="4.3295323848724365e-01" nType="-99"/>
              </Node>
              <Node pos="r" depth="4" NCoef="0" IVar="1" Cut="1.0975610017776489e+00" cType="1" res="1.5167281962931156e-03" rms="2.7882641553878784e-01" purity="7.6340150833129883e-01" nType="0">
                <Node pos="l" depth="5" NCoef="0" IVar="-1" Cut="0.0000000000000000e+00" cType="1" res="-2.6084620039910078e-03" rms="3.4951251745223999e-01" purity="5.1125550270080566e-01" nType="-99"/>
                <Node pos="r" depth="5" NCoef="0" IVar="-1" Cut="0.0000000000000000e+00" cType="1" res="4.0770014747977257e-03" rms="2.4026273190975189e-01" purity="8.7680470943450928e-01" nType="-99"/>
              </Node>
            </Node>
          </Node>
          <Node pos="r" depth="2" NCoef="0" IVar="8" Cut="3.2852953672409058e-01" cType="1" res="1.1121663264930248e-03" rms="2.9107400774955750e-01" purity="5.3129452466964722e-01" nType="0">
            <Node pos="l" depth="3" NCoef="0" IVar="6" Cut="1.8389811515808105e+00" cType="1" res="-2.0409426651895046e-03" rms="2.8599783778190613e-01" purity="4.6144911646842957e-01" nType="0">
              <Node pos="l" depth="4" NCoef="0" IVar="4" Cut="1.2295177459716797e+02" cType="1" res="3.2081103418022394e-03" rms="2.8798153996467590e-01" purity="2.9677465558052063e-01" nType="0">
                <Node pos="l" depth="5" NCoef="0" IVar="-1" Cut="0.0000000000000000e+00" cType="1" res="-1.8735404592007399e-03" rms="2.9520654678344727e-01" purity="3.5142251849174500e-01" nType="-99"/>
                <Node pos="r" depth="5" NCoef="0" IVar="-1" Cut="0.0000000000000000e+00" cType="1" res="8.2420185208320618e-03" rms="2.7782186865806580e-01" purity="2.2400243580341339e-01" nType="-99"/>
              </Node>
              <Node pos="r" depth="4" NCoef="0" IVar="7" Cut="2.1975612640380859e+00" cType="1" res="-5.1974649541079998e-03" rms="2.8475168347358704e-01" purity="5.6047624349594116e-01" nType="0">
                <Node pos="l" depth="5" NCoef="0" IVar="-1" Cut="0.0000000000000000e+00" cType="1" res="-6.0647083446383476e-03" rms="2.9960864782333374e-01" purity="5.2514386177062988e-01" nType="-99"/>
                <Node pos="r" depth="5" NCoef="0" IVar="-1" Cut="0.0000000000000000e+00" cType="1" res="1.3168841833248734e-03" rms="2.6478907465934753e-01" purity="6.0472595691680908e-01" nType="-99"/>
              </Node>
            </Node>
            <Node pos="r" depth="3" NCoef="0" IVar="6" Cut="2.6818461418151855e+00" cType="1" res="4.6470118686556816e-03" rms="2.9662165045738220e-01" purity="6.0959589481353760e-01" nType="0">
              <Node pos="l" depth="4" NCoef="0" IVar="4" Cut="1.7455928039550781e+02" cType="1" res="1.7992084613069892e-03" rms="3.1270948052406311e-01" purity="5.3372156620025635e-01" nType="0">
                <Node pos="l" depth="5" NCoef="0" IVar="-1" Cut="0.0000000000000000e+00" cType="1" res="1.7760170157998800e-03" rms="3.1732487678527832e-01" purity="5.8389139175415039e-01" nType="-99"/>
                <Node pos="r" depth="5" NCoef="0" IVar="-1" Cut="0.0000000000000000e+00" cType="1" res="-6.8974713794887066e-03" rms="2.7538329362869263e-01" purity="1.5870928764343262e-01" nType="-99"/>
              </Node>
              <Node pos="r" depth="4" NCoef="0" IVar="-1" Cut="0.0000000000000000e+00" cType="1" res="7.5250966474413872e-03" rms="2.5671267509460449e-01" purity="7.8006148338317871e-01" nType="-99"/>
            </Node>
          </Node>
        </Node>
        <Node pos="r" depth="1" NCoef="0" IVar="2" Cut="1.0975610017776489e+00" cType="1" res="4.4649327173829079e-03" rms="3.0200749635696411e-01" purity="2.6071694493293762e-01" nType="0">
          <Node pos="l" depth="2" NCoef="0" IVar="6" Cut="1.4558608531951904e+00" cType="1" res="9.5240129157900810e-03" rms="3.4145313501358032e-01" purity="3.5189154744148254e-01" nType="0">
            <Node pos="l" depth="3" NCoef="0" IVar="-1" Cut="0.0000000000000000e+00" cType="1" res="9.1449627652764320e-03" rms="3.3895996212959290e-01" purity="2.3300874233245850e-01" nType="-99"/>
            <Node pos="r" depth="3" NCoef="0" IVar="6" Cut="2.1137108802795410e+00" cType="1" res="4.9617784097790718e-03" rms="3.4260165691375732e-01" purity="4.1132459044456482e-01" nType="0">
              <Node pos="l" depth="4" NCoef="0" IVar="-1" Cut="0.0000000000000000e+00" cType="1" res="-4.3266108259558678e-03" rms="3.3767765760421753e-01" purity="2.6465749740600586e-01" nType="-99"/>
              <Node pos="r" depth="4" NCoef="0" IVar="0" Cut="2.0731706619262695e+00" cType="1" res="1.0374448262155056e-02" rms="3.4427955746650696e-01" purity="4.6648192405700684e-01" nType="0">
                <Node pos="l" depth="5" NCoef="0" IVar="-1" Cut="0.0000000000000000e+00" cType="1" res="1.7629595240578055e-03" rms="3.1287816166877747e-01" purity="2.5516265630722046e-01" nType="-99"/>
                <Node pos="r" depth="5" NCoef="0" IVar="-1" Cut="0.0000000000000000e+00" cType="1" res="5.6776236742734909e-03" rms="3.6473438143730164e-01" purity="6.1557549238204956e-01" nType="-99"/>
              </Node>
            </Node>
          </Node>
          <Node pos="r" depth="2" NCoef="0" IVar="4" Cut="1.4014591979980469e+02" cType="1" res="-4.9628796987235546e-03" rms="2.0921757817268372e-01" purity="9.0809144079685211e-02" nType="0">
            <Node pos="l" depth="3" NCoef="0" IVar="5" Cut="1.1034466552734375e+02" cType="1" res="-8.6799543350934982e-04" rms="2.2988502681255341e-01" purity="1.1278502643108368e-01" nType="0">
              <Node pos="l" depth="4" NCoef="0" IVar="-1" Cut="0.0000000000000000e+00" cType="1" res="-8.4703257307410240e-03" rms="2.3060239851474762e-01" purity="1.0822907090187073e-01" nType="-99"/>
              <Node pos="r" depth="4" NCoef="0" IVar="-1" Cut="0.0000000000000000e+00" cType="1" res="9.2398962005972862e-03" rms="2.2869424521923065e-01" purity="1.1758290231227875e-01" nType="-99"/>
            </Node>
            <Node pos="r" depth="3" NCoef="0" IVar="-1" Cut="0.0000000000000000e+00" cType="1" res="-1.8132248893380165e-02" rms="1.5806332230567932e-01" purity="4.5568738132715225e-02" nType="-99"/>
          </Node>
        </Node>
      </Node>
    </BinaryTree>
    <BinaryTree type="DecisionTree" boostWeight="1.0000000000000000e+00" itree="245">
      <Node pos="s" depth="0" NCoef="0" IVar="7" Cut="2.2810099124908447e+00" cType="1" res="-6.5771705703809857e-04" rms="2.9447820782661438e-01" purity="5.0126421451568604e-01" nType="0">
        <Node pos="l" depth="1" NCoef="0" IVar="8" Cut="1.0070483684539795e+00" cType="1" res="4.5497002429328859e-04" rms="3.0258420109748840e-01" purity="5.2441608905792236e-01" nType="0">
          <Node pos="l" depth="2" NCoef="0" IVar="8" Cut="4.1801872849464417e-01" cType="1" res="8.8627164950594306e-04" rms="3.0190998315811157e-01" purity="5.3058153390884399e-01" nType="0">
            <Node pos="l" depth="3" NCoef="0" IVar="6" Cut="1.3026112318038940e+00" cType="1" res="-9.2021096497774124e-04" rms="2.9659748077392578e-01" purity="4.7313186526298523e-01" nType="0">
              <Node pos="l" depth="4" NCoef="0" IVar="4" Cut="1.6342637634277344e+02" cType="1" res="6.0347481630742550e-03" rms="2.9750224947929382e-01" purity="3.0476000905036926e-01" nType="0">
                <Node pos="l" depth="5" NCoef="0" IVar="-1" Cut="0.0000000000000000e+00" cType="1" res="5.7516619563102722e-04" rms="3.0211830139160156e-01" purity="3.5186466574668884e-01" nType="-99"/>
                <Node pos="r" depth="5" NCoef="0" IVar="-1" Cut="0.0000000000000000e+00" cType="1" res="2.3006826639175415e-02" rms="2.7663740515708923e-01" purity="1.0986307263374329e-01" nType="-99"/>
              </Node>
              <Node pos="r" depth="4" NCoef="0" IVar="5" Cut="8.4232124328613281e+01" cType="1" res="-2.9981243424117565e-03" rms="2.9629495739936829e-01" purity="5.2343583106994629e-01" nType="0">
                <Node pos="l" depth="5" NCoef="0" IVar="-1" Cut="0.0000000000000000e+00" cType="1" res="4.3485566857270896e-04" rms="3.1125319004058838e-01" purity="6.1015939712524414e-01" nType="-99"/>
                <Node pos="r" depth="5" NCoef="0" IVar="-1" Cut="0.0000000000000000e+00" cType="1" res="-3.4717314410954714e-03" rms="2.8488013148307800e-01" purity="4.6030426025390625e-01" nType="-99"/>
              </Node>
            </Node>
            <Node pos="r" depth="3" NCoef="0" IVar="4" Cut="6.4565292358398438e+01" cType="1" res="3.7371423095464706e-03" rms="3.1008732318878174e-01" purity="6.2124478816986084e-01" nType="0">
              <Node pos="l" depth="4" NCoef="0" IVar="-1" Cut="0.0000000000000000e+00" cType="1" res="5.7506351731717587e-03" rms="3.6997196078300476e-01" purity="3.2940202951431274e-01" nType="-99"/>
              <Node pos="r" depth="4" NCoef="0" IVar="1" Cut="1.0975610017776489e+00" cType="1" res="2.2251512855291367e-03" rms="3.0172517895698547e-01" purity="6.5775996446609497e-01" nType="0">
                <Node pos="l" depth="5" NCoef="0" IVar="-1" Cut="0.0000000000000000e+00" cType="1" res="-1.3081040233373642e-03" rms="3.4086129069328308e-01" purity="3.9575362205505371e-01" nType="-99"/>
                <Node pos="r" depth="5" NCoef="0" IVar="-1" Cut="0.0000000000000000e+00" cType="1" res="3.1747878529131413e-03" rms="2.7755525708198547e-01" purity="8.0337333679199219e-01" nType="-99"/>
              </Node>
            </Node>
          </Node>
          <Node pos="r" depth="2" NCoef="0" IVar="-1" Cut="0.0000000000000000e+00" cType="1" res="-6.9614425301551819e-03" rms="3.2552015781402588e-01" purity="3.0274784564971924e-01" nType="-99"/>
        </Node>
        <Node pos="r" depth="1" NCoef="0" IVar="8" Cut="2.2374151647090912e-01" cType="1" res="-5.8563114143908024e-03" rms="2.5312557816505432e-01" purity="3.9309594035148621e-01" nType="0">
          <Node pos="l" depth="2" NCoef="0" IVar="7" Cut="3.6579616069793701e+00" cType="1" res="-1.0290757752954960e-02" rms="2.5257989764213562e-01" purity="3.4363213181495667e-01" nType="0">
            <Node pos="l" depth="3" NCoef="0" IVar="9" Cut="2.3267644643783569e-01" cType="1" res="-1.5645937994122505e-02" rms="2.5370037555694580e-01" purity="3.6927899718284607e-01" nType="0">
              <Node pos="l" depth="4" NCoef="0" IVar="-1" Cut="0.0000000000000000e+00" cType="1" res="-2.3617399856448174e-02" rms="2.2367225587368011e-01" purity="3.2163318991661072e-01" nType="-99"/>
              <Node pos="r" depth="4" NCoef="0" IVar="7" Cut="2.7847633361816406e+00" cType="1" res="-3.6559915170073509e-03" rms="2.7360859513282776e-01" purity="4.0528196096420288e-01" nType="0">
                <Node pos="l" depth="5" NCoef="0" IVar="-1" Cut="0.0000000000000000e+00" cType="1" res="-6.7907390184700489e-03" rms="2.7837857604026794e-01" purity="3.9495584368705750e-01" nType="-99"/>
                <Node pos="r" depth="5" NCoef="0" IVar="-1" Cut="0.0000000000000000e+00" cType="1" res="3.5455788020044565e-03" rms="2.6758310198783875e-01" purity="4.1740339994430542e-01" nType="-99"/>
              </Node>
            </Node>
            <Node pos="r" depth="3" NCoef="0" IVar="-1" Cut="0.0000000000000000e+00" cType="1" res="3.5466109402477741e-03" rms="2.4864837527275085e-01" purity="2.6921766996383667e-01" nType="-99"/>
          </Node>
          <Node pos="r" depth="2" NCoef="0" IVar="6" Cut="1.6091127395629883e+00" cType="1" res="5.6549877626821399e-04" rms="2.5377640128135681e-01" purity="4.6472778916358948e-01" nType="0">
            <Node pos="l" depth="3" NCoef="0" IVar="-1" Cut="0.0000000000000000e+00" cType="1" res="-1.3028244487941265e-02" rms="2.4583967030048370e-01" purity="1.5976892411708832e-01" nType="-99"/>
            <Node pos="r" depth="3" NCoef="0" IVar="7" Cut="2.7672727108001709e+00" cType="1" res="8.1716235727071762e-03" rms="2.5651940703392029e-01" purity="5.8784717321395874e-01" nType="0">
              <Node pos="l" depth="4" NCoef="0" IVar="-1" Cut="0.0000000000000000e+00" cType="1" res="4.4184667058289051e-04" rms="2.4023568630218506e-01" purity="6.4793330430984497e-01" nType="-99"/>
              <Node pos="r" depth="4" NCoef="0" IVar="-1" Cut="0.0000000000000000e+00" cType="1" res="1.1423681862652302e-02" rms="2.7905273437500000e-01" purity="4.9659836292266846e-01" nType="-99"/>
            </Node>
          </Node>
        </Node>
      </Node>
    </BinaryTree>
    <BinaryTree type="DecisionTree" boostWeight="1.0000000000000000e+00" itree="246">
      <Node pos="s" depth="0" NCoef="0" IVar="6" Cut="2.8350944519042969e+00" cType="1" res="-1.0628927266225219e-03" rms="2.9516384005546570e-01" purity="4.9951401352882385e-01" nType="0">
        <Node pos="l" depth="1" NCoef="0" IVar="9" Cut="7.2035372257232666e-01" cType="1" res="-1.9601082894951105e-03" rms="3.0052253603935242e-01" purity="4.5290282368659973e-01" nType="0">
          <Node pos="l" depth="2" NCoef="0" IVar="8" Cut="2.5184458494186401e-01" cType="1" res="-1.4163656160235405e-03" rms="2.9976785182952881e-01" purity="4.4932729005813599e-01" nType="0">
            <Node pos="l" depth="3" NCoef="0" IVar="7" Cut="1.2897928953170776e+00" cType="1" res="2.1473295055329800e-03" rms="2.7829003334045410e-01" purity="3.0538654327392578e-01" nType="0">
              <Node pos="l" depth="4" NCoef="0" IVar="1" Cut="1.0975610017776489e+00" cType="1" res="1.2687826529145241e-02" rms="3.0598673224449158e-01" purity="2.8989639878273010e-01" nType="0">
                <Node pos="l" depth="5" NCoef="0" IVar="-1" Cut="0.0000000000000000e+00" cType="1" res="2.2196771577000618e-02" rms="2.9521960020065308e-01" purity="1.4931859076023102e-01" nType="-99"/>
                <Node pos="r" depth="5" NCoef="0" IVar="-1" Cut="0.0000000000000000e+00" cType="1" res="-3.5074779298156500e-03" rms="3.1687688827514648e-01" purity="4.5250824093818665e-01" nType="-99"/>
              </Node>
              <Node pos="r" depth="4" NCoef="0" IVar="9" Cut="3.1635418534278870e-01" cType="1" res="-2.9150233604013920e-03" rms="2.6380726695060730e-01" purity="3.1282606720924377e-01" nType="0">
                <Node pos="l" depth="5" NCoef="0" IVar="-1" Cut="0.0000000000000000e+00" cType="1" res="-5.1454962231218815e-03" rms="2.4342678487300873e-01" purity="2.7149224281311035e-01" nType="-99"/>
                <Node pos="r" depth="5" NCoef="0" IVar="-1" Cut="0.0000000000000000e+00" cType="1" res="2.1546001080423594e-03" rms="2.9444473981857300e-01" purity="3.8151618838310242e-01" nType="-99"/>
              </Node>
            </Node>
            <Node pos="r" depth="3" NCoef="0" IVar="6" Cut="4.8404046893119812e-01" cType="1" res="-3.0297604389488697e-03" rms="3.0898749828338623e-01" purity="5.1449376344680786e-01" nType="0">
              <Node pos="l" depth="4" NCoef="0" IVar="9" Cut="3.3406960964202881e-01" cType="1" res="-1.4355801045894623e-02" rms="3.1845477223396301e-01" purity="2.7247542142868042e-01" nType="0">
                <Node pos="l" depth="5" NCoef="0" IVar="-1" Cut="0.0000000000000000e+00" cType="1" res="-3.7314018118195236e-04" rms="2.9691353440284729e-01" purity="1.7572632431983948e-01" nType="-99"/>
                <Node pos="r" depth="5" NCoef="0" IVar="-1" Cut="0.0000000000000000e+00" cType="1" res="-1.2680830433964729e-02" rms="3.4180122613906860e-01" purity="3.8861331343650818e-01" nType="-99"/>
              </Node>
              <Node pos="r" depth="4" NCoef="0" IVar="8" Cut="6.6856896877288818e-01" cType="1" res="-1.8520815065130591e-03" rms="3.0796247720718384e-01" purity="5.3965872526168823e-01" nType="0">
                <Node pos="l" depth="5" NCoef="0" IVar="-1" Cut="0.0000000000000000e+00" cType="1" res="-1.9679737742990255e-03" rms="3.0201619863510132e-01" purity="5.4914116859436035e-01" nType="-99"/>
                <Node pos="r" depth="5" NCoef="0" IVar="-1" Cut="0.0000000000000000e+00" cType="1" res="4.2512239888310432e-03" rms="3.4214249253273010e-01" purity="4.8117774724960327e-01" nType="-99"/>
              </Node>
            </Node>
          </Node>
          <Node pos="r" depth="2" NCoef="0" IVar="7" Cut="6.6212838888168335e-01" cType="1" res="-9.2050582170486450e-03" rms="3.1031215190887451e-01" purity="5.0054430961608887e-01" nType="0">
            <Node pos="l" depth="3" NCoef="0" IVar="-1" Cut="0.0000000000000000e+00" cType="1" res="3.0956571572460234e-04" rms="3.2771137356758118e-01" purity="5.7359290122985840e-01" nType="-99"/>
            <Node pos="r" depth="3" NCoef="0" IVar="-1" Cut="0.0000000000000000e+00" cType="1" res="-1.1406896635890007e-02" rms="2.8598868846893311e-01" purity="4.0697774291038513e-01" nType="-99"/>
          </Node>
        </Node>
        <Node pos="r" depth="1" NCoef="0" IVar="9" Cut="3.9303806424140930e-01" cType="1" res="2.4285281542688608e-03" rms="2.7328488230705261e-01" purity="6.8089640140533447e-01" nType="0">
          <Node pos="l" depth="2" NCoef="0" IVar="7" Cut="1.6941406726837158e+00" cType="1" res="-1.7772165592759848e-03" rms="2.8527137637138367e-01" purity="6.0955470800399780e-01" nType="0">
            <Node pos="l" depth="3" NCoef="0" IVar="8" Cut="3.6640208959579468e-01" cType="1" res="-7.9073905944824219e-03" rms="3.0867645144462585e-01" purity="5.6650090217590332e-01" nType="0">
              <Node pos="l" depth="4" NCoef="0" IVar="-1" Cut="0.0000000000000000e+00" cType="1" res="1.6549946740269661e-03" rms="3.3234137296676636e-01" purity="3.4855657815933228e-01" nType="-99"/>
              <Node pos="r" depth="4" NCoef="0" IVar="-1" Cut="0.0000000000000000e+00" cType="1" res="-7.2492235340178013e-03" rms="2.9613170027732849e-01" purity="6.7420578002929688e-01" nType="-99"/>
            </Node>
            <Node pos="r" depth="3" NCoef="0" IVar="-1" Cut="0.0000000000000000e+00" cType="1" res="3.4389919601380825e-03" rms="2.5458961725234985e-01" purity="6.6055321693420410e-01" nType="-99"/>
          </Node>
          <Node pos="r" depth="2" NCoef="0" IVar="-1" Cut="0.0000000000000000e+00" cType="1" res="6.4520058222115040e-03" rms="2.5226181745529175e-01" purity="7.9781275987625122e-01" nType="-99"/>
        </Node>
      </Node>
    </BinaryTree>
    <BinaryTree type="DecisionTree" boostWeight="1.0000000000000000e+00" itree="247">
      <Node pos="s" depth="0" NCoef="0" IVar="6" Cut="1.3792353868484497e+00" cType="1" res="-5.3005508380010724e-04" rms="2.9513415694236755e-01" purity="5.0010883808135986e-01" nType="0">
        <Node pos="l" depth="1" NCoef="0" IVar="8" Cut="8.8079005479812622e-01" cType="1" res="-3.6388479638844728e-03" rms="3.0251333117485046e-01" purity="3.3780261874198914e-01" nType="0">
          <Node pos="l" depth="2" NCoef="0" IVar="7" Cut="2.4726822972297668e-01" cType="1" res="-5.2775302901864052e-03" rms="2.9861903190612793e-01" purity="3.2853773236274719e-01" nType="0">
            <Node pos="l" depth="3" NCoef="0" IVar="-1" Cut="0.0000000000000000e+00" cType="1" res="-9.7407549619674683e-03" rms="3.1289142370223999e-01" purity="3.7457588315010071e-01" nType="-99"/>
            <Node pos="r" depth="3" NCoef="0" IVar="3" Cut="3.0487804412841797e+00" cType="1" res="-3.5445608664304018e-03" rms="2.9670968651771545e-01" purity="3.2268211245536804e-01" nType="0">
              <Node pos="l" depth="4" NCoef="0" IVar="1" Cut="1.0975610017776489e+00" cType="1" res="-1.1675774585455656e-03" rms="3.0508416891098022e-01" purity="3.6951750516891479e-01" nType="0">
                <Node pos="l" depth="5" NCoef="0" IVar="-1" Cut="0.0000000000000000e+00" cType="1" res="-3.1206142157316208e-03" rms="2.8986150026321411e-01" purity="1.8127474188804626e-01" nType="-99"/>
                <Node pos="r" depth="5" NCoef="0" IVar="-1" Cut="0.0000000000000000e+00" cType="1" res="1.4793489826843143e-03" rms="3.1941378116607666e-01" purity="5.5626034736633301e-01" nType="-99"/>
              </Node>
              <Node pos="r" depth="4" NCoef="0" IVar="4" Cut="1.1731169128417969e+02" cType="1" res="-1.3235745020210743e-02" rms="2.5956171751022339e-01" purity="1.3172981142997742e-01" nType="0">
                <Node pos="l" depth="5" NCoef="0" IVar="-1" Cut="0.0000000000000000e+00" cType="1" res="-1.0823752731084824e-02" rms="2.7211561799049377e-01" purity="1.3767541944980621e-01" nType="-99"/>
                <Node pos="r" depth="5" NCoef="0" IVar="-1" Cut="0.0000000000000000e+00" cType="1" res="-6.5304855816066265e-03" rms="2.4429059028625488e-01" purity="1.2491109222173691e-01" nType="-99"/>
              </Node>
            </Node>
          </Node>
          <Node pos="r" depth="2" NCoef="0" IVar="-1" Cut="0.0000000000000000e+00" cType="1" res="5.5218245834112167e-03" rms="3.3895093202590942e-01" purity="4.3150132894515991e-01" nType="-99"/>
        </Node>
        <Node pos="r" depth="1" NCoef="0" IVar="8" Cut="1.5773503482341766e-01" cType="1" res="6.7129265516996384e-04" rms="2.9222381114959717e-01" purity="5.6282967329025269e-01" nType="0">
          <Node pos="l" depth="2" NCoef="0" IVar="8" Cut="1.1929319798946381e-01" cType="1" res="-6.5918616019189358e-03" rms="2.7647227048873901e-01" purity="2.6691406965255737e-01" nType="0">
            <Node pos="l" depth="3" NCoef="0" IVar="6" Cut="2.1959393024444580e+00" cType="1" res="9.2844699975103140e-04" rms="2.7410197257995605e-01" purity="2.0409393310546875e-01" nType="0">
              <Node pos="l" depth="4" NCoef="0" IVar="-1" Cut="0.0000000000000000e+00" cType="1" res="1.1320780031383038e-02" rms="2.7201101183891296e-01" purity="1.8218566477298737e-01" nType="-99"/>
              <Node pos="r" depth="4" NCoef="0" IVar="-1" Cut="0.0000000000000000e+00" cType="1" res="-5.5951019749045372e-03" rms="2.7514064311981201e-01" purity="2.1984346210956573e-01" nType="-99"/>
            </Node>
            <Node pos="r" depth="3" NCoef="0" IVar="-1" Cut="0.0000000000000000e+00" cType="1" res="-9.3895364552736282e-03" rms="2.7920526266098022e-01" purity="3.4807994961738586e-01" nType="-99"/>
          </Node>
          <Node pos="r" depth="2" NCoef="0" IVar="7" Cut="2.7721376419067383e+00" cType="1" res="1.6415667487308383e-03" rms="2.9425063729286194e-01" purity="6.0236066579818726e-01" nType="0">
            <Node pos="l" depth="3" NCoef="0" IVar="0" Cut="1.0975610017776489e+00" cType="1" res="7.9121638555079699e-04" rms="2.9635199904441833e-01" purity="6.0652309656143188e-01" nType="0">
              <Node pos="l" depth="4" NCoef="0" IVar="4" Cut="6.4971054077148438e+01" cType="1" res="0.0000000000000000e+00" rms="0.0000000000000000e+00" purity="2.5727409124374390e-01" nType="0">
                <Node pos="l" depth="5" NCoef="0" IVar="-1" Cut="0.0000000000000000e+00" cType="1" res="6.0386895202100277e-03" rms="2.8996387124061584e-01" purity="1.4836737513542175e-01" nType="-99"/>
                <Node pos="r" depth="5" NCoef="0" IVar="-1" Cut="0.0000000000000000e+00" cType="1" res="-3.5400772467255592e-03" rms="2.7961057424545288e-01" purity="2.7997794747352600e-01" nType="-99"/>
              </Node>
              <Node pos="r" depth="4" NCoef="0" IVar="3" Cut="2.0731706619262695e+00" cType="1" res="2.3661756422370672e-03" rms="3.0180150270462036e-01" purity="7.3945885896682739e-01" nType="0">
                <Node pos="l" depth="5" NCoef="0" IVar="-1" Cut="0.0000000000000000e+00" cType="1" res="3.9007063605822623e-04" rms="2.9076784849166870e-01" purity="7.7119475603103638e-01" nType="-99"/>
                <Node pos="r" depth="5" NCoef="0" IVar="-1" Cut="0.0000000000000000e+00" cType="1" res="4.5496183447539806e-03" rms="3.5282772779464722e-01" purity="5.7688260078430176e-01" nType="-99"/>
              </Node>
            </Node>
            <Node pos="r" depth="3" NCoef="0" IVar="-1" Cut="0.0000000000000000e+00" cType="1" res="8.1304004415869713e-03" rms="2.6320591568946838e-01" purity="5.4481476545333862e-01" nType="-99"/>
          </Node>
        </Node>
      </Node>
    </BinaryTree>
    <BinaryTree type="DecisionTree" boostWeight="1.0000000000000000e+00" itree="248">
      <Node pos="s" depth="0" NCoef="0" IVar="5" Cut="3.3720436096191406e+01" cType="1" res="6.3782272627577186e-04" rms="2.9599264264106750e-01" purity="5.0053304433822632e-01" nType="0">
        <Node pos="l" depth="1" NCoef="0" IVar="-1" Cut="0.0000000000000000e+00" cType="1" res="7.5856572948396206e-03" rms="3.5283988714218140e-01" purity="3.2200297713279724e-01" nType="-99"/>
        <Node pos="r" depth="1" NCoef="0" IVar="7" Cut="3.0546703338623047e+00" cType="1" res="2.0158068218734115e-04" rms="2.9442548751831055e-01" purity="5.0497376918792725e-01" nType="0">
          <Node pos="l" depth="2" NCoef="0" IVar="4" Cut="6.4565292358398438e+01" cType="1" res="-4.4630005140788853e-04" rms="2.9677608609199524e-01" purity="5.1802480220794678e-01" nType="0">
            <Node pos="l" depth="3" NCoef="0" IVar="7" Cut="1.1920586824417114e+00" cType="1" res="5.9046093374490738e-03" rms="3.3133673667907715e-01" purity="2.4880690872669220e-01" nType="0">
              <Node pos="l" depth="4" NCoef="0" IVar="7" Cut="6.9779056310653687e-01" cType="1" res="1.3522534631192684e-02" rms="3.5682964324951172e-01" purity="3.0397447943687439e-01" nType="0">
                <Node pos="l" depth="5" NCoef="0" IVar="-1" Cut="0.0000000000000000e+00" cType="1" res="1.6266175080090761e-03" rms="3.5440343618392944e-01" purity="3.0917197465896606e-01" nType="-99"/>
                <Node pos="r" depth="5" NCoef="0" IVar="-1" Cut="0.0000000000000000e+00" cType="1" res="1.2104970403015614e-02" rms="3.6035743355751038e-01" purity="2.9512485861778259e-01" nType="-99"/>
              </Node>
              <Node pos="r" depth="4" NCoef="0" IVar="-1" Cut="0.0000000000000000e+00" cType="1" res="-3.8900529034435749e-03" rms="2.8302586078643799e-01" purity="1.5629202127456665e-01" nType="-99"/>
            </Node>
            <Node pos="r" depth="3" NCoef="0" IVar="6" Cut="1.3026115894317627e+00" cType="1" res="-1.1585926404222846e-03" rms="2.9263684153556824e-01" purity="5.4821920394897461e-01" nType="0">
              <Node pos="l" depth="4" NCoef="0" IVar="9" Cut="2.2842495143413544e-01" cType="1" res="-4.3842932209372520e-03" rms="3.0664357542991638e-01" purity="3.7772423028945923e-01" nType="0">
                <Node pos="l" depth="5" NCoef="0" IVar="-1" Cut="0.0000000000000000e+00" cType="1" res="4.3950839899480343e-03" rms="2.7426177263259888e-01" purity="1.5700328350067139e-01" nType="-99"/>
                <Node pos="r" depth="5" NCoef="0" IVar="-1" Cut="0.0000000000000000e+00" cType="1" res="-3.9498307742178440e-03" rms="3.1712672114372253e-01" purity="4.5509392023086548e-01" nType="-99"/>
              </Node>
              <Node pos="r" depth="4" NCoef="0" IVar="6" Cut="1.4820258617401123e+00" cType="1" res="-8.0803314631339163e-05" rms="2.8779688477516174e-01" purity="6.0518598556518555e-01" nType="0">
                <Node pos="l" depth="5" NCoef="0" IVar="-1" Cut="0.0000000000000000e+00" cType="1" res="7.8891115263104439e-03" rms="3.1795772910118103e-01" purity="4.6654379367828369e-01" nType="-99"/>
                <Node pos="r" depth="5" NCoef="0" IVar="-1" Cut="0.0000000000000000e+00" cType="1" res="-5.8926735073328018e-04" rms="2.8582790493965149e-01" purity="6.1364442110061646e-01" nType="-99"/>
              </Node>
            </Node>
          </Node>
          <Node pos="r" depth="2" NCoef="0" IVar="9" Cut="1.2783174216747284e-01" cType="1" res="8.1381145864725113e-03" rms="2.6380819082260132e-01" purity="3.4509834647178650e-01" nType="0">
            <Node pos="l" depth="3" NCoef="0" IVar="-1" Cut="0.0000000000000000e+00" cType="1" res="-2.3631660733371973e-03" rms="2.4367532134056091e-01" purity="1.8824934959411621e-01" nType="-99"/>
            <Node pos="r" depth="3" NCoef="0" IVar="4" Cut="1.1123115539550781e+02" cType="1" res="1.6159711405634880e-02" rms="2.7672588825225830e-01" purity="4.5469167828559875e-01" nType="0">
              <Node pos="l" depth="4" NCoef="0" IVar="-1" Cut="0.0000000000000000e+00" cType="1" res="1.1907204054296017e-02" rms="2.8458938002586365e-01" purity="4.5488107204437256e-01" nType="-99"/>
              <Node pos="r" depth="4" NCoef="0" IVar="-1" Cut="0.0000000000000000e+00" cType="1" res="7.2466111741960049e-03" rms="2.6955321431159973e-01" purity="4.5452544093132019e-01" nType="-99"/>
            </Node>
          </Node>
        </Node>
      </Node>
    </BinaryTree>
    <BinaryTree type="DecisionTree" boostWeight="1.0000000000000000e+00" itree="249">
      <Node pos="s" depth="0" NCoef="0" IVar="9" Cut="8.3977580070495605e-01" cType="1" res="1.1080619879066944e-03" rms="2.9765692353248596e-01" purity="4.9991932511329651e-01" nType="0">
        <Node pos="l" depth="1" NCoef="0" IVar="9" Cut="6.1593398451805115e-02" cType="1" res="5.5361044360324740e-04" rms="2.9650539159774780e-01" purity="5.0123870372772217e-01" nType="0">
          <Node pos="l" depth="2" NCoef="0" IVar="-1" Cut="0.0000000000000000e+00" cType="1" res="-2.3732222616672516e-02" rms="1.7926059663295746e-01" purity="4.3702434748411179e-02" nType="-99"/>
          <Node pos="r" depth="2" NCoef="0" IVar="7" Cut="3.3092262744903564e+00" cType="1" res="1.0807220824062824e-03" rms="2.9879626631736755e-01" purity="5.1251935958862305e-01" nType="0">
            <Node pos="l" depth="3" NCoef="0" IVar="5" Cut="8.0624137878417969e+01" cType="1" res="3.6886215093545616e-04" rms="2.9968607425689697e-01" purity="5.1966518163681030e-01" nType="0">
              <Node pos="l" depth="4" NCoef="0" IVar="3" Cut="4.0243902206420898e+00" cType="1" res="-3.2246040645986795e-03" rms="3.1613108515739441e-01" purity="5.5825734138488770e-01" nType="0">
                <Node pos="l" depth="5" NCoef="0" IVar="-1" Cut="0.0000000000000000e+00" cType="1" res="-8.5554138058796525e-04" rms="3.1683757901191711e-01" purity="5.9311288595199585e-01" nType="-99"/>
                <Node pos="r" depth="5" NCoef="0" IVar="-1" Cut="0.0000000000000000e+00" cType="1" res="-7.7394540421664715e-03" rms="3.0943918228149414e-01" purity="2.4761816859245300e-01" nType="-99"/>
              </Node>
              <Node pos="r" depth="4" NCoef="0" IVar="6" Cut="2.2987285256385803e-01" cType="1" res="2.6726638898253441e-03" rms="2.8862702846527100e-01" purity="4.9492338299751282e-01" nType="0">
                <Node pos="l" depth="5" NCoef="0" IVar="-1" Cut="0.0000000000000000e+00" cType="1" res="1.1276883073151112e-02" rms="3.2182073593139648e-01" purity="2.4564091861248016e-01" nType="-99"/>
                <Node pos="r" depth="5" NCoef="0" IVar="-1" Cut="0.0000000000000000e+00" cType="1" res="1.1878499062731862e-03" rms="2.8723913431167603e-01" purity="5.0460755825042725e-01" nType="-99"/>
              </Node>
            </Node>
            <Node pos="r" depth="3" NCoef="0" IVar="5" Cut="8.8267158508300781e+01" cType="1" res="1.5931671485304832e-02" rms="2.7917426824569702e-01" purity="3.6344224214553833e-01" nType="0">
              <Node pos="l" depth="4" NCoef="0" IVar="-1" Cut="0.0000000000000000e+00" cType="1" res="1.2243907898664474e-02" rms="2.9943269491195679e-01" purity="4.9587503075599670e-01" nType="-99"/>
              <Node pos="r" depth="4" NCoef="0" IVar="-1" Cut="0.0000000000000000e+00" cType="1" res="6.0326782986521721e-03" rms="2.5764954090118408e-01" purity="2.3412439227104187e-01" nType="-99"/>
            </Node>
          </Node>
        </Node>
        <Node pos="r" depth="1" NCoef="0" IVar="-1" Cut="0.0000000000000000e+00" cType="1" res="7.7156862244009972e-03" rms="3.2749748229980469e-01" purity="4.6347731351852417e-01" nType="-99"/>
      </Node>
    </BinaryTree>
    <BinaryTree type="DecisionTree" boostWeight="1.0000000000000000e+00" itree="250">
      <Node pos="s" depth="0" NCoef="0" IVar="4" Cut="2.3259057617187500e+02" cType="1" res="5.9028207033406943e-05" rms="2.9628500342369080e-01" purity="4.9962151050567627e-01" nType="0">
        <Node pos="l" depth="1" NCoef="0" IVar="7" Cut="2.5795876979827881e-01" cType="1" res="4.8430668539367616e-04" rms="2.9743933677673340e-01" purity="5.0753068923950195e-01" nType="0">
          <Node pos="l" depth="2" NCoef="0" IVar="6" Cut="2.6052203178405762e+00" cType="1" res="-5.3976597264409065e-03" rms="3.1167221069335938e-01" purity="5.5816805362701416e-01" nType="0">
            <Node pos="l" depth="3" NCoef="0" IVar="2" Cut="2.0731706619262695e+00" cType="1" res="-8.9977327734231949e-03" rms="3.1912508606910706e-01" purity="4.9692136049270630e-01" nType="0">
              <Node pos="l" depth="4" NCoef="0" IVar="7" Cut="1.3212534785270691e-01" cType="1" res="-1.3859765604138374e-02" rms="3.2578900456428528e-01" purity="6.0009264945983887e-01" nType="0">
                <Node pos="l" depth="5" NCoef="0" IVar="-1" Cut="0.0000000000000000e+00" cType="1" res="-4.1057337075471878e-03" rms="3.2792720198631287e-01" purity="6.0596370697021484e-01" nType="-99"/>
                <Node pos="r" depth="5" NCoef="0" IVar="-1" Cut="0.0000000000000000e+00" cType="1" res="-9.2159584164619446e-03" rms="3.2336226105690002e-01" purity="5.9372115135192871e-01" nType="-99"/>
              </Node>
              <Node pos="r" depth="4" NCoef="0" IVar="-1" Cut="0.0000000000000000e+00" cType="1" res="3.6124784965068102e-03" rms="2.9757222533226013e-01" purity="1.8475130200386047e-01" nType="-99"/>
            </Node>
            <Node pos="r" depth="3" NCoef="0" IVar="-1" Cut="0.0000000000000000e+00" cType="1" res="1.3301694998517632e-03" rms="2.9491069912910461e-01" purity="6.8948608636856079e-01" nType="-99"/>
          </Node>
          <Node pos="r" depth="2" NCoef="0" IVar="7" Cut="3.7812931537628174e+00" cType="1" res="1.3810620876029134e-03" rms="2.9519882798194885e-01" purity="4.9981063604354858e-01" nType="0">
            <Node pos="l" depth="3" NCoef="0" IVar="9" Cut="2.4073904752731323e-01" cType="1" res="9.7730802372097969e-04" rms="2.9604470729827881e-01" purity="5.0818574428558350e-01" nType="0">
              <Node pos="l" depth="4" NCoef="0" IVar="7" Cut="6.0169929265975952e-01" cType="1" res="-3.2395508605986834e-03" rms="2.8613150119781494e-01" purity="3.0956232547760010e-01" nType="0">
                <Node pos="l" depth="5" NCoef="0" IVar="-1" Cut="0.0000000000000000e+00" cType="1" res="7.7266255393624306e-03" rms="3.2138589024543762e-01" purity="2.6040601730346680e-01" nType="-99"/>
                <Node pos="r" depth="5" NCoef="0" IVar="-1" Cut="0.0000000000000000e+00" cType="1" res="-3.1855159904807806e-03" rms="2.8148481249809265e-01" purity="3.1551697850227356e-01" nType="-99"/>
              </Node>
              <Node pos="r" depth="4" NCoef="0" IVar="7" Cut="6.8763095140457153e-01" cType="1" res="2.7257399633526802e-03" rms="3.0004161596298218e-01" purity="5.9054076671600342e-01" nType="0">
                <Node pos="l" depth="5" NCoef="0" IVar="-1" Cut="0.0000000000000000e+00" cType="1" res="-1.8888565246015787e-03" rms="3.1105569005012512e-01" purity="6.1340737342834473e-01" nType="-99"/>
                <Node pos="r" depth="5" NCoef="0" IVar="-1" Cut="0.0000000000000000e+00" cType="1" res="3.0177680309861898e-03" rms="2.9523977637290955e-01" purity="5.8091288805007935e-01" nType="-99"/>
              </Node>
            </Node>
            <Node pos="r" depth="3" NCoef="0" IVar="-1" Cut="0.0000000000000000e+00" cType="1" res="9.9583053961396217e-03" rms="2.6553678512573242e-01" purity="2.2431963682174683e-01" nType="-99"/>
          </Node>
        </Node>
        <Node pos="r" depth="1" NCoef="0" IVar="-1" Cut="0.0000000000000000e+00" cType="1" res="-1.2420194223523140e-02" rms="2.4093282222747803e-01" purity="1.6039004921913147e-01" nType="-99"/>
      </Node>
    </BinaryTree>
    <BinaryTree type="DecisionTree" boostWeight="1.0000000000000000e+00" itree="251">
      <Node pos="s" depth="0" NCoef="0" IVar="4" Cut="1.7462612915039062e+02" cType="1" res="-3.4264821442775428e-04" rms="2.9573845863342285e-01" purity="4.9998477101325989e-01" nType="0">
        <Node pos="l" depth="1" NCoef="0" IVar="5" Cut="9.5056068420410156e+01" cType="1" res="-1.1263466440141201e-03" rms="2.9774200916290283e-01" purity="5.4552751779556274e-01" nType="0">
          <Node pos="l" depth="2" NCoef="0" IVar="9" Cut="5.7380187511444092e-01" cType="1" res="7.0152617990970612e-04" rms="3.0067151784896851e-01" purity="6.4958888292312622e-01" nType="0">
            <Node pos="l" depth="3" NCoef="0" IVar="3" Cut="4.0243902206420898e+00" cType="1" res="-8.6839043069630861e-04" rms="2.9865112900733948e-01" purity="6.3738358020782471e-01" nType="0">
              <Node pos="l" depth="4" NCoef="0" IVar="9" Cut="1.1212661862373352e-01" cType="1" res="3.8484510150738060e-04" rms="2.9765313863754272e-01" purity="6.7424130439758301e-01" nType="0">
                <Node pos="l" depth="5" NCoef="0" IVar="-1" Cut="0.0000000000000000e+00" cType="1" res="8.1391427665948868e-03" rms="3.4065628051757812e-01" purity="2.8547453880310059e-01" nType="-99"/>
                <Node pos="r" depth="5" NCoef="0" IVar="-1" Cut="0.0000000000000000e+00" cType="1" res="-3.2093466143123806e-04" rms="2.9510006308555603e-01" purity="6.9542223215103149e-01" nType="-99"/>
              </Node>
              <Node pos="r" depth="4" NCoef="0" IVar="9" Cut="3.2204532623291016e-01" cType="1" res="-1.3936890289187431e-02" rms="3.0856269598007202e-01" purity="2.5303861498832703e-01" nType="0">
                <Node pos="l" depth="5" NCoef="0" IVar="-1" Cut="0.0000000000000000e+00" cType="1" res="-1.2252110987901688e-02" rms="2.7448952198028564e-01" purity="1.6263619065284729e-01" nType="-99"/>
                <Node pos="r" depth="5" NCoef="0" IVar="-1" Cut="0.0000000000000000e+00" cType="1" res="-2.2982952650636435e-03" rms="3.4021967649459839e-01" purity="3.4709429740905762e-01" nType="-99"/>
              </Node>
            </Node>
            <Node pos="r" depth="3" NCoef="0" IVar="8" Cut="2.6090949773788452e-01" cType="1" res="9.5666013658046722e-03" rms="3.1168648600578308e-01" purity="7.1851032972335815e-01" nType="0">
              <Node pos="l" depth="4" NCoef="0" IVar="-1" Cut="0.0000000000000000e+00" cType="1" res="4.5512328506447375e-04" rms="3.2125473022460938e-01" purity="6.5011090040206909e-01" nType="-99"/>
              <Node pos="r" depth="4" NCoef="0" IVar="-1" Cut="0.0000000000000000e+00" cType="1" res="7.4133276939392090e-03" rms="3.0608993768692017e-01" purity="7.5682920217514038e-01" nType="-99"/>
            </Node>
          </Node>
          <Node pos="r" depth="2" NCoef="0" IVar="8" Cut="5.5868476629257202e-01" cType="1" res="-4.2673414573073387e-03" rms="2.9261282086372375e-01" purity="3.6670956015586853e-01" nType="0">
            <Node pos="l" depth="3" NCoef="0" IVar="4" Cut="1.5490731811523438e+02" cType="1" res="-3.0199908651411533e-03" rms="2.8488913178443909e-01" purity="3.6763539910316467e-01" nType="0">
              <Node pos="l" depth="4" NCoef="0" IVar="6" Cut="2.6818468570709229e+00" cType="1" res="-1.9152181921526790e-03" rms="2.8819841146469116e-01" purity="3.8518273830413818e-01" nType="0">
                <Node pos="l" depth="5" NCoef="0" IVar="-1" Cut="0.0000000000000000e+00" cType="1" res="4.2909962940029800e-04" rms="2.9670366644859314e-01" purity="2.8060677647590637e-01" nType="-99"/>
                <Node pos="r" depth="5" NCoef="0" IVar="-1" Cut="0.0000000000000000e+00" cType="1" res="-4.7305617481470108e-03" rms="2.6890212297439575e-01" purity="6.1014866828918457e-01" nType="-99"/>
              </Node>
              <Node pos="r" depth="4" NCoef="0" IVar="-1" Cut="0.0000000000000000e+00" cType="1" res="-1.2621193192899227e-02" rms="2.3856109380722046e-01" purity="1.4521692693233490e-01" nType="-99"/>
            </Node>
            <Node pos="r" depth="3" NCoef="0" IVar="-1" Cut="0.0000000000000000e+00" cType="1" res="-6.6232010722160339e-03" rms="3.5417690873146057e-01" purity="3.5841575264930725e-01" nType="-99"/>
          </Node>
        </Node>
        <Node pos="r" depth="1" NCoef="0" IVar="1" Cut="4.0243902206420898e+00" cType="1" res="4.9083819612860680e-03" rms="2.8189072012901306e-01" purity="1.9483435153961182e-01" nType="0">
          <Node pos="l" depth="2" NCoef="0" IVar="0" Cut="3.0487804412841797e+00" cType="1" res="7.8679556027054787e-03" rms="2.8035339713096619e-01" purity="1.8700540065765381e-01" nType="0">
            <Node pos="l" depth="3" NCoef="0" IVar="7" Cut="9.7227632999420166e-01" cType="1" res="2.0072048064321280e-03" rms="2.1109206974506378e-01" purity="8.4145575761795044e-02" nType="0">
              <Node pos="l" depth="4" NCoef="0" IVar="-1" Cut="0.0000000000000000e+00" cType="1" res="-5.2431728690862656e-03" rms="2.2926515340805054e-01" purity="9.2700317502021790e-02" nType="-99"/>
              <Node pos="r" depth="4" NCoef="0" IVar="-1" Cut="0.0000000000000000e+00" cType="1" res="8.5834302008152008e-03" rms="1.9829697906970978e-01" purity="7.8612357378005981e-02" nType="-99"/>
            </Node>
            <Node pos="r" depth="3" NCoef="0" IVar="6" Cut="2.2221002578735352e+00" cType="1" res="1.4903470873832703e-02" rms="3.4549716114997864e-01" purity="3.1048306822776794e-01" nType="0">
              <Node pos="l" depth="4" NCoef="0" IVar="-1" Cut="0.0000000000000000e+00" cType="1" res="1.1059870943427086e-02" rms="3.4868294000625610e-01" purity="2.0212310552597046e-01" nType="-99"/>
              <Node pos="r" depth="4" NCoef="0" IVar="-1" Cut="0.0000000000000000e+00" cType="1" res="2.2744508460164070e-03" rms="3.4153294563293457e-01" purity="4.3595835566520691e-01" nType="-99"/>
            </Node>
          </Node>
          <Node pos="r" depth="2" NCoef="0" IVar="-1" Cut="0.0000000000000000e+00" cType="1" res="-2.3676746059209108e-03" rms="2.8646498918533325e-01" purity="2.1941336989402771e-01" nType="-99"/>
        </Node>
      </Node>
    </BinaryTree>
    <BinaryTree type="DecisionTree" boostWeight="1.0000000000000000e+00" itree="252">
      <Node pos="s" depth="0" NCoef="0" IVar="9" Cut="3.6027315258979797e-01" cType="1" res="1.5689395368099213e-03" rms="2.9671278595924377e-01" purity="5.0148671865463257e-01" nType="0">
        <Node pos="l" depth="1" NCoef="0" IVar="9" Cut="6.1669770628213882e-02" cType="1" res="3.2152524217963219e-03" rms="2.9678699374198914e-01" purity="4.0375944972038269e-01" nType="0">
          <Node pos="l" depth="2" NCoef="0" IVar="-1" Cut="0.0000000000000000e+00" cType="1" res="-1.6739511862397194e-02" rms="1.9526489078998566e-01" purity="4.4183600693941116e-02" nType="-99"/>
          <Node pos="r" depth="2" NCoef="0" IVar="9" Cut="1.1265081912279129e-01" cType="1" res="3.9609982632100582e-03" rms="3.0039632320404053e-01" purity="4.1937071084976196e-01" nType="0">
            <Node pos="l" depth="3" NCoef="0" IVar="1" Cut="1.0975610017776489e+00" cType="1" res="1.7739217728376389e-02" rms="2.7872037887573242e-01" purity="1.7881846427917480e-01" nType="0">
              <Node pos="l" depth="4" NCoef="0" IVar="-1" Cut="0.0000000000000000e+00" cType="1" res="6.4277155324816704e-03" rms="2.1931906044483185e-01" purity="6.7361921072006226e-02" nType="-99"/>
              <Node pos="r" depth="4" NCoef="0" IVar="-1" Cut="0.0000000000000000e+00" cType="1" res="1.4466462656855583e-02" rms="3.3886748552322388e-01" purity="3.2027831673622131e-01" nType="-99"/>
            </Node>
            <Node pos="r" depth="3" NCoef="0" IVar="4" Cut="8.8131828308105469e+01" cType="1" res="2.5445008650422096e-03" rms="3.0250117182731628e-01" purity="4.4410112500190735e-01" nType="0">
              <Node pos="l" depth="4" NCoef="0" IVar="9" Cut="2.0324429869651794e-01" cType="1" res="1.0141447186470032e-02" rms="3.1985661387443542e-01" purity="2.6451486349105835e-01" nType="0">
                <Node pos="l" depth="5" NCoef="0" IVar="-1" Cut="0.0000000000000000e+00" cType="1" res="1.4334303326904774e-02" rms="3.1224048137664795e-01" purity="1.9454473257064819e-01" nType="-99"/>
                <Node pos="r" depth="5" NCoef="0" IVar="-1" Cut="0.0000000000000000e+00" cType="1" res="2.0595698151737452e-03" rms="3.2286733388900757e-01" purity="2.9432624578475952e-01" nType="-99"/>
              </Node>
              <Node pos="r" depth="4" NCoef="0" IVar="9" Cut="2.8175869584083557e-01" cType="1" res="6.8857287988066673e-04" rms="2.9807826876640320e-01" purity="4.8797392845153809e-01" nType="0">
                <Node pos="l" depth="5" NCoef="0" IVar="-1" Cut="0.0000000000000000e+00" cType="1" res="-1.4915277715772390e-03" rms="2.9666459560394287e-01" purity="4.1942465305328369e-01" nType="-99"/>
                <Node pos="r" depth="5" NCoef="0" IVar="-1" Cut="0.0000000000000000e+00" cType="1" res="3.8287758361548185e-03" rms="3.0055692791938782e-01" purity="6.1383271217346191e-01" nType="-99"/>
              </Node>
            </Node>
          </Node>
        </Node>
        <Node pos="r" depth="1" NCoef="0" IVar="6" Cut="2.6052207946777344e+00" cType="1" res="-5.0635426305234432e-04" rms="2.9660618305206299e-01" purity="6.2467879056930542e-01" nType="0">
          <Node pos="l" depth="2" NCoef="0" IVar="5" Cut="9.1545372009277344e+01" cType="1" res="-3.0774488113820553e-03" rms="3.1282225251197815e-01" purity="5.5367887020111084e-01" nType="0">
            <Node pos="l" depth="3" NCoef="0" IVar="2" Cut="4.0243902206420898e+00" cType="1" res="4.3907429790124297e-04" rms="3.1191664934158325e-01" purity="6.6172873973846436e-01" nType="0">
              <Node pos="l" depth="4" NCoef="0" IVar="5" Cut="6.0613353729248047e+01" cType="1" res="1.8875232199206948e-03" rms="3.1667953729629517e-01" purity="7.2701305150985718e-01" nType="0">
                <Node pos="l" depth="5" NCoef="0" IVar="-1" Cut="0.0000000000000000e+00" cType="1" res="3.6545062903314829e-03" rms="3.7208914756774902e-01" purity="5.4040807485580444e-01" nType="-99"/>
                <Node pos="r" depth="5" NCoef="0" IVar="-1" Cut="0.0000000000000000e+00" cType="1" res="-5.3144473349675536e-04" rms="2.9516208171844482e-01" purity="7.9122895002365112e-01" nType="-99"/>
              </Node>
              <Node pos="r" depth="4" NCoef="0" IVar="-1" Cut="0.0000000000000000e+00" cType="1" res="-7.0482189767062664e-03" rms="2.6858258247375488e-01" purity="1.1677379906177521e-01" nType="-99"/>
            </Node>
            <Node pos="r" depth="3" NCoef="0" IVar="8" Cut="1.6832853853702545e-01" cType="1" res="-9.1857835650444031e-03" rms="3.1429558992385864e-01" purity="3.6599209904670715e-01" nType="0">
              <Node pos="l" depth="4" NCoef="0" IVar="-1" Cut="0.0000000000000000e+00" cType="1" res="3.1701833941042423e-03" rms="2.5444906949996948e-01" purity="1.4752417802810669e-01" nType="-99"/>
              <Node pos="r" depth="4" NCoef="0" IVar="6" Cut="7.6250928640365601e-01" cType="1" res="-1.2950249947607517e-02" rms="3.2909473776817322e-01" purity="4.2752039432525635e-01" nType="0">
                <Node pos="l" depth="5" NCoef="0" IVar="-1" Cut="0.0000000000000000e+00" cType="1" res="2.3496206267736852e-04" rms="3.5610389709472656e-01" purity="3.2367441058158875e-01" nType="-99"/>
                <Node pos="r" depth="5" NCoef="0" IVar="-1" Cut="0.0000000000000000e+00" cType="1" res="-8.5229799151420593e-03" rms="3.1836059689521790e-01" purity="4.6599727869033813e-01" nType="-99"/>
              </Node>
            </Node>
          </Node>
          <Node pos="r" depth="2" NCoef="0" IVar="8" Cut="3.0601736903190613e-01" cType="1" res="4.8380680382251740e-03" rms="2.5959685444831848e-01" purity="7.7226316928863525e-01" nType="0">
            <Node pos="l" depth="3" NCoef="0" IVar="7" Cut="1.1527805328369141e+00" cType="1" res="-3.0903914012014866e-03" rms="3.1388920545578003e-01" purity="5.9072554111480713e-01" nType="0">
              <Node pos="l" depth="4" NCoef="0" IVar="-1" Cut="0.0000000000000000e+00" cType="1" res="-4.1986210271716118e-03" rms="3.2357612252235413e-01" purity="5.8431810140609741e-01" nType="-99"/>
              <Node pos="r" depth="4" NCoef="0" IVar="-1" Cut="0.0000000000000000e+00" cType="1" res="1.7723223427310586e-03" rms="3.0253368616104126e-01" purity="5.9790384769439697e-01" nType="-99"/>
            </Node>
            <Node pos="r" depth="3" NCoef="0" IVar="-1" Cut="0.0000000000000000e+00" cType="1" res="8.4082297980785370e-03" rms="2.1833136677742004e-01" purity="8.8687437772750854e-01" nType="-99"/>
          </Node>
        </Node>
      </Node>
    </BinaryTree>
    <BinaryTree type="DecisionTree" boostWeight="1.0000000000000000e+00" itree="253">
      <Node pos="s" depth="0" NCoef="0" IVar="4" Cut="8.1858413696289062e+01" cType="1" res="1.2502518948167562e-03" rms="2.9696553945541382e-01" purity="5.0235122442245483e-01" nType="0">
        <Node pos="l" depth="1" NCoef="0" IVar="7" Cut="2.5796046853065491e-01" cType="1" res="6.0979514382779598e-03" rms="3.3066993951797485e-01" purity="2.9905271530151367e-01" nType="0">
          <Node pos="l" depth="2" NCoef="0" IVar="-1" Cut="0.0000000000000000e+00" cType="1" res="-8.5705081000924110e-03" rms="3.4096351265907288e-01" purity="3.3886572718620300e-01" nType="-99"/>
          <Node pos="r" depth="2" NCoef="0" IVar="4" Cut="6.3191699981689453e+01" cType="1" res="1.0152353905141354e-02" rms="3.2889029383659363e-01" purity="2.9301169514656067e-01" nType="0">
            <Node pos="l" depth="3" NCoef="0" IVar="1" Cut="1.0975610017776489e+00" cType="1" res="3.7968002725392580e-03" rms="3.2242190837860107e-01" purity="2.2088946402072906e-01" nType="0">
              <Node pos="l" depth="4" NCoef="0" IVar="9" Cut="3.2380273938179016e-01" cType="1" res="8.1734666600823402e-03" rms="3.0378684401512146e-01" purity="1.7960484325885773e-01" nType="0">
                <Node pos="l" depth="5" NCoef="0" IVar="-1" Cut="0.0000000000000000e+00" cType="1" res="-1.0449646506458521e-03" rms="2.4914385378360748e-01" purity="9.6297875046730042e-02" nType="-99"/>
                <Node pos="r" depth="5" NCoef="0" IVar="-1" Cut="0.0000000000000000e+00" cType="1" res="6.6786236129701138e-03" rms="3.3707180619239807e-01" purity="2.3872070014476776e-01" nType="-99"/>
              </Node>
              <Node pos="r" depth="4" NCoef="0" IVar="-1" Cut="0.0000000000000000e+00" cType="1" res="-2.0803827792406082e-03" rms="3.5841149091720581e-01" purity="3.0802178382873535e-01" nType="-99"/>
            </Node>
            <Node pos="r" depth="3" NCoef="0" IVar="8" Cut="3.8768950104713440e-01" cType="1" res="1.6343660652637482e-02" rms="3.3495551347732544e-01" purity="3.6327001452445984e-01" nType="0">
              <Node pos="l" depth="4" NCoef="0" IVar="0" Cut="1.0975610017776489e+00" cType="1" res="9.1805430129170418e-03" rms="3.1401139497756958e-01" purity="3.2435435056686401e-01" nType="0">
                <Node pos="l" depth="5" NCoef="0" IVar="-1" Cut="0.0000000000000000e+00" cType="1" res="6.3499424140900373e-04" rms="2.5683504343032837e-01" purity="1.2736548483371735e-01" nType="-99"/>
                <Node pos="r" depth="5" NCoef="0" IVar="-1" Cut="0.0000000000000000e+00" cType="1" res="6.7845028825104237e-03" rms="3.5652884840965271e-01" purity="4.9711373448371887e-01" nType="-99"/>
              </Node>
              <Node pos="r" depth="4" NCoef="0" IVar="-1" Cut="0.0000000000000000e+00" cType="1" res="1.1612309142947197e-02" rms="3.7012523412704468e-01" purity="4.3503877520561218e-01" nType="-99"/>
            </Node>
          </Node>
        </Node>
        <Node pos="r" depth="1" NCoef="0" IVar="8" Cut="9.5340961217880249e-01" cType="1" res="1.2361860717646778e-04" rms="2.8855758905410767e-01" purity="5.4959899187088013e-01" nType="0">
          <Node pos="l" depth="2" NCoef="0" IVar="1" Cut="2.0731706619262695e+00" cType="1" res="5.4006901336833835e-04" rms="2.8748723864555359e-01" purity="5.5696177482604980e-01" nType="0">
            <Node pos="l" depth="3" NCoef="0" IVar="9" Cut="5.9853464365005493e-01" cType="1" res="-1.6681426204741001e-03" rms="3.0549651384353638e-01" purity="3.1647458672523499e-01" nType="0">
              <Node pos="l" depth="4" NCoef="0" IVar="4" Cut="9.0060455322265625e+01" cType="1" res="-6.6899403464049101e-05" rms="3.0288729071617126e-01" purity="3.0916333198547363e-01" nType="0">
                <Node pos="l" depth="5" NCoef="0" IVar="-1" Cut="0.0000000000000000e+00" cType="1" res="-8.8080810382962227e-03" rms="2.8956514596939087e-01" purity="2.4356597661972046e-01" nType="-99"/>
                <Node pos="r" depth="5" NCoef="0" IVar="-1" Cut="0.0000000000000000e+00" cType="1" res="7.0590170798823237e-04" rms="3.0392649769783020e-01" purity="3.1461077928543091e-01" nType="-99"/>
              </Node>
              <Node pos="r" depth="4" NCoef="0" IVar="-1" Cut="0.0000000000000000e+00" cType="1" res="-7.7090896666049957e-03" rms="3.2930758595466614e-01" purity="3.8731548190116882e-01" nType="-99"/>
            </Node>
            <Node pos="r" depth="3" NCoef="0" IVar="6" Cut="8.4286648035049438e-01" cType="1" res="2.2722571156919003e-03" rms="2.7251604199409485e-01" purity="7.4560713768005371e-01" nType="0">
              <Node pos="l" depth="4" NCoef="0" IVar="6" Cut="4.1115328669548035e-01" cType="1" res="-6.8248203024268150e-03" rms="3.1060841679573059e-01" purity="5.3204518556594849e-01" nType="0">
                <Node pos="l" depth="5" NCoef="0" IVar="-1" Cut="0.0000000000000000e+00" cType="1" res="-1.2370881158858538e-03" rms="3.1532698869705200e-01" purity="5.1332885026931763e-01" nType="-99"/>
                <Node pos="r" depth="5" NCoef="0" IVar="-1" Cut="0.0000000000000000e+00" cType="1" res="-5.0965682603418827e-03" rms="3.0648344755172729e-01" purity="5.4799807071685791e-01" nType="-99"/>
              </Node>
              <Node pos="r" depth="4" NCoef="0" IVar="2" Cut="4.0243902206420898e+00" cType="1" res="3.4247024450451136e-03" rms="2.6728117465972900e-01" purity="7.7266186475753784e-01" nType="0">
                <Node pos="l" depth="5" NCoef="0" IVar="-1" Cut="0.0000000000000000e+00" cType="1" res="1.7205821350216866e-03" rms="2.6407307386398315e-01" purity="8.1807982921600342e-01" nType="-99"/>
                <Node pos="r" depth="5" NCoef="0" IVar="-1" Cut="0.0000000000000000e+00" cType="1" res="7.3675182648003101e-03" rms="3.0311352014541626e-01" purity="2.2445297241210938e-01" nType="-99"/>
              </Node>
            </Node>
          </Node>
          <Node pos="r" depth="2" NCoef="0" IVar="-1" Cut="0.0000000000000000e+00" cType="1" res="-6.1800167895853519e-03" rms="3.2020890712738037e-01" purity="3.1738045811653137e-01" nType="-99"/>
        </Node>
      </Node>
    </BinaryTree>
    <BinaryTree type="DecisionTree" boostWeight="1.0000000000000000e+00" itree="254">
      <Node pos="s" depth="0" NCoef="0" IVar="4" Cut="5.8497375488281250e+01" cType="1" res="1.0423258936498314e-04" rms="2.9633438587188721e-01" purity="4.9922832846641541e-01" nType="0">
        <Node pos="l" depth="1" NCoef="0" IVar="6" Cut="1.3792438507080078e+00" cType="1" res="-5.8239763602614403e-03" rms="3.1558200716972351e-01" purity="2.1443825960159302e-01" nType="0">
          <Node pos="l" depth="2" NCoef="0" IVar="-1" Cut="0.0000000000000000e+00" cType="1" res="-1.3313464820384979e-02" rms="2.8238832950592041e-01" purity="1.4109914004802704e-01" nType="-99"/>
          <Node pos="r" depth="2" NCoef="0" IVar="8" Cut="3.3956807851791382e-01" cType="1" res="3.6219893954694271e-03" rms="3.3078002929687500e-01" purity="2.5171300768852234e-01" nType="0">
            <Node pos="l" depth="3" NCoef="0" IVar="-1" Cut="0.0000000000000000e+00" cType="1" res="-4.7372183762490749e-03" rms="2.9786184430122375e-01" purity="1.7879450321197510e-01" nType="-99"/>
            <Node pos="r" depth="3" NCoef="0" IVar="-1" Cut="0.0000000000000000e+00" cType="1" res="5.8123110793530941e-03" rms="3.5854625701904297e-01" purity="3.2016226649284363e-01" nType="-99"/>
          </Node>
        </Node>
        <Node pos="r" depth="1" NCoef="0" IVar="8" Cut="6.2280243635177612e-01" cType="1" res="5.9613381745293736e-04" rms="2.9467546939849854e-01" purity="5.2285915613174438e-01" nType="0">
          <Node pos="l" depth="2" NCoef="0" IVar="8" Cut="5.6206011772155762e-01" cType="1" res="1.2828818289563060e-03" rms="2.8965499997138977e-01" purity="5.2729618549346924e-01" nType="0">
            <Node pos="l" depth="3" NCoef="0" IVar="8" Cut="1.3724321126937866e-01" cType="1" res="6.5827951766550541e-04" rms="2.8848594427108765e-01" purity="5.2159243822097778e-01" nType="0">
              <Node pos="l" depth="4" NCoef="0" IVar="7" Cut="2.3936712741851807e+00" cType="1" res="-5.0060576759278774e-03" rms="2.6116761565208435e-01" purity="1.9901773333549500e-01" nType="0">
                <Node pos="l" depth="5" NCoef="0" IVar="-1" Cut="0.0000000000000000e+00" cType="1" res="4.9540768377482891e-03" rms="2.7320435643196106e-01" purity="1.9434563815593719e-01" nType="-99"/>
                <Node pos="r" depth="5" NCoef="0" IVar="-1" Cut="0.0000000000000000e+00" cType="1" res="-1.2405190616846085e-02" rms="2.4690543115139008e-01" purity="2.0404647290706635e-01" nType="-99"/>
              </Node>
              <Node pos="r" depth="4" NCoef="0" IVar="7" Cut="2.6824476718902588e+00" cType="1" res="1.4320109039545059e-03" rms="2.9201069474220276e-01" purity="5.6565523147583008e-01" nType="0">
                <Node pos="l" depth="5" NCoef="0" IVar="-1" Cut="0.0000000000000000e+00" cType="1" res="-8.2058388215955347e-05" rms="2.9469138383865356e-01" purity="5.7206517457962036e-01" nType="-99"/>
                <Node pos="r" depth="5" NCoef="0" IVar="-1" Cut="0.0000000000000000e+00" cType="1" res="9.4594005495309830e-03" rms="2.6629266142845154e-01" purity="5.0804424285888672e-01" nType="-99"/>
              </Node>
            </Node>
            <Node pos="r" depth="3" NCoef="0" IVar="-1" Cut="0.0000000000000000e+00" cType="1" res="6.7269653081893921e-03" rms="3.1203424930572510e-01" purity="6.4233458042144775e-01" nType="-99"/>
          </Node>
          <Node pos="r" depth="2" NCoef="0" IVar="5" Cut="8.4231887817382812e+01" cType="1" res="-4.8715732991695404e-03" rms="3.3189836144447327e-01" purity="4.8753309249877930e-01" nType="0">
            <Node pos="l" depth="3" NCoef="0" IVar="6" Cut="1.1493662595748901e+00" cType="1" res="2.5091848801821470e-03" rms="3.3584609627723694e-01" purity="5.7305794954299927e-01" nType="0">
              <Node pos="l" depth="4" NCoef="0" IVar="-1" Cut="0.0000000000000000e+00" cType="1" res="4.4071953743696213e-03" rms="3.4219494462013245e-01" purity="5.5846112966537476e-01" nType="-99"/>
              <Node pos="r" depth="4" NCoef="0" IVar="-1" Cut="0.0000000000000000e+00" cType="1" res="-1.7540343105792999e-03" rms="3.3076784014701843e-01" purity="5.8422493934631348e-01" nType="-99"/>
            </Node>
            <Node pos="r" depth="3" NCoef="0" IVar="7" Cut="6.8536049127578735e-01" cType="1" res="-1.5808919444680214e-02" rms="3.2565289735794067e-01" purity="3.6079603433609009e-01" nType="0">
              <Node pos="l" depth="4" NCoef="0" IVar="-1" Cut="0.0000000000000000e+00" cType="1" res="-1.7329122638329864e-03" rms="3.5530260205268860e-01" purity="4.4636541604995728e-01" nType="-99"/>
              <Node pos="r" depth="4" NCoef="0" IVar="-1" Cut="0.0000000000000000e+00" cType="1" res="-1.5015784651041031e-02" rms="2.9110208153724670e-01" purity="2.7177488803863525e-01" nType="-99"/>
            </Node>
          </Node>
        </Node>
      </Node>
    </BinaryTree>
    <BinaryTree type="DecisionTree" boostWeight="1.0000000000000000e+00" itree="255">
      <Node pos="s" depth="0" NCoef="0" IVar="4" Cut="4.6891162872314453e+01" cType="1" res="1.2729837326332927e-03" rms="2.9811963438987732e-01" purity="4.9841195344924927e-01" nType="0">
        <Node pos="l" depth="1" NCoef="0" IVar="5" Cut="8.8267417907714844e+01" cType="1" res="1.1256414465606213e-02" rms="3.2348635792732239e-01" purity="1.9951258599758148e-01" nType="0">
          <Node pos="l" depth="2" NCoef="0" IVar="-1" Cut="0.0000000000000000e+00" cType="1" res="7.7851009555160999e-03" rms="3.6904501914978027e-01" purity="2.9262033104896545e-01" nType="-99"/>
          <Node pos="r" depth="2" NCoef="0" IVar="-1" Cut="0.0000000000000000e+00" cType="1" res="1.6985767288133502e-03" rms="2.7499005198478699e-01" purity="1.1434400826692581e-01" nType="-99"/>
        </Node>
        <Node pos="r" depth="1" NCoef="0" IVar="4" Cut="1.0138377380371094e+02" cType="1" res="8.2621525507420301e-04" rms="2.9692593216896057e-01" purity="5.1178795099258423e-01" nType="0">
          <Node pos="l" depth="2" NCoef="0" IVar="4" Cut="5.6194801330566406e+01" cType="1" res="-2.4955081753432751e-03" rms="3.1727018952369690e-01" purity="4.4153907895088196e-01" nType="0">
            <Node pos="l" depth="3" NCoef="0" IVar="-1" Cut="0.0000000000000000e+00" cType="1" res="4.8535377718508244e-03" rms="3.4138345718383789e-01" purity="2.7187487483024597e-01" nType="-99"/>
            <Node pos="r" depth="3" NCoef="0" IVar="4" Cut="6.2807910919189453e+01" cType="1" res="-3.9000937249511480e-03" rms="3.1467124819755554e-01" purity="4.5885640382766724e-01" nType="0">
              <Node pos="l" depth="4" NCoef="0" IVar="-1" Cut="0.0000000000000000e+00" cType="1" res="-8.2407193258404732e-03" rms="3.1784048676490784e-01" purity="2.4670878052711487e-01" nType="-99"/>
              <Node pos="r" depth="4" NCoef="0" IVar="4" Cut="6.9394042968750000e+01" cType="1" res="-2.6265913620591164e-03" rms="3.1434985995292664e-01" purity="4.7819736599922180e-01" nType="0">
                <Node pos="l" depth="5" NCoef="0" IVar="-1" Cut="0.0000000000000000e+00" cType="1" res="3.8760809693485498e-03" rms="3.3012145757675171e-01" purity="3.1617403030395508e-01" nType="-99"/>
                <Node pos="r" depth="5" NCoef="0" IVar="-1" Cut="0.0000000000000000e+00" cType="1" res="-2.0478847436606884e-03" rms="3.1226083636283875e-01" purity="4.9877253174781799e-01" nType="-99"/>
              </Node>
            </Node>
          </Node>
          <Node pos="r" depth="2" NCoef="0" IVar="5" Cut="3.7328422546386719e+01" cType="1" res="2.3479461669921875e-03" rms="2.8711205720901489e-01" purity="5.4396998882293701e-01" nType="0">
            <Node pos="l" depth="3" NCoef="0" IVar="-1" Cut="0.0000000000000000e+00" cType="1" res="7.5710411183536053e-03" rms="3.5383281111717224e-01" purity="3.5387635231018066e-01" nType="-99"/>
            <Node pos="r" depth="3" NCoef="0" IVar="6" Cut="7.6624184846878052e-01" cType="1" res="1.8479489954188466e-03" rms="2.8452312946319580e-01" purity="5.5051511526107788e-01" nType="0">
              <Node pos="l" depth="4" NCoef="0" IVar="9" Cut="4.9049705266952515e-01" cType="1" res="6.3480427488684654e-03" rms="3.0376732349395752e-01" purity="3.3624902367591858e-01" nType="0">
                <Node pos="l" depth="5" NCoef="0" IVar="-1" Cut="0.0000000000000000e+00" cType="1" res="6.2373641412705183e-04" rms="2.9097554087638855e-01" purity="2.4051392078399658e-01" nType="-99"/>
                <Node pos="r" depth="5" NCoef="0" IVar="-1" Cut="0.0000000000000000e+00" cType="1" res="8.8550411164760590e-03" rms="3.3301046490669250e-01" purity="5.7359641790390015e-01" nType="-99"/>
              </Node>
              <Node pos="r" depth="4" NCoef="0" IVar="8" Cut="7.3212814331054688e-01" cType="1" res="1.1337191099300981e-03" rms="2.8134116530418396e-01" purity="5.8452224731445312e-01" nType="0">
                <Node pos="l" depth="5" NCoef="0" IVar="-1" Cut="0.0000000000000000e+00" cType="1" res="1.1248169466853142e-03" rms="2.7919843792915344e-01" purity="5.9305346012115479e-01" nType="-99"/>
                <Node pos="r" depth="5" NCoef="0" IVar="-1" Cut="0.0000000000000000e+00" cType="1" res="-5.2408934570848942e-03" rms="3.1588199734687805e-01" purity="4.3697011470794678e-01" nType="-99"/>
              </Node>
            </Node>
          </Node>
        </Node>
      </Node>
    </BinaryTree>
    <BinaryTree type="DecisionTree" boostWeight="1.0000000000000000e+00" itree="256">
      <Node pos="s" depth="0" NCoef="0" IVar="5" Cut="1.3113586425781250e+02" cType="1" res="-5.6299183052033186e-04" rms="2.9587250947952271e-01" purity="4.9875795841217041e-01" nType="0">
        <Node pos="l" depth="1" NCoef="0" IVar="5" Cut="7.0152191162109375e+01" cType="1" res="2.5106786051765084e-04" rms="2.9940629005432129e-01" purity="5.3214377164840698e-01" nType="0">
          <Node pos="l" depth="2" NCoef="0" IVar="4" Cut="1.8622209167480469e+02" cType="1" res="-4.0775872766971588e-03" rms="3.3070361614227295e-01" purity="4.4502454996109009e-01" nType="0">
            <Node pos="l" depth="3" NCoef="0" IVar="7" Cut="2.5795876979827881e+00" cType="1" res="-2.3662894964218140e-03" rms="3.3824139833450317e-01" purity="4.8487478494644165e-01" nType="0">
              <Node pos="l" depth="4" NCoef="0" IVar="8" Cut="2.4194625020027161e-01" cType="1" res="-9.6173968631774187e-04" rms="3.4389576315879822e-01" purity="5.0548213720321655e-01" nType="0">
                <Node pos="l" depth="5" NCoef="0" IVar="-1" Cut="0.0000000000000000e+00" cType="1" res="6.5680169500410557e-03" rms="3.3667060732841492e-01" purity="3.5721608996391296e-01" nType="-99"/>
                <Node pos="r" depth="5" NCoef="0" IVar="-1" Cut="0.0000000000000000e+00" cType="1" res="-1.6602049581706524e-03" rms="3.4533002972602844e-01" purity="5.3689122200012207e-01" nType="-99"/>
              </Node>
              <Node pos="r" depth="4" NCoef="0" IVar="-1" Cut="0.0000000000000000e+00" cType="1" res="-8.1495139747858047e-03" rms="2.8275811672210693e-01" purity="3.0171552300453186e-01" nType="-99"/>
            </Node>
            <Node pos="r" depth="3" NCoef="0" IVar="-1" Cut="0.0000000000000000e+00" cType="1" res="-1.3532081618905067e-02" rms="2.5291529297828674e-01" purity="8.8295795023441315e-02" nType="-99"/>
          </Node>
          <Node pos="r" depth="2" NCoef="0" IVar="6" Cut="1.0727400779724121e+00" cType="1" res="1.7948376480489969e-03" rms="2.8740540146827698e-01" purity="5.6321394443511963e-01" nType="0">
            <Node pos="l" depth="3" NCoef="0" IVar="9" Cut="2.3840913176536560e-01" cType="1" res="7.4264900758862495e-03" rms="3.0973950028419495e-01" purity="3.7729212641716003e-01" nType="0">
              <Node pos="l" depth="4" NCoef="0" IVar="5" Cut="9.6925621032714844e+01" cType="1" res="1.9179062917828560e-02" rms="2.8780227899551392e-01" purity="1.8140448629856110e-01" nType="0">
                <Node pos="l" depth="5" NCoef="0" IVar="-1" Cut="0.0000000000000000e+00" cType="1" res="7.5220791622996330e-03" rms="3.1165242195129395e-01" purity="2.5754919648170471e-01" nType="-99"/>
                <Node pos="r" depth="5" NCoef="0" IVar="-1" Cut="0.0000000000000000e+00" cType="1" res="2.2840803489089012e-02" rms="2.6132041215896606e-01" purity="1.0418475419282913e-01" nType="-99"/>
              </Node>
              <Node pos="r" depth="4" NCoef="0" IVar="6" Cut="6.8027544021606445e-01" cType="1" res="1.8603404751047492e-03" rms="3.1945335865020752e-01" purity="4.7006672620773315e-01" nType="0">
                <Node pos="l" depth="5" NCoef="0" IVar="-1" Cut="0.0000000000000000e+00" cType="1" res="-2.3823077790439129e-03" rms="3.1588894128799438e-01" purity="4.3387487530708313e-01" nType="-99"/>
                <Node pos="r" depth="5" NCoef="0" IVar="-1" Cut="0.0000000000000000e+00" cType="1" res="5.8314288035035133e-03" rms="3.2423293590545654e-01" purity="5.2192384004592896e-01" nType="-99"/>
              </Node>
            </Node>
            <Node pos="r" depth="3" NCoef="0" IVar="3" Cut="1.0975610017776489e+00" cType="1" res="4.1166151640936732e-04" rms="2.8163194656372070e-01" purity="6.0887765884399414e-01" nType="0">
              <Node pos="l" depth="4" NCoef="0" IVar="9" Cut="1.5938919782638550e-01" cType="1" res="1.7748393584042788e-03" rms="2.7894827723503113e-01" purity="6.7503648996353149e-01" nType="0">
                <Node pos="l" depth="5" NCoef="0" IVar="-1" Cut="0.0000000000000000e+00" cType="1" res="-5.7563334703445435e-03" rms="2.9107484221458435e-01" purity="2.7829027175903320e-01" nType="-99"/>
                <Node pos="r" depth="5" NCoef="0" IVar="-1" Cut="0.0000000000000000e+00" cType="1" res="2.1613051649183035e-03" rms="2.7720585465431213e-01" purity="7.2931885719299316e-01" nType="-99"/>
              </Node>
              <Node pos="r" depth="4" NCoef="0" IVar="2" Cut="1.0975610017776489e+00" cType="1" res="-3.9313295856118202e-03" rms="2.8997373580932617e-01" purity="3.9810028672218323e-01" nType="0">
                <Node pos="l" depth="5" NCoef="0" IVar="-1" Cut="0.0000000000000000e+00" cType="1" res="4.5307393884286284e-04" rms="3.2235649228096008e-01" purity="5.3144812583923340e-01" nType="-99"/>
                <Node pos="r" depth="5" NCoef="0" IVar="-1" Cut="0.0000000000000000e+00" cType="1" res="-1.2929879128932953e-02" rms="2.0859606564044952e-01" purity="1.2623839080333710e-01" nType="-99"/>
              </Node>
            </Node>
          </Node>
        </Node>
        <Node pos="r" depth="1" NCoef="0" IVar="9" Cut="2.3334205150604248e-01" cType="1" res="-5.7962532155215740e-03" rms="2.7200323343276978e-01" purity="2.8413423895835876e-01" nType="0">
          <Node pos="l" depth="2" NCoef="0" IVar="7" Cut="1.6661913394927979e+00" cType="1" res="5.8866892941296101e-03" rms="2.5220844149589539e-01" purity="1.2102913111448288e-01" nType="0">
            <Node pos="l" depth="3" NCoef="0" IVar="-1" Cut="0.0000000000000000e+00" cType="1" res="1.3882214203476906e-02" rms="2.7532443404197693e-01" purity="1.2161687761545181e-01" nType="-99"/>
            <Node pos="r" depth="3" NCoef="0" IVar="-1" Cut="0.0000000000000000e+00" cType="1" res="-3.8596568629145622e-03" rms="2.2976598143577576e-01" purity="1.2051878869533539e-01" nType="-99"/>
          </Node>
          <Node pos="r" depth="2" NCoef="0" IVar="7" Cut="1.6658573150634766e+00" cType="1" res="-1.2119405902922153e-02" rms="2.8193625807762146e-01" purity="3.7241154909133911e-01" nType="0">
            <Node pos="l" depth="3" NCoef="0" IVar="3" Cut="2.0731706619262695e+00" cType="1" res="-1.6831777989864349e-02" rms="2.9479709267616272e-01" purity="3.8021039962768555e-01" nType="0">
              <Node pos="l" depth="4" NCoef="0" IVar="5" Cut="1.4451184082031250e+02" cType="1" res="-2.2676879540085793e-02" rms="2.8582850098609924e-01" purity="3.9489287137985229e-01" nType="0">
                <Node pos="l" depth="5" NCoef="0" IVar="-1" Cut="0.0000000000000000e+00" cType="1" res="-1.4794293791055679e-02" rms="2.8332668542861938e-01" purity="3.9530232548713684e-01" nType="-99"/>
                <Node pos="r" depth="5" NCoef="0" IVar="-1" Cut="0.0000000000000000e+00" cType="1" res="-1.0296882130205631e-02" rms="2.8815266489982605e-01" purity="3.9449921250343323e-01" nType="-99"/>
              </Node>
              <Node pos="r" depth="4" NCoef="0" IVar="-1" Cut="0.0000000000000000e+00" cType="1" res="-2.2769381757825613e-03" rms="3.1280934810638428e-01" purity="3.4870189428329468e-01" nType="-99"/>
            </Node>
            <Node pos="r" depth="3" NCoef="0" IVar="-1" Cut="0.0000000000000000e+00" cType="1" res="2.0698213484138250e-03" rms="2.3503780364990234e-01" purity="3.4723770618438721e-01" nType="-99"/>
          </Node>
        </Node>
      </Node>
    </BinaryTree>
    <BinaryTree type="DecisionTree" boostWeight="1.0000000000000000e+00" itree="257">
      <Node pos="s" depth="0" NCoef="0" IVar="5" Cut="1.4917596435546875e+02" cType="1" res="-3.9601369644515216e-04" rms="2.9643020033836365e-01" purity="4.9868497252464294e-01" nType="0">
        <Node pos="l" depth="1" NCoef="0" IVar="6" Cut="7.6624226570129395e-01" cType="1" res="-8.4391422569751740e-04" rms="2.9712033271789551e-01" purity="5.0830835103988647e-01" nType="0">
          <Node pos="l" depth="2" NCoef="0" IVar="0" Cut="2.0731706619262695e+00" cType="1" res="-5.1076123490929604e-03" rms="3.0532261729240417e-01" purity="3.0210983753204346e-01" nType="0">
            <Node pos="l" depth="3" NCoef="0" IVar="3" Cut="1.0975610017776489e+00" cType="1" res="-3.1390049844048917e-04" rms="2.6226827502250671e-01" purity="1.2812143564224243e-01" nType="0">
              <Node pos="l" depth="4" NCoef="0" IVar="9" Cut="3.4826511144638062e-01" cType="1" res="-5.1913508214056492e-03" rms="2.6502066850662231e-01" purity="1.4275303483009338e-01" nType="0">
                <Node pos="l" depth="5" NCoef="0" IVar="-1" Cut="0.0000000000000000e+00" cType="1" res="-4.7227920731529593e-04" rms="2.1364423632621765e-01" purity="7.1134135127067566e-02" nType="-99"/>
                <Node pos="r" depth="5" NCoef="0" IVar="-1" Cut="0.0000000000000000e+00" cType="1" res="-5.0861756317317486e-03" rms="3.1344386935234070e-01" purity="2.2448964416980743e-01" nType="-99"/>
              </Node>
              <Node pos="r" depth="4" NCoef="0" IVar="-1" Cut="0.0000000000000000e+00" cType="1" res="8.0230338498950005e-03" rms="2.5655236840248108e-01" purity="9.9602490663528442e-02" nType="-99"/>
            </Node>
            <Node pos="r" depth="3" NCoef="0" IVar="7" Cut="6.7880243062973022e-01" cType="1" res="-9.8602036014199257e-03" rms="3.4264290332794189e-01" purity="4.7460573911666870e-01" nType="0">
              <Node pos="l" depth="4" NCoef="0" IVar="-1" Cut="0.0000000000000000e+00" cType="1" res="-1.0505323298275471e-02" rms="3.5974392294883728e-01" purity="4.6765637397766113e-01" nType="-99"/>
              <Node pos="r" depth="4" NCoef="0" IVar="9" Cut="2.9071804881095886e-01" cType="1" res="-2.2206916473805904e-03" rms="3.3469772338867188e-01" purity="4.7760733962059021e-01" nType="0">
                <Node pos="l" depth="5" NCoef="0" IVar="-1" Cut="0.0000000000000000e+00" cType="1" res="1.0016530286520720e-03" rms="3.3921676874160767e-01" purity="2.8398105502128601e-01" nType="-99"/>
                <Node pos="r" depth="5" NCoef="0" IVar="-1" Cut="0.0000000000000000e+00" cType="1" res="-2.2567731793969870e-03" rms="3.3122017979621887e-01" purity="6.2318307161331177e-01" nType="-99"/>
              </Node>
            </Node>
          </Node>
          <Node pos="r" depth="2" NCoef="0" IVar="5" Cut="4.5512351989746094e+01" cType="1" res="-1.4647291391156614e-04" rms="2.9575112462043762e-01" purity="5.4203766584396362e-01" nType="0">
            <Node pos="l" depth="3" NCoef="0" IVar="7" Cut="8.8152378797531128e-01" cType="1" res="8.5994824767112732e-03" rms="3.5888513922691345e-01" purity="3.7832987308502197e-01" nType="0">
              <Node pos="l" depth="4" NCoef="0" IVar="-1" Cut="0.0000000000000000e+00" cType="1" res="7.8022615052759647e-03" rms="3.8323011994361877e-01" purity="4.7098168730735779e-01" nType="-99"/>
              <Node pos="r" depth="4" NCoef="0" IVar="-1" Cut="0.0000000000000000e+00" cType="1" res="-1.5937011921778321e-03" rms="3.3298808336257935e-01" purity="2.8794401884078979e-01" nType="-99"/>
            </Node>
            <Node pos="r" depth="3" NCoef="0" IVar="7" Cut="2.8512630462646484e+00" cType="1" res="-7.7900401083752513e-04" rms="2.9064360260963440e-01" purity="5.5387741327285767e-01" nType="0">
              <Node pos="l" depth="4" NCoef="0" IVar="0" Cut="4.0243902206420898e+00" cType="1" res="-1.4600624563172460e-03" rms="2.9309704899787903e-01" purity="5.6707638502120972e-01" nType="0">
                <Node pos="l" depth="5" NCoef="0" IVar="-1" Cut="0.0000000000000000e+00" cType="1" res="-2.2913794964551926e-03" rms="2.8338196873664856e-01" purity="4.0325796604156494e-01" nType="-99"/>
                <Node pos="r" depth="5" NCoef="0" IVar="-1" Cut="0.0000000000000000e+00" cType="1" res="4.9488933291286230e-04" rms="3.0233472585678101e-01" purity="7.2829586267471313e-01" nType="-99"/>
              </Node>
              <Node pos="r" depth="4" NCoef="0" IVar="9" Cut="1.6773091256618500e-01" cType="1" res="5.5253682658076286e-03" rms="2.6678177714347839e-01" purity="4.3169826269149780e-01" nType="0">
                <Node pos="l" depth="5" NCoef="0" IVar="-1" Cut="0.0000000000000000e+00" cType="1" res="-2.4484077002853155e-03" rms="2.5920823216438293e-01" purity="3.3487266302108765e-01" nType="-99"/>
                <Node pos="r" depth="5" NCoef="0" IVar="-1" Cut="0.0000000000000000e+00" cType="1" res="9.3547869473695755e-03" rms="2.7466621994972229e-01" purity="5.4052466154098511e-01" nType="-99"/>
              </Node>
            </Node>
          </Node>
        </Node>
        <Node pos="r" depth="1" NCoef="0" IVar="7" Cut="1.3484524488449097e+00" cType="1" res="8.6897956207394600e-03" rms="2.8191307187080383e-01" purity="3.0347082018852234e-01" nType="0">
          <Node pos="l" depth="2" NCoef="0" IVar="-1" Cut="0.0000000000000000e+00" cType="1" res="6.6976743983104825e-04" rms="2.9583179950714111e-01" purity="3.3877113461494446e-01" nType="-99"/>
          <Node pos="r" depth="2" NCoef="0" IVar="-1" Cut="0.0000000000000000e+00" cType="1" res="1.3032567687332630e-02" rms="2.6262056827545166e-01" purity="2.5808471441268921e-01" nType="-99"/>
        </Node>
      </Node>
    </BinaryTree>
    <BinaryTree type="DecisionTree" boostWeight="1.0000000000000000e+00" itree="258">
      <Node pos="s" depth="0" NCoef="0" IVar="7" Cut="3.9257557392120361e+00" cType="1" res="6.0631887754425406e-04" rms="2.9591745138168335e-01" purity="5.0223076343536377e-01" nType="0">
        <Node pos="l" depth="1" NCoef="0" IVar="4" Cut="7.0630165100097656e+01" cType="1" res="2.8208532603457570e-04" rms="2.9666104912757874e-01" purity="5.0858819484710693e-01" nType="0">
          <Node pos="l" depth="2" NCoef="0" IVar="6" Cut="1.4558577537536621e+00" cType="1" res="-4.9930242821574211e-03" rms="3.2218515872955322e-01" purity="2.4595353007316589e-01" nType="0">
            <Node pos="l" depth="3" NCoef="0" IVar="5" Cut="9.1916961669921875e+01" cType="1" res="-1.6930688172578812e-02" rms="2.9677501320838928e-01" purity="1.6669249534606934e-01" nType="0">
              <Node pos="l" depth="4" NCoef="0" IVar="-1" Cut="0.0000000000000000e+00" cType="1" res="-1.3231109827756882e-02" rms="3.3050185441970825e-01" purity="2.2850662469863892e-01" nType="-99"/>
              <Node pos="r" depth="4" NCoef="0" IVar="-1" Cut="0.0000000000000000e+00" cType="1" res="-2.1435052622109652e-03" rms="2.5933548808097839e-01" purity="1.0701721906661987e-01" nType="-99"/>
            </Node>
            <Node pos="r" depth="3" NCoef="0" IVar="9" Cut="2.9416584968566895e-01" cType="1" res="1.5431267675012350e-03" rms="3.3510285615921021e-01" purity="2.8935080766677856e-01" nType="0">
              <Node pos="l" depth="4" NCoef="0" IVar="-1" Cut="0.0000000000000000e+00" cType="1" res="-6.1674914322793484e-03" rms="2.9446947574615479e-01" purity="1.4942625164985657e-01" nType="-99"/>
              <Node pos="r" depth="4" NCoef="0" IVar="5" Cut="8.8497940063476562e+01" cType="1" res="7.5661903247237206e-03" rms="3.5308900475502014e-01" purity="3.5765957832336426e-01" nType="0">
                <Node pos="l" depth="5" NCoef="0" IVar="-1" Cut="0.0000000000000000e+00" cType="1" res="5.4482971318066120e-03" rms="3.7701889872550964e-01" purity="4.5588299632072449e-01" nType="-99"/>
                <Node pos="r" depth="5" NCoef="0" IVar="-1" Cut="0.0000000000000000e+00" cType="1" res="-1.4299063477665186e-03" rms="3.2080307602882385e-01" purity="2.3649495840072632e-01" nType="-99"/>
              </Node>
            </Node>
          </Node>
          <Node pos="r" depth="2" NCoef="0" IVar="6" Cut="2.1454765796661377e+00" cType="1" res="1.0325111215934157e-03" rms="2.9284161329269409e-01" purity="5.4595011472702026e-01" nType="0">
            <Node pos="l" depth="3" NCoef="0" IVar="5" Cut="5.8976264953613281e+01" cType="1" res="4.1055963374674320e-03" rms="3.0893635749816895e-01" purity="4.2900955677032471e-01" nType="0">
              <Node pos="l" depth="4" NCoef="0" IVar="7" Cut="1.2447481155395508e+00" cType="1" res="1.4899414964020252e-02" rms="3.4868353605270386e-01" purity="3.8569158315658569e-01" nType="0">
                <Node pos="l" depth="5" NCoef="0" IVar="-1" Cut="0.0000000000000000e+00" cType="1" res="9.2596597969532013e-03" rms="3.6590671539306641e-01" purity="4.6515378355979919e-01" nType="-99"/>
                <Node pos="r" depth="5" NCoef="0" IVar="-1" Cut="0.0000000000000000e+00" cType="1" res="4.4891188736073673e-04" rms="3.1569087505340576e-01" purity="2.4616707861423492e-01" nType="-99"/>
              </Node>
              <Node pos="r" depth="4" NCoef="0" IVar="5" Cut="1.4767977905273438e+02" cType="1" res="2.0515932701528072e-03" rms="3.0073454976081848e-01" purity="4.3725273013114929e-01" nType="0">
                <Node pos="l" depth="5" NCoef="0" IVar="-1" Cut="0.0000000000000000e+00" cType="1" res="1.6204416751861572e-03" rms="3.0270645022392273e-01" purity="4.5559740066528320e-01" nType="-99"/>
                <Node pos="r" depth="5" NCoef="0" IVar="-1" Cut="0.0000000000000000e+00" cType="1" res="-8.0348802730441093e-03" rms="2.6701137423515320e-01" purity="1.4544759690761566e-01" nType="-99"/>
              </Node>
            </Node>
            <Node pos="r" depth="3" NCoef="0" IVar="8" Cut="6.3303726911544800e-01" cType="1" res="-1.8217850010842085e-03" rms="2.7702596783638000e-01" purity="6.5456497669219971e-01" nType="0">
              <Node pos="l" depth="4" NCoef="0" IVar="8" Cut="2.9396280646324158e-01" cType="1" res="-1.0326665360480547e-03" rms="2.7402567863464355e-01" purity="6.6464281082153320e-01" nType="0">
                <Node pos="l" depth="5" NCoef="0" IVar="-1" Cut="0.0000000000000000e+00" cType="1" res="-3.2403988298028708e-03" rms="2.8756257891654968e-01" purity="5.2750664949417114e-01" nType="-99"/>
                <Node pos="r" depth="5" NCoef="0" IVar="-1" Cut="0.0000000000000000e+00" cType="1" res="1.3804023619741201e-03" rms="2.6430854201316833e-01" purity="7.5857114791870117e-01" nType="-99"/>
              </Node>
              <Node pos="r" depth="4" NCoef="0" IVar="-1" Cut="0.0000000000000000e+00" cType="1" res="-7.6055880635976791e-03" rms="3.2532286643981934e-01" purity="4.7597768902778625e-01" nType="-99"/>
            </Node>
          </Node>
        </Node>
        <Node pos="r" depth="1" NCoef="0" IVar="-1" Cut="0.0000000000000000e+00" cType="1" res="1.1435579508543015e-02" rms="2.5776478648185730e-01" purity="2.0091757178306580e-01" nType="-99"/>
      </Node>
    </BinaryTree>
    <BinaryTree type="DecisionTree" boostWeight="1.0000000000000000e+00" itree="259">
      <Node pos="s" depth="0" NCoef="0" IVar="4" Cut="7.0262390136718750e+01" cType="1" res="7.8437232878059149e-04" rms="2.9533365368843079e-01" purity="5.0387310981750488e-01" nType="0">
        <Node pos="l" depth="1" NCoef="0" IVar="9" Cut="5.9596782922744751e-01" cType="1" res="7.9963533207774162e-03" rms="3.2995179295539856e-01" purity="2.5725784897804260e-01" nType="0">
          <Node pos="l" depth="2" NCoef="0" IVar="8" Cut="4.5995378494262695e-01" cType="1" res="3.8545117713510990e-03" rms="3.1754583120346069e-01" purity="2.3010532557964325e-01" nType="0">
            <Node pos="l" depth="3" NCoef="0" IVar="4" Cut="6.1872600555419922e+01" cType="1" res="-1.2654120801016688e-03" rms="2.9281201958656311e-01" purity="1.9381375610828400e-01" nType="0">
              <Node pos="l" depth="4" NCoef="0" IVar="6" Cut="2.2987062931060791e+00" cType="1" res="-6.5632630139589310e-03" rms="2.8519633412361145e-01" purity="1.6228318214416504e-01" nType="0">
                <Node pos="l" depth="5" NCoef="0" IVar="-1" Cut="0.0000000000000000e+00" cType="1" res="1.8646231619641185e-03" rms="2.6134687662124634e-01" purity="1.1780495941638947e-01" nType="-99"/>
                <Node pos="r" depth="5" NCoef="0" IVar="-1" Cut="0.0000000000000000e+00" cType="1" res="-8.5250465199351311e-03" rms="3.1401726603507996e-01" purity="2.2210739552974701e-01" nType="-99"/>
              </Node>
              <Node pos="r" depth="4" NCoef="0" IVar="-1" Cut="0.0000000000000000e+00" cType="1" res="5.7605984620749950e-03" rms="3.0946683883666992e-01" purity="2.6722180843353271e-01" nType="-99"/>
            </Node>
            <Node pos="r" depth="3" NCoef="0" IVar="-1" Cut="0.0000000000000000e+00" cType="1" res="6.1626704409718513e-03" rms="3.7092965841293335e-01" purity="3.1899210810661316e-01" nType="-99"/>
          </Node>
          <Node pos="r" depth="2" NCoef="0" IVar="-1" Cut="0.0000000000000000e+00" cType="1" res="8.6444318294525146e-03" rms="3.7160059809684753e-01" purity="3.5701885819435120e-01" nType="-99"/>
        </Node>
        <Node pos="r" depth="1" NCoef="0" IVar="7" Cut="1.5477508306503296e+00" cType="1" res="-2.4382783158216625e-04" rms="2.9004728794097900e-01" purity="5.3903269767761230e-01" nType="0">
          <Node pos="l" depth="2" NCoef="0" IVar="5" Cut="6.9800148010253906e+01" cType="1" res="1.8216350581496954e-03" rms="3.0309253931045532e-01" purity="5.7899653911590576e-01" nType="0">
            <Node pos="l" depth="3" NCoef="0" IVar="4" Cut="1.3601991271972656e+02" cType="1" res="7.3003438301384449e-03" rms="3.4398597478866577e-01" purity="5.4214382171630859e-01" nType="0">
              <Node pos="l" depth="4" NCoef="0" IVar="7" Cut="4.1525962948799133e-01" cType="1" res="-8.4588915342465043e-04" rms="3.3729255199432373e-01" purity="6.4324003458023071e-01" nType="0">
                <Node pos="l" depth="5" NCoef="0" IVar="-1" Cut="0.0000000000000000e+00" cType="1" res="-3.3020442351698875e-03" rms="3.2794612646102905e-01" purity="6.6693174839019775e-01" nType="-99"/>
                <Node pos="r" depth="5" NCoef="0" IVar="-1" Cut="0.0000000000000000e+00" cType="1" res="1.0098243365064263e-03" rms="3.4183630347251892e-01" purity="6.3136482238769531e-01" nType="-99"/>
              </Node>
              <Node pos="r" depth="4" NCoef="0" IVar="6" Cut="1.8389931917190552e+00" cType="1" res="2.6469090953469276e-02" rms="3.5851502418518066e-01" purity="3.0425620079040527e-01" nType="0">
                <Node pos="l" depth="5" NCoef="0" IVar="-1" Cut="0.0000000000000000e+00" cType="1" res="1.7547704279422760e-02" rms="3.5996010899543762e-01" purity="2.7152374386787415e-01" nType="-99"/>
                <Node pos="r" depth="5" NCoef="0" IVar="-1" Cut="0.0000000000000000e+00" cType="1" res="7.1588256396353245e-03" rms="3.5676929354667664e-01" purity="3.3721718192100525e-01" nType="-99"/>
              </Node>
            </Node>
            <Node pos="r" depth="3" NCoef="0" IVar="4" Cut="1.7547392272949219e+02" cType="1" res="9.8538330348674208e-05" rms="2.8901627659797668e-01" purity="5.9058707952499390e-01" nType="0">
              <Node pos="l" depth="4" NCoef="0" IVar="6" Cut="1.8389769792556763e+00" cType="1" res="1.2805883307009935e-03" rms="2.8851422667503357e-01" purity="6.4589971303939819e-01" nType="0">
                <Node pos="l" depth="5" NCoef="0" IVar="-1" Cut="0.0000000000000000e+00" cType="1" res="2.5160533841699362e-03" rms="3.0989390611648560e-01" purity="5.3491109609603882e-01" nType="-99"/>
                <Node pos="r" depth="5" NCoef="0" IVar="-1" Cut="0.0000000000000000e+00" cType="1" res="-6.0065195430070162e-04" rms="2.7441662549972534e-01" purity="7.1463721990585327e-01" nType="-99"/>
              </Node>
              <Node pos="r" depth="4" NCoef="0" IVar="9" Cut="2.4762634932994843e-01" cType="1" res="-7.6776691712439060e-03" rms="2.9217839241027832e-01" purity="2.2670814394950867e-01" nType="0">
                <Node pos="l" depth="5" NCoef="0" IVar="-1" Cut="0.0000000000000000e+00" cType="1" res="1.2588428799062967e-03" rms="2.4222446978092194e-01" purity="7.3163561522960663e-02" nType="-99"/>
                <Node pos="r" depth="5" NCoef="0" IVar="-1" Cut="0.0000000000000000e+00" cType="1" res="-6.3956305384635925e-03" rms="3.2189449667930603e-01" purity="3.3221015334129333e-01" nType="-99"/>
              </Node>
            </Node>
          </Node>
          <Node pos="r" depth="2" NCoef="0" IVar="8" Cut="1.5024548768997192e-01" cType="1" res="-4.2346883565187454e-03" rms="2.6296889781951904e-01" purity="4.6181493997573853e-01" nType="0">
            <Node pos="l" depth="3" NCoef="0" IVar="8" Cut="7.7106140553951263e-02" cType="1" res="-1.3742358423769474e-02" rms="2.5171792507171631e-01" purity="2.3207308351993561e-01" nType="0">
              <Node pos="l" depth="4" NCoef="0" IVar="-1" Cut="0.0000000000000000e+00" cType="1" res="-2.1260283887386322e-02" rms="2.1513928472995758e-01" purity="8.6057253181934357e-02" nType="-99"/>
              <Node pos="r" depth="4" NCoef="0" IVar="1" Cut="1.0975610017776489e+00" cType="1" res="-9.4008706510066986e-03" rms="2.6624959707260132e-01" purity="2.9695558547973633e-01" nType="0">
                <Node pos="l" depth="5" NCoef="0" IVar="-1" Cut="0.0000000000000000e+00" cType="1" res="-1.4780425466597080e-02" rms="2.2992554306983948e-01" purity="1.0891806334257126e-01" nType="-99"/>
                <Node pos="r" depth="5" NCoef="0" IVar="-1" Cut="0.0000000000000000e+00" cType="1" res="6.9194415118545294e-04" rms="2.9905420541763306e-01" purity="4.9280434846878052e-01" nType="-99"/>
              </Node>
            </Node>
            <Node pos="r" depth="3" NCoef="0" IVar="6" Cut="1.9156047105789185e+00" cType="1" res="-1.3489798875525594e-03" rms="2.6622253656387329e-01" purity="5.3154474496841431e-01" nType="0">
              <Node pos="l" depth="4" NCoef="0" IVar="5" Cut="8.8282356262207031e+01" cType="1" res="-1.0893377475440502e-02" rms="2.8088063001632690e-01" purity="2.9415014386177063e-01" nType="0">
                <Node pos="l" depth="5" NCoef="0" IVar="-1" Cut="0.0000000000000000e+00" cType="1" res="-1.0800660820677876e-03" rms="3.0603435635566711e-01" purity="4.1346150636672974e-01" nType="-99"/>
                <Node pos="r" depth="5" NCoef="0" IVar="-1" Cut="0.0000000000000000e+00" cType="1" res="-1.4478756114840508e-02" rms="2.4970585107803345e-01" purity="1.6190433502197266e-01" nType="-99"/>
              </Node>
              <Node pos="r" depth="4" NCoef="0" IVar="9" Cut="2.7257800102233887e-01" cType="1" res="3.7329897750169039e-03" rms="2.5793427228927612e-01" purity="6.5794688463211060e-01" nType="0">
                <Node pos="l" depth="5" NCoef="0" IVar="-1" Cut="0.0000000000000000e+00" cType="1" res="-2.1340865641832352e-03" rms="2.7152499556541443e-01" purity="5.5101853609085083e-01" nType="-99"/>
                <Node pos="r" depth="5" NCoef="0" IVar="-1" Cut="0.0000000000000000e+00" cType="1" res="1.0710489936172962e-02" rms="2.3571440577507019e-01" purity="8.1792896986007690e-01" nType="-99"/>
              </Node>
            </Node>
          </Node>
        </Node>
      </Node>
    </BinaryTree>
    <BinaryTree type="DecisionTree" boostWeight="1.0000000000000000e+00" itree="260">
      <Node pos="s" depth="0" NCoef="0" IVar="2" Cut="1.0975610017776489e+00" cType="1" res="-6.4086430938914418e-04" rms="2.9592007398605347e-01" purity="4.9970218539237976e-01" nType="0">
        <Node pos="l" depth="1" NCoef="0" IVar="5" Cut="1.4556777954101562e+02" cType="1" res="6.2919734045863152e-04" rms="3.1012523174285889e-01" purity="6.0657948255538940e-01" nType="0">
          <Node pos="l" depth="2" NCoef="0" IVar="6" Cut="2.9883408546447754e+00" cType="1" res="1.3270121999084949e-03" rms="3.1135296821594238e-01" purity="6.1931610107421875e-01" nType="0">
            <Node pos="l" depth="3" NCoef="0" IVar="1" Cut="1.0975610017776489e+00" cType="1" res="2.2176268976181746e-03" rms="3.1588423252105713e-01" purity="6.0013061761856079e-01" nType="0">
              <Node pos="l" depth="4" NCoef="0" IVar="4" Cut="7.0789016723632812e+01" cType="1" res="6.0203601606190205e-03" rms="3.5010331869125366e-01" purity="3.5166737437248230e-01" nType="0">
                <Node pos="l" depth="5" NCoef="0" IVar="-1" Cut="0.0000000000000000e+00" cType="1" res="6.8766735494136810e-03" rms="3.6650282144546509e-01" purity="2.9720935225486755e-01" nType="-99"/>
                <Node pos="r" depth="5" NCoef="0" IVar="-1" Cut="0.0000000000000000e+00" cType="1" res="1.3988092541694641e-03" rms="3.4613472223281860e-01" purity="3.6428895592689514e-01" nType="-99"/>
              </Node>
              <Node pos="r" depth="4" NCoef="0" IVar="5" Cut="6.4167816162109375e+01" cType="1" res="-1.4791522698942572e-04" rms="2.9256066679954529e-01" purity="7.5469046831130981e-01" nType="0">
                <Node pos="l" depth="5" NCoef="0" IVar="-1" Cut="0.0000000000000000e+00" cType="1" res="-3.9674616418778896e-03" rms="3.4768790006637573e-01" purity="6.4155626296997070e-01" nType="-99"/>
                <Node pos="r" depth="5" NCoef="0" IVar="-1" Cut="0.0000000000000000e+00" cType="1" res="1.1300642509013414e-03" rms="2.7975994348526001e-01" purity="7.7810108661651611e-01" nType="-99"/>
              </Node>
            </Node>
            <Node pos="r" depth="3" NCoef="0" IVar="-1" Cut="0.0000000000000000e+00" cType="1" res="-3.9593176916241646e-03" rms="2.7043357491493225e-01" purity="7.7959680557250977e-01" nType="-99"/>
          </Node>
          <Node pos="r" depth="2" NCoef="0" IVar="-1" Cut="0.0000000000000000e+00" cType="1" res="-6.1446041800081730e-03" rms="2.8771361708641052e-01" purity="3.8551396131515503e-01" nType="-99"/>
        </Node>
        <Node pos="r" depth="1" NCoef="0" IVar="5" Cut="1.3495146179199219e+02" cType="1" res="-3.6376127973198891e-03" rms="2.5931215286254883e-01" purity="2.4752199649810791e-01" nType="0">
          <Node pos="l" depth="2" NCoef="0" IVar="6" Cut="2.9117193222045898e+00" cType="1" res="-5.1339836791157722e-03" rms="2.6472499966621399e-01" purity="2.6584011316299438e-01" nType="0">
            <Node pos="l" depth="3" NCoef="0" IVar="4" Cut="1.2287466430664062e+02" cType="1" res="-3.5588764585554600e-03" rms="2.6617601513862610e-01" purity="2.4074664711952209e-01" nType="0">
              <Node pos="l" depth="4" NCoef="0" IVar="4" Cut="9.0741172790527344e+01" cType="1" res="-6.8172561004757881e-03" rms="2.7384111285209656e-01" purity="2.6970222592353821e-01" nType="0">
                <Node pos="l" depth="5" NCoef="0" IVar="-1" Cut="0.0000000000000000e+00" cType="1" res="-7.6668785186484456e-04" rms="2.6182806491851807e-01" purity="1.5086199343204498e-01" nType="-99"/>
                <Node pos="r" depth="5" NCoef="0" IVar="-1" Cut="0.0000000000000000e+00" cType="1" res="-7.3566297069191933e-03" rms="2.8674679994583130e-01" purity="4.0479561686515808e-01" nType="-99"/>
              </Node>
              <Node pos="r" depth="4" NCoef="0" IVar="7" Cut="4.6161338686943054e-01" cType="1" res="9.5730886096134782e-04" rms="2.5510275363922119e-01" purity="2.0061360299587250e-01" nType="0">
                <Node pos="l" depth="5" NCoef="0" IVar="-1" Cut="0.0000000000000000e+00" cType="1" res="9.1044018045067787e-03" rms="3.0734714865684509e-01" purity="2.6454752683639526e-01" nType="-99"/>
                <Node pos="r" depth="5" NCoef="0" IVar="-1" Cut="0.0000000000000000e+00" cType="1" res="-2.5177877396345139e-03" rms="2.3737704753875732e-01" purity="1.8177251517772675e-01" nType="-99"/>
              </Node>
            </Node>
            <Node pos="r" depth="3" NCoef="0" IVar="-1" Cut="0.0000000000000000e+00" cType="1" res="-9.7113884985446930e-03" rms="2.5495964288711548e-01" purity="4.2728605866432190e-01" nType="-99"/>
          </Node>
          <Node pos="r" depth="2" NCoef="0" IVar="6" Cut="2.1454734802246094e+00" cType="1" res="4.6910648234188557e-03" rms="2.2665622830390930e-01" purity="1.4556498825550079e-01" nType="0">
            <Node pos="l" depth="3" NCoef="0" IVar="-1" Cut="0.0000000000000000e+00" cType="1" res="-2.2318596020340919e-03" rms="2.0798264443874359e-01" purity="6.3427008688449860e-02" nType="-99"/>
            <Node pos="r" depth="3" NCoef="0" IVar="-1" Cut="0.0000000000000000e+00" cType="1" res="9.3164192512631416e-03" rms="2.4614803493022919e-01" purity="2.3993852734565735e-01" nType="-99"/>
          </Node>
        </Node>
      </Node>
    </BinaryTree>
    <BinaryTree type="DecisionTree" boostWeight="1.0000000000000000e+00" itree="261">
      <Node pos="s" depth="0" NCoef="0" IVar="7" Cut="5.3192520141601562e-01" cType="1" res="4.0242946124635637e-04" rms="2.9604503512382507e-01" purity="5.0050461292266846e-01" nType="0">
        <Node pos="l" depth="1" NCoef="0" IVar="8" Cut="5.9711068868637085e-01" cType="1" res="4.4159661047160625e-03" rms="3.1353202462196350e-01" purity="5.6490808725357056e-01" nType="0">
          <Node pos="l" depth="2" NCoef="0" IVar="3" Cut="1.0975610017776489e+00" cType="1" res="1.6275354428216815e-03" rms="3.0527094006538391e-01" purity="5.5913418531417847e-01" nType="0">
            <Node pos="l" depth="3" NCoef="0" IVar="6" Cut="1.0727375745773315e+00" cType="1" res="-1.9984089303761721e-03" rms="2.9606539011001587e-01" purity="6.1465752124786377e-01" nType="0">
              <Node pos="l" depth="4" NCoef="0" IVar="-1" Cut="0.0000000000000000e+00" cType="1" res="-8.4357373416423798e-03" rms="3.0379477143287659e-01" purity="3.2385012507438660e-01" nType="-99"/>
              <Node pos="r" depth="4" NCoef="0" IVar="8" Cut="4.2278879880905151e-01" cType="1" res="2.3674541444052011e-04" rms="2.9473209381103516e-01" purity="6.6181743144989014e-01" nType="0">
                <Node pos="l" depth="5" NCoef="0" IVar="-1" Cut="0.0000000000000000e+00" cType="1" res="-2.3739312309771776e-03" rms="3.0435287952423096e-01" purity="5.8699452877044678e-01" nType="-99"/>
                <Node pos="r" depth="5" NCoef="0" IVar="-1" Cut="0.0000000000000000e+00" cType="1" res="4.4326265342533588e-03" rms="2.7911078929901123e-01" purity="7.7713638544082642e-01" nType="-99"/>
              </Node>
            </Node>
            <Node pos="r" depth="3" NCoef="0" IVar="9" Cut="3.6026203632354736e-01" cType="1" res="1.1468977667391300e-02" rms="3.2875892519950867e-01" purity="4.0843421220779419e-01" nType="0">
              <Node pos="l" depth="4" NCoef="0" IVar="-1" Cut="0.0000000000000000e+00" cType="1" res="1.5356837771832943e-02" rms="3.3236649632453918e-01" purity="2.5042393803596497e-01" nType="-99"/>
              <Node pos="r" depth="4" NCoef="0" IVar="-1" Cut="0.0000000000000000e+00" cType="1" res="1.1471429606899619e-03" rms="3.2620388269424438e-01" purity="5.0503706932067871e-01" nType="-99"/>
            </Node>
          </Node>
          <Node pos="r" depth="2" NCoef="0" IVar="5" Cut="7.7206436157226562e+01" cType="1" res="1.5036873519420624e-02" rms="3.4297388792037964e-01" purity="5.8690041303634644e-01" nType="0">
            <Node pos="l" depth="3" NCoef="0" IVar="-1" Cut="0.0000000000000000e+00" cType="1" res="3.7770590279251337e-03" rms="3.5263854265213013e-01" purity="5.9856170415878296e-01" nType="-99"/>
            <Node pos="r" depth="3" NCoef="0" IVar="-1" Cut="0.0000000000000000e+00" cType="1" res="9.1681871563196182e-03" rms="3.3385020494461060e-01" purity="5.7628542184829712e-01" nType="-99"/>
          </Node>
        </Node>
        <Node pos="r" depth="1" NCoef="0" IVar="6" Cut="2.3753495216369629e+00" cType="1" res="-1.1196259874850512e-03" rms="2.8912240266799927e-01" purity="4.7608080506324768e-01" nType="0">
          <Node pos="l" depth="2" NCoef="0" IVar="5" Cut="7.7016159057617188e+01" cType="1" res="-3.3025592565536499e-03" rms="2.9651755094528198e-01" purity="3.6555144190788269e-01" nType="0">
            <Node pos="l" depth="3" NCoef="0" IVar="7" Cut="2.0498583316802979e+00" cType="1" res="2.3522335104644299e-03" rms="3.2365813851356506e-01" purity="4.2645299434661865e-01" nType="0">
              <Node pos="l" depth="4" NCoef="0" IVar="3" Cut="2.0731706619262695e+00" cType="1" res="5.8215321041643620e-03" rms="3.3673086762428284e-01" purity="4.8078563809394836e-01" nType="0">
                <Node pos="l" depth="5" NCoef="0" IVar="-1" Cut="0.0000000000000000e+00" cType="1" res="1.3574680779129267e-03" rms="3.3483457565307617e-01" purity="5.1639157533645630e-01" nType="-99"/>
                <Node pos="r" depth="5" NCoef="0" IVar="-1" Cut="0.0000000000000000e+00" cType="1" res="8.0930097028613091e-03" rms="3.4453690052032471e-01" purity="3.2708677649497986e-01" nType="-99"/>
              </Node>
              <Node pos="r" depth="4" NCoef="0" IVar="-1" Cut="0.0000000000000000e+00" cType="1" res="-4.5238286256790161e-03" rms="2.8120818734169006e-01" purity="2.6574340462684631e-01" nType="-99"/>
            </Node>
            <Node pos="r" depth="3" NCoef="0" IVar="4" Cut="1.2270494079589844e+02" cType="1" res="-6.2896213494241238e-03" rms="2.8107938170433044e-01" purity="3.3338108658790588e-01" nType="0">
              <Node pos="l" depth="4" NCoef="0" IVar="7" Cut="1.2668807506561279e+00" cType="1" res="-3.1374848913401365e-03" rms="2.9498636722564697e-01" purity="3.8925299048423767e-01" nType="0">
                <Node pos="l" depth="5" NCoef="0" IVar="-1" Cut="0.0000000000000000e+00" cType="1" res="6.1173958238214254e-04" rms="3.1672626733779907e-01" purity="4.7289422154426575e-01" nType="-99"/>
                <Node pos="r" depth="5" NCoef="0" IVar="-1" Cut="0.0000000000000000e+00" cType="1" res="-3.8557618390768766e-03" rms="2.7715122699737549e-01" purity="3.2523351907730103e-01" nType="-99"/>
              </Node>
              <Node pos="r" depth="4" NCoef="0" IVar="9" Cut="2.4342367053031921e-01" cType="1" res="-1.0853828862309456e-02" rms="2.5955766439437866e-01" purity="2.5248003005981445e-01" nType="0">
                <Node pos="l" depth="5" NCoef="0" IVar="-1" Cut="0.0000000000000000e+00" cType="1" res="-4.5040156692266464e-03" rms="2.2823730111122131e-01" purity="1.4418968558311462e-01" nType="-99"/>
                <Node pos="r" depth="5" NCoef="0" IVar="-1" Cut="0.0000000000000000e+00" cType="1" res="-9.3377800658345222e-03" rms="2.8800544142723083e-01" purity="3.6334440112113953e-01" nType="-99"/>
              </Node>
            </Node>
          </Node>
          <Node pos="r" depth="2" NCoef="0" IVar="7" Cut="1.6771562099456787e+00" cType="1" res="1.7759118927642703e-03" rms="2.7898457646369934e-01" purity="6.2269181013107300e-01" nType="0">
            <Node pos="l" depth="3" NCoef="0" IVar="8" Cut="4.1087406873703003e-01" cType="1" res="-2.3418013006448746e-03" rms="2.8790268301963806e-01" purity="6.3550710678100586e-01" nType="0">
              <Node pos="l" depth="4" NCoef="0" IVar="9" Cut="3.6575701832771301e-01" cType="1" res="-7.6278555206954479e-03" rms="2.9466691613197327e-01" purity="5.7513582706451416e-01" nType="0">
                <Node pos="l" depth="5" NCoef="0" IVar="-1" Cut="0.0000000000000000e+00" cType="1" res="-1.0522791184484959e-02" rms="3.0494415760040283e-01" purity="3.5427170991897583e-01" nType="-99"/>
                <Node pos="r" depth="5" NCoef="0" IVar="-1" Cut="0.0000000000000000e+00" cType="1" res="-4.0335883386433125e-04" rms="2.8820419311523438e-01" purity="7.0549511909484863e-01" nType="-99"/>
              </Node>
              <Node pos="r" depth="4" NCoef="0" IVar="-1" Cut="0.0000000000000000e+00" cType="1" res="3.7099744658917189e-03" rms="2.7674093842506409e-01" purity="7.3033231496810913e-01" nType="-99"/>
            </Node>
            <Node pos="r" depth="3" NCoef="0" IVar="9" Cut="2.9154410958290100e-01" cType="1" res="7.0046526379883289e-03" rms="2.6714023947715759e-01" purity="6.0641878843307495e-01" nType="0">
              <Node pos="l" depth="4" NCoef="0" IVar="8" Cut="3.4440943598747253e-01" cType="1" res="1.2794622452929616e-03" rms="2.6765927672386169e-01" purity="5.6018447875976562e-01" nType="0">
                <Node pos="l" depth="5" NCoef="0" IVar="-1" Cut="0.0000000000000000e+00" cType="1" res="-2.1677613258361816e-03" rms="2.5850826501846313e-01" purity="5.5888569355010986e-01" nType="-99"/>
                <Node pos="r" depth="5" NCoef="0" IVar="-1" Cut="0.0000000000000000e+00" cType="1" res="7.5963628478348255e-03" rms="2.9051879048347473e-01" purity="5.6368702650070190e-01" nType="-99"/>
              </Node>
              <Node pos="r" depth="4" NCoef="0" IVar="-1" Cut="0.0000000000000000e+00" cType="1" res="1.1513813398778439e-02" rms="2.6575234532356262e-01" purity="6.9760477542877197e-01" nType="-99"/>
            </Node>
          </Node>
        </Node>
      </Node>
    </BinaryTree>
    <BinaryTree type="DecisionTree" boostWeight="1.0000000000000000e+00" itree="262">
      <Node pos="s" depth="0" NCoef="0" IVar="5" Cut="1.5279385375976562e+02" cType="1" res="4.5960099669173360e-04" rms="2.9604303836822510e-01" purity="5.0114971399307251e-01" nType="0">
        <Node pos="l" depth="1" NCoef="0" IVar="3" Cut="4.0243902206420898e+00" cType="1" res="5.9336900449125096e-05" rms="2.9644417762756348e-01" purity="5.0721985101699829e-01" nType="0">
          <Node pos="l" depth="2" NCoef="0" IVar="9" Cut="2.4021340906620026e-01" cType="1" res="8.3889655070379376e-04" rms="2.9706186056137085e-01" purity="5.5222988128662109e-01" nType="0">
            <Node pos="l" depth="3" NCoef="0" IVar="6" Cut="1.6091095209121704e+00" cType="1" res="-2.3658636491745710e-03" rms="2.9100608825683594e-01" purity="3.2815259695053101e-01" nType="0">
              <Node pos="l" depth="4" NCoef="0" IVar="0" Cut="3.0487804412841797e+00" cType="1" res="3.4829792566597462e-03" rms="2.8070434927940369e-01" purity="1.8784140050411224e-01" nType="0">
                <Node pos="l" depth="5" NCoef="0" IVar="-1" Cut="0.0000000000000000e+00" cType="1" res="8.4073040634393692e-03" rms="2.2664999961853027e-01" purity="9.2201426625251770e-02" nType="-99"/>
                <Node pos="r" depth="5" NCoef="0" IVar="-1" Cut="0.0000000000000000e+00" cType="1" res="-1.1373448651283979e-03" rms="3.3747795224189758e-01" purity="3.1046605110168457e-01" nType="-99"/>
              </Node>
              <Node pos="r" depth="4" NCoef="0" IVar="0" Cut="4.0243902206420898e+00" cType="1" res="-5.4872483015060425e-03" rms="2.9631012678146362e-01" purity="4.0303328633308411e-01" nType="0">
                <Node pos="l" depth="5" NCoef="0" IVar="-1" Cut="0.0000000000000000e+00" cType="1" res="-6.4130467362701893e-03" rms="2.5582239031791687e-01" purity="2.6373466849327087e-01" nType="-99"/>
                <Node pos="r" depth="5" NCoef="0" IVar="-1" Cut="0.0000000000000000e+00" cType="1" res="-1.8072362581733614e-04" rms="3.3757188916206360e-01" purity="5.6631195545196533e-01" nType="-99"/>
              </Node>
            </Node>
            <Node pos="r" depth="3" NCoef="0" IVar="7" Cut="2.0943024158477783e+00" cType="1" res="2.1106812637299299e-03" rms="2.9942160844802856e-01" purity="6.4115333557128906e-01" nType="0">
              <Node pos="l" depth="4" NCoef="0" IVar="4" Cut="4.6891162872314453e+01" cType="1" res="1.0067683178931475e-03" rms="3.0199584364891052e-01" purity="6.5098494291305542e-01" nType="0">
                <Node pos="l" depth="5" NCoef="0" IVar="-1" Cut="0.0000000000000000e+00" cType="1" res="4.5556845143437386e-03" rms="3.5731500387191772e-01" purity="2.8406891226768494e-01" nType="-99"/>
                <Node pos="r" depth="5" NCoef="0" IVar="-1" Cut="0.0000000000000000e+00" cType="1" res="2.8200534870848060e-04" rms="2.9921180009841919e-01" purity="6.6776734590530396e-01" nType="-99"/>
              </Node>
              <Node pos="r" depth="4" NCoef="0" IVar="8" Cut="1.4724852144718170e-01" cType="1" res="1.1018765158951283e-02" rms="2.7761647105216980e-01" purity="5.6181639432907104e-01" nType="0">
                <Node pos="l" depth="5" NCoef="0" IVar="-1" Cut="0.0000000000000000e+00" cType="1" res="-2.5056805461645126e-03" rms="3.0943885445594788e-01" purity="2.7437663078308105e-01" nType="-99"/>
                <Node pos="r" depth="5" NCoef="0" IVar="-1" Cut="0.0000000000000000e+00" cType="1" res="1.2927953153848648e-02" rms="2.5678133964538574e-01" purity="7.2961968183517456e-01" nType="-99"/>
              </Node>
            </Node>
          </Node>
          <Node pos="r" depth="2" NCoef="0" IVar="5" Cut="9.7960098266601562e+01" cType="1" res="-4.9352948553860188e-03" rms="2.9240638017654419e-01" purity="2.1884100139141083e-01" nType="0">
            <Node pos="l" depth="3" NCoef="0" IVar="0" Cut="1.0975610017776489e+00" cType="1" res="-1.2969423085451126e-02" rms="3.0631932616233826e-01" purity="2.2736339271068573e-01" nType="0">
              <Node pos="l" depth="4" NCoef="0" IVar="-1" Cut="0.0000000000000000e+00" cType="1" res="-4.6086264774203300e-03" rms="2.4462404847145081e-01" purity="8.3778358995914459e-02" nType="-99"/>
              <Node pos="r" depth="4" NCoef="0" IVar="-1" Cut="0.0000000000000000e+00" cType="1" res="-7.3782419785857201e-03" rms="3.5746684670448303e-01" purity="3.7125435471534729e-01" nType="-99"/>
            </Node>
            <Node pos="r" depth="3" NCoef="0" IVar="9" Cut="2.2394068539142609e-01" cType="1" res="1.7924072453752160e-03" rms="2.8004762530326843e-01" purity="2.1170446276664734e-01" nType="0">
              <Node pos="l" depth="4" NCoef="0" IVar="-1" Cut="0.0000000000000000e+00" cType="1" res="1.4537709765136242e-02" rms="2.5883790850639343e-01" purity="1.0852476954460144e-01" nType="-99"/>
              <Node pos="r" depth="4" NCoef="0" IVar="8" Cut="3.1401911377906799e-01" cType="1" res="-4.9541261978447437e-03" rms="2.8907626867294312e-01" purity="2.5939095020294189e-01" nType="0">
                <Node pos="l" depth="5" NCoef="0" IVar="-1" Cut="0.0000000000000000e+00" cType="1" res="-2.2529139823745936e-04" rms="2.5827574729919434e-01" purity="1.5205138921737671e-01" nType="-99"/>
                <Node pos="r" depth="5" NCoef="0" IVar="-1" Cut="0.0000000000000000e+00" cType="1" res="-5.1309512928128242e-03" rms="3.2672214508056641e-01" purity="4.0744429826736450e-01" nType="-99"/>
              </Node>
            </Node>
          </Node>
        </Node>
        <Node pos="r" depth="1" NCoef="0" IVar="-1" Cut="0.0000000000000000e+00" cType="1" res="8.0668088048696518e-03" rms="2.8300926089286804e-01" purity="3.1246379017829895e-01" nType="-99"/>
      </Node>
    </BinaryTree>
    <BinaryTree type="DecisionTree" boostWeight="1.0000000000000000e+00" itree="263">
      <Node pos="s" depth="0" NCoef="0" IVar="3" Cut="2.0731706619262695e+00" cType="1" res="-1.4909273886587471e-04" rms="2.9602536559104919e-01" purity="4.9965676665306091e-01" nType="0">
        <Node pos="l" depth="1" NCoef="0" IVar="8" Cut="8.7148594856262207e-01" cType="1" res="1.0944762034341693e-03" rms="2.9587298631668091e-01" purity="5.5629879236221313e-01" nType="0">
          <Node pos="l" depth="2" NCoef="0" IVar="5" Cut="3.7659797668457031e+01" cType="1" res="6.4573832787573338e-04" rms="2.9333963990211487e-01" purity="5.6281411647796631e-01" nType="0">
            <Node pos="l" depth="3" NCoef="0" IVar="-1" Cut="0.0000000000000000e+00" cType="1" res="-5.4566487669944763e-03" rms="3.3348149061203003e-01" purity="3.2505837082862854e-01" nType="-99"/>
            <Node pos="r" depth="3" NCoef="0" IVar="8" Cut="2.7654087543487549e-01" cType="1" res="1.1105273151770234e-03" rms="2.9183387756347656e-01" purity="5.7107919454574585e-01" nType="0">
              <Node pos="l" depth="4" NCoef="0" IVar="4" Cut="7.0869316101074219e+01" cType="1" res="-1.7250597011297941e-03" rms="2.8909340500831604e-01" purity="4.3105766177177429e-01" nType="0">
                <Node pos="l" depth="5" NCoef="0" IVar="-1" Cut="0.0000000000000000e+00" cType="1" res="-7.9739149659872055e-03" rms="2.8763914108276367e-01" purity="1.9032736122608185e-01" nType="-99"/>
                <Node pos="r" depth="5" NCoef="0" IVar="-1" Cut="0.0000000000000000e+00" cType="1" res="-1.3624365965370089e-04" rms="2.8922456502914429e-01" purity="4.5895814895629883e-01" nType="-99"/>
              </Node>
              <Node pos="r" depth="4" NCoef="0" IVar="7" Cut="1.8275604248046875e+00" cType="1" res="2.7108676731586456e-03" rms="2.9335716366767883e-01" purity="6.5010404586791992e-01" nType="0">
                <Node pos="l" depth="5" NCoef="0" IVar="-1" Cut="0.0000000000000000e+00" cType="1" res="6.8337540142238140e-04" rms="2.9785147309303284e-01" purity="6.6657638549804688e-01" nType="-99"/>
                <Node pos="r" depth="5" NCoef="0" IVar="-1" Cut="0.0000000000000000e+00" cType="1" res="6.5568443387746811e-03" rms="2.6779720187187195e-01" purity="5.6164711713790894e-01" nType="-99"/>
              </Node>
            </Node>
          </Node>
          <Node pos="r" depth="2" NCoef="0" IVar="-1" Cut="0.0000000000000000e+00" cType="1" res="5.2293417975306511e-03" rms="3.5118064284324646e-01" purity="3.9956298470497131e-01" nType="-99"/>
        </Node>
        <Node pos="r" depth="1" NCoef="0" IVar="4" Cut="1.9785966491699219e+02" cType="1" res="-4.8630945384502411e-03" rms="2.9655489325523376e-01" purity="2.8494367003440857e-01" nType="0">
          <Node pos="l" depth="2" NCoef="0" IVar="1" Cut="1.0975610017776489e+00" cType="1" res="-6.4104860648512840e-03" rms="3.0071601271629333e-01" purity="3.0337411165237427e-01" nType="0">
            <Node pos="l" depth="3" NCoef="0" IVar="9" Cut="4.4529393315315247e-01" cType="1" res="-3.1898117158561945e-03" rms="2.8179085254669189e-01" purity="1.5821713209152222e-01" nType="0">
              <Node pos="l" depth="4" NCoef="0" IVar="6" Cut="2.1454739570617676e+00" cType="1" res="6.9155398523434997e-04" rms="2.7065852284431458e-01" purity="1.3616316020488739e-01" nType="0">
                <Node pos="l" depth="5" NCoef="0" IVar="-1" Cut="0.0000000000000000e+00" cType="1" res="5.3751929663121700e-03" rms="2.5142857432365417e-01" purity="9.9222466349601746e-02" nType="-99"/>
                <Node pos="r" depth="5" NCoef="0" IVar="-1" Cut="0.0000000000000000e+00" cType="1" res="-3.5494789481163025e-03" rms="2.9230490326881409e-01" purity="1.8132290244102478e-01" nType="-99"/>
              </Node>
              <Node pos="r" depth="4" NCoef="0" IVar="-1" Cut="0.0000000000000000e+00" cType="1" res="-6.2943999655544758e-03" rms="3.0765309929847717e-01" purity="2.1335591375827789e-01" nType="-99"/>
            </Node>
            <Node pos="r" depth="3" NCoef="0" IVar="4" Cut="1.3036088562011719e+02" cType="1" res="-1.0808026418089867e-02" rms="3.2472899556159973e-01" purity="5.0157284736633301e-01" nType="0">
              <Node pos="l" depth="4" NCoef="0" IVar="6" Cut="2.0688478946685791e+00" cType="1" res="-6.3216760754585266e-03" rms="3.3553984761238098e-01" purity="5.5569493770599365e-01" nType="0">
                <Node pos="l" depth="5" NCoef="0" IVar="-1" Cut="0.0000000000000000e+00" cType="1" res="-6.3208853825926781e-03" rms="3.5087218880653381e-01" purity="4.1946476697921753e-01" nType="-99"/>
                <Node pos="r" depth="5" NCoef="0" IVar="-1" Cut="0.0000000000000000e+00" cType="1" res="1.7042132094502449e-04" rms="3.2347393035888672e-01" purity="6.5727084875106812e-01" nType="-99"/>
              </Node>
              <Node pos="r" depth="4" NCoef="0" IVar="-1" Cut="0.0000000000000000e+00" cType="1" res="-1.2539789080619812e-02" rms="2.9059487581253052e-01" purity="3.4405714273452759e-01" nType="-99"/>
            </Node>
          </Node>
          <Node pos="r" depth="2" NCoef="0" IVar="-1" Cut="0.0000000000000000e+00" cType="1" res="7.6237628236413002e-03" rms="2.5639840960502625e-01" purity="1.2182696163654327e-01" nType="-99"/>
        </Node>
      </Node>
    </BinaryTree>
    <BinaryTree type="DecisionTree" boostWeight="1.0000000000000000e+00" itree="264">
      <Node pos="s" depth="0" NCoef="0" IVar="2" Cut="1.0975610017776489e+00" cType="1" res="-1.5429451013915241e-04" rms="2.9707998037338257e-01" purity="4.9791958928108215e-01" nType="0">
        <Node pos="l" depth="1" NCoef="0" IVar="5" Cut="4.8152324676513672e+01" cType="1" res="-1.6609032172709703e-03" rms="3.0893892049789429e-01" purity="6.0264772176742554e-01" nType="0">
          <Node pos="l" depth="2" NCoef="0" IVar="1" Cut="2.0731706619262695e+00" cType="1" res="-1.0024027898907661e-02" rms="3.6132079362869263e-01" purity="4.1222500801086426e-01" nType="0">
            <Node pos="l" depth="3" NCoef="0" IVar="-1" Cut="0.0000000000000000e+00" cType="1" res="-1.3611220056191087e-03" rms="3.5595726966857910e-01" purity="2.4656601250171661e-01" nType="-99"/>
            <Node pos="r" depth="3" NCoef="0" IVar="-1" Cut="0.0000000000000000e+00" cType="1" res="-6.3520804978907108e-03" rms="3.6682134866714478e-01" purity="5.8880347013473511e-01" nType="-99"/>
          </Node>
          <Node pos="r" depth="2" NCoef="0" IVar="1" Cut="2.0731706619262695e+00" cType="1" res="-9.6984941046684980e-04" rms="3.0419710278511047e-01" purity="6.1838251352310181e-01" nType="0">
            <Node pos="l" depth="3" NCoef="0" IVar="6" Cut="2.6818459033966064e+00" cType="1" res="-4.1106292046606541e-03" rms="3.3461913466453552e-01" purity="3.9172324538230896e-01" nType="0">
              <Node pos="l" depth="4" NCoef="0" IVar="8" Cut="3.5750842094421387e-01" cType="1" res="-6.7535224370658398e-03" rms="3.3286428451538086e-01" purity="3.2855123281478882e-01" nType="0">
                <Node pos="l" depth="5" NCoef="0" IVar="-1" Cut="0.0000000000000000e+00" cType="1" res="-1.4509723987430334e-03" rms="3.1808605790138245e-01" purity="2.6191654801368713e-01" nType="-99"/>
                <Node pos="r" depth="5" NCoef="0" IVar="-1" Cut="0.0000000000000000e+00" cType="1" res="-4.5402701944112778e-03" rms="3.5030427575111389e-01" purity="4.1136014461517334e-01" nType="-99"/>
              </Node>
              <Node pos="r" depth="4" NCoef="0" IVar="0" Cut="4.0243902206420898e+00" cType="1" res="3.6085820756852627e-03" rms="3.3957499265670776e-01" purity="5.7623231410980225e-01" nType="0">
                <Node pos="l" depth="5" NCoef="0" IVar="-1" Cut="0.0000000000000000e+00" cType="1" res="6.3531668856739998e-03" rms="3.3253946900367737e-01" purity="4.4663250446319580e-01" nType="-99"/>
                <Node pos="r" depth="5" NCoef="0" IVar="-1" Cut="0.0000000000000000e+00" cType="1" res="-2.3594936355948448e-03" rms="3.4524646401405334e-01" purity="6.8795901536941528e-01" nType="-99"/>
              </Node>
            </Node>
            <Node pos="r" depth="3" NCoef="0" IVar="4" Cut="1.6875617980957031e+02" cType="1" res="1.2967952061444521e-03" rms="2.8017562627792358e-01" purity="7.8195852041244507e-01" nType="0">
              <Node pos="l" depth="4" NCoef="0" IVar="5" Cut="1.3544783020019531e+02" cType="1" res="3.0193783459253609e-04" rms="2.7528458833694458e-01" purity="8.2132327556610107e-01" nType="0">
                <Node pos="l" depth="5" NCoef="0" IVar="-1" Cut="0.0000000000000000e+00" cType="1" res="8.8261824566870928e-04" rms="2.7041751146316528e-01" purity="8.3819454908370972e-01" nType="-99"/>
                <Node pos="r" depth="5" NCoef="0" IVar="-1" Cut="0.0000000000000000e+00" cType="1" res="-5.6108632124960423e-03" rms="3.2765984535217285e-01" purity="6.1969041824340820e-01" nType="-99"/>
              </Node>
              <Node pos="r" depth="4" NCoef="0" IVar="-1" Cut="0.0000000000000000e+00" cType="1" res="5.8161523193120956e-03" rms="3.3296084403991699e-01" purity="3.1078428030014038e-01" nType="-99"/>
            </Node>
          </Node>
        </Node>
        <Node pos="r" depth="1" NCoef="0" IVar="8" Cut="3.5675331950187683e-01" cType="1" res="3.3241829369217157e-03" rms="2.6766824722290039e-01" purity="2.5612205266952515e-01" nType="0">
          <Node pos="l" depth="2" NCoef="0" IVar="7" Cut="5.1591765880584717e-01" cType="1" res="8.2735606702044606e-04" rms="2.3667392134666443e-01" purity="1.9076471030712128e-01" nType="0">
            <Node pos="l" depth="3" NCoef="0" IVar="-1" Cut="0.0000000000000000e+00" cType="1" res="6.6542532294988632e-03" rms="2.6951321959495544e-01" purity="1.9668631255626678e-01" nType="-99"/>
            <Node pos="r" depth="3" NCoef="0" IVar="5" Cut="7.7772926330566406e+01" cType="1" res="-9.1533217346295714e-04" rms="2.2862190008163452e-01" purity="1.8943592905998230e-01" nType="0">
              <Node pos="l" depth="4" NCoef="0" IVar="-1" Cut="0.0000000000000000e+00" cType="1" res="-5.6607336737215519e-03" rms="2.5616794824600220e-01" purity="2.0714873075485229e-01" nType="-99"/>
              <Node pos="r" depth="4" NCoef="0" IVar="0" Cut="3.0487804412841797e+00" cType="1" res="1.3713004300370812e-03" rms="2.1877813339233398e-01" purity="1.8362241983413696e-01" nType="0">
                <Node pos="l" depth="5" NCoef="0" IVar="-1" Cut="0.0000000000000000e+00" cType="1" res="-3.8654650561511517e-03" rms="1.7346636950969696e-01" purity="8.7312966585159302e-02" nType="-99"/>
                <Node pos="r" depth="5" NCoef="0" IVar="-1" Cut="0.0000000000000000e+00" cType="1" res="4.9494295381009579e-03" rms="2.7867051959037781e-01" purity="3.4546390175819397e-01" nType="-99"/>
              </Node>
            </Node>
          </Node>
          <Node pos="r" depth="2" NCoef="0" IVar="5" Cut="1.1709049224853516e+02" cType="1" res="6.8373414687812328e-03" rms="3.0597352981567383e-01" purity="3.4808301925659180e-01" nType="0">
            <Node pos="l" depth="3" NCoef="0" IVar="5" Cut="6.9035720825195312e+01" cType="1" res="4.0248911827802658e-03" rms="3.0836734175682068e-01" purity="3.7899678945541382e-01" nType="0">
              <Node pos="l" depth="4" NCoef="0" IVar="-1" Cut="0.0000000000000000e+00" cType="1" res="5.8388388715684414e-03" rms="3.4007164835929871e-01" purity="3.0792808532714844e-01" nType="-99"/>
              <Node pos="r" depth="4" NCoef="0" IVar="8" Cut="4.4054639339447021e-01" cType="1" res="-1.3636281073559076e-04" rms="2.9115825891494751e-01" purity="4.1448315978050232e-01" nType="0">
                <Node pos="l" depth="5" NCoef="0" IVar="-1" Cut="0.0000000000000000e+00" cType="1" res="-4.4099516235291958e-03" rms="2.6895952224731445e-01" purity="4.2056116461753845e-01" nType="-99"/>
                <Node pos="r" depth="5" NCoef="0" IVar="-1" Cut="0.0000000000000000e+00" cType="1" res="2.0205697510391474e-03" rms="3.0241793394088745e-01" purity="4.1119575500488281e-01" nType="-99"/>
              </Node>
            </Node>
            <Node pos="r" depth="3" NCoef="0" IVar="-1" Cut="0.0000000000000000e+00" cType="1" res="9.9915461614727974e-03" rms="2.9788967967033386e-01" purity="2.4775940179824829e-01" nType="-99"/>
          </Node>
        </Node>
      </Node>
    </BinaryTree>
    <BinaryTree type="DecisionTree" boostWeight="1.0000000000000000e+00" itree="265">
      <Node pos="s" depth="0" NCoef="0" IVar="5" Cut="8.0624145507812500e+01" cType="1" res="-2.2589920263271779e-04" rms="2.9640266299247742e-01" purity="4.9849131703376770e-01" nType="0">
        <Node pos="l" depth="1" NCoef="0" IVar="4" Cut="6.4971458435058594e+01" cType="1" res="-2.8941696509718895e-03" rms="3.1300571560859680e-01" purity="5.4744076728820801e-01" nType="0">
          <Node pos="l" depth="2" NCoef="0" IVar="-1" Cut="0.0000000000000000e+00" cType="1" res="-6.0161342844367027e-03" rms="3.4528726339340210e-01" purity="2.8017947077751160e-01" nType="-99"/>
          <Node pos="r" depth="2" NCoef="0" IVar="8" Cut="1.1900880932807922e-01" cType="1" res="-1.4845636906102300e-03" rms="3.0929079651832581e-01" purity="5.7625836133956909e-01" nType="0">
            <Node pos="l" depth="3" NCoef="0" IVar="-1" Cut="0.0000000000000000e+00" cType="1" res="6.2996377237141132e-03" rms="3.0838245153427124e-01" purity="2.4234077334403992e-01" nType="-99"/>
            <Node pos="r" depth="3" NCoef="0" IVar="6" Cut="6.1299359798431396e-01" cType="1" res="-2.2761283908039331e-03" rms="3.0933213233947754e-01" purity="5.9766995906829834e-01" nType="0">
              <Node pos="l" depth="4" NCoef="0" IVar="-1" Cut="0.0000000000000000e+00" cType="1" res="-5.5251228623092175e-03" rms="3.1768938899040222e-01" purity="3.9194619655609131e-01" nType="-99"/>
              <Node pos="r" depth="4" NCoef="0" IVar="8" Cut="5.6299877166748047e-01" cType="1" res="-1.1037476360797882e-03" rms="3.0831119418144226e-01" purity="6.2191373109817505e-01" nType="0">
                <Node pos="l" depth="5" NCoef="0" IVar="-1" Cut="0.0000000000000000e+00" cType="1" res="-1.8692143494263291e-03" rms="3.0353656411170959e-01" purity="6.2116008996963501e-01" nType="-99"/>
                <Node pos="r" depth="5" NCoef="0" IVar="-1" Cut="0.0000000000000000e+00" cType="1" res="3.6941645666956902e-03" rms="3.2616910338401794e-01" purity="6.2486451864242554e-01" nType="-99"/>
              </Node>
            </Node>
          </Node>
        </Node>
        <Node pos="r" depth="1" NCoef="0" IVar="6" Cut="6.1299389600753784e-01" cType="1" res="1.4410475268959999e-03" rms="2.8552809357643127e-01" purity="4.6791121363639832e-01" nType="0">
          <Node pos="l" depth="2" NCoef="0" IVar="4" Cut="1.1131667327880859e+02" cType="1" res="8.7515944615006447e-03" rms="3.0179142951965332e-01" purity="2.5692477822303772e-01" nType="0">
            <Node pos="l" depth="3" NCoef="0" IVar="-1" Cut="0.0000000000000000e+00" cType="1" res="8.8217370212078094e-03" rms="3.1593218445777893e-01" purity="2.7413693070411682e-01" nType="-99"/>
            <Node pos="r" depth="3" NCoef="0" IVar="-1" Cut="0.0000000000000000e+00" cType="1" res="1.2486418709158897e-03" rms="2.8841847181320190e-01" purity="2.4156130850315094e-01" nType="-99"/>
          </Node>
          <Node pos="r" depth="2" NCoef="0" IVar="9" Cut="7.6982003450393677e-01" cType="1" res="4.9979781033471227e-04" rms="2.8335261344909668e-01" purity="4.9507620930671692e-01" nType="0">
            <Node pos="l" depth="3" NCoef="0" IVar="9" Cut="1.6914513707160950e-01" cType="1" res="1.1927246814593673e-03" rms="2.8294146060943604e-01" purity="4.9948281049728394e-01" nType="0">
              <Node pos="l" depth="4" NCoef="0" IVar="6" Cut="1.5997633934020996e+00" cType="1" res="-6.5222349949181080e-03" rms="2.5661128759384155e-01" purity="1.7425787448883057e-01" nType="0">
                <Node pos="l" depth="5" NCoef="0" IVar="-1" Cut="0.0000000000000000e+00" cType="1" res="5.1985299214720726e-03" rms="2.4057707190513611e-01" purity="1.2028889358043671e-01" nType="-99"/>
                <Node pos="r" depth="5" NCoef="0" IVar="-1" Cut="0.0000000000000000e+00" cType="1" res="-7.9428879544138908e-03" rms="2.6331347227096558e-01" purity="1.9854259490966797e-01" nType="-99"/>
              </Node>
              <Node pos="r" depth="4" NCoef="0" IVar="7" Cut="2.6177752017974854e+00" cType="1" res="2.8299905825406313e-03" rms="2.8819346427917480e-01" purity="5.6850194931030273e-01" nType="0">
                <Node pos="l" depth="5" NCoef="0" IVar="-1" Cut="0.0000000000000000e+00" cType="1" res="8.1063370453193784e-04" rms="2.9063755273818970e-01" purity="5.7265686988830566e-01" nType="-99"/>
                <Node pos="r" depth="5" NCoef="0" IVar="-1" Cut="0.0000000000000000e+00" cType="1" res="1.1200325563549995e-02" rms="2.6101422309875488e-01" purity="5.2539002895355225e-01" nType="-99"/>
              </Node>
            </Node>
            <Node pos="r" depth="3" NCoef="0" IVar="-1" Cut="0.0000000000000000e+00" cType="1" res="-8.1473272293806076e-03" rms="2.9207608103752136e-01" purity="3.9519926905632019e-01" nType="-99"/>
          </Node>
        </Node>
      </Node>
    </BinaryTree>
    <BinaryTree type="DecisionTree" boostWeight="1.0000000000000000e+00" itree="266">
      <Node pos="s" depth="0" NCoef="0" IVar="5" Cut="3.3720405578613281e+01" cType="1" res="9.0086934505961835e-05" rms="2.9645287990570068e-01" purity="5.0009328126907349e-01" nType="0">
        <Node pos="l" depth="1" NCoef="0" IVar="-1" Cut="0.0000000000000000e+00" cType="1" res="-6.6583808511495590e-03" rms="3.3418923616409302e-01" purity="2.8572258353233337e-01" nType="-99"/>
        <Node pos="r" depth="1" NCoef="0" IVar="1" Cut="3.0487804412841797e+00" cType="1" res="4.5373561442829669e-04" rms="2.9549470543861389e-01" purity="5.0515079498291016e-01" nType="0">
          <Node pos="l" depth="2" NCoef="0" IVar="4" Cut="6.4844100952148438e+01" cType="1" res="2.1470859646797180e-03" rms="3.0641311407089233e-01" purity="3.2743549346923828e-01" nType="0">
            <Node pos="l" depth="3" NCoef="0" IVar="8" Cut="3.4295535087585449e-01" cType="1" res="1.1711048893630505e-02" rms="3.1999284029006958e-01" purity="2.0745126903057098e-01" nType="0">
              <Node pos="l" depth="4" NCoef="0" IVar="-1" Cut="0.0000000000000000e+00" cType="1" res="4.5793683966621757e-04" rms="2.7300077676773071e-01" purity="1.3411125540733337e-01" nType="-99"/>
              <Node pos="r" depth="4" NCoef="0" IVar="-1" Cut="0.0000000000000000e+00" cType="1" res="9.2054195702075958e-03" rms="3.5750132799148560e-01" purity="2.7489653229713440e-01" nType="-99"/>
            </Node>
            <Node pos="r" depth="3" NCoef="0" IVar="4" Cut="8.2908126831054688e+01" cType="1" res="5.7154282694682479e-04" rms="3.0408900976181030e-01" purity="3.4720140695571899e-01" nType="0">
              <Node pos="l" depth="4" NCoef="0" IVar="5" Cut="8.3000144958496094e+01" cType="1" res="-7.9063242301344872e-03" rms="3.0420321226119995e-01" purity="2.5863209366798401e-01" nType="0">
                <Node pos="l" depth="5" NCoef="0" IVar="-1" Cut="0.0000000000000000e+00" cType="1" res="-6.9153755903244019e-03" rms="3.3251959085464478e-01" purity="3.3032447099685669e-01" nType="-99"/>
                <Node pos="r" depth="5" NCoef="0" IVar="-1" Cut="0.0000000000000000e+00" cType="1" res="-1.5224233502522111e-03" rms="2.8525558114051819e-01" purity="2.1451589465141296e-01" nType="-99"/>
              </Node>
              <Node pos="r" depth="4" NCoef="0" IVar="4" Cut="1.0328521728515625e+02" cType="1" res="1.8692935118451715e-03" rms="3.0405065417289734e-01" purity="3.6075916886329651e-01" nType="0">
                <Node pos="l" depth="5" NCoef="0" IVar="-1" Cut="0.0000000000000000e+00" cType="1" res="4.4940598309040070e-03" rms="3.2199740409851074e-01" purity="4.0090861916542053e-01" nType="-99"/>
                <Node pos="r" depth="5" NCoef="0" IVar="-1" Cut="0.0000000000000000e+00" cType="1" res="-1.1186924530193210e-04" rms="2.9885217547416687e-01" purity="3.4963008761405945e-01" nType="-99"/>
              </Node>
            </Node>
          </Node>
          <Node pos="r" depth="2" NCoef="0" IVar="5" Cut="6.1440620422363281e+01" cType="1" res="-1.5443545999005437e-03" rms="2.8205522894859314e-01" purity="7.1484822034835815e-01" nType="0">
            <Node pos="l" depth="3" NCoef="0" IVar="5" Cut="4.9947017669677734e+01" cType="1" res="-1.0856909677386284e-02" rms="3.4408271312713623e-01" purity="6.0381829738616943e-01" nType="0">
              <Node pos="l" depth="4" NCoef="0" IVar="-1" Cut="0.0000000000000000e+00" cType="1" res="-2.2805328480899334e-03" rms="3.5677099227905273e-01" purity="5.7580745220184326e-01" nType="-99"/>
              <Node pos="r" depth="4" NCoef="0" IVar="-1" Cut="0.0000000000000000e+00" cType="1" res="-6.8364250473678112e-03" rms="3.3213281631469727e-01" purity="6.2913417816162109e-01" nType="-99"/>
            </Node>
            <Node pos="r" depth="3" NCoef="0" IVar="5" Cut="1.3596092224121094e+02" cType="1" res="-3.1644845148548484e-04" rms="2.7280259132385254e-01" purity="7.2948807477951050e-01" nType="0">
              <Node pos="l" depth="4" NCoef="0" IVar="8" Cut="3.4194946289062500e-01" cType="1" res="-1.1290975380688906e-03" rms="2.6792204380035400e-01" purity="7.5490409135818481e-01" nType="0">
                <Node pos="l" depth="5" NCoef="0" IVar="-1" Cut="0.0000000000000000e+00" cType="1" res="-2.4632711429148912e-03" rms="2.7047601342201233e-01" purity="6.9535028934478760e-01" nType="-99"/>
                <Node pos="r" depth="5" NCoef="0" IVar="-1" Cut="0.0000000000000000e+00" cType="1" res="8.9176982874050736e-04" rms="2.6559975743293762e-01" purity="8.0802589654922485e-01" nType="-99"/>
              </Node>
              <Node pos="r" depth="4" NCoef="0" IVar="-1" Cut="0.0000000000000000e+00" cType="1" res="3.5403568763285875e-03" rms="3.1284466385841370e-01" purity="5.0308001041412354e-01" nType="-99"/>
            </Node>
          </Node>
        </Node>
      </Node>
    </BinaryTree>
    <BinaryTree type="DecisionTree" boostWeight="1.0000000000000000e+00" itree="267">
      <Node pos="s" depth="0" NCoef="0" IVar="4" Cut="4.1088054656982422e+01" cType="1" res="-2.9984800494275987e-04" rms="2.9529309272766113e-01" purity="5.0000697374343872e-01" nType="0">
        <Node pos="l" depth="1" NCoef="0" IVar="-1" Cut="0.0000000000000000e+00" cType="1" res="7.0899422280490398e-03" rms="3.2078272104263306e-01" purity="1.8796955049037933e-01" nType="-99"/>
        <Node pos="r" depth="1" NCoef="0" IVar="7" Cut="1.7818909883499146e+00" cType="1" res="-7.2422268567606807e-04" rms="2.9448541998863220e-01" purity="5.0934898853302002e-01" nType="0">
          <Node pos="l" depth="2" NCoef="0" IVar="8" Cut="2.5281089544296265e-01" cType="1" res="2.7475706883706152e-04" rms="3.0605524778366089e-01" purity="5.4349726438522339e-01" nType="0">
            <Node pos="l" depth="3" NCoef="0" IVar="2" Cut="1.0975610017776489e+00" cType="1" res="5.0836377777159214e-03" rms="2.9891914129257202e-01" purity="3.3580470085144043e-01" nType="0">
              <Node pos="l" depth="4" NCoef="0" IVar="5" Cut="1.0227169799804688e+02" cType="1" res="1.0281626135110855e-02" rms="3.3403500914573669e-01" purity="4.5620512962341309e-01" nType="0">
                <Node pos="l" depth="5" NCoef="0" IVar="-1" Cut="0.0000000000000000e+00" cType="1" res="2.3064792621880770e-03" rms="3.3492979407310486e-01" purity="5.6939888000488281e-01" nType="-99"/>
                <Node pos="r" depth="5" NCoef="0" IVar="-1" Cut="0.0000000000000000e+00" cType="1" res="1.0472938418388367e-02" rms="3.3211663365364075e-01" purity="2.4252699315547943e-01" nType="-99"/>
              </Node>
              <Node pos="r" depth="4" NCoef="0" IVar="0" Cut="1.0975610017776489e+00" cType="1" res="-4.1374173015356064e-03" rms="2.2313722968101501e-01" purity="1.2221855670213699e-01" nType="0">
                <Node pos="l" depth="5" NCoef="0" IVar="-1" Cut="0.0000000000000000e+00" cType="1" res="3.9126132614910603e-03" rms="1.7379687726497650e-01" purity="3.7925697863101959e-02" nType="-99"/>
                <Node pos="r" depth="5" NCoef="0" IVar="-1" Cut="0.0000000000000000e+00" cType="1" res="-7.3917899280786514e-03" rms="2.7115553617477417e-01" purity="2.2481918334960938e-01" nType="-99"/>
              </Node>
            </Node>
            <Node pos="r" depth="3" NCoef="0" IVar="4" Cut="1.0223298645019531e+02" cType="1" res="-1.0195331415161490e-03" rms="3.0793482065200806e-01" purity="5.9939682483673096e-01" nType="0">
              <Node pos="l" depth="4" NCoef="0" IVar="4" Cut="6.1966651916503906e+01" cType="1" res="2.3573613725602627e-03" rms="3.3641067147254944e-01" purity="5.2471536397933960e-01" nType="0">
                <Node pos="l" depth="5" NCoef="0" IVar="-1" Cut="0.0000000000000000e+00" cType="1" res="-3.1744856387376785e-03" rms="3.5315722227096558e-01" purity="3.0520957708358765e-01" nType="-99"/>
                <Node pos="r" depth="5" NCoef="0" IVar="-1" Cut="0.0000000000000000e+00" cType="1" res="2.3299595341086388e-03" rms="3.3196434378623962e-01" purity="5.8051192760467529e-01" nType="-99"/>
              </Node>
              <Node pos="r" depth="4" NCoef="0" IVar="9" Cut="1.5434129536151886e-01" cType="1" res="-2.7668573893606663e-03" rms="2.9209733009338379e-01" purity="6.3803964853286743e-01" nType="0">
                <Node pos="l" depth="5" NCoef="0" IVar="-1" Cut="0.0000000000000000e+00" cType="1" res="5.1189418882131577e-03" rms="3.0490505695343018e-01" purity="1.9489419460296631e-01" nType="-99"/>
                <Node pos="r" depth="5" NCoef="0" IVar="-1" Cut="0.0000000000000000e+00" cType="1" res="-2.1887307520955801e-03" rms="2.9090788960456848e-01" purity="6.7746913433074951e-01" nType="-99"/>
              </Node>
            </Node>
          </Node>
          <Node pos="r" depth="2" NCoef="0" IVar="6" Cut="1.7623569965362549e+00" cType="1" res="-3.3202019985765219e-03" rms="2.6202422380447388e-01" purity="4.2061042785644531e-01" nType="0">
            <Node pos="l" depth="3" NCoef="0" IVar="3" Cut="2.0731706619262695e+00" cType="1" res="-1.0419680736958981e-02" rms="2.5953441858291626e-01" purity="1.9091044366359711e-01" nType="0">
              <Node pos="l" depth="4" NCoef="0" IVar="7" Cut="2.6262726783752441e+00" cType="1" res="-1.4283210970461369e-02" rms="2.7038124203681946e-01" purity="2.2543336451053619e-01" nType="0">
                <Node pos="l" depth="5" NCoef="0" IVar="-1" Cut="0.0000000000000000e+00" cType="1" res="-1.2074976228177547e-02" rms="2.7817097306251526e-01" purity="2.5249591469764709e-01" nType="-99"/>
                <Node pos="r" depth="5" NCoef="0" IVar="-1" Cut="0.0000000000000000e+00" cType="1" res="-4.8214131966233253e-03" rms="2.6123347878456116e-01" purity="1.9526121020317078e-01" nType="-99"/>
              </Node>
              <Node pos="r" depth="4" NCoef="0" IVar="-1" Cut="0.0000000000000000e+00" cType="1" res="9.4657990848645568e-04" rms="2.2425670921802521e-01" purity="8.9440874755382538e-02" nType="-99"/>
            </Node>
            <Node pos="r" depth="3" NCoef="0" IVar="9" Cut="2.0243673026561737e-01" cType="1" res="4.6545019722543657e-04" rms="2.6326397061347961e-01" purity="5.4309320449829102e-01" nType="0">
              <Node pos="l" depth="4" NCoef="0" IVar="7" Cut="3.2003073692321777e+00" cType="1" res="-1.1021164245903492e-02" rms="2.6888814568519592e-01" purity="3.7118405103683472e-01" nType="0">
                <Node pos="l" depth="5" NCoef="0" IVar="-1" Cut="0.0000000000000000e+00" cType="1" res="-1.0606882162392139e-02" rms="2.7636525034904480e-01" purity="3.3389720320701599e-01" nType="-99"/>
                <Node pos="r" depth="5" NCoef="0" IVar="-1" Cut="0.0000000000000000e+00" cType="1" res="6.9130060728639364e-04" rms="2.5603145360946655e-01" purity="4.3069773912429810e-01" nType="-99"/>
              </Node>
              <Node pos="r" depth="4" NCoef="0" IVar="8" Cut="1.7473340034484863e-01" cType="1" res="7.9082688316702843e-03" rms="2.5928318500518799e-01" purity="6.5448278188705444e-01" nType="0">
                <Node pos="l" depth="5" NCoef="0" IVar="-1" Cut="0.0000000000000000e+00" cType="1" res="-6.1732013709843159e-03" rms="2.9291614890098572e-01" purity="3.6686387658119202e-01" nType="-99"/>
                <Node pos="r" depth="5" NCoef="0" IVar="-1" Cut="0.0000000000000000e+00" cType="1" res="1.1616016738116741e-02" rms="2.4171474575996399e-01" purity="7.8687673807144165e-01" nType="-99"/>
              </Node>
            </Node>
          </Node>
        </Node>
      </Node>
    </BinaryTree>
    <BinaryTree type="DecisionTree" boostWeight="1.0000000000000000e+00" itree="268">
      <Node pos="s" depth="0" NCoef="0" IVar="7" Cut="3.8693761825561523e+00" cType="1" res="2.8641519020311534e-04" rms="2.9583746194839478e-01" purity="5.0098443031311035e-01" nType="0">
        <Node pos="l" depth="1" NCoef="0" IVar="8" Cut="8.3610916137695312e-01" cType="1" res="-9.2488826339831576e-06" rms="2.9675441980361938e-01" purity="5.0765180587768555e-01" nType="0">
          <Node pos="l" depth="2" NCoef="0" IVar="8" Cut="6.7312884330749512e-01" cType="1" res="-3.7445535417646170e-04" rms="2.9431036114692688e-01" purity="5.1324617862701416e-01" nType="0">
            <Node pos="l" depth="3" NCoef="0" IVar="8" Cut="1.9760838150978088e-01" cType="1" res="1.0955852485494688e-04" rms="2.9255187511444092e-01" purity="5.1188880205154419e-01" nType="0">
              <Node pos="l" depth="4" NCoef="0" IVar="7" Cut="2.0762541294097900e+00" cType="1" res="-4.0990766137838364e-03" rms="2.7688831090927124e-01" purity="2.8853270411491394e-01" nType="0">
                <Node pos="l" depth="5" NCoef="0" IVar="-1" Cut="0.0000000000000000e+00" cType="1" res="8.3139369962736964e-04" rms="2.8878995776176453e-01" purity="2.5758582353591919e-01" nType="-99"/>
                <Node pos="r" depth="5" NCoef="0" IVar="-1" Cut="0.0000000000000000e+00" cType="1" res="-6.8711973726749420e-03" rms="2.6143559813499451e-01" purity="3.2640516757965088e-01" nType="-99"/>
              </Node>
              <Node pos="r" depth="4" NCoef="0" IVar="7" Cut="3.0199904441833496e+00" cType="1" res="1.1664935154840350e-03" rms="2.9634612798690796e-01" purity="5.6798130273818970e-01" nType="0">
                <Node pos="l" depth="5" NCoef="0" IVar="-1" Cut="0.0000000000000000e+00" cType="1" res="3.0140939634293318e-04" rms="2.9714745283126831e-01" purity="5.7190531492233276e-01" nType="-99"/>
                <Node pos="r" depth="5" NCoef="0" IVar="-1" Cut="0.0000000000000000e+00" cType="1" res="1.3405383564531803e-02" rms="2.6710346341133118e-01" purity="4.3575173616409302e-01" nType="-99"/>
              </Node>
            </Node>
            <Node pos="r" depth="3" NCoef="0" IVar="8" Cut="7.4070656299591064e-01" cType="1" res="-1.0153022594749928e-02" rms="3.2766970992088318e-01" purity="5.4066866636276245e-01" nType="0">
              <Node pos="l" depth="4" NCoef="0" IVar="-1" Cut="0.0000000000000000e+00" cType="1" res="-3.5413610748946667e-03" rms="3.2040327787399292e-01" purity="5.6452822685241699e-01" nType="-99"/>
              <Node pos="r" depth="4" NCoef="0" IVar="-1" Cut="0.0000000000000000e+00" cType="1" res="-5.6475582532584667e-03" rms="3.3576208353042603e-01" purity="5.1340383291244507e-01" nType="-99"/>
            </Node>
          </Node>
          <Node pos="r" depth="2" NCoef="0" IVar="6" Cut="1.0727363824844360e+00" cType="1" res="7.6531153172254562e-03" rms="3.4396350383758545e-01" purity="3.9027625322341919e-01" nType="0">
            <Node pos="l" depth="3" NCoef="0" IVar="-1" Cut="0.0000000000000000e+00" cType="1" res="1.0005013085901737e-02" rms="3.5522857308387756e-01" purity="4.4779422879219055e-01" nType="-99"/>
            <Node pos="r" depth="3" NCoef="0" IVar="-1" Cut="0.0000000000000000e+00" cType="1" res="-5.6991577148437500e-03" rms="3.2889592647552490e-01" purity="3.2145869731903076e-01" nType="-99"/>
          </Node>
        </Node>
        <Node pos="r" depth="1" NCoef="0" IVar="-1" Cut="0.0000000000000000e+00" cType="1" res="9.2375744134187698e-03" rms="2.5332447886466980e-01" purity="2.1652467548847198e-01" nType="-99"/>
      </Node>
    </BinaryTree>
    <BinaryTree type="DecisionTree" boostWeight="1.0000000000000000e+00" itree="269">
      <Node pos="s" depth="0" NCoef="0" IVar="4" Cut="1.3983822631835938e+02" cType="1" res="6.0180227592354640e-05" rms="2.9597157239913940e-01" purity="5.0021159648895264e-01" nType="0">
        <Node pos="l" depth="1" NCoef="0" IVar="7" Cut="1.5273354053497314e+00" cType="1" res="-1.7895445926114917e-03" rms="2.9584166407585144e-01" purity="5.7621967792510986e-01" nType="0">
          <Node pos="l" depth="2" NCoef="0" IVar="9" Cut="4.6676212549209595e-01" cType="1" res="-3.7457351572811604e-03" rms="3.0452054738998413e-01" purity="6.0787576436996460e-01" nType="0">
            <Node pos="l" depth="3" NCoef="0" IVar="8" Cut="5.9742450714111328e-01" cType="1" res="-6.5271798521280289e-03" rms="3.0925139784812927e-01" purity="5.6034713983535767e-01" nType="0">
              <Node pos="l" depth="4" NCoef="0" IVar="6" Cut="1.3792355060577393e+00" cType="1" res="-8.6876181885600090e-03" rms="2.9892882704734802e-01" purity="5.5096745491027832e-01" nType="0">
                <Node pos="l" depth="5" NCoef="0" IVar="-1" Cut="0.0000000000000000e+00" cType="1" res="-1.2427152134478092e-02" rms="2.9164856672286987e-01" purity="2.5597426295280457e-01" nType="-99"/>
                <Node pos="r" depth="5" NCoef="0" IVar="-1" Cut="0.0000000000000000e+00" cType="1" res="-3.2866518013179302e-03" rms="3.0030682682991028e-01" purity="6.1081522703170776e-01" nType="-99"/>
              </Node>
              <Node pos="r" depth="4" NCoef="0" IVar="1" Cut="1.0975610017776489e+00" cType="1" res="2.0555779337882996e-03" rms="3.4710913896560669e-01" purity="5.9760969877243042e-01" nType="0">
                <Node pos="l" depth="5" NCoef="0" IVar="-1" Cut="0.0000000000000000e+00" cType="1" res="7.3615079745650291e-03" rms="3.7064400315284729e-01" purity="3.4965997934341431e-01" nType="-99"/>
                <Node pos="r" depth="5" NCoef="0" IVar="-1" Cut="0.0000000000000000e+00" cType="1" res="-3.7831391673535109e-03" rms="3.3192518353462219e-01" purity="7.4472886323928833e-01" nType="-99"/>
              </Node>
            </Node>
            <Node pos="r" depth="3" NCoef="0" IVar="6" Cut="6.1299270391464233e-01" cType="1" res="6.7725032567977905e-04" rms="2.9678875207901001e-01" purity="6.8345451354980469e-01" nType="0">
              <Node pos="l" depth="4" NCoef="0" IVar="-1" Cut="0.0000000000000000e+00" cType="1" res="-4.4159661047160625e-03" rms="3.3351576328277588e-01" purity="5.2182006835937500e-01" nType="-99"/>
              <Node pos="r" depth="4" NCoef="0" IVar="6" Cut="1.1680512428283691e+00" cType="1" res="2.5210345629602671e-03" rms="2.9018273949623108e-01" purity="7.1036243438720703e-01" nType="0">
                <Node pos="l" depth="5" NCoef="0" IVar="-1" Cut="0.0000000000000000e+00" cType="1" res="5.8460859581828117e-03" rms="3.3006989955902100e-01" purity="6.3495999574661255e-01" nType="-99"/>
                <Node pos="r" depth="5" NCoef="0" IVar="-1" Cut="0.0000000000000000e+00" cType="1" res="1.0535707406233996e-04" rms="2.7965715527534485e-01" purity="7.2855633497238159e-01" nType="-99"/>
              </Node>
            </Node>
          </Node>
          <Node pos="r" depth="2" NCoef="0" IVar="9" Cut="2.1357253193855286e-01" cType="1" res="2.0905476994812489e-03" rms="2.7778536081314087e-01" purity="5.1342999935150146e-01" nType="0">
            <Node pos="l" depth="3" NCoef="0" IVar="6" Cut="1.8389749526977539e+00" cType="1" res="-6.6140987910330296e-03" rms="2.8652012348175049e-01" purity="3.7819272279739380e-01" nType="0">
              <Node pos="l" depth="4" NCoef="0" IVar="-1" Cut="0.0000000000000000e+00" cType="1" res="8.4342306945472956e-04" rms="2.8756487369537354e-01" purity="2.2390536963939667e-01" nType="-99"/>
              <Node pos="r" depth="4" NCoef="0" IVar="7" Cut="2.7776436805725098e+00" cType="1" res="-1.2179004028439522e-02" rms="2.8566005825996399e-01" purity="4.8534902930259705e-01" nType="0">
                <Node pos="l" depth="5" NCoef="0" IVar="-1" Cut="0.0000000000000000e+00" cType="1" res="-1.1207061819732189e-02" rms="3.0957835912704468e-01" purity="3.8675785064697266e-01" nType="-99"/>
                <Node pos="r" depth="5" NCoef="0" IVar="-1" Cut="0.0000000000000000e+00" cType="1" res="-2.4548710789531469e-03" rms="2.6396819949150085e-01" purity="5.6691765785217285e-01" nType="-99"/>
              </Node>
            </Node>
            <Node pos="r" depth="3" NCoef="0" IVar="8" Cut="3.1518262624740601e-01" cType="1" res="7.3238397017121315e-03" rms="2.7226525545120239e-01" purity="5.9473568201065063e-01" nType="0">
              <Node pos="l" depth="4" NCoef="0" IVar="8" Cut="1.0781682282686234e-01" cType="1" res="3.3600225578993559e-03" rms="2.7876096963882446e-01" purity="5.3437352180480957e-01" nType="0">
                <Node pos="l" depth="5" NCoef="0" IVar="-1" Cut="0.0000000000000000e+00" cType="1" res="-9.8099438473582268e-03" rms="2.7114591002464294e-01" purity="1.9295372068881989e-01" nType="-99"/>
                <Node pos="r" depth="5" NCoef="0" IVar="-1" Cut="0.0000000000000000e+00" cType="1" res="4.4286535121500492e-03" rms="2.8019839525222778e-01" purity="6.0752725601196289e-01" nType="-99"/>
              </Node>
              <Node pos="r" depth="4" NCoef="0" IVar="-1" Cut="0.0000000000000000e+00" cType="1" res="1.2729881331324577e-02" rms="2.5346618890762329e-01" purity="7.5873208045959473e-01" nType="-99"/>
            </Node>
          </Node>
        </Node>
        <Node pos="r" depth="1" NCoef="0" IVar="7" Cut="2.6596340537071228e-01" cType="1" res="5.7890489697456360e-03" rms="2.9630029201507568e-01" purity="2.6480367779731750e-01" nType="0">
          <Node pos="l" depth="2" NCoef="0" IVar="-1" Cut="0.0000000000000000e+00" cType="1" res="9.9434368312358856e-03" rms="3.3979329466819763e-01" purity="3.4306839108467102e-01" nType="-99"/>
          <Node pos="r" depth="2" NCoef="0" IVar="9" Cut="1.8149909377098083e-01" cType="1" res="3.5817709285765886e-03" rms="2.8908678889274597e-01" purity="2.5296276807785034e-01" nType="0">
            <Node pos="l" depth="3" NCoef="0" IVar="1" Cut="1.0975610017776489e+00" cType="1" res="-3.3852008637040854e-03" rms="2.1754285693168640e-01" purity="8.3706721663475037e-02" nType="0">
              <Node pos="l" depth="4" NCoef="0" IVar="4" Cut="1.8820152282714844e+02" cType="1" res="8.0575689207762480e-04" rms="1.9974054396152496e-01" purity="5.9523988515138626e-02" nType="0">
                <Node pos="l" depth="5" NCoef="0" IVar="-1" Cut="0.0000000000000000e+00" cType="1" res="1.0150938760489225e-03" rms="2.1104693412780762e-01" purity="6.8717800080776215e-02" nType="-99"/>
                <Node pos="r" depth="5" NCoef="0" IVar="-1" Cut="0.0000000000000000e+00" cType="1" res="9.0127775911241770e-04" rms="1.8796414136886597e-01" purity="5.0486158579587936e-02" nType="-99"/>
              </Node>
              <Node pos="r" depth="4" NCoef="0" IVar="-1" Cut="0.0000000000000000e+00" cType="1" res="-7.3610455729067326e-03" rms="2.4357645213603973e-01" purity="1.2303005903959274e-01" nType="-99"/>
            </Node>
            <Node pos="r" depth="3" NCoef="0" IVar="3" Cut="3.0487804412841797e+00" cType="1" res="6.6766585223376751e-03" rms="3.1566032767295837e-01" purity="3.2815018296241760e-01" nType="0">
              <Node pos="l" depth="4" NCoef="0" IVar="6" Cut="2.0688540935516357e+00" cType="1" res="9.4185033813118935e-03" rms="3.2598474621772766e-01" purity="3.7361004948616028e-01" nType="0">
                <Node pos="l" depth="5" NCoef="0" IVar="-1" Cut="0.0000000000000000e+00" cType="1" res="3.1114972080104053e-04" rms="3.1745335459709167e-01" purity="2.3640663921833038e-01" nType="-99"/>
                <Node pos="r" depth="5" NCoef="0" IVar="-1" Cut="0.0000000000000000e+00" cType="1" res="7.6332688331604004e-03" rms="3.3346837759017944e-01" purity="5.0040817260742188e-01" nType="-99"/>
              </Node>
              <Node pos="r" depth="4" NCoef="0" IVar="-1" Cut="0.0000000000000000e+00" cType="1" res="-2.3811117280274630e-03" rms="2.7320930361747742e-01" purity="1.5752628445625305e-01" nType="-99"/>
            </Node>
          </Node>
        </Node>
      </Node>
    </BinaryTree>
    <BinaryTree type="DecisionTree" boostWeight="1.0000000000000000e+00" itree="270">
      <Node pos="s" depth="0" NCoef="0" IVar="6" Cut="2.2221012115478516e+00" cType="1" res="-8.0630974844098091e-04" rms="2.9476809501647949e-01" purity="5.0040012598037720e-01" nType="0">
        <Node pos="l" depth="1" NCoef="0" IVar="8" Cut="1.2458178400993347e-01" cType="1" res="-2.7562675531953573e-03" rms="3.0247750878334045e-01" purity="3.8913345336914062e-01" nType="0">
          <Node pos="l" depth="2" NCoef="0" IVar="0" Cut="1.0975610017776489e+00" cType="1" res="7.8660184517502785e-03" rms="2.4883572757244110e-01" purity="1.5494066476821899e-01" nType="0">
            <Node pos="l" depth="3" NCoef="0" IVar="-1" Cut="0.0000000000000000e+00" cType="1" res="-1.5551124233752489e-03" rms="1.7702607810497284e-01" purity="3.6883443593978882e-02" nType="-99"/>
            <Node pos="r" depth="3" NCoef="0" IVar="-1" Cut="0.0000000000000000e+00" cType="1" res="9.2704826965928078e-03" rms="3.0911818146705627e-01" purity="2.8547850251197815e-01" nType="-99"/>
          </Node>
          <Node pos="r" depth="2" NCoef="0" IVar="4" Cut="2.0357504272460938e+02" cType="1" res="-3.9255088195204735e-03" rms="3.0778908729553223e-01" purity="4.1491210460662842e-01" nType="0">
            <Node pos="l" depth="3" NCoef="0" IVar="1" Cut="4.0243902206420898e+00" cType="1" res="-2.9020525980740786e-03" rms="3.1235834956169128e-01" purity="4.4037920236587524e-01" nType="0">
              <Node pos="l" depth="4" NCoef="0" IVar="9" Cut="3.4796789288520813e-01" cType="1" res="-5.1459926180541515e-03" rms="3.1316992640495300e-01" purity="3.0758368968963623e-01" nType="0">
                <Node pos="l" depth="5" NCoef="0" IVar="-1" Cut="0.0000000000000000e+00" cType="1" res="-5.9492135187610984e-04" rms="2.8962206840515137e-01" purity="1.9573695957660675e-01" nType="-99"/>
                <Node pos="r" depth="5" NCoef="0" IVar="-1" Cut="0.0000000000000000e+00" cType="1" res="-4.1208257898688316e-03" rms="3.3637186884880066e-01" purity="4.2663398385047913e-01" nType="-99"/>
              </Node>
              <Node pos="r" depth="4" NCoef="0" IVar="2" Cut="1.0975610017776489e+00" cType="1" res="1.0089770657941699e-03" rms="3.1090009212493896e-01" purity="6.7183238267898560e-01" nType="0">
                <Node pos="l" depth="5" NCoef="0" IVar="-1" Cut="0.0000000000000000e+00" cType="1" res="1.7247091745957732e-03" rms="3.1079092621803284e-01" purity="7.4102443456649780e-01" nType="-99"/>
                <Node pos="r" depth="5" NCoef="0" IVar="-1" Cut="0.0000000000000000e+00" cType="1" res="-4.1219890117645264e-03" rms="3.1113946437835693e-01" purity="4.1254529356956482e-01" nType="-99"/>
              </Node>
            </Node>
            <Node pos="r" depth="3" NCoef="0" IVar="-1" Cut="0.0000000000000000e+00" cType="1" res="-1.3001210056245327e-02" rms="2.4039943516254425e-01" purity="8.4599897265434265e-02" nType="-99"/>
          </Node>
        </Node>
        <Node pos="r" depth="1" NCoef="0" IVar="9" Cut="4.2516478896141052e-01" cType="1" res="1.3060588389635086e-03" rms="2.8616735339164734e-01" purity="6.2093412876129150e-01" nType="0">
          <Node pos="l" depth="2" NCoef="0" IVar="7" Cut="2.5661368370056152e+00" cType="1" res="-1.3725549215450883e-03" rms="2.8945451974868774e-01" purity="5.7607877254486084e-01" nType="0">
            <Node pos="l" depth="3" NCoef="0" IVar="8" Cut="4.3682613968849182e-01" cType="1" res="-3.3052158541977406e-03" rms="2.9394474625587463e-01" purity="5.7875984907150269e-01" nType="0">
              <Node pos="l" depth="4" NCoef="0" IVar="4" Cut="8.2524246215820312e+01" cType="1" res="-6.6357338801026344e-03" rms="2.8703081607818604e-01" purity="5.3480541706085205e-01" nType="0">
                <Node pos="l" depth="5" NCoef="0" IVar="-1" Cut="0.0000000000000000e+00" cType="1" res="-9.9181393161416054e-03" rms="3.0797135829925537e-01" purity="2.3911838233470917e-01" nType="-99"/>
                <Node pos="r" depth="5" NCoef="0" IVar="-1" Cut="0.0000000000000000e+00" cType="1" res="-2.8824503533542156e-03" rms="2.8351905941963196e-01" purity="5.8169424533843994e-01" nType="-99"/>
              </Node>
              <Node pos="r" depth="4" NCoef="0" IVar="5" Cut="9.8663764953613281e+01" cType="1" res="2.5370367802679539e-03" rms="3.0560767650604248e-01" purity="6.5586274862289429e-01" nType="0">
                <Node pos="l" depth="5" NCoef="0" IVar="-1" Cut="0.0000000000000000e+00" cType="1" res="3.7330887280404568e-03" rms="2.9749488830566406e-01" purity="7.1551674604415894e-01" nType="-99"/>
                <Node pos="r" depth="5" NCoef="0" IVar="-1" Cut="0.0000000000000000e+00" cType="1" res="-5.1891691982746124e-03" rms="3.2862919569015503e-01" purity="4.7495281696319580e-01" nType="-99"/>
              </Node>
            </Node>
            <Node pos="r" depth="3" NCoef="0" IVar="9" Cut="1.4536513388156891e-01" cType="1" res="7.3809963651001453e-03" rms="2.6800283789634705e-01" purity="5.6393527984619141e-01" nType="0">
              <Node pos="l" depth="4" NCoef="0" IVar="-1" Cut="0.0000000000000000e+00" cType="1" res="-4.1662584990262985e-03" rms="2.8034213185310364e-01" purity="3.2473692297935486e-01" nType="-99"/>
              <Node pos="r" depth="4" NCoef="0" IVar="-1" Cut="0.0000000000000000e+00" cType="1" res="8.6771249771118164e-03" rms="2.6168680191040039e-01" purity="6.7684465646743774e-01" nType="-99"/>
            </Node>
          </Node>
          <Node pos="r" depth="2" NCoef="0" IVar="2" Cut="2.0731706619262695e+00" cType="1" res="8.2090590149164200e-03" rms="2.7739745378494263e-01" purity="7.3653006553649902e-01" nType="0">
            <Node pos="l" depth="3" NCoef="0" IVar="-1" Cut="0.0000000000000000e+00" cType="1" res="3.4221666865050793e-03" rms="2.7725535631179810e-01" purity="8.2390117645263672e-01" nType="-99"/>
            <Node pos="r" depth="3" NCoef="0" IVar="-1" Cut="0.0000000000000000e+00" cType="1" res="1.1795758269727230e-02" rms="2.7768450975418091e-01" purity="3.5456731915473938e-01" nType="-99"/>
          </Node>
        </Node>
      </Node>
    </BinaryTree>
    <BinaryTree type="DecisionTree" boostWeight="1.0000000000000000e+00" itree="271">
      <Node pos="s" depth="0" NCoef="0" IVar="5" Cut="6.2584243774414062e+01" cType="1" res="1.2354255886748433e-03" rms="2.9679059982299805e-01" purity="5.0132662057876587e-01" nType="0">
        <Node pos="l" depth="1" NCoef="0" IVar="1" Cut="1.0975610017776489e+00" cType="1" res="7.0038996636867523e-03" rms="3.4444719552993774e-01" purity="4.0810331702232361e-01" nType="0">
          <Node pos="l" depth="2" NCoef="0" IVar="0" Cut="2.0731706619262695e+00" cType="1" res="1.4158528298139572e-02" rms="3.3989068865776062e-01" purity="2.2276625037193298e-01" nType="0">
            <Node pos="l" depth="3" NCoef="0" IVar="-1" Cut="0.0000000000000000e+00" cType="1" res="-3.2172941137105227e-03" rms="2.2039361298084259e-01" purity="5.9867914766073227e-02" nType="-99"/>
            <Node pos="r" depth="3" NCoef="0" IVar="8" Cut="3.7416729331016541e-01" cType="1" res="2.9304338619112968e-02" rms="4.1591173410415649e-01" purity="3.6376467347145081e-01" nType="0">
              <Node pos="l" depth="4" NCoef="0" IVar="-1" Cut="0.0000000000000000e+00" cType="1" res="1.6917170956730843e-02" rms="3.9696389436721802e-01" purity="2.8934937715530396e-01" nType="-99"/>
              <Node pos="r" depth="4" NCoef="0" IVar="-1" Cut="0.0000000000000000e+00" cType="1" res="3.9039896801114082e-03" rms="4.3213015794754028e-01" purity="4.3254885077476501e-01" nType="-99"/>
            </Node>
          </Node>
          <Node pos="r" depth="2" NCoef="0" IVar="4" Cut="9.9118995666503906e+01" cType="1" res="2.3650318325962871e-04" rms="3.4856718778610229e-01" purity="5.8340936899185181e-01" nType="0">
            <Node pos="l" depth="3" NCoef="0" IVar="-1" Cut="0.0000000000000000e+00" cType="1" res="-4.6782279387116432e-03" rms="3.7907928228378296e-01" purity="4.8800465464591980e-01" nType="-99"/>
            <Node pos="r" depth="3" NCoef="0" IVar="5" Cut="4.7800178527832031e+01" cType="1" res="5.5548446252942085e-03" rms="3.3596763014793396e-01" purity="6.2003308534622192e-01" nType="0">
              <Node pos="l" depth="4" NCoef="0" IVar="-1" Cut="0.0000000000000000e+00" cType="1" res="5.3802644833922386e-03" rms="3.5857826471328735e-01" purity="5.7062232494354248e-01" nType="-99"/>
              <Node pos="r" depth="4" NCoef="0" IVar="-1" Cut="0.0000000000000000e+00" cType="1" res="-4.5923184370622039e-04" rms="3.1592535972595215e-01" purity="6.6084706783294678e-01" nType="-99"/>
            </Node>
          </Node>
        </Node>
        <Node pos="r" depth="1" NCoef="0" IVar="6" Cut="3.0649673938751221e+00" cType="1" res="1.2352317571640015e-04" rms="2.8668197989463806e-01" purity="5.1929593086242676e-01" nType="0">
          <Node pos="l" depth="2" NCoef="0" IVar="8" Cut="5.1348847150802612e-01" cType="1" res="-3.4853236866183579e-04" rms="2.8779458999633789e-01" purity="5.0716996192932129e-01" nType="0">
            <Node pos="l" depth="3" NCoef="0" IVar="7" Cut="2.5222477316856384e-01" cType="1" res="-1.2758432421833277e-03" rms="2.8183358907699585e-01" purity="4.9329501390457153e-01" nType="0">
              <Node pos="l" depth="4" NCoef="0" IVar="8" Cut="3.6430296301841736e-01" cType="1" res="5.6203445419669151e-03" rms="3.0642524361610413e-01" purity="5.3798037767410278e-01" nType="0">
                <Node pos="l" depth="5" NCoef="0" IVar="-1" Cut="0.0000000000000000e+00" cType="1" res="9.1148577630519867e-03" rms="3.1685063242912292e-01" purity="4.4616144895553589e-01" nType="-99"/>
                <Node pos="r" depth="5" NCoef="0" IVar="-1" Cut="0.0000000000000000e+00" cType="1" res="-5.0796349532902241e-03" rms="2.9155641794204712e-01" purity="6.5857046842575073e-01" nType="-99"/>
              </Node>
              <Node pos="r" depth="4" NCoef="0" IVar="3" Cut="4.0243902206420898e+00" cType="1" res="-2.1455839741975069e-03" rms="2.7856588363647461e-01" purity="4.8765936493873596e-01" nType="0">
                <Node pos="l" depth="5" NCoef="0" IVar="-1" Cut="0.0000000000000000e+00" cType="1" res="-6.6366366809234023e-04" rms="2.8105562925338745e-01" purity="5.3972393274307251e-01" nType="-99"/>
                <Node pos="r" depth="5" NCoef="0" IVar="-1" Cut="0.0000000000000000e+00" cType="1" res="-5.6293858215212822e-03" rms="2.6353734731674194e-01" purity="1.8487124145030975e-01" nType="-99"/>
              </Node>
            </Node>
            <Node pos="r" depth="3" NCoef="0" IVar="1" Cut="1.0975610017776489e+00" cType="1" res="3.6445390433073044e-03" rms="3.1213396787643433e-01" purity="5.6691646575927734e-01" nType="0">
              <Node pos="l" depth="4" NCoef="0" IVar="2" Cut="1.0975610017776489e+00" cType="1" res="1.0595647618174553e-02" rms="3.3875110745429993e-01" purity="3.2967051863670349e-01" nType="0">
                <Node pos="l" depth="5" NCoef="0" IVar="-1" Cut="0.0000000000000000e+00" cType="1" res="9.6136581851169467e-04" rms="3.5146152973175049e-01" purity="4.0903982520103455e-01" nType="-99"/>
                <Node pos="r" depth="5" NCoef="0" IVar="-1" Cut="0.0000000000000000e+00" cType="1" res="1.4638734050095081e-02" rms="3.1537461280822754e-01" purity="1.9410532712936401e-01" nType="-99"/>
              </Node>
              <Node pos="r" depth="4" NCoef="0" IVar="5" Cut="9.3472145080566406e+01" cType="1" res="-1.2980528408661485e-03" rms="2.9163351655006409e-01" purity="7.3561042547225952e-01" nType="0">
                <Node pos="l" depth="5" NCoef="0" IVar="-1" Cut="0.0000000000000000e+00" cType="1" res="4.8464848659932613e-03" rms="2.6770171523094177e-01" purity="8.3049839735031128e-01" nType="-99"/>
                <Node pos="r" depth="5" NCoef="0" IVar="-1" Cut="0.0000000000000000e+00" cType="1" res="-8.9553389698266983e-03" rms="3.3708092570304871e-01" purity="5.2902889251708984e-01" nType="-99"/>
              </Node>
            </Node>
          </Node>
          <Node pos="r" depth="2" NCoef="0" IVar="-1" Cut="0.0000000000000000e+00" cType="1" res="5.2513196133077145e-03" rms="2.6763680577278137e-01" purity="7.1836847066879272e-01" nType="-99"/>
        </Node>
      </Node>
    </BinaryTree>
    <BinaryTree type="DecisionTree" boostWeight="1.0000000000000000e+00" itree="272">
      <Node pos="s" depth="0" NCoef="0" IVar="4" Cut="1.2830844116210938e+02" cType="1" res="2.2749260824639350e-04" rms="2.9557019472122192e-01" purity="5.0054794549942017e-01" nType="0">
        <Node pos="l" depth="1" NCoef="0" IVar="5" Cut="1.3848004150390625e+02" cType="1" res="1.8046991899609566e-03" rms="2.9984137415885925e-01" purity="5.6664508581161499e-01" nType="0">
          <Node pos="l" depth="2" NCoef="0" IVar="2" Cut="1.0975610017776489e+00" cType="1" res="2.9297098517417908e-03" rms="3.0158507823944092e-01" purity="5.8993023633956909e-01" nType="0">
            <Node pos="l" depth="3" NCoef="0" IVar="5" Cut="4.3566020965576172e+01" cType="1" res="1.3889258261770010e-03" rms="3.0685898661613464e-01" purity="6.9067686796188354e-01" nType="0">
              <Node pos="l" depth="4" NCoef="0" IVar="-1" Cut="0.0000000000000000e+00" cType="1" res="-5.2736485376954079e-03" rms="3.6817568540573120e-01" purity="4.6223416924476624e-01" nType="-99"/>
              <Node pos="r" depth="4" NCoef="0" IVar="1" Cut="2.0731706619262695e+00" cType="1" res="2.4052385706454515e-03" rms="3.0267745256423950e-01" purity="7.0464515686035156e-01" nType="0">
                <Node pos="l" depth="5" NCoef="0" IVar="-1" Cut="0.0000000000000000e+00" cType="1" res="2.9235607944428921e-03" rms="3.5035508871078491e-01" purity="4.8091432452201843e-01" nType="-99"/>
                <Node pos="r" depth="5" NCoef="0" IVar="-1" Cut="0.0000000000000000e+00" cType="1" res="-4.5289544505067170e-04" rms="2.6835379004478455e-01" purity="8.4530967473983765e-01" nType="-99"/>
              </Node>
            </Node>
            <Node pos="r" depth="3" NCoef="0" IVar="7" Cut="1.2727813720703125e+00" cType="1" res="7.0277918130159378e-03" rms="2.8704646229743958e-01" purity="3.2197073101997375e-01" nType="0">
              <Node pos="l" depth="4" NCoef="0" IVar="4" Cut="9.4584571838378906e+01" cType="1" res="1.1755676940083504e-02" rms="3.1087580323219299e-01" purity="3.6079260706901550e-01" nType="0">
                <Node pos="l" depth="5" NCoef="0" IVar="-1" Cut="0.0000000000000000e+00" cType="1" res="1.2203227728605270e-02" rms="3.1297600269317627e-01" purity="2.2996325790882111e-01" nType="-99"/>
                <Node pos="r" depth="5" NCoef="0" IVar="-1" Cut="0.0000000000000000e+00" cType="1" res="5.4335320601239800e-04" rms="3.0812039971351624e-01" purity="5.0967776775360107e-01" nType="-99"/>
              </Node>
              <Node pos="r" depth="4" NCoef="0" IVar="6" Cut="2.4519734382629395e+00" cType="1" res="3.9761103107593954e-04" rms="2.4967873096466064e-01" purity="2.6752862334251404e-01" nType="0">
                <Node pos="l" depth="5" NCoef="0" IVar="-1" Cut="0.0000000000000000e+00" cType="1" res="-5.4442542605102062e-03" rms="2.4104091525077820e-01" purity="1.6442187130451202e-01" nType="-99"/>
                <Node pos="r" depth="5" NCoef="0" IVar="-1" Cut="0.0000000000000000e+00" cType="1" res="7.9111596569418907e-03" rms="2.6302471756935120e-01" purity="4.3945905566215515e-01" nType="-99"/>
              </Node>
            </Node>
          </Node>
          <Node pos="r" depth="2" NCoef="0" IVar="6" Cut="1.6857297420501709e+00" cType="1" res="-1.0148190893232822e-02" rms="2.8036814928054810e-01" purity="3.1924757361412048e-01" nType="0">
            <Node pos="l" depth="3" NCoef="0" IVar="-1" Cut="0.0000000000000000e+00" cType="1" res="-2.9756121803075075e-03" rms="2.8052550554275513e-01" purity="1.4469645917415619e-01" nType="-99"/>
            <Node pos="r" depth="3" NCoef="0" IVar="-1" Cut="0.0000000000000000e+00" cType="1" res="-7.7521018683910370e-03" rms="2.8022947907447815e-01" purity="4.2050886154174805e-01" nType="-99"/>
          </Node>
        </Node>
        <Node pos="r" depth="1" NCoef="0" IVar="8" Cut="6.2942975759506226e-01" cType="1" res="-2.9071499593555927e-03" rms="2.8686696290969849e-01" purity="3.6918213963508606e-01" nType="0">
          <Node pos="l" depth="2" NCoef="0" IVar="8" Cut="2.7660414576530457e-01" cType="1" res="-1.7684057820588350e-03" rms="2.8420612215995789e-01" purity="3.7449088692665100e-01" nType="0">
            <Node pos="l" depth="3" NCoef="0" IVar="6" Cut="2.8350956439971924e+00" cType="1" res="-5.2608489058911800e-03" rms="2.6351243257522583e-01" purity="2.1792535483837128e-01" nType="0">
              <Node pos="l" depth="4" NCoef="0" IVar="7" Cut="1.7014855146408081e+00" cType="1" res="-2.2021404001861811e-03" rms="2.5783824920654297e-01" purity="1.9316704571247101e-01" nType="0">
                <Node pos="l" depth="5" NCoef="0" IVar="-1" Cut="0.0000000000000000e+00" cType="1" res="4.3464270420372486e-03" rms="2.8181931376457214e-01" purity="1.9796246290206909e-01" nType="-99"/>
                <Node pos="r" depth="5" NCoef="0" IVar="-1" Cut="0.0000000000000000e+00" cType="1" res="-8.0856662243604660e-03" rms="2.3169550299644470e-01" purity="1.8847486376762390e-01" nType="-99"/>
              </Node>
              <Node pos="r" depth="4" NCoef="0" IVar="-1" Cut="0.0000000000000000e+00" cType="1" res="-1.1236921884119511e-02" rms="2.9037207365036011e-01" purity="3.4489694237709045e-01" nType="-99"/>
            </Node>
            <Node pos="r" depth="3" NCoef="0" IVar="7" Cut="1.1945263147354126e+00" cType="1" res="1.0353736579418182e-03" rms="2.9975789785385132e-01" purity="5.0018376111984253e-01" nType="0">
              <Node pos="l" depth="4" NCoef="0" IVar="6" Cut="1.8389770984649658e+00" cType="1" res="-5.1163267344236374e-03" rms="3.1462061405181885e-01" purity="5.1835918426513672e-01" nType="0">
                <Node pos="l" depth="5" NCoef="0" IVar="-1" Cut="0.0000000000000000e+00" cType="1" res="2.1514925174415112e-03" rms="3.3610239624977112e-01" purity="3.5092097520828247e-01" nType="-99"/>
                <Node pos="r" depth="5" NCoef="0" IVar="-1" Cut="0.0000000000000000e+00" cType="1" res="-5.5598346516489983e-03" rms="3.0187052488327026e-01" purity="6.1154472827911377e-01" nType="-99"/>
              </Node>
              <Node pos="r" depth="4" NCoef="0" IVar="6" Cut="1.9155993461608887e+00" cType="1" res="1.0396695695817471e-02" rms="2.7534344792366028e-01" purity="4.7252535820007324e-01" nType="0">
                <Node pos="l" depth="5" NCoef="0" IVar="-1" Cut="0.0000000000000000e+00" cType="1" res="-2.8087450191378593e-03" rms="2.8093549609184265e-01" purity="2.3164659738540649e-01" nType="-99"/>
                <Node pos="r" depth="5" NCoef="0" IVar="-1" Cut="0.0000000000000000e+00" cType="1" res="1.0672101750969887e-02" rms="2.7188098430633545e-01" purity="6.0433065891265869e-01" nType="-99"/>
              </Node>
            </Node>
          </Node>
          <Node pos="r" depth="2" NCoef="0" IVar="0" Cut="3.0487804412841797e+00" cType="1" res="-1.1134491302073002e-02" rms="3.0527716875076294e-01" purity="3.3082723617553711e-01" nType="0">
            <Node pos="l" depth="3" NCoef="0" IVar="-1" Cut="0.0000000000000000e+00" cType="1" res="-4.4821943156421185e-03" rms="2.5817665457725525e-01" purity="1.6063930094242096e-01" nType="-99"/>
            <Node pos="r" depth="3" NCoef="0" IVar="-1" Cut="0.0000000000000000e+00" cType="1" res="-6.3106575980782509e-03" rms="3.4603559970855713e-01" purity="5.0133287906646729e-01" nType="-99"/>
          </Node>
        </Node>
      </Node>
    </BinaryTree>
    <BinaryTree type="DecisionTree" boostWeight="1.0000000000000000e+00" itree="273">
      <Node pos="s" depth="0" NCoef="0" IVar="4" Cut="1.1113304901123047e+02" cType="1" res="1.0734525276347995e-03" rms="2.9674702882766724e-01" purity="5.0233852863311768e-01" nType="0">
        <Node pos="l" depth="1" NCoef="0" IVar="6" Cut="5.3636986017227173e-01" cType="1" res="-1.9886635709553957e-03" rms="3.1040254235267639e-01" purity="4.7830459475517273e-01" nType="0">
          <Node pos="l" depth="2" NCoef="0" IVar="5" Cut="8.8179870605468750e+01" cType="1" res="8.8613787665963173e-03" rms="3.2488644123077393e-01" purity="3.0416619777679443e-01" nType="0">
            <Node pos="l" depth="3" NCoef="0" IVar="-1" Cut="0.0000000000000000e+00" cType="1" res="-3.7488904781639576e-03" rms="3.2811152935028076e-01" purity="3.8921251893043518e-01" nType="-99"/>
            <Node pos="r" depth="3" NCoef="0" IVar="-1" Cut="0.0000000000000000e+00" cType="1" res="1.4009294100105762e-02" rms="3.2112845778465271e-01" purity="2.2704987227916718e-01" nType="-99"/>
          </Node>
          <Node pos="r" depth="2" NCoef="0" IVar="6" Cut="8.5408025979995728e-01" cType="1" res="-3.2230506185442209e-03" rms="3.0868750810623169e-01" purity="4.9811595678329468e-01" nType="0">
            <Node pos="l" depth="3" NCoef="0" IVar="-1" Cut="0.0000000000000000e+00" cType="1" res="-6.6702393814921379e-03" rms="3.1007060408592224e-01" purity="3.1859582662582397e-01" nType="-99"/>
            <Node pos="r" depth="3" NCoef="0" IVar="5" Cut="4.4544311523437500e+01" cType="1" res="-2.4387785233557224e-03" rms="3.0856680870056152e-01" purity="5.1194167137145996e-01" nType="0">
              <Node pos="l" depth="4" NCoef="0" IVar="-1" Cut="0.0000000000000000e+00" cType="1" res="3.7928828969597816e-03" rms="3.5950890183448792e-01" purity="3.9654299616813660e-01" nType="-99"/>
              <Node pos="r" depth="4" NCoef="0" IVar="5" Cut="1.2057585144042969e+02" cType="1" res="-3.3226951491087675e-03" rms="3.0466440320014954e-01" purity="5.2001559734344482e-01" nType="0">
                <Node pos="l" depth="5" NCoef="0" IVar="-1" Cut="0.0000000000000000e+00" cType="1" res="-2.5876658037304878e-03" rms="3.0654755234718323e-01" purity="5.8180195093154907e-01" nType="-99"/>
                <Node pos="r" depth="5" NCoef="0" IVar="-1" Cut="0.0000000000000000e+00" cType="1" res="2.0356015302240849e-03" rms="2.9689830541610718e-01" purity="2.7232798933982849e-01" nType="-99"/>
              </Node>
            </Node>
          </Node>
        </Node>
        <Node pos="r" depth="1" NCoef="0" IVar="1" Cut="4.0243902206420898e+00" cType="1" res="3.5440064966678619e-03" rms="2.8522956371307373e-01" purity="5.2172935009002686e-01" nType="0">
          <Node pos="l" depth="2" NCoef="0" IVar="7" Cut="3.1462597846984863e+00" cType="1" res="5.8774156495928764e-03" rms="3.0109170079231262e-01" purity="3.7254536151885986e-01" nType="0">
            <Node pos="l" depth="3" NCoef="0" IVar="7" Cut="8.4411877393722534e-01" cType="1" res="4.8701171763241291e-03" rms="3.0403706431388855e-01" purity="3.8499036431312561e-01" nType="0">
              <Node pos="l" depth="4" NCoef="0" IVar="6" Cut="2.6818461418151855e+00" cType="1" res="1.0384444147348404e-02" rms="3.3134779334068298e-01" purity="4.2601335048675537e-01" nType="0">
                <Node pos="l" depth="5" NCoef="0" IVar="-1" Cut="0.0000000000000000e+00" cType="1" res="8.0300075933337212e-03" rms="3.3908623456954956e-01" purity="3.7707412242889404e-01" nType="-99"/>
                <Node pos="r" depth="5" NCoef="0" IVar="-1" Cut="0.0000000000000000e+00" cType="1" res="-3.6132787354290485e-03" rms="3.0692780017852783e-01" purity="5.6931877136230469e-01" nType="-99"/>
              </Node>
              <Node pos="r" depth="4" NCoef="0" IVar="0" Cut="4.0243902206420898e+00" cType="1" res="8.0138421617448330e-04" rms="2.8212729096412659e-01" purity="3.5472163558006287e-01" nType="0">
                <Node pos="l" depth="5" NCoef="0" IVar="-1" Cut="0.0000000000000000e+00" cType="1" res="5.6742797605693340e-03" rms="2.4744841456413269e-01" purity="2.4053686857223511e-01" nType="-99"/>
                <Node pos="r" depth="5" NCoef="0" IVar="-1" Cut="0.0000000000000000e+00" cType="1" res="-3.7101339548826218e-03" rms="3.2126998901367188e-01" purity="5.0240021944046021e-01" nType="-99"/>
              </Node>
            </Node>
            <Node pos="r" depth="3" NCoef="0" IVar="-1" Cut="0.0000000000000000e+00" cType="1" res="1.2658580206334591e-02" rms="2.6325184106826782e-01" purity="2.2452336549758911e-01" nType="-99"/>
          </Node>
          <Node pos="r" depth="2" NCoef="0" IVar="4" Cut="1.4161621093750000e+02" cType="1" res="3.8010830758139491e-04" rms="2.6216045022010803e-01" purity="7.2400975227355957e-01" nType="0">
            <Node pos="l" depth="3" NCoef="0" IVar="0" Cut="1.0975610017776489e+00" cType="1" res="3.2236154656857252e-03" rms="2.4671216309070587e-01" purity="8.6164796352386475e-01" nType="0">
              <Node pos="l" depth="4" NCoef="0" IVar="-1" Cut="0.0000000000000000e+00" cType="1" res="-4.0454452391713858e-04" rms="3.3478620648384094e-01" purity="5.5984151363372803e-01" nType="-99"/>
              <Node pos="r" depth="4" NCoef="0" IVar="-1" Cut="0.0000000000000000e+00" cType="1" res="3.6200380418449640e-03" rms="2.2666944563388824e-01" purity="9.1753643751144409e-01" nType="-99"/>
            </Node>
            <Node pos="r" depth="3" NCoef="0" IVar="5" Cut="1.0254354095458984e+02" cType="1" res="-7.3559116572141647e-03" rms="3.0005562305450439e-01" purity="3.4955242276191711e-01" nType="0">
              <Node pos="l" depth="4" NCoef="0" IVar="-1" Cut="0.0000000000000000e+00" cType="1" res="-1.2822870630770922e-03" rms="3.2006651163101196e-01" purity="4.2474293708801270e-01" nType="-99"/>
              <Node pos="r" depth="4" NCoef="0" IVar="-1" Cut="0.0000000000000000e+00" cType="1" res="-9.9152298644185066e-03" rms="2.5965204834938049e-01" purity="2.1316090226173401e-01" nType="-99"/>
            </Node>
          </Node>
        </Node>
      </Node>
    </BinaryTree>
    <BinaryTree type="DecisionTree" boostWeight="1.0000000000000000e+00" itree="274">
      <Node pos="s" depth="0" NCoef="0" IVar="9" Cut="1.2007068097591400e-01" cType="1" res="3.9079890120774508e-04" rms="2.9545792937278748e-01" purity="5.0206220149993896e-01" nType="0">
        <Node pos="l" depth="1" NCoef="0" IVar="8" Cut="5.2297043800354004e-01" cType="1" res="-5.2965814247727394e-03" rms="2.4219803512096405e-01" purity="1.3051988184452057e-01" nType="0">
          <Node pos="l" depth="2" NCoef="0" IVar="7" Cut="3.4215309619903564e+00" cType="1" res="-9.4833765178918839e-03" rms="2.2334848344326019e-01" purity="1.1878229677677155e-01" nType="0">
            <Node pos="l" depth="3" NCoef="0" IVar="-1" Cut="0.0000000000000000e+00" cType="1" res="-1.4546559192240238e-02" rms="2.1498934924602509e-01" purity="8.5015796124935150e-02" nType="-99"/>
            <Node pos="r" depth="3" NCoef="0" IVar="-1" Cut="0.0000000000000000e+00" cType="1" res="2.1358579397201538e-03" rms="2.3828004300594330e-01" purity="1.8442551791667938e-01" nType="-99"/>
          </Node>
          <Node pos="r" depth="2" NCoef="0" IVar="-1" Cut="0.0000000000000000e+00" cType="1" res="3.9026541635394096e-03" rms="2.8887769579887390e-01" purity="1.6393546760082245e-01" nType="-99"/>
        </Node>
        <Node pos="r" depth="1" NCoef="0" IVar="9" Cut="9.3921571969985962e-01" cType="1" res="8.9175393804907799e-04" rms="2.9969078302383423e-01" purity="5.3478837013244629e-01" nType="0">
          <Node pos="l" depth="2" NCoef="0" IVar="9" Cut="5.1965254545211792e-01" cType="1" res="1.2117325095459819e-03" rms="2.9951921105384827e-01" purity="5.3816032409667969e-01" nType="0">
            <Node pos="l" depth="3" NCoef="0" IVar="9" Cut="4.8066881299018860e-01" cType="1" res="7.9143152106553316e-05" rms="2.9686507582664490e-01" purity="5.1907527446746826e-01" nType="0">
              <Node pos="l" depth="4" NCoef="0" IVar="7" Cut="2.8557543754577637e+00" cType="1" res="9.2786218738183379e-04" rms="2.9788753390312195e-01" purity="5.0875192880630493e-01" nType="0">
                <Node pos="l" depth="5" NCoef="0" IVar="-1" Cut="0.0000000000000000e+00" cType="1" res="5.0920214562211186e-05" rms="3.0059838294982910e-01" purity="5.1222515106201172e-01" nType="-99"/>
                <Node pos="r" depth="5" NCoef="0" IVar="-1" Cut="0.0000000000000000e+00" cType="1" res="5.6899785995483398e-03" rms="2.6854529976844788e-01" purity="4.7334176301956177e-01" nType="-99"/>
              </Node>
              <Node pos="r" depth="4" NCoef="0" IVar="-1" Cut="0.0000000000000000e+00" cType="1" res="-7.0196478627622128e-03" rms="2.8150153160095215e-01" purity="6.6723072528839111e-01" nType="-99"/>
            </Node>
            <Node pos="r" depth="3" NCoef="0" IVar="5" Cut="1.0287030029296875e+02" cType="1" res="6.4053656533360481e-03" rms="3.1134763360023499e-01" purity="6.2567728757858276e-01" nType="0">
              <Node pos="l" depth="4" NCoef="0" IVar="7" Cut="6.1643028259277344e-01" cType="1" res="3.3217882737517357e-03" rms="3.0879089236259460e-01" purity="7.0403623580932617e-01" nType="0">
                <Node pos="l" depth="5" NCoef="0" IVar="-1" Cut="0.0000000000000000e+00" cType="1" res="-1.3469686964526772e-03" rms="2.9527309536933899e-01" purity="7.4632918834686279e-01" nType="-99"/>
                <Node pos="r" depth="5" NCoef="0" IVar="-1" Cut="0.0000000000000000e+00" cType="1" res="4.4461688958108425e-03" rms="3.2185181975364685e-01" purity="6.6101616621017456e-01" nType="-99"/>
              </Node>
              <Node pos="r" depth="4" NCoef="0" IVar="4" Cut="1.0553898620605469e+02" cType="1" res="1.4261508360505104e-02" rms="3.1763336062431335e-01" purity="4.2603933811187744e-01" nType="0">
                <Node pos="l" depth="5" NCoef="0" IVar="-1" Cut="0.0000000000000000e+00" cType="1" res="1.0486893355846405e-02" rms="3.3150669932365417e-01" purity="3.9147263765335083e-01" nType="-99"/>
                <Node pos="r" depth="5" NCoef="0" IVar="-1" Cut="0.0000000000000000e+00" cType="1" res="3.1259469687938690e-03" rms="3.0225867033004761e-01" purity="4.6207004785537720e-01" nType="-99"/>
              </Node>
            </Node>
          </Node>
          <Node pos="r" depth="2" NCoef="0" IVar="-1" Cut="0.0000000000000000e+00" cType="1" res="-6.1362879350781441e-03" rms="3.0649346113204956e-01" purity="3.9349651336669922e-01" nType="-99"/>
        </Node>
      </Node>
    </BinaryTree>
    <BinaryTree type="DecisionTree" boostWeight="1.0000000000000000e+00" itree="275">
      <Node pos="s" depth="0" NCoef="0" IVar="6" Cut="1.9922291040420532e+00" cType="1" res="-1.4019809896126390e-04" rms="2.9555872082710266e-01" purity="5.0011295080184937e-01" nType="0">
        <Node pos="l" depth="1" NCoef="0" IVar="8" Cut="8.8082098960876465e-01" cType="1" res="-2.7026266325265169e-03" rms="3.0228045582771301e-01" purity="3.7501835823059082e-01" nType="0">
          <Node pos="l" depth="2" NCoef="0" IVar="9" Cut="2.3317034542560577e-01" cType="1" res="-4.0907431393861771e-03" rms="2.9888489842414856e-01" purity="3.7172308564186096e-01" nType="0">
            <Node pos="l" depth="3" NCoef="0" IVar="9" Cut="1.7071460187435150e-01" cType="1" res="1.4498106902465224e-03" rms="2.6600381731987000e-01" purity="1.7460395395755768e-01" nType="0">
              <Node pos="l" depth="4" NCoef="0" IVar="9" Cut="1.2086081504821777e-01" cType="1" res="-3.4628249704837799e-03" rms="2.4472901225090027e-01" purity="1.3034605979919434e-01" nType="0">
                <Node pos="l" depth="5" NCoef="0" IVar="-1" Cut="0.0000000000000000e+00" cType="1" res="1.6062326030805707e-03" rms="2.2916270792484283e-01" purity="1.0479409247636795e-01" nType="-99"/>
                <Node pos="r" depth="5" NCoef="0" IVar="-1" Cut="0.0000000000000000e+00" cType="1" res="-6.9122756831347942e-03" rms="2.6354917883872986e-01" purity="1.6376987099647522e-01" nType="-99"/>
              </Node>
              <Node pos="r" depth="4" NCoef="0" IVar="6" Cut="1.3605444431304932e+00" cType="1" res="9.0843429788947105e-03" rms="2.9588556289672852e-01" purity="2.4338340759277344e-01" nType="0">
                <Node pos="l" depth="5" NCoef="0" IVar="-1" Cut="0.0000000000000000e+00" cType="1" res="8.2857103552669287e-04" rms="2.8232997655868530e-01" purity="1.8724405765533447e-01" nType="-99"/>
                <Node pos="r" depth="5" NCoef="0" IVar="-1" Cut="0.0000000000000000e+00" cType="1" res="1.0728041641414165e-02" rms="3.1304392218589783e-01" purity="3.1961369514465332e-01" nType="-99"/>
              </Node>
            </Node>
            <Node pos="r" depth="3" NCoef="0" IVar="8" Cut="5.5866163969039917e-01" cType="1" res="-6.3846060074865818e-03" rms="3.1145489215850830e-01" purity="4.5333302021026611e-01" nType="0">
              <Node pos="l" depth="4" NCoef="0" IVar="6" Cut="1.4091364145278931e+00" cType="1" res="-4.1428497061133385e-03" rms="3.0764243006706238e-01" purity="4.2031940817832947e-01" nType="0">
                <Node pos="l" depth="5" NCoef="0" IVar="-1" Cut="0.0000000000000000e+00" cType="1" res="-1.6918453911785036e-04" rms="3.1060615181922913e-01" purity="3.7540957331657410e-01" nType="-99"/>
                <Node pos="r" depth="5" NCoef="0" IVar="-1" Cut="0.0000000000000000e+00" cType="1" res="-5.3024939261376858e-03" rms="3.0282461643218994e-01" purity="4.9096173048019409e-01" nType="-99"/>
              </Node>
              <Node pos="r" depth="4" NCoef="0" IVar="5" Cut="7.7015586853027344e+01" cType="1" res="-1.6819026321172714e-02" rms="3.2841742038726807e-01" purity="6.0699737071990967e-01" nType="0">
                <Node pos="l" depth="5" NCoef="0" IVar="-1" Cut="0.0000000000000000e+00" cType="1" res="-1.1101396754384041e-02" rms="3.3099114894866943e-01" purity="5.9334766864776611e-01" nType="-99"/>
                <Node pos="r" depth="5" NCoef="0" IVar="-1" Cut="0.0000000000000000e+00" cType="1" res="-3.6770419683307409e-03" rms="3.2583329081535339e-01" purity="6.1931383609771729e-01" nType="-99"/>
              </Node>
            </Node>
          </Node>
          <Node pos="r" depth="2" NCoef="0" IVar="-1" Cut="0.0000000000000000e+00" cType="1" res="6.9305985234677792e-03" rms="3.4401836991310120e-01" purity="4.1916495561599731e-01" nType="-99"/>
        </Node>
        <Node pos="r" depth="1" NCoef="0" IVar="8" Cut="3.0659154057502747e-01" cType="1" res="1.9217623630538583e-03" rms="2.9002028703689575e-01" purity="6.0077530145645142e-01" nType="0">
          <Node pos="l" depth="2" NCoef="0" IVar="5" Cut="6.6747772216796875e+01" cType="1" res="-2.6540067046880722e-03" rms="2.9163810610771179e-01" purity="4.8874616622924805e-01" nType="0">
            <Node pos="l" depth="3" NCoef="0" IVar="-1" Cut="0.0000000000000000e+00" cType="1" res="3.2026777043938637e-03" rms="3.3705013990402222e-01" purity="3.8459831476211548e-01" nType="-99"/>
            <Node pos="r" depth="3" NCoef="0" IVar="7" Cut="2.1947324275970459e+00" cType="1" res="-4.3066097423434258e-03" rms="2.8289067745208740e-01" purity="5.0701254606246948e-01" nType="0">
              <Node pos="l" depth="4" NCoef="0" IVar="8" Cut="1.8744151294231415e-01" cType="1" res="-7.3923375457525253e-03" rms="2.9940456151962280e-01" purity="4.5917105674743652e-01" nType="0">
                <Node pos="l" depth="5" NCoef="0" IVar="-1" Cut="0.0000000000000000e+00" cType="1" res="1.7243442125618458e-03" rms="2.9897224903106689e-01" purity="2.9800736904144287e-01" nType="-99"/>
                <Node pos="r" depth="5" NCoef="0" IVar="-1" Cut="0.0000000000000000e+00" cType="1" res="-6.6484613344073296e-03" rms="2.9948192834854126e-01" purity="5.3095704317092896e-01" nType="-99"/>
              </Node>
              <Node pos="r" depth="4" NCoef="0" IVar="9" Cut="2.1647505462169647e-01" cType="1" res="6.0268561355769634e-04" rms="2.5434073805809021e-01" purity="5.8312666416168213e-01" nType="0">
                <Node pos="l" depth="5" NCoef="0" IVar="-1" Cut="0.0000000000000000e+00" cType="1" res="-9.4074737280607224e-03" rms="2.3963616788387299e-01" purity="4.8293098807334900e-01" nType="-99"/>
                <Node pos="r" depth="5" NCoef="0" IVar="-1" Cut="0.0000000000000000e+00" cType="1" res="8.3541590720415115e-03" rms="2.6560652256011963e-01" purity="6.6871988773345947e-01" nType="-99"/>
              </Node>
            </Node>
          </Node>
          <Node pos="r" depth="2" NCoef="0" IVar="7" Cut="1.8884992599487305e+00" cType="1" res="5.3816735744476318e-03" rms="2.8874284029006958e-01" purity="6.8548482656478882e-01" nType="0">
            <Node pos="l" depth="3" NCoef="0" IVar="4" Cut="1.4569274902343750e+02" cType="1" res="3.6472941283136606e-03" rms="2.9124134778976440e-01" purity="6.9700795412063599e-01" nType="0">
              <Node pos="l" depth="4" NCoef="0" IVar="9" Cut="2.8546628355979919e-01" cType="1" res="6.5034469589591026e-03" rms="2.8587722778320312e-01" purity="7.4852448701858521e-01" nType="0">
                <Node pos="l" depth="5" NCoef="0" IVar="-1" Cut="0.0000000000000000e+00" cType="1" res="-5.8380316477268934e-04" rms="3.5064044594764709e-01" purity="5.2867299318313599e-01" nType="-99"/>
                <Node pos="r" depth="5" NCoef="0" IVar="-1" Cut="0.0000000000000000e+00" cType="1" res="6.6005531698465347e-03" rms="2.5832146406173706e-01" purity="8.2833731174468994e-01" nType="-99"/>
              </Node>
              <Node pos="r" depth="4" NCoef="0" IVar="7" Cut="6.9091260433197021e-01" cType="1" res="-1.0846130549907684e-02" rms="3.1666895747184753e-01" purity="4.3558970093727112e-01" nType="0">
                <Node pos="l" depth="5" NCoef="0" IVar="-1" Cut="0.0000000000000000e+00" cType="1" res="-1.1869646608829498e-02" rms="3.2163292169570923e-01" purity="4.4859993457794189e-01" nType="-99"/>
                <Node pos="r" depth="5" NCoef="0" IVar="-1" Cut="0.0000000000000000e+00" cType="1" res="1.4091351768001914e-03" rms="3.1156980991363525e-01" purity="4.2412322759628296e-01" nType="-99"/>
              </Node>
            </Node>
            <Node pos="r" depth="3" NCoef="0" IVar="-1" Cut="0.0000000000000000e+00" cType="1" res="1.0764893144369125e-02" rms="2.7011546492576599e-01" purity="6.0406714677810669e-01" nType="-99"/>
          </Node>
        </Node>
      </Node>
    </BinaryTree>
    <BinaryTree type="DecisionTree" boostWeight="1.0000000000000000e+00" itree="276">
      <Node pos="s" depth="0" NCoef="0" IVar="5" Cut="3.7609745025634766e+01" cType="1" res="-2.3549921752419323e-04" rms="2.9515257477760315e-01" purity="5.0158286094665527e-01" nType="0">
        <Node pos="l" depth="1" NCoef="0" IVar="-1" Cut="0.0000000000000000e+00" cType="1" res="-4.6197506599128246e-03" rms="3.3386859297752380e-01" purity="3.0526766180992126e-01" nType="-99"/>
        <Node pos="r" depth="1" NCoef="0" IVar="5" Cut="7.3431297302246094e+01" cType="1" res="1.4521089906338602e-04" rms="2.9365959763526917e-01" purity="5.0863558053970337e-01" nType="0">
          <Node pos="l" depth="2" NCoef="0" IVar="1" Cut="2.0731706619262695e+00" cType="1" res="4.1132653132081032e-03" rms="3.2983353734016418e-01" purity="5.0827497243881226e-01" nType="0">
            <Node pos="l" depth="3" NCoef="0" IVar="2" Cut="1.0975610017776489e+00" cType="1" res="1.1010216549038887e-02" rms="3.4714552760124207e-01" purity="3.0959308147430420e-01" nType="0">
              <Node pos="l" depth="4" NCoef="0" IVar="9" Cut="2.7434808015823364e-01" cType="1" res="6.5017822198569775e-03" rms="3.6919441819190979e-01" purity="3.8218137621879578e-01" nType="0">
                <Node pos="l" depth="5" NCoef="0" IVar="-1" Cut="0.0000000000000000e+00" cType="1" res="7.0127090439200401e-03" rms="3.3282127976417542e-01" purity="2.5252547860145569e-01" nType="-99"/>
                <Node pos="r" depth="5" NCoef="0" IVar="-1" Cut="0.0000000000000000e+00" cType="1" res="3.2271741656586528e-04" rms="3.9011213183403015e-01" purity="4.6323445439338684e-01" nType="-99"/>
              </Node>
              <Node pos="r" depth="4" NCoef="0" IVar="5" Cut="5.9452144622802734e+01" cType="1" res="1.9435208290815353e-02" rms="3.0147233605384827e-01" purity="1.7394599318504333e-01" nType="0">
                <Node pos="l" depth="5" NCoef="0" IVar="-1" Cut="0.0000000000000000e+00" cType="1" res="9.1705434024333954e-03" rms="2.9422175884246826e-01" purity="1.4556017518043518e-01" nType="-99"/>
                <Node pos="r" depth="5" NCoef="0" IVar="-1" Cut="0.0000000000000000e+00" cType="1" res="1.5251942910254002e-02" rms="3.0841204524040222e-01" purity="2.0214332640171051e-01" nType="-99"/>
              </Node>
            </Node>
            <Node pos="r" depth="3" NCoef="0" IVar="9" Cut="2.8526780009269714e-01" cType="1" res="-2.4781310930848122e-03" rms="3.1225088238716125e-01" purity="6.9815480709075928e-01" nType="0">
              <Node pos="l" depth="4" NCoef="0" IVar="-1" Cut="0.0000000000000000e+00" cType="1" res="-5.9845196083188057e-03" rms="3.2665786147117615e-01" purity="5.6183862686157227e-01" nType="-99"/>
              <Node pos="r" depth="4" NCoef="0" IVar="-1" Cut="0.0000000000000000e+00" cType="1" res="1.5690166037529707e-03" rms="3.0439624190330505e-01" purity="7.6858752965927124e-01" nType="-99"/>
            </Node>
          </Node>
          <Node pos="r" depth="2" NCoef="0" IVar="4" Cut="1.8036260986328125e+02" cType="1" res="-1.1311663547530770e-03" rms="2.8102385997772217e-01" purity="5.0875157117843628e-01" nType="0">
            <Node pos="l" depth="3" NCoef="0" IVar="4" Cut="6.9537422180175781e+01" cType="1" res="-2.0550005137920380e-03" rms="2.8168535232543945e-01" purity="5.4872161149978638e-01" nType="0">
              <Node pos="l" depth="4" NCoef="0" IVar="8" Cut="2.9230856895446777e-01" cType="1" res="-7.1643302217125893e-03" rms="3.0749586224555969e-01" purity="2.2777619957923889e-01" nType="0">
                <Node pos="l" depth="5" NCoef="0" IVar="-1" Cut="0.0000000000000000e+00" cType="1" res="-1.4211397618055344e-02" rms="2.4999435245990753e-01" purity="1.4034874737262726e-01" nType="-99"/>
                <Node pos="r" depth="5" NCoef="0" IVar="-1" Cut="0.0000000000000000e+00" cType="1" res="1.1022113030776381e-03" rms="3.4001320600509644e-01" purity="2.8583356738090515e-01" nType="-99"/>
              </Node>
              <Node pos="r" depth="4" NCoef="0" IVar="8" Cut="7.7054244279861450e-01" cType="1" res="-1.2796194059774280e-03" rms="2.7755051851272583e-01" purity="5.9742760658264160e-01" nType="0">
                <Node pos="l" depth="5" NCoef="0" IVar="-1" Cut="0.0000000000000000e+00" cType="1" res="-4.1780754690989852e-04" rms="2.7508139610290527e-01" purity="6.0315990447998047e-01" nType="-99"/>
                <Node pos="r" depth="5" NCoef="0" IVar="-1" Cut="0.0000000000000000e+00" cType="1" res="-7.1859299205243587e-03" rms="3.2992005348205566e-01" purity="4.6285802125930786e-01" nType="-99"/>
              </Node>
            </Node>
            <Node pos="r" depth="3" NCoef="0" IVar="0" Cut="3.0487804412841797e+00" cType="1" res="5.7457527145743370e-03" rms="2.7595281600952148e-01" purity="2.1121892333030701e-01" nType="0">
              <Node pos="l" depth="4" NCoef="0" IVar="6" Cut="1.6857266426086426e+00" cType="1" res="-3.4853105898946524e-03" rms="2.1225446462631226e-01" purity="8.9833363890647888e-02" nType="0">
                <Node pos="l" depth="5" NCoef="0" IVar="-1" Cut="0.0000000000000000e+00" cType="1" res="1.7070652684196830e-03" rms="1.9464874267578125e-01" purity="4.6973783522844315e-02" nType="-99"/>
                <Node pos="r" depth="5" NCoef="0" IVar="-1" Cut="0.0000000000000000e+00" cType="1" res="-5.8822552673518658e-03" rms="2.2527211904525757e-01" purity="1.2410077452659607e-01" nType="-99"/>
              </Node>
              <Node pos="r" depth="4" NCoef="0" IVar="-1" Cut="0.0000000000000000e+00" cType="1" res="7.5502591207623482e-03" rms="3.3798971772193909e-01" purity="3.6080011725425720e-01" nType="-99"/>
            </Node>
          </Node>
        </Node>
      </Node>
    </BinaryTree>
    <BinaryTree type="DecisionTree" boostWeight="1.0000000000000000e+00" itree="277">
      <Node pos="s" depth="0" NCoef="0" IVar="5" Cut="3.3720405578613281e+01" cType="1" res="-5.5698130745440722e-04" rms="2.9448595643043518e-01" purity="5.0113683938980103e-01" nType="0">
        <Node pos="l" depth="1" NCoef="0" IVar="-1" Cut="0.0000000000000000e+00" cType="1" res="6.1137299053370953e-03" rms="3.4760746359825134e-01" purity="3.2606375217437744e-01" nType="-99"/>
        <Node pos="r" depth="1" NCoef="0" IVar="1" Cut="1.0975610017776489e+00" cType="1" res="-9.3446025857701898e-04" rms="2.9302498698234558e-01" purity="5.0551247596740723e-01" nType="0">
          <Node pos="l" depth="2" NCoef="0" IVar="4" Cut="5.8819042205810547e+01" cType="1" res="-3.5994725767523050e-03" rms="3.0216246843338013e-01" purity="2.6016223430633545e-01" nType="0">
            <Node pos="l" depth="3" NCoef="0" IVar="2" Cut="1.0975610017776489e+00" cType="1" res="5.2082738839089870e-03" rms="3.0555781722068787e-01" purity="1.8791733682155609e-01" nType="0">
              <Node pos="l" depth="4" NCoef="0" IVar="-1" Cut="0.0000000000000000e+00" cType="1" res="4.8494171351194382e-03" rms="3.5813957452774048e-01" purity="2.7395603060722351e-01" nType="-99"/>
              <Node pos="r" depth="4" NCoef="0" IVar="-1" Cut="0.0000000000000000e+00" cType="1" res="-4.2416667565703392e-03" rms="2.1483927965164185e-01" purity="7.1912802755832672e-02" nType="-99"/>
            </Node>
            <Node pos="r" depth="3" NCoef="0" IVar="9" Cut="3.5821315646171570e-01" cType="1" res="-4.8269545659422874e-03" rms="3.0166581273078918e-01" purity="2.7023059129714966e-01" nType="0">
              <Node pos="l" depth="4" NCoef="0" IVar="6" Cut="2.6818461418151855e+00" cType="1" res="-1.7140058334916830e-03" rms="2.7897739410400391e-01" purity="1.9383108615875244e-01" nType="0">
                <Node pos="l" depth="5" NCoef="0" IVar="-1" Cut="0.0000000000000000e+00" cType="1" res="7.7479379251599312e-04" rms="2.7200141549110413e-01" purity="1.5462455153465271e-01" nType="-99"/>
                <Node pos="r" depth="5" NCoef="0" IVar="-1" Cut="0.0000000000000000e+00" cType="1" res="-5.3927842527627945e-03" rms="3.0007436871528625e-01" purity="3.1958109140396118e-01" nType="-99"/>
              </Node>
              <Node pos="r" depth="4" NCoef="0" IVar="5" Cut="6.1440254211425781e+01" cType="1" res="-9.7145121544599533e-03" rms="3.3413636684417725e-01" purity="3.9018335938453674e-01" nType="0">
                <Node pos="l" depth="5" NCoef="0" IVar="-1" Cut="0.0000000000000000e+00" cType="1" res="1.5143486671149731e-03" rms="3.7583085894584656e-01" purity="3.1828191876411438e-01" nType="-99"/>
                <Node pos="r" depth="5" NCoef="0" IVar="-1" Cut="0.0000000000000000e+00" cType="1" res="-5.5195959284901619e-03" rms="3.2594162225723267e-01" purity="4.0322279930114746e-01" nType="-99"/>
              </Node>
            </Node>
          </Node>
          <Node pos="r" depth="2" NCoef="0" IVar="4" Cut="5.9428173065185547e+01" cType="1" res="1.1183744063600898e-03" rms="2.8577041625976562e-01" purity="6.9450354576110840e-01" nType="0">
            <Node pos="l" depth="3" NCoef="0" IVar="-1" Cut="0.0000000000000000e+00" cType="1" res="-5.2355141378939152e-03" rms="3.5422757267951965e-01" purity="2.9507663846015930e-01" nType="-99"/>
            <Node pos="r" depth="3" NCoef="0" IVar="8" Cut="1.1681757867336273e-01" cType="1" res="1.8092253012582660e-03" rms="2.8217825293540955e-01" purity="7.1300476789474487e-01" nType="0">
              <Node pos="l" depth="4" NCoef="0" IVar="-1" Cut="0.0000000000000000e+00" cType="1" res="-6.0333753935992718e-03" rms="2.9438981413841248e-01" purity="2.9890543222427368e-01" nType="-99"/>
              <Node pos="r" depth="4" NCoef="0" IVar="8" Cut="7.9890847206115723e-01" cType="1" res="2.5346318725496531e-03" rms="2.8146430850028992e-01" purity="7.3608636856079102e-01" nType="0">
                <Node pos="l" depth="5" NCoef="0" IVar="-1" Cut="0.0000000000000000e+00" cType="1" res="2.0927872974425554e-03" rms="2.7767154574394226e-01" purity="7.4390596151351929e-01" nType="-99"/>
                <Node pos="r" depth="5" NCoef="0" IVar="-1" Cut="0.0000000000000000e+00" cType="1" res="-5.4943882860243320e-03" rms="3.4674325585365295e-01" purity="5.8392113447189331e-01" nType="-99"/>
              </Node>
            </Node>
          </Node>
        </Node>
      </Node>
    </BinaryTree>
    <BinaryTree type="DecisionTree" boostWeight="1.0000000000000000e+00" itree="278">
      <Node pos="s" depth="0" NCoef="0" IVar="4" Cut="5.8666481018066406e+01" cType="1" res="4.4604731374420226e-04" rms="2.9643681645393372e-01" purity="4.9971702694892883e-01" nType="0">
        <Node pos="l" depth="1" NCoef="0" IVar="5" Cut="1.1316246795654297e+02" cType="1" res="-7.7216071076691151e-03" rms="3.2077935338020325e-01" purity="2.0428922772407532e-01" nType="0">
          <Node pos="l" depth="2" NCoef="0" IVar="0" Cut="1.0975610017776489e+00" cType="1" res="-1.4877878129482269e-02" rms="3.4245058894157410e-01" purity="2.5287613272666931e-01" nType="0">
            <Node pos="l" depth="3" NCoef="0" IVar="-1" Cut="0.0000000000000000e+00" cType="1" res="4.4161701225675642e-04" rms="2.9140016436576843e-01" purity="1.4157390594482422e-01" nType="-99"/>
            <Node pos="r" depth="3" NCoef="0" IVar="-1" Cut="0.0000000000000000e+00" cType="1" res="-1.0088364593684673e-02" rms="3.9116916060447693e-01" purity="3.7782368063926697e-01" nType="-99"/>
          </Node>
          <Node pos="r" depth="2" NCoef="0" IVar="-1" Cut="0.0000000000000000e+00" cType="1" res="6.8912790156900883e-03" rms="2.6399019360542297e-01" purity="9.3328386545181274e-02" nType="-99"/>
        </Node>
        <Node pos="r" depth="1" NCoef="0" IVar="9" Cut="8.8051801919937134e-01" cType="1" res="1.1182267917320132e-03" rms="2.9433372616767883e-01" purity="5.2403008937835693e-01" nType="0">
          <Node pos="l" depth="2" NCoef="0" IVar="4" Cut="1.8933322143554688e+02" cType="1" res="1.5144831268116832e-03" rms="2.9447731375694275e-01" purity="5.2540171146392822e-01" nType="0">
            <Node pos="l" depth="3" NCoef="0" IVar="7" Cut="2.6596269011497498e-01" cType="1" res="2.2816814016550779e-03" rms="2.9751932621002197e-01" purity="5.6656491756439209e-01" nType="0">
              <Node pos="l" depth="4" NCoef="0" IVar="6" Cut="1.2259905338287354e+00" cType="1" res="-4.2055347003042698e-03" rms="3.0580717325210571e-01" purity="6.1825692653656006e-01" nType="0">
                <Node pos="l" depth="5" NCoef="0" IVar="-1" Cut="0.0000000000000000e+00" cType="1" res="-1.0159300640225410e-02" rms="3.2959887385368347e-01" purity="3.7613075971603394e-01" nType="-99"/>
                <Node pos="r" depth="5" NCoef="0" IVar="-1" Cut="0.0000000000000000e+00" cType="1" res="-1.8079932488035411e-04" rms="2.9990509152412415e-01" purity="6.7422884702682495e-01" nType="-99"/>
              </Node>
              <Node pos="r" depth="4" NCoef="0" IVar="7" Cut="5.2543950080871582e-01" cType="1" res="3.2914115581661463e-03" rms="2.9619568586349487e-01" purity="5.5851918458938599e-01" nType="0">
                <Node pos="l" depth="5" NCoef="0" IVar="-1" Cut="0.0000000000000000e+00" cType="1" res="4.8712794668972492e-03" rms="3.1254115700721741e-01" purity="6.2691992521286011e-01" nType="-99"/>
                <Node pos="r" depth="5" NCoef="0" IVar="-1" Cut="0.0000000000000000e+00" cType="1" res="1.2648050906136632e-03" rms="2.9318952560424805e-01" purity="5.4639017581939697e-01" nType="-99"/>
              </Node>
            </Node>
            <Node pos="r" depth="3" NCoef="0" IVar="0" Cut="4.0243902206420898e+00" cType="1" res="-5.0035910680890083e-03" rms="2.6715061068534851e-01" purity="1.7568092048168182e-01" nType="0">
              <Node pos="l" depth="4" NCoef="0" IVar="4" Cut="2.2336532592773438e+02" cType="1" res="4.9986544763669372e-04" rms="2.2977209091186523e-01" purity="1.1318445205688477e-01" nType="0">
                <Node pos="l" depth="5" NCoef="0" IVar="-1" Cut="0.0000000000000000e+00" cType="1" res="5.3780861198902130e-03" rms="2.3755589127540588e-01" purity="1.2429358810186386e-01" nType="-99"/>
                <Node pos="r" depth="5" NCoef="0" IVar="-1" Cut="0.0000000000000000e+00" cType="1" res="-8.3569884300231934e-03" rms="2.1628214418888092e-01" purity="9.5218010246753693e-02" nType="-99"/>
              </Node>
              <Node pos="r" depth="4" NCoef="0" IVar="-1" Cut="0.0000000000000000e+00" cType="1" res="-6.5482659265398979e-03" rms="3.2340887188911438e-01" purity="2.8798082470893860e-01" nType="-99"/>
            </Node>
          </Node>
          <Node pos="r" depth="2" NCoef="0" IVar="-1" Cut="0.0000000000000000e+00" cType="1" res="-7.4654505588114262e-03" rms="2.8803408145904541e-01" purity="4.6875318884849548e-01" nType="-99"/>
        </Node>
      </Node>
    </BinaryTree>
    <BinaryTree type="DecisionTree" boostWeight="1.0000000000000000e+00" itree="279">
      <Node pos="s" depth="0" NCoef="0" IVar="4" Cut="7.6416137695312500e+01" cType="1" res="-2.5704916333779693e-04" rms="2.9469546675682068e-01" purity="5.0018358230590820e-01" nType="0">
        <Node pos="l" depth="1" NCoef="0" IVar="5" Cut="9.5055984497070312e+01" cType="1" res="-4.9753254279494286e-03" rms="3.1901317834854126e-01" purity="2.6171976327896118e-01" nType="0">
          <Node pos="l" depth="2" NCoef="0" IVar="9" Cut="2.9900157451629639e-01" cType="1" res="-9.2786345630884171e-03" rms="3.4702491760253906e-01" purity="3.5667836666107178e-01" nType="0">
            <Node pos="l" depth="3" NCoef="0" IVar="-1" Cut="0.0000000000000000e+00" cType="1" res="-1.0366193018853664e-02" rms="3.0283579230308533e-01" purity="2.0651167631149292e-01" nType="-99"/>
            <Node pos="r" depth="3" NCoef="0" IVar="6" Cut="2.2987213134765625e+00" cType="1" res="-4.1036214679479599e-03" rms="3.6318355798721313e-01" purity="4.1717672348022461e-01" nType="0">
              <Node pos="l" depth="4" NCoef="0" IVar="-1" Cut="0.0000000000000000e+00" cType="1" res="-5.2854218520224094e-03" rms="3.5738840699195862e-01" purity="3.6009383201599121e-01" nType="-99"/>
              <Node pos="r" depth="4" NCoef="0" IVar="-1" Cut="0.0000000000000000e+00" cType="1" res="4.6201092191040516e-03" rms="3.7207865715026855e-01" purity="5.1325988769531250e-01" nType="-99"/>
            </Node>
          </Node>
          <Node pos="r" depth="2" NCoef="0" IVar="5" Cut="1.1564787292480469e+02" cType="1" res="4.3515092693269253e-04" rms="2.7974963188171387e-01" purity="1.4232993125915527e-01" nType="0">
            <Node pos="l" depth="3" NCoef="0" IVar="-1" Cut="0.0000000000000000e+00" cType="1" res="7.1671460755169392e-03" rms="3.1856328248977661e-01" purity="2.0699284970760345e-01" nType="-99"/>
            <Node pos="r" depth="3" NCoef="0" IVar="5" Cut="1.3511944580078125e+02" cType="1" res="-8.4537174552679062e-03" rms="2.4999736249446869e-01" purity="9.8991706967353821e-02" nType="0">
              <Node pos="l" depth="4" NCoef="0" IVar="-1" Cut="0.0000000000000000e+00" cType="1" res="-1.0266223922371864e-02" rms="2.4633100628852844e-01" purity="9.7052298486232758e-02" nType="-99"/>
              <Node pos="r" depth="4" NCoef="0" IVar="-1" Cut="0.0000000000000000e+00" cType="1" res="-2.0082318224012852e-03" rms="2.5354459881782532e-01" purity="1.0096640139818192e-01" nType="-99"/>
            </Node>
          </Node>
        </Node>
        <Node pos="r" depth="1" NCoef="0" IVar="7" Cut="7.7186286449432373e-01" cType="1" res="6.0084136202931404e-04" rms="2.9004675149917603e-01" purity="5.4354172945022583e-01" nType="0">
          <Node pos="l" depth="2" NCoef="0" IVar="6" Cut="2.2987253665924072e+00" cType="1" res="3.8899050559848547e-03" rms="3.0583935976028442e-01" purity="6.0067492723464966e-01" nType="0">
            <Node pos="l" depth="3" NCoef="0" IVar="4" Cut="1.3992225646972656e+02" cType="1" res="8.9525273069739342e-03" rms="3.2068517804145813e-01" purity="5.2929598093032837e-01" nType="0">
              <Node pos="l" depth="4" NCoef="0" IVar="5" Cut="1.0960374450683594e+02" cType="1" res="3.4582340158522129e-03" rms="3.1369546055793762e-01" purity="6.3911634683609009e-01" nType="0">
                <Node pos="l" depth="5" NCoef="0" IVar="-1" Cut="0.0000000000000000e+00" cType="1" res="-1.9091091235168278e-04" rms="3.0000898241996765e-01" purity="7.1497958898544312e-01" nType="-99"/>
                <Node pos="r" depth="5" NCoef="0" IVar="-1" Cut="0.0000000000000000e+00" cType="1" res="8.0520901829004288e-03" rms="3.6385515332221985e-01" purity="3.2944098114967346e-01" nType="-99"/>
              </Node>
              <Node pos="r" depth="4" NCoef="0" IVar="5" Cut="8.0624076843261719e+01" cType="1" res="2.2248189896345139e-02" rms="3.3662942051887512e-01" purity="2.6354128122329712e-01" nType="0">
                <Node pos="l" depth="5" NCoef="0" IVar="-1" Cut="0.0000000000000000e+00" cType="1" res="1.5659412369132042e-02" rms="3.6327639222145081e-01" purity="3.3975276350975037e-01" nType="-99"/>
                <Node pos="r" depth="5" NCoef="0" IVar="-1" Cut="0.0000000000000000e+00" cType="1" res="7.0989662781357765e-03" rms="3.1695243716239929e-01" purity="2.1190209686756134e-01" nType="-99"/>
              </Node>
            </Node>
            <Node pos="r" depth="3" NCoef="0" IVar="0" Cut="1.0975610017776489e+00" cType="1" res="-2.6050535961985588e-03" rms="2.8553423285484314e-01" purity="6.9224864244461060e-01" nType="0">
              <Node pos="l" depth="4" NCoef="0" IVar="-1" Cut="0.0000000000000000e+00" cType="1" res="-9.0874908491969109e-03" rms="2.9416388273239136e-01" purity="3.0126217007637024e-01" nType="-99"/>
              <Node pos="r" depth="4" NCoef="0" IVar="5" Cut="9.5623680114746094e+01" cType="1" res="1.2423091102391481e-03" rms="2.8300735354423523e-01" purity="7.9914349317550659e-01" nType="0">
                <Node pos="l" depth="5" NCoef="0" IVar="-1" Cut="0.0000000000000000e+00" cType="1" res="3.0432099010795355e-03" rms="2.7149438858032227e-01" purity="8.4447181224822998e-01" nType="-99"/>
                <Node pos="r" depth="5" NCoef="0" IVar="-1" Cut="0.0000000000000000e+00" cType="1" res="-2.9575680382549763e-03" rms="3.0466628074645996e-01" purity="7.0828992128372192e-01" nType="-99"/>
              </Node>
            </Node>
          </Node>
          <Node pos="r" depth="2" NCoef="0" IVar="4" Cut="1.3145465087890625e+02" cType="1" res="-1.4295828295871615e-03" rms="2.7983370423316956e-01" purity="5.0827199220657349e-01" nType="0">
            <Node pos="l" depth="3" NCoef="0" IVar="6" Cut="3.8312035799026489e-01" cType="1" res="1.3352313544601202e-03" rms="2.8556895256042480e-01" purity="6.3338053226470947e-01" nType="0">
              <Node pos="l" depth="4" NCoef="0" IVar="-1" Cut="0.0000000000000000e+00" cType="1" res="9.0580368414521217e-03" rms="3.2036507129669189e-01" purity="4.4682127237319946e-01" nType="-99"/>
              <Node pos="r" depth="4" NCoef="0" IVar="4" Cut="8.3128150939941406e+01" cType="1" res="7.7538010373245925e-05" rms="2.8292959928512573e-01" purity="6.4644330739974976e-01" nType="0">
                <Node pos="l" depth="5" NCoef="0" IVar="-1" Cut="0.0000000000000000e+00" cType="1" res="-7.1659898385405540e-03" rms="2.9684352874755859e-01" purity="3.7665000557899475e-01" nType="-99"/>
                <Node pos="r" depth="5" NCoef="0" IVar="-1" Cut="0.0000000000000000e+00" cType="1" res="7.3085713665932417e-04" rms="2.8176930546760559e-01" purity="6.6776949167251587e-01" nType="-99"/>
              </Node>
            </Node>
            <Node pos="r" depth="3" NCoef="0" IVar="8" Cut="4.7039788961410522e-01" cType="1" res="-6.2025603838264942e-03" rms="2.6957914233207703e-01" purity="2.9229366779327393e-01" nType="0">
              <Node pos="l" depth="4" NCoef="0" IVar="0" Cut="1.0975610017776489e+00" cType="1" res="-8.7044509127736092e-03" rms="2.6331380009651184e-01" purity="2.8094118833541870e-01" nType="0">
                <Node pos="l" depth="5" NCoef="0" IVar="-1" Cut="0.0000000000000000e+00" cType="1" res="-1.8872326472774148e-03" rms="1.9743654131889343e-01" purity="7.7544368803501129e-02" nType="-99"/>
                <Node pos="r" depth="5" NCoef="0" IVar="-1" Cut="0.0000000000000000e+00" cType="1" res="-6.8658604286611080e-03" rms="3.0244812369346619e-01" purity="4.2973423004150391e-01" nType="-99"/>
              </Node>
              <Node pos="r" depth="4" NCoef="0" IVar="-1" Cut="0.0000000000000000e+00" cType="1" res="2.3992059286683798e-03" rms="2.9431173205375671e-01" purity="3.4018319845199585e-01" nType="-99"/>
            </Node>
          </Node>
        </Node>
      </Node>
    </BinaryTree>
    <BinaryTree type="DecisionTree" boostWeight="1.0000000000000000e+00" itree="280">
      <Node pos="s" depth="0" NCoef="0" IVar="5" Cut="4.4544345855712891e+01" cType="1" res="-3.7906991201452911e-04" rms="2.9534220695495605e-01" purity="4.9874255061149597e-01" nType="0">
        <Node pos="l" depth="1" NCoef="0" IVar="0" Cut="1.0975610017776489e+00" cType="1" res="-9.5919193699955940e-03" rms="3.3727392554283142e-01" purity="3.4139782190322876e-01" nType="0">
          <Node pos="l" depth="2" NCoef="0" IVar="-1" Cut="0.0000000000000000e+00" cType="1" res="-5.6191467592725530e-05" rms="2.7063652873039246e-01" purity="1.0891969501972198e-01" nType="-99"/>
          <Node pos="r" depth="2" NCoef="0" IVar="-1" Cut="0.0000000000000000e+00" cType="1" res="-5.4212436079978943e-03" rms="3.7352064251899719e-01" purity="4.8979610204696655e-01" nType="-99"/>
        </Node>
        <Node pos="r" depth="1" NCoef="0" IVar="4" Cut="5.8770462036132812e+01" cType="1" res="2.2187962895259261e-04" rms="2.9238811135292053e-01" purity="5.0900608301162720e-01" nType="0">
          <Node pos="l" depth="2" NCoef="0" IVar="4" Cut="4.5202068328857422e+01" cType="1" res="6.5217171795666218e-03" rms="3.2598367333412170e-01" purity="2.2909997403621674e-01" nType="0">
            <Node pos="l" depth="3" NCoef="0" IVar="-1" Cut="0.0000000000000000e+00" cType="1" res="-2.6562658604234457e-03" rms="3.0598118901252747e-01" purity="1.7813475430011749e-01" nType="-99"/>
            <Node pos="r" depth="3" NCoef="0" IVar="-1" Cut="0.0000000000000000e+00" cType="1" res="7.6005002483725548e-03" rms="3.4286135435104370e-01" purity="2.7557489275932312e-01" nType="-99"/>
          </Node>
          <Node pos="r" depth="2" NCoef="0" IVar="9" Cut="7.6919949054718018e-01" cType="1" res="-3.0631953268311918e-04" rms="2.8938797116279602e-01" purity="5.3247427940368652e-01" nType="0">
            <Node pos="l" depth="3" NCoef="0" IVar="4" Cut="2.3134338378906250e+02" cType="1" res="2.1579518215730786e-04" rms="2.8916296362876892e-01" purity="5.3297889232635498e-01" nType="0">
              <Node pos="l" depth="4" NCoef="0" IVar="4" Cut="2.0608871459960938e+02" cType="1" res="5.1367410924285650e-04" rms="2.9019632935523987e-01" purity="5.4299086332321167e-01" nType="0">
                <Node pos="l" depth="5" NCoef="0" IVar="-1" Cut="0.0000000000000000e+00" cType="1" res="-9.2955138825345784e-05" rms="2.8998506069183350e-01" purity="5.5955755710601807e-01" nType="-99"/>
                <Node pos="r" depth="5" NCoef="0" IVar="-1" Cut="0.0000000000000000e+00" cType="1" res="9.1008134186267853e-03" rms="2.9416528344154358e-01" purity="2.0219965279102325e-01" nType="-99"/>
              </Node>
              <Node pos="r" depth="4" NCoef="0" IVar="-1" Cut="0.0000000000000000e+00" cType="1" res="-6.9339247420430183e-03" rms="2.4993026256561279e-01" purity="1.8116338551044464e-01" nType="-99"/>
            </Node>
            <Node pos="r" depth="3" NCoef="0" IVar="-1" Cut="0.0000000000000000e+00" cType="1" res="-6.0648182407021523e-03" rms="2.9403483867645264e-01" purity="5.2143681049346924e-01" nType="-99"/>
          </Node>
        </Node>
      </Node>
    </BinaryTree>
    <BinaryTree type="DecisionTree" boostWeight="1.0000000000000000e+00" itree="281">
      <Node pos="s" depth="0" NCoef="0" IVar="6" Cut="2.2987355291843414e-01" cType="1" res="9.4130827346816659e-04" rms="2.9636064171791077e-01" purity="5.0221860408782959e-01" nType="0">
        <Node pos="l" depth="1" NCoef="0" IVar="0" Cut="2.0731706619262695e+00" cType="1" res="-8.8366214185953140e-03" rms="2.9789936542510986e-01" purity="2.7116727828979492e-01" nType="0">
          <Node pos="l" depth="2" NCoef="0" IVar="-1" Cut="0.0000000000000000e+00" cType="1" res="-6.2014809809625149e-03" rms="2.5117629766464233e-01" purity="1.0170542448759079e-01" nType="-99"/>
          <Node pos="r" depth="2" NCoef="0" IVar="-1" Cut="0.0000000000000000e+00" cType="1" res="-3.9968704804778099e-03" rms="3.3901843428611755e-01" purity="4.4417381286621094e-01" nType="-99"/>
        </Node>
        <Node pos="r" depth="1" NCoef="0" IVar="5" Cut="3.7609745025634766e+01" cType="1" res="1.3534332392737269e-03" rms="2.9628852009773254e-01" purity="5.1195710897445679e-01" nType="0">
          <Node pos="l" depth="2" NCoef="0" IVar="-1" Cut="0.0000000000000000e+00" cType="1" res="4.6844938769936562e-03" rms="3.5071539878845215e-01" purity="3.3668744564056396e-01" nType="-99"/>
          <Node pos="r" depth="2" NCoef="0" IVar="5" Cut="4.9550453186035156e+01" cType="1" res="9.8945142235606909e-04" rms="2.9408043622970581e-01" purity="5.1842683553695679e-01" nType="0">
            <Node pos="l" depth="3" NCoef="0" IVar="8" Cut="3.6049634218215942e-01" cType="1" res="-6.4773228950798512e-03" rms="3.4611058235168457e-01" purity="3.9545413851737976e-01" nType="0">
              <Node pos="l" depth="4" NCoef="0" IVar="-1" Cut="0.0000000000000000e+00" cType="1" res="6.0059956740587950e-04" rms="3.2725432515144348e-01" purity="3.1382304430007935e-01" nType="-99"/>
              <Node pos="r" depth="4" NCoef="0" IVar="-1" Cut="0.0000000000000000e+00" cType="1" res="-5.0257313996553421e-03" rms="3.6123353242874146e-01" purity="4.6482905745506287e-01" nType="-99"/>
            </Node>
            <Node pos="r" depth="3" NCoef="0" IVar="5" Cut="5.4938293457031250e+01" cType="1" res="1.3759213034063578e-03" rms="2.9112923145294189e-01" purity="5.2479171752929688e-01" nType="0">
              <Node pos="l" depth="4" NCoef="0" IVar="-1" Cut="0.0000000000000000e+00" cType="1" res="5.1010963506996632e-03" rms="3.4888491034507751e-01" purity="4.3405872583389282e-01" nType="-99"/>
              <Node pos="r" depth="4" NCoef="0" IVar="8" Cut="2.0317864418029785e-01" cType="1" res="1.0481395293027163e-03" rms="2.8913494944572449e-01" purity="5.2762353420257568e-01" nType="0">
                <Node pos="l" depth="5" NCoef="0" IVar="-1" Cut="0.0000000000000000e+00" cType="1" res="-1.6459387261420488e-03" rms="2.7410545945167542e-01" purity="3.0863928794860840e-01" nType="-99"/>
                <Node pos="r" depth="5" NCoef="0" IVar="-1" Cut="0.0000000000000000e+00" cType="1" res="1.1559083359315991e-03" rms="2.9301273822784424e-01" purity="5.8613675832748413e-01" nType="-99"/>
              </Node>
            </Node>
          </Node>
        </Node>
      </Node>
    </BinaryTree>
    <BinaryTree type="DecisionTree" boostWeight="1.0000000000000000e+00" itree="282">
      <Node pos="s" depth="0" NCoef="0" IVar="4" Cut="1.4554397583007812e+02" cType="1" res="5.9856858570128679e-04" rms="2.9664033651351929e-01" purity="4.9998322129249573e-01" nType="0">
        <Node pos="l" depth="1" NCoef="0" IVar="9" Cut="3.4196311235427856e-01" cType="1" res="-3.2894755713641644e-04" rms="2.9716649651527405e-01" purity="5.7394832372665405e-01" nType="0">
          <Node pos="l" depth="2" NCoef="0" IVar="5" Cut="4.8311183929443359e+01" cType="1" res="-3.3260860946029425e-03" rms="3.0129471421241760e-01" purity="4.7530874609947205e-01" nType="0">
            <Node pos="l" depth="3" NCoef="0" IVar="-1" Cut="0.0000000000000000e+00" cType="1" res="-7.6167853549122810e-03" rms="3.4983283281326294e-01" purity="3.7459960579872131e-01" nType="-99"/>
            <Node pos="r" depth="3" NCoef="0" IVar="6" Cut="1.9156039953231812e+00" cType="1" res="-2.1732535678893328e-03" rms="2.9751163721084595e-01" purity="4.8246347904205322e-01" nType="0">
              <Node pos="l" depth="4" NCoef="0" IVar="6" Cut="1.0278850793838501e+00" cType="1" res="2.5493013672530651e-03" rms="3.0905354022979736e-01" purity="3.0780780315399170e-01" nType="0">
                <Node pos="l" depth="5" NCoef="0" IVar="-1" Cut="0.0000000000000000e+00" cType="1" res="-1.9918726757168770e-03" rms="2.9618820548057556e-01" purity="2.3152121901512146e-01" nType="-99"/>
                <Node pos="r" depth="5" NCoef="0" IVar="-1" Cut="0.0000000000000000e+00" cType="1" res="3.7067006342113018e-03" rms="3.1854197382926941e-01" purity="3.6664775013923645e-01" nType="-99"/>
              </Node>
              <Node pos="r" depth="4" NCoef="0" IVar="4" Cut="6.4693168640136719e+01" cType="1" res="-5.0573437474668026e-03" rms="2.9019948840141296e-01" purity="5.8912664651870728e-01" nType="0">
                <Node pos="l" depth="5" NCoef="0" IVar="-1" Cut="0.0000000000000000e+00" cType="1" res="-9.8202442750334740e-03" rms="2.9271721839904785e-01" purity="1.6283257305622101e-01" nType="-99"/>
                <Node pos="r" depth="5" NCoef="0" IVar="-1" Cut="0.0000000000000000e+00" cType="1" res="-2.1049934439361095e-03" rms="2.8990122675895691e-01" purity="6.3352042436599731e-01" nType="-99"/>
              </Node>
            </Node>
          </Node>
          <Node pos="r" depth="2" NCoef="0" IVar="7" Cut="2.1110744476318359e+00" cType="1" res="2.2924963850528002e-03" rms="2.9348304867744446e-01" purity="6.6022342443466187e-01" nType="0">
            <Node pos="l" depth="3" NCoef="0" IVar="1" Cut="1.0975610017776489e+00" cType="1" res="1.3742672745138407e-03" rms="2.9365521669387817e-01" purity="6.7475050687789917e-01" nType="0">
              <Node pos="l" depth="4" NCoef="0" IVar="7" Cut="4.1191747784614563e-01" cType="1" res="-3.3251121640205383e-03" rms="3.4540414810180664e-01" purity="3.8738220930099487e-01" nType="0">
                <Node pos="l" depth="5" NCoef="0" IVar="-1" Cut="0.0000000000000000e+00" cType="1" res="2.3187794722616673e-03" rms="3.6030149459838867e-01" purity="4.3175333738327026e-01" nType="-99"/>
                <Node pos="r" depth="5" NCoef="0" IVar="-1" Cut="0.0000000000000000e+00" cType="1" res="-3.2229241915047169e-03" rms="3.3834365010261536e-01" purity="3.6724221706390381e-01" nType="-99"/>
              </Node>
              <Node pos="r" depth="4" NCoef="0" IVar="7" Cut="1.0812845230102539e+00" cType="1" res="4.0062861517071724e-03" rms="2.6017677783966064e-01" purity="8.3569926023483276e-01" nType="0">
                <Node pos="l" depth="5" NCoef="0" IVar="-1" Cut="0.0000000000000000e+00" cType="1" res="1.1974367080256343e-03" rms="2.5943115353584290e-01" purity="8.4046530723571777e-01" nType="-99"/>
                <Node pos="r" depth="5" NCoef="0" IVar="-1" Cut="0.0000000000000000e+00" cType="1" res="6.8858065642416477e-03" rms="2.6197502017021179e-01" purity="8.2357019186019897e-01" nType="-99"/>
              </Node>
            </Node>
            <Node pos="r" depth="3" NCoef="0" IVar="-1" Cut="0.0000000000000000e+00" cType="1" res="9.6405008807778358e-03" rms="2.9027587175369263e-01" purity="4.2492556571960449e-01" nType="-99"/>
          </Node>
        </Node>
        <Node pos="r" depth="1" NCoef="0" IVar="5" Cut="5.8976215362548828e+01" cType="1" res="3.9783692918717861e-03" rms="2.9469043016433716e-01" purity="2.3045977950096130e-01" nType="0">
          <Node pos="l" depth="2" NCoef="0" IVar="-1" Cut="0.0000000000000000e+00" cType="1" res="8.9818369597196579e-03" rms="3.1870293617248535e-01" purity="1.6221839189529419e-01" nType="-99"/>
          <Node pos="r" depth="2" NCoef="0" IVar="4" Cut="1.5318716430664062e+02" cType="1" res="1.9065681844949722e-03" rms="2.9016467928886414e-01" purity="2.4259141087532043e-01" nType="0">
            <Node pos="l" depth="3" NCoef="0" IVar="-1" Cut="0.0000000000000000e+00" cType="1" res="8.5049532353878021e-03" rms="3.2317626476287842e-01" purity="3.8178119063377380e-01" nType="-99"/>
            <Node pos="r" depth="3" NCoef="0" IVar="6" Cut="1.6857323646545410e+00" cType="1" res="-1.8921730224974453e-04" rms="2.8490647673606873e-01" purity="2.2203876078128815e-01" nType="0">
              <Node pos="l" depth="4" NCoef="0" IVar="4" Cut="1.7680000305175781e+02" cType="1" res="-6.8049207329750061e-03" rms="2.6080700755119324e-01" purity="1.1212386190891266e-01" nType="0">
                <Node pos="l" depth="5" NCoef="0" IVar="-1" Cut="0.0000000000000000e+00" cType="1" res="-1.4830776490271091e-02" rms="2.6830449700355530e-01" purity="1.2749917805194855e-01" nType="-99"/>
                <Node pos="r" depth="5" NCoef="0" IVar="-1" Cut="0.0000000000000000e+00" cType="1" res="6.6173903178423643e-04" rms="2.5676485896110535e-01" purity="1.0471706092357635e-01" nType="-99"/>
              </Node>
              <Node pos="r" depth="4" NCoef="0" IVar="7" Cut="1.3817936182022095e+00" cType="1" res="4.2472598142921925e-03" rms="2.9990327358245850e-01" purity="2.9574745893478394e-01" nType="0">
                <Node pos="l" depth="5" NCoef="0" IVar="-1" Cut="0.0000000000000000e+00" cType="1" res="-2.0799657795578241e-03" rms="3.1353077292442322e-01" purity="3.2127171754837036e-01" nType="-99"/>
                <Node pos="r" depth="5" NCoef="0" IVar="-1" Cut="0.0000000000000000e+00" cType="1" res="8.0189649015665054e-03" rms="2.8241696953773499e-01" purity="2.6521480083465576e-01" nType="-99"/>
              </Node>
            </Node>
          </Node>
        </Node>
      </Node>
    </BinaryTree>
    <BinaryTree type="DecisionTree" boostWeight="1.0000000000000000e+00" itree="283">
      <Node pos="s" depth="0" NCoef="0" IVar="2" Cut="1.0975610017776489e+00" cType="1" res="-3.7968147080391645e-04" rms="2.9544737935066223e-01" purity="4.9935740232467651e-01" nType="0">
        <Node pos="l" depth="1" NCoef="0" IVar="4" Cut="5.2694271087646484e+01" cType="1" res="5.3060025675222278e-04" rms="3.0939269065856934e-01" purity="6.0544919967651367e-01" nType="0">
          <Node pos="l" depth="2" NCoef="0" IVar="-1" Cut="0.0000000000000000e+00" cType="1" res="4.6256240457296371e-03" rms="3.7460845708847046e-01" purity="2.9886552691459656e-01" nType="-99"/>
          <Node pos="r" depth="2" NCoef="0" IVar="9" Cut="1.1211581528186798e-01" cType="1" res="-1.1042436381103471e-04" rms="3.0555400252342224e-01" purity="6.2161678075790405e-01" nType="0">
            <Node pos="l" depth="3" NCoef="0" IVar="7" Cut="2.5222527980804443e+00" cType="1" res="8.5408622398972511e-03" rms="2.8699743747711182e-01" purity="1.7575831711292267e-01" nType="0">
              <Node pos="l" depth="4" NCoef="0" IVar="-1" Cut="0.0000000000000000e+00" cType="1" res="1.4535224996507168e-02" rms="2.9739156365394592e-01" purity="1.6884063184261322e-01" nType="-99"/>
              <Node pos="r" depth="4" NCoef="0" IVar="-1" Cut="0.0000000000000000e+00" cType="1" res="-4.7120316885411739e-03" rms="2.7429714798927307e-01" purity="1.8329660594463348e-01" nType="-99"/>
            </Node>
            <Node pos="r" depth="3" NCoef="0" IVar="5" Cut="4.4809154510498047e+01" cType="1" res="-7.2035560151562095e-04" rms="3.0681073665618896e-01" purity="6.5305060148239136e-01" nType="0">
              <Node pos="l" depth="4" NCoef="0" IVar="-1" Cut="0.0000000000000000e+00" cType="1" res="-3.4210092853754759e-03" rms="3.5487285256385803e-01" purity="4.2513084411621094e-01" nType="-99"/>
              <Node pos="r" depth="4" NCoef="0" IVar="3" Cut="2.0731706619262695e+00" cType="1" res="-1.5675567556172609e-04" rms="3.0322158336639404e-01" purity="6.6870695352554321e-01" nType="0">
                <Node pos="l" depth="5" NCoef="0" IVar="-1" Cut="0.0000000000000000e+00" cType="1" res="-6.7284988472238183e-04" rms="2.9372102022171021e-01" purity="7.2014355659484863e-01" nType="-99"/>
                <Node pos="r" depth="5" NCoef="0" IVar="-1" Cut="0.0000000000000000e+00" cType="1" res="1.9075167365372181e-03" rms="3.4126159548759460e-01" purity="4.4612738490104675e-01" nType="-99"/>
              </Node>
            </Node>
          </Node>
        </Node>
        <Node pos="r" depth="1" NCoef="0" IVar="3" Cut="2.0731706619262695e+00" cType="1" res="-2.5108307600021362e-03" rms="2.5987577438354492e-01" purity="2.5097554922103882e-01" nType="0">
          <Node pos="l" depth="2" NCoef="0" IVar="8" Cut="3.3717095851898193e-01" cType="1" res="-8.5730006685480475e-04" rms="2.7364933490753174e-01" purity="2.9849728941917419e-01" nType="0">
            <Node pos="l" depth="3" NCoef="0" IVar="7" Cut="7.2050899267196655e-01" cType="1" res="3.5910601727664471e-03" rms="2.5257647037506104e-01" purity="2.2426107525825500e-01" nType="0">
              <Node pos="l" depth="4" NCoef="0" IVar="-1" Cut="0.0000000000000000e+00" cType="1" res="1.2461406178772449e-02" rms="2.9229849576950073e-01" purity="2.2865189611911774e-01" nType="-99"/>
              <Node pos="r" depth="4" NCoef="0" IVar="4" Cut="1.2857481384277344e+02" cType="1" res="-1.0889088734984398e-03" rms="2.3815777897834778e-01" purity="2.2284384071826935e-01" nType="0">
                <Node pos="l" depth="5" NCoef="0" IVar="-1" Cut="0.0000000000000000e+00" cType="1" res="3.3243177458643913e-03" rms="2.5899848341941833e-01" purity="2.8460171818733215e-01" nType="-99"/>
                <Node pos="r" depth="5" NCoef="0" IVar="-1" Cut="0.0000000000000000e+00" cType="1" res="-1.0971250943839550e-02" rms="1.9917373359203339e-01" purity="1.2207372486591339e-01" nType="-99"/>
              </Node>
            </Node>
            <Node pos="r" depth="3" NCoef="0" IVar="4" Cut="1.0492144012451172e+02" cType="1" res="-5.8319978415966034e-03" rms="2.9536119103431702e-01" purity="3.8151723146438599e-01" nType="0">
              <Node pos="l" depth="4" NCoef="0" IVar="6" Cut="1.8389796018600464e+00" cType="1" res="-1.6705477610230446e-02" rms="2.9764419794082642e-01" purity="2.7594181895256042e-01" nType="0">
                <Node pos="l" depth="5" NCoef="0" IVar="-1" Cut="0.0000000000000000e+00" cType="1" res="-4.9281241372227669e-03" rms="3.0699145793914795e-01" purity="2.1185734868049622e-01" nType="-99"/>
                <Node pos="r" depth="5" NCoef="0" IVar="-1" Cut="0.0000000000000000e+00" cType="1" res="-1.2205720879137516e-02" rms="2.8827622532844543e-01" purity="3.3698070049285889e-01" nType="-99"/>
              </Node>
              <Node pos="r" depth="4" NCoef="0" IVar="6" Cut="2.2987177371978760e+00" cType="1" res="1.2701406376436353e-03" rms="2.9364314675331116e-01" purity="4.5047506690025330e-01" nType="0">
                <Node pos="l" depth="5" NCoef="0" IVar="-1" Cut="0.0000000000000000e+00" cType="1" res="-5.5976561270654202e-03" rms="3.0193290114402771e-01" purity="3.1411531567573547e-01" nType="-99"/>
                <Node pos="r" depth="5" NCoef="0" IVar="-1" Cut="0.0000000000000000e+00" cType="1" res="8.6999740451574326e-03" rms="2.8300511837005615e-01" purity="6.0992670059204102e-01" nType="-99"/>
              </Node>
            </Node>
          </Node>
          <Node pos="r" depth="2" NCoef="0" IVar="6" Cut="1.9922298192977905e+00" cType="1" res="-7.8057222999632359e-03" rms="2.0968383550643921e-01" purity="9.8802730441093445e-02" nType="0">
            <Node pos="l" depth="3" NCoef="0" IVar="-1" Cut="0.0000000000000000e+00" cType="1" res="-5.3779083827976137e-05" rms="2.1236470341682434e-01" purity="6.8128027021884918e-02" nType="-99"/>
            <Node pos="r" depth="3" NCoef="0" IVar="-1" Cut="0.0000000000000000e+00" cType="1" res="-1.4298535883426666e-02" rms="2.0672287046909332e-01" purity="1.2903577089309692e-01" nType="-99"/>
          </Node>
        </Node>
      </Node>
    </BinaryTree>
    <BinaryTree type="DecisionTree" boostWeight="1.0000000000000000e+00" itree="284">
      <Node pos="s" depth="0" NCoef="0" IVar="5" Cut="4.0936363220214844e+01" cType="1" res="3.9097905391827226e-04" rms="2.9506599903106689e-01" purity="5.0163006782531738e-01" nType="0">
        <Node pos="l" depth="1" NCoef="0" IVar="0" Cut="2.0731706619262695e+00" cType="1" res="9.9143907427787781e-03" rms="3.4777715802192688e-01" purity="3.4451720118522644e-01" nType="0">
          <Node pos="l" depth="2" NCoef="0" IVar="-1" Cut="0.0000000000000000e+00" cType="1" res="-4.4260537251830101e-03" rms="2.6866769790649414e-01" purity="1.1761341243982315e-01" nType="-99"/>
          <Node pos="r" depth="2" NCoef="0" IVar="-1" Cut="0.0000000000000000e+00" cType="1" res="7.2956336662173271e-03" rms="3.9625498652458191e-01" purity="5.1402580738067627e-01" nType="-99"/>
        </Node>
        <Node pos="r" depth="1" NCoef="0" IVar="5" Cut="4.9648365020751953e+01" cType="1" res="-8.8572131062392145e-05" rms="2.9215213656425476e-01" purity="5.0954145193099976e-01" nType="0">
          <Node pos="l" depth="2" NCoef="0" IVar="-1" Cut="0.0000000000000000e+00" cType="1" res="-5.8324444107711315e-03" rms="3.3843478560447693e-01" purity="3.8410279154777527e-01" nType="-99"/>
          <Node pos="r" depth="2" NCoef="0" IVar="8" Cut="3.4173884987831116e-01" cType="1" res="4.4144401908852160e-04" rms="2.9016926884651184e-01" purity="5.1447224617004395e-01" nType="0">
            <Node pos="l" depth="3" NCoef="0" IVar="8" Cut="6.6780917346477509e-02" cType="1" res="2.4305819533765316e-03" rms="2.8459638357162476e-01" purity="4.2934048175811768e-01" nType="0">
              <Node pos="l" depth="4" NCoef="0" IVar="-1" Cut="0.0000000000000000e+00" cType="1" res="-1.6325950622558594e-02" rms="2.0702224969863892e-01" purity="7.6311796903610229e-02" nType="-99"/>
              <Node pos="r" depth="4" NCoef="0" IVar="7" Cut="3.3865783214569092e+00" cType="1" res="3.3708557020872831e-03" rms="2.8784507513046265e-01" purity="4.4672960042953491e-01" nType="0">
                <Node pos="l" depth="5" NCoef="0" IVar="-1" Cut="0.0000000000000000e+00" cType="1" res="1.2264932738617063e-03" rms="2.8892272710800171e-01" purity="4.5213550329208374e-01" nType="-99"/>
                <Node pos="r" depth="5" NCoef="0" IVar="-1" Cut="0.0000000000000000e+00" cType="1" res="1.2251886539161205e-02" rms="2.7311351895332336e-01" purity="3.7742179632186890e-01" nType="-99"/>
              </Node>
            </Node>
            <Node pos="r" depth="3" NCoef="0" IVar="4" Cut="1.9205072021484375e+02" cType="1" res="-1.6684571746736765e-03" rms="2.9595121741294861e-01" purity="6.0477250814437866e-01" nType="0">
              <Node pos="l" depth="4" NCoef="0" IVar="4" Cut="7.3751747131347656e+01" cType="1" res="-6.0751137789338827e-04" rms="2.9780033230781555e-01" purity="6.3514047861099243e-01" nType="0">
                <Node pos="l" depth="5" NCoef="0" IVar="-1" Cut="0.0000000000000000e+00" cType="1" res="-3.4426888450980186e-03" rms="3.4441018104553223e-01" purity="3.1239435076713562e-01" nType="-99"/>
                <Node pos="r" depth="5" NCoef="0" IVar="-1" Cut="0.0000000000000000e+00" cType="1" res="4.5416547800414264e-04" rms="2.8879538178443909e-01" purity="6.9195657968521118e-01" nType="-99"/>
              </Node>
              <Node pos="r" depth="4" NCoef="0" IVar="-1" Cut="0.0000000000000000e+00" cType="1" res="-7.2862622328102589e-03" rms="2.7406513690948486e-01" purity="2.6397511363029480e-01" nType="-99"/>
            </Node>
          </Node>
        </Node>
      </Node>
    </BinaryTree>
    <BinaryTree type="DecisionTree" boostWeight="1.0000000000000000e+00" itree="285">
      <Node pos="s" depth="0" NCoef="0" IVar="5" Cut="1.4556797790527344e+02" cType="1" res="6.5228150924667716e-04" rms="2.9572808742523193e-01" purity="5.0139868259429932e-01" nType="0">
        <Node pos="l" depth="1" NCoef="0" IVar="6" Cut="1.6857322454452515e+00" cType="1" res="1.3080850476399064e-04" rms="2.9685989022254944e-01" purity="5.1421099901199341e-01" nType="0">
          <Node pos="l" depth="2" NCoef="0" IVar="5" Cut="1.0351261138916016e+02" cType="1" res="-2.1413022186607122e-03" rms="3.0577477812767029e-01" purity="3.7072446942329407e-01" nType="0">
            <Node pos="l" depth="3" NCoef="0" IVar="7" Cut="2.3721657693386078e-01" cType="1" res="-4.6206596307456493e-03" rms="3.1438666582107544e-01" purity="4.5292744040489197e-01" nType="0">
              <Node pos="l" depth="4" NCoef="0" IVar="-1" Cut="0.0000000000000000e+00" cType="1" res="-1.0342594236135483e-02" rms="3.2028719782829285e-01" purity="4.9806776642799377e-01" nType="-99"/>
              <Node pos="r" depth="4" NCoef="0" IVar="9" Cut="5.9741568565368652e-01" cType="1" res="-2.2860595490783453e-03" rms="3.1350710988044739e-01" purity="4.4682186841964722e-01" nType="0">
                <Node pos="l" depth="5" NCoef="0" IVar="-1" Cut="0.0000000000000000e+00" cType="1" res="-2.8765292372554541e-03" rms="3.1125825643539429e-01" purity="3.9163696765899658e-01" nType="-99"/>
                <Node pos="r" depth="5" NCoef="0" IVar="-1" Cut="0.0000000000000000e+00" cType="1" res="5.6510549038648605e-03" rms="3.2202047109603882e-01" purity="6.6933381557464600e-01" nType="-99"/>
              </Node>
            </Node>
            <Node pos="r" depth="3" NCoef="0" IVar="7" Cut="4.7166574001312256e-01" cType="1" res="4.1135908104479313e-03" rms="2.8278961777687073e-01" purity="1.6334372758865356e-01" nType="0">
              <Node pos="l" depth="4" NCoef="0" IVar="-1" Cut="0.0000000000000000e+00" cType="1" res="1.1760087683796883e-02" rms="3.3861255645751953e-01" purity="2.3995627462863922e-01" nType="-99"/>
              <Node pos="r" depth="4" NCoef="0" IVar="3" Cut="1.0975610017776489e+00" cType="1" res="-1.6012481646612287e-03" rms="2.6329571008682251e-01" purity="1.4014291763305664e-01" nType="0">
                <Node pos="l" depth="5" NCoef="0" IVar="-1" Cut="0.0000000000000000e+00" cType="1" res="3.2312136609107256e-03" rms="2.8042006492614746e-01" purity="1.6646897792816162e-01" nType="-99"/>
                <Node pos="r" depth="5" NCoef="0" IVar="-1" Cut="0.0000000000000000e+00" cType="1" res="-1.0724253952503204e-02" rms="2.2996614873409271e-01" purity="9.4226107001304626e-02" nType="-99"/>
              </Node>
            </Node>
          </Node>
          <Node pos="r" depth="2" NCoef="0" IVar="5" Cut="4.4632354736328125e+01" cType="1" res="1.3813363621011376e-03" rms="2.9182958602905273e-01" purity="5.9318327903747559e-01" nType="0">
            <Node pos="l" depth="3" NCoef="0" IVar="-1" Cut="0.0000000000000000e+00" cType="1" res="5.4046036675572395e-03" rms="3.5795781016349792e-01" purity="4.1072976589202881e-01" nType="-99"/>
            <Node pos="r" depth="3" NCoef="0" IVar="9" Cut="6.2373667955398560e-01" cType="1" res="6.0601125005632639e-04" rms="2.8704693913459778e-01" purity="6.0489666461944580e-01" nType="0">
              <Node pos="l" depth="4" NCoef="0" IVar="9" Cut="3.1956240534782410e-01" cType="1" res="1.2986508663743734e-03" rms="2.8599244356155396e-01" purity="6.0796427726745605e-01" nType="0">
                <Node pos="l" depth="5" NCoef="0" IVar="-1" Cut="0.0000000000000000e+00" cType="1" res="-1.4265866484493017e-03" rms="2.9469823837280273e-01" purity="4.7884067893028259e-01" nType="-99"/>
                <Node pos="r" depth="5" NCoef="0" IVar="-1" Cut="0.0000000000000000e+00" cType="1" res="3.1988134142011404e-03" rms="2.7702513337135315e-01" purity="7.3616808652877808e-01" nType="-99"/>
              </Node>
              <Node pos="r" depth="4" NCoef="0" IVar="-1" Cut="0.0000000000000000e+00" cType="1" res="-5.6583923287689686e-03" rms="3.0398362874984741e-01" purity="5.5335068702697754e-01" nType="-99"/>
            </Node>
          </Node>
        </Node>
        <Node pos="r" depth="1" NCoef="0" IVar="8" Cut="2.6445025205612183e-01" cType="1" res="8.2158753648400307e-03" rms="2.7868619561195374e-01" purity="3.1556683778762817e-01" nType="0">
          <Node pos="l" depth="2" NCoef="0" IVar="-1" Cut="0.0000000000000000e+00" cType="1" res="-9.4388111028820276e-04" rms="2.4636350572109222e-01" purity="1.4669647812843323e-01" nType="-99"/>
          <Node pos="r" depth="2" NCoef="0" IVar="-1" Cut="0.0000000000000000e+00" cType="1" res="8.4063131362199783e-03" rms="3.0011236667633057e-01" purity="4.4009298086166382e-01" nType="-99"/>
        </Node>
      </Node>
    </BinaryTree>
    <BinaryTree type="DecisionTree" boostWeight="1.0000000000000000e+00" itree="286">
      <Node pos="s" depth="0" NCoef="0" IVar="4" Cut="8.1858413696289062e+01" cType="1" res="-1.0155251948162913e-03" rms="2.9548898339271545e-01" purity="4.9751913547515869e-01" nType="0">
        <Node pos="l" depth="1" NCoef="0" IVar="7" Cut="1.1810042858123779e+00" cType="1" res="3.2513912301510572e-03" rms="3.2558813691139221e-01" purity="2.9736763238906860e-01" nType="0">
          <Node pos="l" depth="2" NCoef="0" IVar="6" Cut="1.1493630409240723e+00" cType="1" res="7.4305059388279915e-03" rms="3.5134148597717285e-01" purity="3.5949748754501343e-01" nType="0">
            <Node pos="l" depth="3" NCoef="0" IVar="-1" Cut="0.0000000000000000e+00" cType="1" res="-3.0822865664958954e-03" rms="3.3643922209739685e-01" purity="2.5789031386375427e-01" nType="-99"/>
            <Node pos="r" depth="3" NCoef="0" IVar="4" Cut="6.1494640350341797e+01" cType="1" res="1.2297770939767361e-02" rms="3.5610672831535339e-01" purity="3.9384663105010986e-01" nType="0">
              <Node pos="l" depth="4" NCoef="0" IVar="-1" Cut="0.0000000000000000e+00" cType="1" res="7.8490441665053368e-03" rms="3.6384183168411255e-01" purity="3.3008211851119995e-01" nType="-99"/>
              <Node pos="r" depth="4" NCoef="0" IVar="4" Cut="7.3414802551269531e+01" cType="1" res="5.1215784624218941e-03" rms="3.4871464967727661e-01" purity="4.5226979255676270e-01" nType="0">
                <Node pos="l" depth="5" NCoef="0" IVar="-1" Cut="0.0000000000000000e+00" cType="1" res="-1.6609976300969720e-03" rms="3.4747505187988281e-01" purity="3.9606562256813049e-01" nType="-99"/>
                <Node pos="r" depth="5" NCoef="0" IVar="-1" Cut="0.0000000000000000e+00" cType="1" res="6.3370303250849247e-03" rms="3.4969905018806458e-01" purity="5.0829511880874634e-01" nType="-99"/>
              </Node>
            </Node>
          </Node>
          <Node pos="r" depth="2" NCoef="0" IVar="6" Cut="2.5285904407501221e+00" cType="1" res="-2.2896013688296080e-03" rms="2.8781843185424805e-01" purity="2.1499101817607880e-01" nType="0">
            <Node pos="l" depth="3" NCoef="0" IVar="2" Cut="1.0975610017776489e+00" cType="1" res="2.4568687658756971e-03" rms="2.8348967432975769e-01" purity="1.7059621214866638e-01" nType="0">
              <Node pos="l" depth="4" NCoef="0" IVar="-1" Cut="0.0000000000000000e+00" cType="1" res="3.8923120591789484e-03" rms="3.3152645826339722e-01" purity="2.4569009244441986e-01" nType="-99"/>
              <Node pos="r" depth="4" NCoef="0" IVar="-1" Cut="0.0000000000000000e+00" cType="1" res="-8.2850428298115730e-03" rms="1.8578095734119415e-01" purity="5.4400011897087097e-02" nType="-99"/>
            </Node>
            <Node pos="r" depth="3" NCoef="0" IVar="-1" Cut="0.0000000000000000e+00" cType="1" res="-6.8410616368055344e-03" rms="2.9818144440650940e-01" purity="3.2763436436653137e-01" nType="-99"/>
          </Node>
        </Node>
        <Node pos="r" depth="1" NCoef="0" IVar="5" Cut="4.0936363220214844e+01" cType="1" res="-2.0167112816125154e-03" rms="2.8796207904815674e-01" purity="5.4448246955871582e-01" nType="0">
          <Node pos="l" depth="2" NCoef="0" IVar="-1" Cut="0.0000000000000000e+00" cType="1" res="4.0335813537240028e-03" rms="3.5556286573410034e-01" purity="3.6775833368301392e-01" nType="-99"/>
          <Node pos="r" depth="2" NCoef="0" IVar="6" Cut="8.4286600351333618e-01" cType="1" res="-2.5675289798527956e-03" rms="2.8433588147163391e-01" purity="5.5288583040237427e-01" nType="0">
            <Node pos="l" depth="3" NCoef="0" IVar="4" Cut="1.5157572937011719e+02" cType="1" res="2.5596849154680967e-03" rms="3.0545938014984131e-01" purity="3.4933990240097046e-01" nType="0">
              <Node pos="l" depth="4" NCoef="0" IVar="2" Cut="1.0975610017776489e+00" cType="1" res="-2.9555396176874638e-03" rms="3.1438842415809631e-01" purity="4.5087742805480957e-01" nType="0">
                <Node pos="l" depth="5" NCoef="0" IVar="-1" Cut="0.0000000000000000e+00" cType="1" res="1.8821764970198274e-03" rms="3.3054855465888977e-01" purity="5.5492460727691650e-01" nType="-99"/>
                <Node pos="r" depth="5" NCoef="0" IVar="-1" Cut="0.0000000000000000e+00" cType="1" res="-1.2788507156074047e-02" rms="2.6992383599281311e-01" purity="1.9588571786880493e-01" nType="-99"/>
              </Node>
              <Node pos="r" depth="4" NCoef="0" IVar="-1" Cut="0.0000000000000000e+00" cType="1" res="1.0088406503200531e-02" rms="2.8483289480209351e-01" purity="1.2978357076644897e-01" nType="-99"/>
            </Node>
            <Node pos="r" depth="3" NCoef="0" IVar="8" Cut="7.1731889247894287e-01" cType="1" res="-3.4885124769061804e-03" rms="2.8036302328109741e-01" purity="5.8944809436798096e-01" nType="0">
              <Node pos="l" depth="4" NCoef="0" IVar="0" Cut="1.0975610017776489e+00" cType="1" res="-2.7581723406910896e-03" rms="2.7850958704948425e-01" purity="5.9747236967086792e-01" nType="0">
                <Node pos="l" depth="5" NCoef="0" IVar="-1" Cut="0.0000000000000000e+00" cType="1" res="-4.4267987832427025e-03" rms="2.5908303260803223e-01" purity="2.3545721173286438e-01" nType="-99"/>
                <Node pos="r" depth="5" NCoef="0" IVar="-1" Cut="0.0000000000000000e+00" cType="1" res="-7.6529715443030000e-04" rms="2.8553235530853271e-01" purity="7.3505920171737671e-01" nType="-99"/>
              </Node>
              <Node pos="r" depth="4" NCoef="0" IVar="-1" Cut="0.0000000000000000e+00" cType="1" res="-8.2180481404066086e-03" rms="3.1124681234359741e-01" purity="4.4652467966079712e-01" nType="-99"/>
            </Node>
          </Node>
        </Node>
      </Node>
    </BinaryTree>
    <BinaryTree type="DecisionTree" boostWeight="1.0000000000000000e+00" itree="287">
      <Node pos="s" depth="0" NCoef="0" IVar="8" Cut="5.9683173894882202e-01" cType="1" res="3.7782531580887735e-04" rms="2.9604402184486389e-01" purity="4.9997627735137939e-01" nType="0">
        <Node pos="l" depth="1" NCoef="0" IVar="5" Cut="6.2584320068359375e+01" cType="1" res="-3.9389956509694457e-04" rms="2.8934863209724426e-01" purity="4.9984130263328552e-01" nType="0">
          <Node pos="l" depth="2" NCoef="0" IVar="0" Cut="1.0975610017776489e+00" cType="1" res="-7.0663890801370144e-03" rms="3.3128759264945984e-01" purity="3.7411367893218994e-01" nType="0">
            <Node pos="l" depth="3" NCoef="0" IVar="7" Cut="1.1980223655700684e+00" cType="1" res="0.0000000000000000e+00" rms="0.0000000000000000e+00" purity="1.2728013098239899e-01" nType="0">
              <Node pos="l" depth="4" NCoef="0" IVar="-1" Cut="0.0000000000000000e+00" cType="1" res="6.4103072509169579e-03" rms="3.1516730785369873e-01" purity="1.7962960898876190e-01" nType="-99"/>
              <Node pos="r" depth="4" NCoef="0" IVar="-1" Cut="0.0000000000000000e+00" cType="1" res="-6.1268717981874943e-03" rms="2.2374950349330902e-01" purity="7.6767526566982269e-02" nType="-99"/>
            </Node>
            <Node pos="r" depth="3" NCoef="0" IVar="1" Cut="2.0731706619262695e+00" cType="1" res="-1.2958581559360027e-02" rms="3.6304226517677307e-01" purity="5.2844619750976562e-01" nType="0">
              <Node pos="l" depth="4" NCoef="0" IVar="-1" Cut="0.0000000000000000e+00" cType="1" res="-6.8681580014526844e-03" rms="3.7965136766433716e-01" purity="3.1082585453987122e-01" nType="-99"/>
              <Node pos="r" depth="4" NCoef="0" IVar="-1" Cut="0.0000000000000000e+00" cType="1" res="-2.4950695224106312e-03" rms="3.4602123498916626e-01" purity="7.3956632614135742e-01" nType="-99"/>
            </Node>
          </Node>
          <Node pos="r" depth="2" NCoef="0" IVar="7" Cut="1.4738166332244873e+00" cType="1" res="7.0693192537873983e-04" rms="2.8181520104408264e-01" purity="5.2058392763137817e-01" nType="0">
            <Node pos="l" depth="3" NCoef="0" IVar="4" Cut="1.2281802368164062e+02" cType="1" res="-1.3211285695433617e-03" rms="2.9215699434280396e-01" purity="5.5546855926513672e-01" nType="0">
              <Node pos="l" depth="4" NCoef="0" IVar="6" Cut="6.1299353837966919e-01" cType="1" res="-3.6785972770303488e-03" rms="2.9290944337844849e-01" purity="5.9027493000030518e-01" nType="0">
                <Node pos="l" depth="5" NCoef="0" IVar="-1" Cut="0.0000000000000000e+00" cType="1" res="-9.4971712678670883e-03" rms="2.9278770089149475e-01" purity="3.4643545746803284e-01" nType="-99"/>
                <Node pos="r" depth="5" NCoef="0" IVar="-1" Cut="0.0000000000000000e+00" cType="1" res="-1.3755680993199348e-03" rms="2.9288566112518311e-01" purity="6.1271417140960693e-01" nType="-99"/>
              </Node>
              <Node pos="r" depth="4" NCoef="0" IVar="8" Cut="2.1912799775600433e-01" cType="1" res="2.4816056247800589e-03" rms="2.9089885950088501e-01" purity="4.9932387471199036e-01" nType="0">
                <Node pos="l" depth="5" NCoef="0" IVar="-1" Cut="0.0000000000000000e+00" cType="1" res="1.1758022941648960e-02" rms="2.8415518999099731e-01" purity="2.3276518285274506e-01" nType="-99"/>
                <Node pos="r" depth="5" NCoef="0" IVar="-1" Cut="0.0000000000000000e+00" cType="1" res="-6.2920642085373402e-04" rms="2.9249650239944458e-01" purity="5.6769263744354248e-01" nType="-99"/>
              </Node>
            </Node>
            <Node pos="r" depth="3" NCoef="0" IVar="8" Cut="3.2030883431434631e-01" cType="1" res="3.7333224900066853e-03" rms="2.6560616493225098e-01" purity="4.6852701902389526e-01" nType="0">
              <Node pos="l" depth="4" NCoef="0" IVar="6" Cut="1.2259867191314697e+00" cType="1" res="7.0859299739822745e-04" rms="2.6250877976417542e-01" purity="4.3292456865310669e-01" nType="0">
                <Node pos="l" depth="5" NCoef="0" IVar="-1" Cut="0.0000000000000000e+00" cType="1" res="5.5367411114275455e-03" rms="2.5955939292907715e-01" purity="2.0866048336029053e-01" nType="-99"/>
                <Node pos="r" depth="5" NCoef="0" IVar="-1" Cut="0.0000000000000000e+00" cType="1" res="-8.5027300519868731e-04" rms="2.6332181692123413e-01" purity="4.9786871671676636e-01" nType="-99"/>
              </Node>
              <Node pos="r" depth="4" NCoef="0" IVar="7" Cut="2.0493965148925781e+00" cType="1" res="1.1807562783360481e-02" rms="2.7353891730308533e-01" purity="5.6356453895568848e-01" nType="0">
                <Node pos="l" depth="5" NCoef="0" IVar="-1" Cut="0.0000000000000000e+00" cType="1" res="3.5560796968638897e-03" rms="2.6761737465858459e-01" purity="6.3021498918533325e-01" nType="-99"/>
                <Node pos="r" depth="5" NCoef="0" IVar="-1" Cut="0.0000000000000000e+00" cType="1" res="1.2563742697238922e-02" rms="2.8167951107025146e-01" purity="4.6661531925201416e-01" nType="-99"/>
              </Node>
            </Node>
          </Node>
        </Node>
        <Node pos="r" depth="1" NCoef="0" IVar="3" Cut="2.0731706619262695e+00" cType="1" res="5.5991075932979584e-03" rms="3.3782935142517090e-01" purity="5.0088948011398315e-01" nType="0">
          <Node pos="l" depth="2" NCoef="0" IVar="6" Cut="1.9156031608581543e+00" cType="1" res="1.6591309104114771e-03" rms="3.3164492249488831e-01" purity="5.3430700302124023e-01" nType="0">
            <Node pos="l" depth="3" NCoef="0" IVar="8" Cut="8.0640757083892822e-01" cType="1" res="5.7892748154699802e-03" rms="3.3585762977600098e-01" purity="5.2517789602279663e-01" nType="0">
              <Node pos="l" depth="4" NCoef="0" IVar="-1" Cut="0.0000000000000000e+00" cType="1" res="-1.1752950958907604e-03" rms="3.2870817184448242e-01" purity="5.6653821468353271e-01" nType="-99"/>
              <Node pos="r" depth="4" NCoef="0" IVar="-1" Cut="0.0000000000000000e+00" cType="1" res="6.7164828069508076e-03" rms="3.4380888938903809e-01" purity="4.7655582427978516e-01" nType="-99"/>
            </Node>
            <Node pos="r" depth="3" NCoef="0" IVar="-1" Cut="0.0000000000000000e+00" cType="1" res="-3.2526201102882624e-03" rms="3.2273566722869873e-01" purity="5.5289179086685181e-01" nType="-99"/>
          </Node>
          <Node pos="r" depth="2" NCoef="0" IVar="-1" Cut="0.0000000000000000e+00" cType="1" res="9.2912642285227776e-03" rms="3.6270534992218018e-01" purity="3.5738751292228699e-01" nType="-99"/>
        </Node>
      </Node>
    </BinaryTree>
    <BinaryTree type="DecisionTree" boostWeight="1.0000000000000000e+00" itree="288">
      <Node pos="s" depth="0" NCoef="0" IVar="8" Cut="9.5485609769821167e-01" cType="1" res="1.0620131797622889e-04" rms="2.9676750302314758e-01" purity="4.9998584389686584e-01" nType="0">
        <Node pos="l" depth="1" NCoef="0" IVar="3" Cut="3.0487804412841797e+00" cType="1" res="-3.6718806950375438e-04" rms="2.9508352279663086e-01" purity="5.0457048416137695e-01" nType="0">
          <Node pos="l" depth="2" NCoef="0" IVar="4" Cut="1.1113304901123047e+02" cType="1" res="-1.7316146986559033e-03" rms="2.9347789287567139e-01" purity="5.5689185857772827e-01" nType="0">
            <Node pos="l" depth="3" NCoef="0" IVar="5" Cut="4.5215320587158203e+01" cType="1" res="-5.1047638989984989e-03" rms="3.0730807781219482e-01" purity="5.3118240833282471e-01" nType="0">
              <Node pos="l" depth="4" NCoef="0" IVar="-1" Cut="0.0000000000000000e+00" cType="1" res="-9.4395801424980164e-03" rms="3.4367087483406067e-01" purity="3.5035774111747742e-01" nType="-99"/>
              <Node pos="r" depth="4" NCoef="0" IVar="6" Cut="2.6818463802337646e+00" cType="1" res="-3.8232915103435516e-03" rms="3.0459091067314148e-01" purity="5.4368925094604492e-01" nType="0">
                <Node pos="l" depth="5" NCoef="0" IVar="-1" Cut="0.0000000000000000e+00" cType="1" res="-3.2385888043791056e-03" rms="3.0984118580818176e-01" purity="4.8765224218368530e-01" nType="-99"/>
                <Node pos="r" depth="5" NCoef="0" IVar="-1" Cut="0.0000000000000000e+00" cType="1" res="1.6383577603846788e-03" rms="2.9026341438293457e-01" purity="6.9066590070724487e-01" nType="-99"/>
              </Node>
            </Node>
            <Node pos="r" depth="3" NCoef="0" IVar="2" Cut="2.0731706619262695e+00" cType="1" res="9.7229320090264082e-04" rms="2.8187301754951477e-01" purity="5.7750052213668823e-01" nType="0">
              <Node pos="l" depth="4" NCoef="0" IVar="8" Cut="4.8931029438972473e-01" cType="1" res="-5.0461065256968141e-04" rms="2.8518331050872803e-01" purity="6.7498081922531128e-01" nType="0">
                <Node pos="l" depth="5" NCoef="0" IVar="-1" Cut="0.0000000000000000e+00" cType="1" res="-1.3015855802223086e-03" rms="2.8313314914703369e-01" purity="6.5515553951263428e-01" nType="-99"/>
                <Node pos="r" depth="5" NCoef="0" IVar="-1" Cut="0.0000000000000000e+00" cType="1" res="2.8353659436106682e-03" rms="2.9178157448768616e-01" purity="7.4040985107421875e-01" nType="-99"/>
              </Node>
              <Node pos="r" depth="4" NCoef="0" IVar="1" Cut="1.0975610017776489e+00" cType="1" res="6.3363611698150635e-03" rms="2.6944032311439514e-01" purity="2.2345505654811859e-01" nType="0">
                <Node pos="l" depth="5" NCoef="0" IVar="-1" Cut="0.0000000000000000e+00" cType="1" res="1.1111446656286716e-02" rms="2.5689241290092468e-01" purity="1.1915527284145355e-01" nType="-99"/>
                <Node pos="r" depth="5" NCoef="0" IVar="-1" Cut="0.0000000000000000e+00" cType="1" res="-1.4804090606048703e-03" rms="2.8517243266105652e-01" purity="3.6348694562911987e-01" nType="-99"/>
              </Node>
            </Node>
          </Node>
          <Node pos="r" depth="2" NCoef="0" IVar="8" Cut="4.4261658191680908e-01" cType="1" res="6.0280514881014824e-03" rms="3.0241364240646362e-01" purity="2.5933355093002319e-01" nType="0">
            <Node pos="l" depth="3" NCoef="0" IVar="8" Cut="3.5629692673683167e-01" cType="1" res="1.7899224767461419e-03" rms="2.8102594614028931e-01" purity="2.1906484663486481e-01" nType="0">
              <Node pos="l" depth="4" NCoef="0" IVar="0" Cut="3.0487804412841797e+00" cType="1" res="5.7224971242249012e-03" rms="2.7325704693794250e-01" purity="1.8822750449180603e-01" nType="0">
                <Node pos="l" depth="5" NCoef="0" IVar="-1" Cut="0.0000000000000000e+00" cType="1" res="-1.0417178273200989e-03" rms="2.1955485641956329e-01" purity="9.2679262161254883e-02" nType="-99"/>
                <Node pos="r" depth="5" NCoef="0" IVar="-1" Cut="0.0000000000000000e+00" cType="1" res="7.4104228988289833e-03" rms="3.4527131915092468e-01" purity="3.4979104995727539e-01" nType="-99"/>
              </Node>
              <Node pos="r" depth="4" NCoef="0" IVar="-1" Cut="0.0000000000000000e+00" cType="1" res="-7.1739777922630310e-03" rms="3.1039419770240784e-01" purity="3.4577238559722900e-01" nType="-99"/>
            </Node>
            <Node pos="r" depth="3" NCoef="0" IVar="4" Cut="1.1218234252929688e+02" cType="1" res="1.9253777340054512e-02" rms="3.6078226566314697e-01" purity="3.8499808311462402e-01" nType="0">
              <Node pos="l" depth="4" NCoef="0" IVar="-1" Cut="0.0000000000000000e+00" cType="1" res="1.2950493954122066e-02" rms="3.7842005491256714e-01" purity="3.6004832386970520e-01" nType="-99"/>
              <Node pos="r" depth="4" NCoef="0" IVar="-1" Cut="0.0000000000000000e+00" cType="1" res="2.0654553081840277e-03" rms="3.4031638503074646e-01" purity="4.1166999936103821e-01" nType="-99"/>
            </Node>
          </Node>
        </Node>
        <Node pos="r" depth="1" NCoef="0" IVar="-1" Cut="0.0000000000000000e+00" cType="1" res="7.1864603087306023e-03" rms="3.4813728928565979e-01" purity="3.4640297293663025e-01" nType="-99"/>
      </Node>
    </BinaryTree>
    <BinaryTree type="DecisionTree" boostWeight="1.0000000000000000e+00" itree="289">
      <Node pos="s" depth="0" NCoef="0" IVar="5" Cut="1.4195980834960938e+02" cType="1" res="4.8991397488862276e-04" rms="2.9536485671997070e-01" purity="5.0252091884613037e-01" nType="0">
        <Node pos="l" depth="1" NCoef="0" IVar="6" Cut="4.5974537730216980e-01" cType="1" res="-2.0984208094887435e-04" rms="2.9653725028038025e-01" purity="5.1969403028488159e-01" nType="0">
          <Node pos="l" depth="2" NCoef="0" IVar="1" Cut="3.0487804412841797e+00" cType="1" res="7.8265098854899406e-03" rms="3.1823030114173889e-01" purity="3.0533269047737122e-01" nType="0">
            <Node pos="l" depth="3" NCoef="0" IVar="4" Cut="1.0534621429443359e+02" cType="1" res="1.4275760389864445e-02" rms="3.0993184447288513e-01" purity="2.0086199045181274e-01" nType="0">
              <Node pos="l" depth="4" NCoef="0" IVar="-1" Cut="0.0000000000000000e+00" cType="1" res="1.2819604016840458e-02" rms="3.2229745388031006e-01" purity="2.1527794003486633e-01" nType="-99"/>
              <Node pos="r" depth="4" NCoef="0" IVar="-1" Cut="0.0000000000000000e+00" cType="1" res="3.7446778733283281e-03" rms="2.9929789900779724e-01" purity="1.8916624784469604e-01" nType="-99"/>
            </Node>
            <Node pos="r" depth="3" NCoef="0" IVar="-1" Cut="0.0000000000000000e+00" cType="1" res="-1.7547253519296646e-03" rms="3.3252018690109253e-01" purity="4.9599665403366089e-01" nType="-99"/>
          </Node>
          <Node pos="r" depth="2" NCoef="0" IVar="5" Cut="8.4936073303222656e+01" cType="1" res="-9.2637824127450585e-04" rms="2.9451486468315125e-01" purity="5.3880685567855835e-01" nType="0">
            <Node pos="l" depth="3" NCoef="0" IVar="2" Cut="2.0731706619262695e+00" cType="1" res="1.3625258579850197e-03" rms="3.0596709251403809e-01" purity="6.0390853881835938e-01" nType="0">
              <Node pos="l" depth="4" NCoef="0" IVar="4" Cut="1.2233139038085938e+02" cType="1" res="1.7961348930839449e-04" rms="3.0929774045944214e-01" purity="6.8413543701171875e-01" nType="0">
                <Node pos="l" depth="5" NCoef="0" IVar="-1" Cut="0.0000000000000000e+00" cType="1" res="9.8343263380229473e-04" rms="3.0966091156005859e-01" purity="7.3018735647201538e-01" nType="-99"/>
                <Node pos="r" depth="5" NCoef="0" IVar="-1" Cut="0.0000000000000000e+00" cType="1" res="-1.4341901987791061e-03" rms="3.0866840481758118e-01" purity="6.0731559991836548e-01" nType="-99"/>
              </Node>
              <Node pos="r" depth="4" NCoef="0" IVar="4" Cut="9.4203872680664062e+01" cType="1" res="6.5200398676097393e-03" rms="2.9094415903091431e-01" purity="2.5411835312843323e-01" nType="0">
                <Node pos="l" depth="5" NCoef="0" IVar="-1" Cut="0.0000000000000000e+00" cType="1" res="-1.3891465496271849e-03" rms="2.7326938509941101e-01" purity="1.5986596047878265e-01" nType="-99"/>
                <Node pos="r" depth="5" NCoef="0" IVar="-1" Cut="0.0000000000000000e+00" cType="1" res="6.1194379813969135e-03" rms="2.9929661750793457e-01" purity="3.0125993490219116e-01" nType="-99"/>
              </Node>
            </Node>
            <Node pos="r" depth="3" NCoef="0" IVar="3" Cut="1.0975610017776489e+00" cType="1" res="-3.3127381466329098e-03" rms="2.8206059336662292e-01" purity="4.7093328833580017e-01" nType="0">
              <Node pos="l" depth="4" NCoef="0" IVar="9" Cut="2.9384690523147583e-01" cType="1" res="-9.3978724908083677e-04" rms="2.8390550613403320e-01" purity="5.4109656810760498e-01" nType="0">
                <Node pos="l" depth="5" NCoef="0" IVar="-1" Cut="0.0000000000000000e+00" cType="1" res="-4.1640861891210079e-03" rms="2.8036144375801086e-01" purity="3.5387176275253296e-01" nType="-99"/>
                <Node pos="r" depth="5" NCoef="0" IVar="-1" Cut="0.0000000000000000e+00" cType="1" res="2.0863795652985573e-03" rms="2.8636536002159119e-01" purity="6.7679095268249512e-01" nType="-99"/>
              </Node>
              <Node pos="r" depth="4" NCoef="0" IVar="9" Cut="5.0959092378616333e-01" cType="1" res="-9.1521423310041428e-03" rms="2.7738195657730103e-01" purity="2.9827395081520081e-01" nType="0">
                <Node pos="l" depth="5" NCoef="0" IVar="-1" Cut="0.0000000000000000e+00" cType="1" res="-2.9556360095739365e-03" rms="2.7979427576065063e-01" purity="2.9253375530242920e-01" nType="-99"/>
                <Node pos="r" depth="5" NCoef="0" IVar="-1" Cut="0.0000000000000000e+00" cType="1" res="-1.6545955091714859e-02" rms="2.6620334386825562e-01" purity="3.2239454984664917e-01" nType="-99"/>
              </Node>
            </Node>
          </Node>
        </Node>
        <Node pos="r" depth="1" NCoef="0" IVar="8" Cut="2.3024460673332214e-01" cType="1" res="8.4328539669513702e-03" rms="2.8159302473068237e-01" purity="3.0758932232856750e-01" nType="0">
          <Node pos="l" depth="2" NCoef="0" IVar="-1" Cut="0.0000000000000000e+00" cType="1" res="-1.1327912798151374e-03" rms="2.3398299515247345e-01" purity="1.2656585872173309e-01" nType="-99"/>
          <Node pos="r" depth="2" NCoef="0" IVar="6" Cut="2.2987215518951416e+00" cType="1" res="1.3610003516077995e-02" rms="3.0366718769073486e-01" purity="4.0343481302261353e-01" nType="0">
            <Node pos="l" depth="3" NCoef="0" IVar="-1" Cut="0.0000000000000000e+00" cType="1" res="2.3487855214625597e-03" rms="3.1451582908630371e-01" purity="1.9038335978984833e-01" nType="-99"/>
            <Node pos="r" depth="3" NCoef="0" IVar="-1" Cut="0.0000000000000000e+00" cType="1" res="1.2451858259737492e-02" rms="2.9268017411231995e-01" purity="6.0642999410629272e-01" nType="-99"/>
          </Node>
        </Node>
      </Node>
    </BinaryTree>
    <BinaryTree type="DecisionTree" boostWeight="1.0000000000000000e+00" itree="290">
      <Node pos="s" depth="0" NCoef="0" IVar="4" Cut="1.9196882629394531e+02" cType="1" res="5.8369350153952837e-04" rms="2.9612264037132263e-01" purity="5.0039350986480713e-01" nType="0">
        <Node pos="l" depth="1" NCoef="0" IVar="4" Cut="3.8398807525634766e+01" cType="1" res="1.1595096439123154e-03" rms="2.9885461926460266e-01" purity="5.3298556804656982e-01" nType="0">
          <Node pos="l" depth="2" NCoef="0" IVar="-1" Cut="0.0000000000000000e+00" cType="1" res="-6.8157538771629333e-03" rms="2.9501891136169434e-01" purity="1.4711952209472656e-01" nType="-99"/>
          <Node pos="r" depth="2" NCoef="0" IVar="5" Cut="1.3474380493164062e+02" cType="1" res="1.5036890981718898e-03" rms="2.9894250631332397e-01" purity="5.4270172119140625e-01" nType="0">
            <Node pos="l" depth="3" NCoef="0" IVar="6" Cut="2.7584712505340576e+00" cType="1" res="2.3060548119246960e-03" rms="3.0123004317283630e-01" purity="5.7036966085433960e-01" nType="0">
              <Node pos="l" depth="4" NCoef="0" IVar="6" Cut="8.7463736534118652e-01" cType="1" res="3.6694814916700125e-03" rms="3.1112098693847656e-01" purity="5.2138864994049072e-01" nType="0">
                <Node pos="l" depth="5" NCoef="0" IVar="-1" Cut="0.0000000000000000e+00" cType="1" res="-1.0785777121782303e-03" rms="3.1781187653541565e-01" purity="3.7014439702033997e-01" nType="-99"/>
                <Node pos="r" depth="5" NCoef="0" IVar="-1" Cut="0.0000000000000000e+00" cType="1" res="2.7131764218211174e-03" rms="3.0935603380203247e-01" purity="5.6034636497497559e-01" nType="-99"/>
              </Node>
              <Node pos="r" depth="4" NCoef="0" IVar="4" Cut="7.9600791931152344e+01" cType="1" res="-1.8689782591536641e-03" rms="2.6864433288574219e-01" purity="7.2035735845565796e-01" nType="0">
                <Node pos="l" depth="5" NCoef="0" IVar="-1" Cut="0.0000000000000000e+00" cType="1" res="-6.8734916858375072e-03" rms="3.2962352037429810e-01" purity="4.1851136088371277e-01" nType="-99"/>
                <Node pos="r" depth="5" NCoef="0" IVar="-1" Cut="0.0000000000000000e+00" cType="1" res="1.5498950961045921e-04" rms="2.5895205140113831e-01" purity="7.6237130165100098e-01" nType="-99"/>
              </Node>
            </Node>
            <Node pos="r" depth="3" NCoef="0" IVar="2" Cut="2.0731706619262695e+00" cType="1" res="-5.0304345786571503e-03" rms="2.7953213453292847e-01" purity="3.1738591194152832e-01" nType="0">
              <Node pos="l" depth="4" NCoef="0" IVar="9" Cut="3.0081361532211304e-01" cType="1" res="-1.0715084150433540e-02" rms="3.0181959271430969e-01" purity="4.1617137193679810e-01" nType="0">
                <Node pos="l" depth="5" NCoef="0" IVar="-1" Cut="0.0000000000000000e+00" cType="1" res="-1.1000863276422024e-02" rms="2.8862321376800537e-01" purity="2.1802394092082977e-01" nType="-99"/>
                <Node pos="r" depth="5" NCoef="0" IVar="-1" Cut="0.0000000000000000e+00" cType="1" res="-1.6855089925229549e-03" rms="3.1143134832382202e-01" purity="5.6915593147277832e-01" nType="-99"/>
              </Node>
              <Node pos="r" depth="4" NCoef="0" IVar="-1" Cut="0.0000000000000000e+00" cType="1" res="6.1489432118833065e-03" rms="2.2785532474517822e-01" purity="1.1896735429763794e-01" nType="-99"/>
            </Node>
          </Node>
        </Node>
        <Node pos="r" depth="1" NCoef="0" IVar="6" Cut="9.1949182748794556e-01" cType="1" res="-5.2021373994648457e-03" rms="2.6705634593963623e-01" purity="1.7290663719177246e-01" nType="0">
          <Node pos="l" depth="2" NCoef="0" IVar="-1" Cut="0.0000000000000000e+00" cType="1" res="6.5300646238029003e-03" rms="2.6598724722862244e-01" purity="9.4961874186992645e-02" nType="-99"/>
          <Node pos="r" depth="2" NCoef="0" IVar="7" Cut="1.1937811374664307e+00" cType="1" res="-9.1006206348538399e-03" rms="2.6724517345428467e-01" purity="1.9584681093692780e-01" nType="0">
            <Node pos="l" depth="3" NCoef="0" IVar="-1" Cut="0.0000000000000000e+00" cType="1" res="-9.5803476870059967e-03" rms="2.8787392377853394e-01" purity="2.2201693058013916e-01" nType="-99"/>
            <Node pos="r" depth="3" NCoef="0" IVar="-1" Cut="0.0000000000000000e+00" cType="1" res="-1.3237770181149244e-03" rms="2.4643875658512115e-01" purity="1.7166782915592194e-01" nType="-99"/>
          </Node>
        </Node>
      </Node>
    </BinaryTree>
    <BinaryTree type="DecisionTree" boostWeight="1.0000000000000000e+00" itree="291">
      <Node pos="s" depth="0" NCoef="0" IVar="8" Cut="8.4226864576339722e-01" cType="1" res="8.7792686827015132e-05" rms="2.9487198591232300e-01" purity="5.0241655111312866e-01" nType="0">
        <Node pos="l" depth="1" NCoef="0" IVar="4" Cut="2.3265347290039062e+02" cType="1" res="-3.4702691482380033e-04" rms="2.9234644770622253e-01" purity="5.0735926628112793e-01" nType="0">
          <Node pos="l" depth="2" NCoef="0" IVar="8" Cut="6.9851368665695190e-01" cType="1" res="-7.3244835948571563e-04" rms="2.9255229234695435e-01" purity="5.1417684555053711e-01" nType="0">
            <Node pos="l" depth="3" NCoef="0" IVar="8" Cut="5.9633195400238037e-01" cType="1" res="-3.5075267078354955e-04" rms="2.9091787338256836e-01" purity="5.1350343227386475e-01" nType="0">
              <Node pos="l" depth="4" NCoef="0" IVar="5" Cut="1.2408979034423828e+02" cType="1" res="-8.6029386147856712e-04" rms="2.8858444094657898e-01" purity="5.0877559185028076e-01" nType="0">
                <Node pos="l" depth="5" NCoef="0" IVar="-1" Cut="0.0000000000000000e+00" cType="1" res="-1.0205671424046159e-03" rms="2.9232117533683777e-01" purity="5.5453759431838989e-01" nType="-99"/>
                <Node pos="r" depth="5" NCoef="0" IVar="-1" Cut="0.0000000000000000e+00" cType="1" res="2.0356911700218916e-03" rms="2.7169308066368103e-01" purity="3.0968827009201050e-01" nType="-99"/>
              </Node>
              <Node pos="r" depth="4" NCoef="0" IVar="8" Cut="6.4119225740432739e-01" cType="1" res="8.4133455529808998e-03" rms="3.2834473252296448e-01" purity="5.9482222795486450e-01" nType="0">
                <Node pos="l" depth="5" NCoef="0" IVar="-1" Cut="0.0000000000000000e+00" cType="1" res="3.5191222559660673e-03" rms="3.2772198319435120e-01" purity="5.9775173664093018e-01" nType="-99"/>
                <Node pos="r" depth="5" NCoef="0" IVar="-1" Cut="0.0000000000000000e+00" cType="1" res="4.1033104062080383e-03" rms="3.2898643612861633e-01" purity="5.9178841114044189e-01" nType="-99"/>
              </Node>
            </Node>
            <Node pos="r" depth="3" NCoef="0" IVar="-1" Cut="0.0000000000000000e+00" cType="1" res="-4.7807204537093639e-03" rms="3.3341193199157715e-01" purity="5.3231567144393921e-01" nType="-99"/>
          </Node>
          <Node pos="r" depth="2" NCoef="0" IVar="-1" Cut="0.0000000000000000e+00" cType="1" res="1.0725325904786587e-02" rms="2.8266596794128418e-01" purity="2.0869615674018860e-01" nType="-99"/>
        </Node>
        <Node pos="r" depth="1" NCoef="0" IVar="5" Cut="7.7016098022460938e+01" cType="1" res="9.5241274684667587e-03" rms="3.4502327442169189e-01" purity="3.9515057206153870e-01" nType="0">
          <Node pos="l" depth="2" NCoef="0" IVar="-1" Cut="0.0000000000000000e+00" cType="1" res="8.7998285889625549e-03" rms="3.7280690670013428e-01" purity="4.5620149374008179e-01" nType="-99"/>
          <Node pos="r" depth="2" NCoef="0" IVar="-1" Cut="0.0000000000000000e+00" cType="1" res="-1.7708402592688799e-03" rms="3.1373211741447449e-01" purity="3.3309662342071533e-01" nType="-99"/>
        </Node>
      </Node>
    </BinaryTree>
    <BinaryTree type="DecisionTree" boostWeight="1.0000000000000000e+00" itree="292">
      <Node pos="s" depth="0" NCoef="0" IVar="4" Cut="1.8036244201660156e+02" cType="1" res="2.6571931084617972e-04" rms="2.9425027966499329e-01" purity="5.0371325016021729e-01" nType="0">
        <Node pos="l" depth="1" NCoef="0" IVar="4" Cut="6.9537361145019531e+01" cType="1" res="1.0662573622539639e-03" rms="2.9759654402732849e-01" purity="5.4552674293518066e-01" nType="0">
          <Node pos="l" depth="2" NCoef="0" IVar="0" Cut="1.0975610017776489e+00" cType="1" res="-5.2321283146739006e-03" rms="3.1988930702209473e-01" purity="2.3541353642940521e-01" nType="0">
            <Node pos="l" depth="3" NCoef="0" IVar="2" Cut="1.0975610017776489e+00" cType="1" res="0.0000000000000000e+00" rms="0.0000000000000000e+00" purity="1.2003613263368607e-01" nType="0">
              <Node pos="l" depth="4" NCoef="0" IVar="-1" Cut="0.0000000000000000e+00" cType="1" res="5.7227718643844128e-03" rms="3.2514670491218567e-01" purity="1.8680451810359955e-01" nType="-99"/>
              <Node pos="r" depth="4" NCoef="0" IVar="-1" Cut="0.0000000000000000e+00" cType="1" res="-9.8449867218732834e-03" rms="1.7407836019992828e-01" purity="3.9954930543899536e-02" nType="-99"/>
            </Node>
            <Node pos="r" depth="3" NCoef="0" IVar="4" Cut="5.1735584259033203e+01" cType="1" res="-1.4823638834059238e-02" rms="3.6971604824066162e-01" purity="3.6474871635437012e-01" nType="0">
              <Node pos="l" depth="4" NCoef="0" IVar="-1" Cut="0.0000000000000000e+00" cType="1" res="-9.1963838785886765e-03" rms="3.5966363549232483e-01" purity="2.9796329140663147e-01" nType="-99"/>
              <Node pos="r" depth="4" NCoef="0" IVar="-1" Cut="0.0000000000000000e+00" cType="1" res="-2.0981298293918371e-03" rms="3.7675717473030090e-01" purity="4.1424077749252319e-01" nType="-99"/>
            </Node>
          </Node>
          <Node pos="r" depth="2" NCoef="0" IVar="6" Cut="1.4558594226837158e+00" cType="1" res="2.0371284335851669e-03" rms="2.9399785399436951e-01" purity="5.9332948923110962e-01" nType="0">
            <Node pos="l" depth="3" NCoef="0" IVar="5" Cut="1.0240443420410156e+02" cType="1" res="5.6048058904707432e-03" rms="3.1423124670982361e-01" purity="4.3982467055320740e-01" nType="0">
              <Node pos="l" depth="4" NCoef="0" IVar="7" Cut="6.8779742717742920e-01" cType="1" res="1.8771808827295899e-03" rms="3.1736326217651367e-01" purity="5.4354447126388550e-01" nType="0">
                <Node pos="l" depth="5" NCoef="0" IVar="-1" Cut="0.0000000000000000e+00" cType="1" res="-2.6437896303832531e-03" rms="3.1514132022857666e-01" purity="6.0857367515563965e-01" nType="-99"/>
                <Node pos="r" depth="5" NCoef="0" IVar="-1" Cut="0.0000000000000000e+00" cType="1" res="2.8325403109192848e-03" rms="3.1851765513420105e-01" purity="5.0743389129638672e-01" nType="-99"/>
              </Node>
              <Node pos="r" depth="4" NCoef="0" IVar="5" Cut="1.1645270538330078e+02" cType="1" res="1.3733042404055595e-02" rms="3.0713424086570740e-01" purity="2.1365936100482941e-01" nType="0">
                <Node pos="l" depth="5" NCoef="0" IVar="-1" Cut="0.0000000000000000e+00" cType="1" res="1.8078470602631569e-02" rms="3.3629581332206726e-01" purity="2.9176208376884460e-01" nType="-99"/>
                <Node pos="r" depth="5" NCoef="0" IVar="-1" Cut="0.0000000000000000e+00" cType="1" res="2.0751531701534986e-03" rms="2.9199507832527161e-01" purity="1.7726522684097290e-01" nType="-99"/>
              </Node>
            </Node>
            <Node pos="r" depth="3" NCoef="0" IVar="8" Cut="6.5342873334884644e-01" cType="1" res="6.2660989351570606e-04" rms="2.8559097647666931e-01" purity="6.5401923656463623e-01" nType="0">
              <Node pos="l" depth="4" NCoef="0" IVar="8" Cut="1.5946677327156067e-01" cType="1" res="1.3111742446199059e-03" rms="2.8238388895988464e-01" purity="6.6020441055297852e-01" nType="0">
                <Node pos="l" depth="5" NCoef="0" IVar="-1" Cut="0.0000000000000000e+00" cType="1" res="-3.5209606867283583e-03" rms="2.8898623585700989e-01" purity="3.2993701100349426e-01" nType="-99"/>
                <Node pos="r" depth="5" NCoef="0" IVar="-1" Cut="0.0000000000000000e+00" cType="1" res="1.4359115157276392e-03" rms="2.8145664930343628e-01" purity="7.0521360635757446e-01" nType="-99"/>
              </Node>
              <Node pos="r" depth="4" NCoef="0" IVar="-1" Cut="0.0000000000000000e+00" cType="1" res="-4.8881284892559052e-03" rms="3.3542847633361816e-01" purity="5.4843395948410034e-01" nType="-99"/>
            </Node>
          </Node>
        </Node>
        <Node pos="r" depth="1" NCoef="0" IVar="1" Cut="3.0487804412841797e+00" cType="1" res="-5.9371255338191986e-03" rms="2.6682293415069580e-01" purity="1.7972750961780548e-01" nType="0">
          <Node pos="l" depth="2" NCoef="0" IVar="5" Cut="8.4588729858398438e+01" cType="1" res="-7.1167020360007882e-04" rms="2.6785057783126831e-01" purity="1.7272882163524628e-01" nType="0">
            <Node pos="l" depth="3" NCoef="0" IVar="-1" Cut="0.0000000000000000e+00" cType="1" res="-5.8167362585663795e-03" rms="2.8866958618164062e-01" purity="1.6894796490669250e-01" nType="-99"/>
            <Node pos="r" depth="3" NCoef="0" IVar="5" Cut="1.2137443542480469e+02" cType="1" res="4.7276006080210209e-03" rms="2.5454130768775940e-01" purity="1.7497169971466064e-01" nType="0">
              <Node pos="l" depth="4" NCoef="0" IVar="-1" Cut="0.0000000000000000e+00" cType="1" res="8.2737421616911888e-03" rms="2.8175979852676392e-01" purity="2.1139912307262421e-01" nType="-99"/>
              <Node pos="r" depth="4" NCoef="0" IVar="-1" Cut="0.0000000000000000e+00" cType="1" res="-4.9936342984437943e-03" rms="2.1331886947154999e-01" purity="1.2731033563613892e-01" nType="-99"/>
            </Node>
          </Node>
          <Node pos="r" depth="2" NCoef="0" IVar="-1" Cut="0.0000000000000000e+00" cType="1" res="-1.0599349625408649e-02" rms="2.6375913619995117e-01" purity="1.9735181331634521e-01" nType="-99"/>
        </Node>
      </Node>
    </BinaryTree>
    <BinaryTree type="DecisionTree" boostWeight="1.0000000000000000e+00" itree="293">
      <Node pos="s" depth="0" NCoef="0" IVar="3" Cut="2.0731706619262695e+00" cType="1" res="-1.7436314374208450e-04" rms="2.9557463526725769e-01" purity="5.0052684545516968e-01" nType="0">
        <Node pos="l" depth="1" NCoef="0" IVar="9" Cut="2.3284450173377991e-01" cType="1" res="-1.2066140770912170e-03" rms="2.9336127638816833e-01" purity="5.5554515123367310e-01" nType="0">
          <Node pos="l" depth="2" NCoef="0" IVar="6" Cut="2.8350939750671387e+00" cType="1" res="-4.8745856620371342e-03" rms="2.8588828444480896e-01" purity="3.1733128428459167e-01" nType="0">
            <Node pos="l" depth="3" NCoef="0" IVar="0" Cut="3.0487804412841797e+00" cType="1" res="-1.8945578485727310e-03" rms="2.8605803847312927e-01" purity="2.8760713338851929e-01" nType="0">
              <Node pos="l" depth="4" NCoef="0" IVar="1" Cut="4.0243902206420898e+00" cType="1" res="3.1513243447989225e-03" rms="2.3552308976650238e-01" purity="1.4274850487709045e-01" nType="0">
                <Node pos="l" depth="5" NCoef="0" IVar="-1" Cut="0.0000000000000000e+00" cType="1" res="-1.0626957518979907e-03" rms="1.9908283650875092e-01" purity="7.8482285141944885e-02" nType="-99"/>
                <Node pos="r" depth="5" NCoef="0" IVar="-1" Cut="0.0000000000000000e+00" cType="1" res="6.7356564104557037e-03" rms="3.0115255713462830e-01" purity="2.8616198897361755e-01" nType="-99"/>
              </Node>
              <Node pos="r" depth="4" NCoef="0" IVar="7" Cut="2.8512763977050781e+00" cType="1" res="-7.1136127226054668e-03" rms="3.3020949363708496e-01" purity="4.3743723630905151e-01" nType="0">
                <Node pos="l" depth="5" NCoef="0" IVar="-1" Cut="0.0000000000000000e+00" cType="1" res="-1.2743608094751835e-03" rms="3.4669744968414307e-01" purity="4.0925234556198120e-01" nType="-99"/>
                <Node pos="r" depth="5" NCoef="0" IVar="-1" Cut="0.0000000000000000e+00" cType="1" res="-1.0042002424597740e-02" rms="2.7780905365943909e-01" purity="5.1744139194488525e-01" nType="-99"/>
              </Node>
            </Node>
            <Node pos="r" depth="3" NCoef="0" IVar="-1" Cut="0.0000000000000000e+00" cType="1" res="-1.0537636466324329e-02" rms="2.8456950187683105e-01" purity="4.6601700782775879e-01" nType="-99"/>
          </Node>
          <Node pos="r" depth="2" NCoef="0" IVar="7" Cut="1.9642713069915771e+00" cType="1" res="1.3944860256742686e-04" rms="2.9604500532150269e-01" purity="6.4296430349349976e-01" nType="0">
            <Node pos="l" depth="3" NCoef="0" IVar="7" Cut="1.5809980630874634e+00" cType="1" res="-1.3899087207391858e-03" rms="2.9961460828781128e-01" purity="6.5232169628143311e-01" nType="0">
              <Node pos="l" depth="4" NCoef="0" IVar="4" Cut="1.3983761596679688e+02" cType="1" res="-2.9033998725935817e-04" rms="3.0215039849281311e-01" purity="6.5707242488861084e-01" nType="0">
                <Node pos="l" depth="5" NCoef="0" IVar="-1" Cut="0.0000000000000000e+00" cType="1" res="-8.4997888188809156e-04" rms="2.9229983687400818e-01" purity="7.0496952533721924e-01" nType="-99"/>
                <Node pos="r" depth="5" NCoef="0" IVar="-1" Cut="0.0000000000000000e+00" cType="1" res="2.2300519049167633e-03" rms="3.4356042742729187e-01" purity="4.3806207180023193e-01" nType="-99"/>
              </Node>
              <Node pos="r" depth="4" NCoef="0" IVar="-1" Cut="0.0000000000000000e+00" cType="1" res="-6.9025107659399509e-03" rms="2.7591720223426819e-01" purity="6.1019009351730347e-01" nType="-99"/>
            </Node>
            <Node pos="r" depth="3" NCoef="0" IVar="5" Cut="8.8282279968261719e+01" cType="1" res="9.4983363524079323e-03" rms="2.7300015091896057e-01" purity="5.8570140600204468e-01" nType="0">
              <Node pos="l" depth="4" NCoef="0" IVar="-1" Cut="0.0000000000000000e+00" cType="1" res="-3.2081989047583193e-05" rms="2.7820122241973877e-01" purity="6.4087146520614624e-01" nType="-99"/>
              <Node pos="r" depth="4" NCoef="0" IVar="-1" Cut="0.0000000000000000e+00" cType="1" res="1.2562015093863010e-02" rms="2.6639124751091003e-01" purity="5.2151763439178467e-01" nType="-99"/>
            </Node>
          </Node>
        </Node>
        <Node pos="r" depth="1" NCoef="0" IVar="9" Cut="4.6106201410293579e-01" cType="1" res="3.6748489364981651e-03" rms="3.0365493893623352e-01" purity="2.9536622762680054e-01" nType="0">
          <Node pos="l" depth="2" NCoef="0" IVar="3" Cut="4.0243902206420898e+00" cType="1" res="6.1548608355224133e-03" rms="2.9882058501243591e-01" purity="2.7039057016372681e-01" nType="0">
            <Node pos="l" depth="3" NCoef="0" IVar="7" Cut="9.8436778783798218e-01" cType="1" res="1.3722113333642483e-02" rms="3.1639385223388672e-01" purity="3.9684924483299255e-01" nType="0">
              <Node pos="l" depth="4" NCoef="0" IVar="-1" Cut="0.0000000000000000e+00" cType="1" res="1.1489485390484333e-02" rms="3.4777760505676270e-01" purity="4.3614923954010010e-01" nType="-99"/>
              <Node pos="r" depth="4" NCoef="0" IVar="-1" Cut="0.0000000000000000e+00" cType="1" res="4.1064429096877575e-03" rms="2.9241180419921875e-01" purity="3.6953628063201904e-01" nType="-99"/>
            </Node>
            <Node pos="r" depth="3" NCoef="0" IVar="5" Cut="9.5148292541503906e+01" cType="1" res="2.1420519333332777e-03" rms="2.8898823261260986e-01" purity="2.0333123207092285e-01" nType="0">
              <Node pos="l" depth="4" NCoef="0" IVar="8" Cut="3.6066573858261108e-01" cType="1" res="-1.1003474704921246e-02" rms="2.9293242096900940e-01" purity="1.9720761477947235e-01" nType="0">
                <Node pos="l" depth="5" NCoef="0" IVar="-1" Cut="0.0000000000000000e+00" cType="1" res="-2.8389506042003632e-03" rms="2.5363460183143616e-01" purity="1.3784213364124298e-01" nType="-99"/>
                <Node pos="r" depth="5" NCoef="0" IVar="-1" Cut="0.0000000000000000e+00" cType="1" res="-8.1544928252696991e-03" rms="3.2969990372657776e-01" purity="2.6078063249588013e-01" nType="-99"/>
              </Node>
              <Node pos="r" depth="4" NCoef="0" IVar="7" Cut="1.1515001058578491e+00" cType="1" res="1.1309787631034851e-02" rms="2.8584775328636169e-01" purity="2.0760186016559601e-01" nType="0">
                <Node pos="l" depth="5" NCoef="0" IVar="-1" Cut="0.0000000000000000e+00" cType="1" res="1.4222634956240654e-02" rms="3.3191406726837158e-01" purity="2.4213314056396484e-01" nType="-99"/>
                <Node pos="r" depth="5" NCoef="0" IVar="-1" Cut="0.0000000000000000e+00" cType="1" res="2.0263245096430182e-04" rms="2.4177046120166779e-01" purity="1.7971447110176086e-01" nType="-99"/>
              </Node>
            </Node>
          </Node>
          <Node pos="r" depth="2" NCoef="0" IVar="5" Cut="9.9299156188964844e+01" cType="1" res="-3.7956901360303164e-03" rms="3.1765624880790710e-01" purity="3.7060040235519409e-01" nType="0">
            <Node pos="l" depth="3" NCoef="0" IVar="-1" Cut="0.0000000000000000e+00" cType="1" res="2.9929685406386852e-03" rms="3.5689127445220947e-01" purity="4.6145313978195190e-01" nType="-99"/>
            <Node pos="r" depth="3" NCoef="0" IVar="-1" Cut="0.0000000000000000e+00" cType="1" res="-8.3823148161172867e-03" rms="2.7494189143180847e-01" purity="2.8448039293289185e-01" nType="-99"/>
          </Node>
        </Node>
      </Node>
    </BinaryTree>
    <BinaryTree type="DecisionTree" boostWeight="1.0000000000000000e+00" itree="294">
      <Node pos="s" depth="0" NCoef="0" IVar="8" Cut="2.4077637493610382e-01" cType="1" res="-3.9398463559336960e-04" rms="2.9438471794128418e-01" purity="5.0073421001434326e-01" nType="0">
        <Node pos="l" depth="1" NCoef="0" IVar="7" Cut="1.2864377498626709e+00" cType="1" res="-3.5371372941881418e-03" rms="2.7587553858757019e-01" purity="3.2523453235626221e-01" nType="0">
          <Node pos="l" depth="2" NCoef="0" IVar="1" Cut="1.0975610017776489e+00" cType="1" res="4.0142266079783440e-03" rms="2.9826328158378601e-01" purity="3.1329712271690369e-01" nType="0">
            <Node pos="l" depth="3" NCoef="0" IVar="4" Cut="1.2287448120117188e+02" cType="1" res="1.3230014592409134e-02" rms="2.8649061918258667e-01" purity="1.5027683973312378e-01" nType="0">
              <Node pos="l" depth="4" NCoef="0" IVar="-1" Cut="0.0000000000000000e+00" cType="1" res="2.8544254018925130e-04" rms="2.8683909773826599e-01" purity="1.6291743516921997e-01" nType="-99"/>
              <Node pos="r" depth="4" NCoef="0" IVar="-1" Cut="0.0000000000000000e+00" cType="1" res="2.1616224199533463e-02" rms="2.8538689017295837e-01" purity="1.3575792312622070e-01" nType="-99"/>
            </Node>
            <Node pos="r" depth="3" NCoef="0" IVar="7" Cut="6.9028592109680176e-01" cType="1" res="-6.3033467158675194e-03" rms="3.1059071421623230e-01" purity="4.9580717086791992e-01" nType="0">
              <Node pos="l" depth="4" NCoef="0" IVar="-1" Cut="0.0000000000000000e+00" cType="1" res="-5.8061983436346054e-03" rms="3.0222496390342712e-01" purity="4.9289700388908386e-01" nType="-99"/>
              <Node pos="r" depth="4" NCoef="0" IVar="-1" Cut="0.0000000000000000e+00" cType="1" res="-4.1085563134402037e-04" rms="3.1970044970512390e-01" purity="4.9909883737564087e-01" nType="-99"/>
            </Node>
          </Node>
          <Node pos="r" depth="2" NCoef="0" IVar="6" Cut="6.1299866437911987e-01" cType="1" res="-7.4721705168485641e-03" rms="2.6337051391601562e-01" purity="3.3145514130592346e-01" nType="0">
            <Node pos="l" depth="3" NCoef="0" IVar="-1" Cut="0.0000000000000000e+00" cType="1" res="5.8258976787328720e-03" rms="2.4855251610279083e-01" purity="1.7119522392749786e-01" nType="-99"/>
            <Node pos="r" depth="3" NCoef="0" IVar="4" Cut="1.2280155944824219e+02" cType="1" res="-9.6095995977520943e-03" rms="2.6531445980072021e-01" purity="3.5395163297653198e-01" nType="0">
              <Node pos="l" depth="4" NCoef="0" IVar="7" Cut="3.2188684940338135e+00" cType="1" res="-4.6440758742392063e-03" rms="2.7809324860572815e-01" purity="4.2749074101448059e-01" nType="0">
                <Node pos="l" depth="5" NCoef="0" IVar="-1" Cut="0.0000000000000000e+00" cType="1" res="-4.8406682908535004e-03" rms="2.7873754501342773e-01" purity="4.2947372794151306e-01" nType="-99"/>
                <Node pos="r" depth="5" NCoef="0" IVar="-1" Cut="0.0000000000000000e+00" cType="1" res="3.5013412125408649e-03" rms="2.7593231201171875e-01" purity="4.2171308398246765e-01" nType="-99"/>
              </Node>
              <Node pos="r" depth="4" NCoef="0" IVar="4" Cut="1.6313285827636719e+02" cType="1" res="-1.6499798744916916e-02" rms="2.4632172286510468e-01" purity="2.5190818309783936e-01" nType="0">
                <Node pos="l" depth="5" NCoef="0" IVar="-1" Cut="0.0000000000000000e+00" cType="1" res="-1.5025082975625992e-02" rms="2.6264184713363647e-01" purity="3.7651661038398743e-01" nType="-99"/>
                <Node pos="r" depth="5" NCoef="0" IVar="-1" Cut="0.0000000000000000e+00" cType="1" res="-6.9887065328657627e-03" rms="2.2588804364204407e-01" purity="1.0899040102958679e-01" nType="-99"/>
              </Node>
            </Node>
          </Node>
        </Node>
        <Node pos="r" depth="1" NCoef="0" IVar="6" Cut="2.2987487912178040e-01" cType="1" res="8.3398609422147274e-04" rms="3.0129826068878174e-01" purity="5.6929868459701538e-01" nType="0">
          <Node pos="l" depth="2" NCoef="0" IVar="-1" Cut="0.0000000000000000e+00" cType="1" res="-5.5711166933178902e-03" rms="3.1942737102508545e-01" purity="3.1784936785697937e-01" nType="-99"/>
          <Node pos="r" depth="2" NCoef="0" IVar="9" Cut="4.5571205019950867e-01" cType="1" res="1.3466294622048736e-03" rms="3.0052328109741211e-01" purity="5.7957065105438232e-01" nType="0">
            <Node pos="l" depth="3" NCoef="0" IVar="4" Cut="5.9227027893066406e+01" cType="1" res="-6.9593406806234270e-05" rms="3.0251199007034302e-01" purity="5.2867048978805542e-01" nType="0">
              <Node pos="l" depth="4" NCoef="0" IVar="-1" Cut="0.0000000000000000e+00" cType="1" res="-5.6062703952193260e-03" rms="2.9946470260620117e-01" purity="1.6628597676753998e-01" nType="-99"/>
              <Node pos="r" depth="4" NCoef="0" IVar="4" Cut="7.3186180114746094e+01" cType="1" res="7.4004573980346322e-04" rms="3.0272772908210754e-01" purity="5.5629086494445801e-01" nType="0">
                <Node pos="l" depth="5" NCoef="0" IVar="-1" Cut="0.0000000000000000e+00" cType="1" res="6.5312557853758335e-03" rms="3.4708192944526672e-01" purity="3.0369067192077637e-01" nType="-99"/>
                <Node pos="r" depth="5" NCoef="0" IVar="-1" Cut="0.0000000000000000e+00" cType="1" res="-5.8086261560674757e-05" rms="2.9994162917137146e-01" purity="5.7089173793792725e-01" nType="-99"/>
              </Node>
            </Node>
            <Node pos="r" depth="3" NCoef="0" IVar="6" Cut="2.0763323307037354e+00" cType="1" res="5.4106218740344048e-03" rms="2.9470416903495789e-01" purity="7.2563397884368896e-01" nType="0">
              <Node pos="l" depth="4" NCoef="0" IVar="5" Cut="1.0266693878173828e+02" cType="1" res="-1.9733358640223742e-03" rms="3.1861576437950134e-01" purity="6.3993537425994873e-01" nType="0">
                <Node pos="l" depth="5" NCoef="0" IVar="-1" Cut="0.0000000000000000e+00" cType="1" res="6.2306667678058147e-04" rms="3.0817735195159912e-01" purity="7.1509116888046265e-01" nType="-99"/>
                <Node pos="r" depth="5" NCoef="0" IVar="-1" Cut="0.0000000000000000e+00" cType="1" res="-5.6506479158997536e-03" rms="3.5598808526992798e-01" purity="3.4808638691902161e-01" nType="-99"/>
              </Node>
              <Node pos="r" depth="4" NCoef="0" IVar="-1" Cut="0.0000000000000000e+00" cType="1" res="9.9531486630439758e-03" rms="2.6124745607376099e-01" purity="8.3342128992080688e-01" nType="-99"/>
            </Node>
          </Node>
        </Node>
      </Node>
    </BinaryTree>
    <BinaryTree type="DecisionTree" boostWeight="1.0000000000000000e+00" itree="295">
      <Node pos="s" depth="0" NCoef="0" IVar="4" Cut="5.2694229125976562e+01" cType="1" res="7.4261176632717252e-04" rms="2.9688471555709839e-01" purity="4.9969547986984253e-01" nType="0">
        <Node pos="l" depth="1" NCoef="0" IVar="4" Cut="3.7832626342773438e+01" cType="1" res="1.0475153103470802e-02" rms="3.2641261816024780e-01" purity="2.1691191196441650e-01" nType="0">
          <Node pos="l" depth="2" NCoef="0" IVar="-1" Cut="0.0000000000000000e+00" cType="1" res="-1.8166034715250134e-03" rms="3.0064275860786438e-01" purity="1.5696236491203308e-01" nType="-99"/>
          <Node pos="r" depth="2" NCoef="0" IVar="-1" Cut="0.0000000000000000e+00" cType="1" res="8.1821968778967857e-03" rms="3.4011235833168030e-01" purity="2.5142955780029297e-01" nType="-99"/>
        </Node>
        <Node pos="r" depth="1" NCoef="0" IVar="5" Cut="6.9800209045410156e+01" cType="1" res="1.3104967365507036e-04" rms="2.9491984844207764e-01" purity="5.1746469736099243e-01" nType="0">
          <Node pos="l" depth="2" NCoef="0" IVar="5" Cut="4.5864326477050781e+01" cType="1" res="3.8283274043351412e-03" rms="3.3680573105812073e-01" purity="4.6368744969367981e-01" nType="0">
            <Node pos="l" depth="3" NCoef="0" IVar="5" Cut="3.4325603485107422e+01" cType="1" res="-5.0406777299940586e-03" rms="3.3991673588752747e-01" purity="3.6132010817527771e-01" nType="0">
              <Node pos="l" depth="4" NCoef="0" IVar="-1" Cut="0.0000000000000000e+00" cType="1" res="3.5803648643195629e-03" rms="3.4563848376274109e-01" purity="3.3434754610061646e-01" nType="-99"/>
              <Node pos="r" depth="4" NCoef="0" IVar="-1" Cut="0.0000000000000000e+00" cType="1" res="-5.7791806757450104e-03" rms="3.3597958087921143e-01" purity="3.7833070755004883e-01" nType="-99"/>
            </Node>
            <Node pos="r" depth="3" NCoef="0" IVar="8" Cut="3.4804525971412659e-01" cType="1" res="7.5317798182368279e-03" rms="3.3542874455451965e-01" purity="5.0643318891525269e-01" nType="0">
              <Node pos="l" depth="4" NCoef="0" IVar="5" Cut="6.2794692993164062e+01" cType="1" res="1.3390999287366867e-02" rms="3.2877627015113831e-01" purity="4.2496201395988464e-01" nType="0">
                <Node pos="l" depth="5" NCoef="0" IVar="-1" Cut="0.0000000000000000e+00" cType="1" res="9.9207246676087379e-03" rms="3.3563545346260071e-01" purity="3.8130718469619751e-01" nType="-99"/>
                <Node pos="r" depth="5" NCoef="0" IVar="-1" Cut="0.0000000000000000e+00" cType="1" res="1.2386146700009704e-03" rms="3.1766012310981750e-01" purity="4.9188584089279175e-01" nType="-99"/>
              </Node>
              <Node pos="r" depth="4" NCoef="0" IVar="6" Cut="1.8389792442321777e+00" cType="1" res="2.5757283437997103e-03" rms="3.4087583422660828e-01" purity="5.7534605264663696e-01" nType="0">
                <Node pos="l" depth="5" NCoef="0" IVar="-1" Cut="0.0000000000000000e+00" cType="1" res="4.4298758730292320e-03" rms="3.5387971997261047e-01" purity="5.1428717374801636e-01" nType="-99"/>
                <Node pos="r" depth="5" NCoef="0" IVar="-1" Cut="0.0000000000000000e+00" cType="1" res="-2.2047879174351692e-03" rms="3.2812240719795227e-01" purity="6.3225311040878296e-01" nType="-99"/>
              </Node>
            </Node>
          </Node>
          <Node pos="r" depth="2" NCoef="0" IVar="8" Cut="1.9921544194221497e-01" cType="1" res="-9.3620130792260170e-04" rms="2.8166401386260986e-01" purity="5.3298795223236084e-01" nType="0">
            <Node pos="l" depth="3" NCoef="0" IVar="6" Cut="2.2221012115478516e+00" cType="1" res="-6.7237261682748795e-03" rms="2.6470661163330078e-01" purity="2.9245641827583313e-01" nType="0">
              <Node pos="l" depth="4" NCoef="0" IVar="7" Cut="2.2700126171112061e+00" cType="1" res="-1.8201902275905013e-03" rms="2.5411507487297058e-01" purity="2.1673823893070221e-01" nType="0">
                <Node pos="l" depth="5" NCoef="0" IVar="-1" Cut="0.0000000000000000e+00" cType="1" res="1.5994872665032744e-03" rms="2.6495552062988281e-01" purity="2.2702094912528992e-01" nType="-99"/>
                <Node pos="r" depth="5" NCoef="0" IVar="-1" Cut="0.0000000000000000e+00" cType="1" res="-5.5968775413930416e-03" rms="2.3812009394168854e-01" purity="2.0245078206062317e-01" nType="-99"/>
              </Node>
              <Node pos="r" depth="4" NCoef="0" IVar="7" Cut="2.9042398929595947e+00" cType="1" res="-1.3277770020067692e-02" rms="2.7809938788414001e-01" purity="3.9366105198860168e-01" nType="0">
                <Node pos="l" depth="5" NCoef="0" IVar="-1" Cut="0.0000000000000000e+00" cType="1" res="-1.1445946060121059e-02" rms="2.8538221120834351e-01" purity="3.3467388153076172e-01" nType="-99"/>
                <Node pos="r" depth="5" NCoef="0" IVar="-1" Cut="0.0000000000000000e+00" cType="1" res="-4.2445212602615356e-04" rms="2.6151183247566223e-01" purity="5.1899206638336182e-01" nType="-99"/>
              </Node>
            </Node>
            <Node pos="r" depth="3" NCoef="0" IVar="4" Cut="6.7131256103515625e+01" cType="1" res="6.4881355501711369e-04" rms="2.8611239790916443e-01" purity="5.9886175394058228e-01" nType="0">
              <Node pos="l" depth="4" NCoef="0" IVar="-1" Cut="0.0000000000000000e+00" cType="1" res="-4.3150992132723331e-03" rms="3.3013260364532471e-01" purity="3.0407938361167908e-01" nType="-99"/>
              <Node pos="r" depth="4" NCoef="0" IVar="4" Cut="8.9432281494140625e+01" cType="1" res="1.2218076735734940e-03" rms="2.8348204493522644e-01" purity="6.1507427692413330e-01" nType="0">
                <Node pos="l" depth="5" NCoef="0" IVar="-1" Cut="0.0000000000000000e+00" cType="1" res="3.9968495257198811e-03" rms="3.2572034001350403e-01" purity="4.8941370844841003e-01" nType="-99"/>
                <Node pos="r" depth="5" NCoef="0" IVar="-1" Cut="0.0000000000000000e+00" cType="1" res="5.3428248065756634e-05" rms="2.7602556347846985e-01" purity="6.3540261983871460e-01" nType="-99"/>
              </Node>
            </Node>
          </Node>
        </Node>
      </Node>
    </BinaryTree>
    <BinaryTree type="DecisionTree" boostWeight="1.0000000000000000e+00" itree="296">
      <Node pos="s" depth="0" NCoef="0" IVar="4" Cut="1.1072533416748047e+02" cType="1" res="-1.0437664968776517e-05" rms="2.9492345452308655e-01" purity="5.0082474946975708e-01" nType="0">
        <Node pos="l" depth="1" NCoef="0" IVar="9" Cut="8.3982437849044800e-01" cType="1" res="-2.1360544487833977e-03" rms="3.0803516507148743e-01" purity="4.7733470797538757e-01" nType="0">
          <Node pos="l" depth="2" NCoef="0" IVar="6" Cut="8.4286606311798096e-01" cType="1" res="-3.1311756465584040e-03" rms="3.0650645494461060e-01" purity="4.7892576456069946e-01" nType="0">
            <Node pos="l" depth="3" NCoef="0" IVar="7" Cut="1.2727906703948975e+00" cType="1" res="-1.6939587891101837e-02" rms="2.9906299710273743e-01" purity="2.6569744944572449e-01" nType="0">
              <Node pos="l" depth="4" NCoef="0" IVar="-1" Cut="0.0000000000000000e+00" cType="1" res="-1.7483834177255630e-02" rms="3.0650109052658081e-01" purity="2.9655069112777710e-01" nType="-99"/>
              <Node pos="r" depth="4" NCoef="0" IVar="-1" Cut="0.0000000000000000e+00" cType="1" res="2.1662903018295765e-03" rms="2.8966081142425537e-01" purity="2.3343266546726227e-01" nType="-99"/>
            </Node>
            <Node pos="r" depth="3" NCoef="0" IVar="6" Cut="1.7399299144744873e+00" cType="1" res="-7.7998539200052619e-04" rms="3.0769419670104980e-01" purity="5.1523262262344360e-01" nType="0">
              <Node pos="l" depth="4" NCoef="0" IVar="9" Cut="3.2800203561782837e-01" cType="1" res="8.8258367031812668e-03" rms="3.1870996952056885e-01" purity="4.1091963648796082e-01" nType="0">
                <Node pos="l" depth="5" NCoef="0" IVar="-1" Cut="0.0000000000000000e+00" cType="1" res="9.6955886110663414e-03" rms="3.0999886989593506e-01" purity="2.6726377010345459e-01" nType="-99"/>
                <Node pos="r" depth="5" NCoef="0" IVar="-1" Cut="0.0000000000000000e+00" cType="1" res="1.1634363327175379e-03" rms="3.2463765144348145e-01" purity="5.1346617937088013e-01" nType="-99"/>
              </Node>
              <Node pos="r" depth="4" NCoef="0" IVar="9" Cut="5.3269988298416138e-01" cType="1" res="-4.2892242781817913e-03" rms="3.0349439382553101e-01" purity="5.5334073305130005e-01" nType="0">
                <Node pos="l" depth="5" NCoef="0" IVar="-1" Cut="0.0000000000000000e+00" cType="1" res="-3.4673821646720171e-03" rms="3.0424287915229797e-01" purity="5.3073090314865112e-01" nType="-99"/>
                <Node pos="r" depth="5" NCoef="0" IVar="-1" Cut="0.0000000000000000e+00" cType="1" res="4.0894662961363792e-03" rms="2.9919549822807312e-01" purity="6.7304182052612305e-01" nType="-99"/>
              </Node>
            </Node>
          </Node>
          <Node pos="r" depth="2" NCoef="0" IVar="-1" Cut="0.0000000000000000e+00" cType="1" res="7.1544963866472244e-03" rms="3.3425843715667725e-01" purity="4.4821757078170776e-01" nType="-99"/>
        </Node>
        <Node pos="r" depth="1" NCoef="0" IVar="9" Cut="6.4073932170867920e-01" cType="1" res="1.6901431372389197e-03" rms="2.8398656845092773e-01" purity="5.1961773633956909e-01" nType="0">
          <Node pos="l" depth="2" NCoef="0" IVar="9" Cut="4.5325914025306702e-01" cType="1" res="2.1975494455546141e-03" rms="2.8375896811485291e-01" purity="5.1695805788040161e-01" nType="0">
            <Node pos="l" depth="3" NCoef="0" IVar="6" Cut="7.6624220609664917e-01" cType="1" res="5.2020564908161759e-04" rms="2.8375571966171265e-01" purity="4.7474047541618347e-01" nType="0">
              <Node pos="l" depth="4" NCoef="0" IVar="0" Cut="1.0975610017776489e+00" cType="1" res="-7.3603861965239048e-03" rms="2.7653014659881592e-01" purity="1.9505625963211060e-01" nType="0">
                <Node pos="l" depth="5" NCoef="0" IVar="-1" Cut="0.0000000000000000e+00" cType="1" res="-1.0935784084722400e-03" rms="2.0248804986476898e-01" purity="5.2569840103387833e-02" nType="-99"/>
                <Node pos="r" depth="5" NCoef="0" IVar="-1" Cut="0.0000000000000000e+00" cType="1" res="-5.5706193670630455e-03" rms="3.2663249969482422e-01" purity="3.1672903895378113e-01" nType="-99"/>
              </Node>
              <Node pos="r" depth="4" NCoef="0" IVar="7" Cut="2.4385895729064941e+00" cType="1" res="1.6245831502601504e-03" rms="2.8473621606826782e-01" purity="5.1393514871597290e-01" nType="0">
                <Node pos="l" depth="5" NCoef="0" IVar="-1" Cut="0.0000000000000000e+00" cType="1" res="-9.5701339887455106e-05" rms="2.8994089365005493e-01" purity="5.2808654308319092e-01" nType="-99"/>
                <Node pos="r" depth="5" NCoef="0" IVar="-1" Cut="0.0000000000000000e+00" cType="1" res="5.8904872275888920e-03" rms="2.6176866888999939e-01" purity="4.5487451553344727e-01" nType="-99"/>
              </Node>
            </Node>
            <Node pos="r" depth="3" NCoef="0" IVar="4" Cut="1.5148866271972656e+02" cType="1" res="1.0693438351154327e-02" rms="2.8362306952476501e-01" purity="7.3079371452331543e-01" nType="0">
              <Node pos="l" depth="4" NCoef="0" IVar="-1" Cut="0.0000000000000000e+00" cType="1" res="4.2093875817954540e-03" rms="2.5312724709510803e-01" purity="8.1664913892745972e-01" nType="-99"/>
              <Node pos="r" depth="4" NCoef="0" IVar="-1" Cut="0.0000000000000000e+00" cType="1" res="1.1070987209677696e-02" rms="3.6623609066009521e-01" purity="4.4737994670867920e-01" nType="-99"/>
            </Node>
          </Node>
          <Node pos="r" depth="2" NCoef="0" IVar="-1" Cut="0.0000000000000000e+00" cType="1" res="-3.6678763572126627e-03" rms="2.8754672408103943e-01" purity="5.6299376487731934e-01" nType="-99"/>
        </Node>
      </Node>
    </BinaryTree>
    <BinaryTree type="DecisionTree" boostWeight="1.0000000000000000e+00" itree="297">
      <Node pos="s" depth="0" NCoef="0" IVar="1" Cut="1.0975610017776489e+00" cType="1" res="-1.9691269844770432e-03" rms="2.9435518383979797e-01" purity="4.9658113718032837e-01" nType="0">
        <Node pos="l" depth="1" NCoef="0" IVar="5" Cut="9.5056068420410156e+01" cType="1" res="-5.8033689856529236e-03" rms="3.0028271675109863e-01" purity="2.5298202037811279e-01" nType="0">
          <Node pos="l" depth="2" NCoef="0" IVar="7" Cut="1.2304559946060181e+00" cType="1" res="-1.0110719129443169e-02" rms="3.2642632722854614e-01" purity="3.3655992150306702e-01" nType="0">
            <Node pos="l" depth="3" NCoef="0" IVar="5" Cut="8.2912086486816406e+01" cType="1" res="-1.4047924429178238e-02" rms="3.4524369239807129e-01" purity="3.8301399350166321e-01" nType="0">
              <Node pos="l" depth="4" NCoef="0" IVar="8" Cut="3.7631189823150635e-01" cType="1" res="-1.0553009808063507e-02" rms="3.5269546508789062e-01" purity="3.5826641321182251e-01" nType="0">
                <Node pos="l" depth="5" NCoef="0" IVar="-1" Cut="0.0000000000000000e+00" cType="1" res="-2.3061994579620659e-04" rms="3.4648880362510681e-01" purity="3.0252489447593689e-01" nType="-99"/>
                <Node pos="r" depth="5" NCoef="0" IVar="-1" Cut="0.0000000000000000e+00" cType="1" res="-6.4013618975877762e-03" rms="3.5656780004501343e-01" purity="3.9495047926902771e-01" nType="-99"/>
              </Node>
              <Node pos="r" depth="4" NCoef="0" IVar="-1" Cut="0.0000000000000000e+00" cType="1" res="-1.0498696006834507e-02" rms="3.2339274883270264e-01" purity="4.5192262530326843e-01" nType="-99"/>
            </Node>
            <Node pos="r" depth="3" NCoef="0" IVar="8" Cut="2.9499998688697815e-01" cType="1" res="-5.1299789920449257e-03" rms="3.0086666345596313e-01" purity="2.7779337763786316e-01" nType="0">
              <Node pos="l" depth="4" NCoef="0" IVar="2" Cut="1.0975610017776489e+00" cType="1" res="-1.2503539212048054e-02" rms="2.9693207144737244e-01" purity="2.4483592808246613e-01" nType="0">
                <Node pos="l" depth="5" NCoef="0" IVar="-1" Cut="0.0000000000000000e+00" cType="1" res="-9.5719853416085243e-03" rms="3.2684481143951416e-01" purity="3.1465137004852295e-01" nType="-99"/>
                <Node pos="r" depth="5" NCoef="0" IVar="-1" Cut="0.0000000000000000e+00" cType="1" res="4.1086054407060146e-03" rms="2.3491439223289490e-01" purity="1.2314682453870773e-01" nType="-99"/>
              </Node>
              <Node pos="r" depth="4" NCoef="0" IVar="9" Cut="2.2017772495746613e-01" cType="1" res="4.6507255174219608e-03" rms="3.0573341250419617e-01" purity="3.2150998711585999e-01" nType="0">
                <Node pos="l" depth="5" NCoef="0" IVar="-1" Cut="0.0000000000000000e+00" cType="1" res="-4.2310399003326893e-03" rms="2.7306738495826721e-01" purity="1.6078107059001923e-01" nType="-99"/>
                <Node pos="r" depth="5" NCoef="0" IVar="-1" Cut="0.0000000000000000e+00" cType="1" res="7.0123816840350628e-03" rms="3.3369159698486328e-01" purity="4.7581166028976440e-01" nType="-99"/>
              </Node>
            </Node>
          </Node>
          <Node pos="r" depth="2" NCoef="0" IVar="2" Cut="1.0975610017776489e+00" cType="1" res="-7.7386532211676240e-04" rms="2.6644203066825867e-01" purity="1.5539179742336273e-01" nType="0">
            <Node pos="l" depth="3" NCoef="0" IVar="8" Cut="1.6565361618995667e-01" cType="1" res="-6.0209175571799278e-03" rms="3.0594226717948914e-01" purity="2.2235402464866638e-01" nType="0">
              <Node pos="l" depth="4" NCoef="0" IVar="-1" Cut="0.0000000000000000e+00" cType="1" res="7.3308730497956276e-03" rms="2.4498812854290009e-01" purity="8.5748910903930664e-02" nType="-99"/>
              <Node pos="r" depth="4" NCoef="0" IVar="0" Cut="2.0731706619262695e+00" cType="1" res="-9.6572721377015114e-03" rms="3.1966027617454529e-01" purity="2.5752723217010498e-01" nType="0">
                <Node pos="l" depth="5" NCoef="0" IVar="-1" Cut="0.0000000000000000e+00" cType="1" res="-6.2344508478417993e-04" rms="2.4032019078731537e-01" purity="9.3101844191551208e-02" nType="-99"/>
                <Node pos="r" depth="5" NCoef="0" IVar="-1" Cut="0.0000000000000000e+00" cType="1" res="-5.9393094852566719e-03" rms="3.7064373493194580e-01" purity="3.8819152116775513e-01" nType="-99"/>
              </Node>
            </Node>
            <Node pos="r" depth="3" NCoef="0" IVar="5" Cut="1.0931239318847656e+02" cType="1" res="5.0412705168128014e-03" rms="2.1417251229286194e-01" purity="8.1179752945899963e-02" nType="0">
              <Node pos="l" depth="4" NCoef="0" IVar="-1" Cut="0.0000000000000000e+00" cType="1" res="1.5823416411876678e-02" rms="2.5237280130386353e-01" purity="1.1843740195035934e-01" nType="-99"/>
              <Node pos="r" depth="4" NCoef="0" IVar="6" Cut="1.3026115894317627e+00" cType="1" res="7.0458342088386416e-04" rms="1.9899788498878479e-01" purity="6.8225182592868805e-02" nType="0">
                <Node pos="l" depth="5" NCoef="0" IVar="-1" Cut="0.0000000000000000e+00" cType="1" res="1.5672134235501289e-02" rms="2.1731716394424438e-01" purity="5.8371763676404953e-02" nType="-99"/>
                <Node pos="r" depth="5" NCoef="0" IVar="-1" Cut="0.0000000000000000e+00" cType="1" res="-5.3758355788886547e-03" rms="1.8925118446350098e-01" purity="7.3000259697437286e-02" nType="-99"/>
              </Node>
            </Node>
          </Node>
        </Node>
        <Node pos="r" depth="1" NCoef="0" IVar="4" Cut="1.7455928039550781e+02" cType="1" res="1.0227259481325746e-03" rms="2.8961047530174255e-01" purity="6.8666112422943115e-01" nType="0">
          <Node pos="l" depth="2" NCoef="0" IVar="6" Cut="6.8961811065673828e-01" cType="1" res="1.8425794551149011e-03" rms="2.9007485508918762e-01" purity="7.3145443201065063e-01" nType="0">
            <Node pos="l" depth="3" NCoef="0" IVar="7" Cut="1.0964553356170654e+00" cType="1" res="-7.1721635758876801e-03" rms="3.2915750145912170e-01" purity="5.2206695079803467e-01" nType="0">
              <Node pos="l" depth="4" NCoef="0" IVar="-1" Cut="0.0000000000000000e+00" cType="1" res="-5.9994990006089211e-03" rms="3.3411461114883423e-01" purity="5.6551676988601685e-01" nType="-99"/>
              <Node pos="r" depth="4" NCoef="0" IVar="-1" Cut="0.0000000000000000e+00" cType="1" res="-1.4827099221292883e-05" rms="3.2385826110839844e-01" purity="4.7766920924186707e-01" nType="-99"/>
            </Node>
            <Node pos="r" depth="3" NCoef="0" IVar="2" Cut="3.0487804412841797e+00" cType="1" res="2.8015112038701773e-03" rms="2.8558620810508728e-01" purity="7.5372773408889771e-01" nType="0">
              <Node pos="l" depth="4" NCoef="0" IVar="9" Cut="3.1812989711761475e-01" cType="1" res="1.4028734294697642e-03" rms="2.8187423944473267e-01" purity="8.1169360876083374e-01" nType="0">
                <Node pos="l" depth="5" NCoef="0" IVar="-1" Cut="0.0000000000000000e+00" cType="1" res="-1.1849139118567109e-03" rms="3.1745600700378418e-01" purity="7.1399158239364624e-01" nType="-99"/>
                <Node pos="r" depth="5" NCoef="0" IVar="-1" Cut="0.0000000000000000e+00" cType="1" res="2.8627538122236729e-03" rms="2.5599175691604614e-01" purity="8.7540429830551147e-01" nType="-99"/>
              </Node>
              <Node pos="r" depth="4" NCoef="0" IVar="6" Cut="2.1249210834503174e+00" cType="1" res="1.3741636648774147e-02" rms="3.1289085745811462e-01" purity="3.0031940340995789e-01" nType="0">
                <Node pos="l" depth="5" NCoef="0" IVar="-1" Cut="0.0000000000000000e+00" cType="1" res="9.0849411208182573e-04" rms="3.0317831039428711e-01" purity="2.0223315060138702e-01" nType="-99"/>
                <Node pos="r" depth="5" NCoef="0" IVar="-1" Cut="0.0000000000000000e+00" cType="1" res="1.0355822741985321e-02" rms="3.1971484422683716e-01" purity="3.7424334883689880e-01" nType="-99"/>
              </Node>
            </Node>
          </Node>
          <Node pos="r" depth="2" NCoef="0" IVar="6" Cut="1.7623579502105713e+00" cType="1" res="-7.8374631702899933e-03" rms="2.8439271450042725e-01" purity="2.0257861912250519e-01" nType="0">
            <Node pos="l" depth="3" NCoef="0" IVar="-1" Cut="0.0000000000000000e+00" cType="1" res="5.5199190974235535e-03" rms="2.8615120053291321e-01" purity="1.2370327115058899e-01" nType="-99"/>
            <Node pos="r" depth="3" NCoef="0" IVar="-1" Cut="0.0000000000000000e+00" cType="1" res="-1.0177439078688622e-02" rms="2.8241568803787231e-01" purity="2.6295071840286255e-01" nType="-99"/>
          </Node>
        </Node>
      </Node>
    </BinaryTree>
    <BinaryTree type="DecisionTree" boostWeight="1.0000000000000000e+00" itree="298">
      <Node pos="s" depth="0" NCoef="0" IVar="8" Cut="3.7349641323089600e-01" cType="1" res="-3.4012808464467525e-04" rms="2.9375293850898743e-01" purity="5.0292640924453735e-01" nType="0">
        <Node pos="l" depth="1" NCoef="0" IVar="4" Cut="9.3316017150878906e+01" cType="1" res="-2.7217506431043148e-03" rms="2.8286033868789673e-01" purity="4.3385678529739380e-01" nType="0">
          <Node pos="l" depth="2" NCoef="0" IVar="7" Cut="2.5455648899078369e+00" cType="1" res="-7.4420343153178692e-03" rms="2.9232317209243774e-01" purity="3.1252989172935486e-01" nType="0">
            <Node pos="l" depth="3" NCoef="0" IVar="9" Cut="5.9850603342056274e-01" cType="1" res="-1.0105964727699757e-02" rms="3.0233830213546753e-01" purity="3.2005000114440918e-01" nType="0">
              <Node pos="l" depth="4" NCoef="0" IVar="2" Cut="2.0731706619262695e+00" cType="1" res="-1.4411421492695808e-02" rms="2.8860601782798767e-01" purity="2.8752952814102173e-01" nType="0">
                <Node pos="l" depth="5" NCoef="0" IVar="-1" Cut="0.0000000000000000e+00" cType="1" res="-9.3032158911228180e-03" rms="3.2382744550704956e-01" purity="3.9503630995750427e-01" nType="-99"/>
                <Node pos="r" depth="5" NCoef="0" IVar="-1" Cut="0.0000000000000000e+00" cType="1" res="-3.3892514184117317e-03" rms="2.0254157483577728e-01" purity="7.7845960855484009e-02" nType="-99"/>
              </Node>
              <Node pos="r" depth="4" NCoef="0" IVar="-1" Cut="0.0000000000000000e+00" cType="1" res="9.8642974626272917e-04" rms="3.3818542957305908e-01" purity="4.1288200020790100e-01" nType="-99"/>
            </Node>
            <Node pos="r" depth="3" NCoef="0" IVar="-1" Cut="0.0000000000000000e+00" cType="1" res="1.5181353082880378e-03" rms="2.5153845548629761e-01" purity="2.8467783331871033e-01" nType="-99"/>
          </Node>
          <Node pos="r" depth="2" NCoef="0" IVar="6" Cut="5.3637111186981201e-01" cType="1" res="-9.3766400823369622e-04" rms="2.7917948365211487e-01" purity="4.7971373796463013e-01" nType="0">
            <Node pos="l" depth="3" NCoef="0" IVar="-1" Cut="0.0000000000000000e+00" cType="1" res="5.6908065453171730e-03" rms="2.7280861139297485e-01" purity="2.5198283791542053e-01" nType="-99"/>
            <Node pos="r" depth="3" NCoef="0" IVar="5" Cut="9.5231513977050781e+01" cType="1" res="-1.8820357508957386e-03" rms="2.7976086735725403e-01" purity="5.0142168998718262e-01" nType="0">
              <Node pos="l" depth="4" NCoef="0" IVar="7" Cut="1.4256319999694824e+00" cType="1" res="1.2315087951719761e-03" rms="2.8562375903129578e-01" purity="6.2235957384109497e-01" nType="0">
                <Node pos="l" depth="5" NCoef="0" IVar="-1" Cut="0.0000000000000000e+00" cType="1" res="3.2570925541222095e-03" rms="3.0704739689826965e-01" purity="6.2481003999710083e-01" nType="-99"/>
                <Node pos="r" depth="5" NCoef="0" IVar="-1" Cut="0.0000000000000000e+00" cType="1" res="-1.9083389779552817e-03" rms="2.6456981897354126e-01" purity="6.2013107538223267e-01" nType="-99"/>
              </Node>
              <Node pos="r" depth="4" NCoef="0" IVar="6" Cut="1.5530468225479126e+00" cType="1" res="-6.5189963206648827e-03" rms="2.7072784304618835e-01" purity="3.2131049036979675e-01" nType="0">
                <Node pos="l" depth="5" NCoef="0" IVar="-1" Cut="0.0000000000000000e+00" cType="1" res="2.8329547494649887e-03" rms="2.6066213846206665e-01" purity="1.5331538021564484e-01" nType="-99"/>
                <Node pos="r" depth="5" NCoef="0" IVar="-1" Cut="0.0000000000000000e+00" cType="1" res="-6.1093084514141083e-03" rms="2.7381965517997742e-01" purity="3.7559384107589722e-01" nType="-99"/>
              </Node>
            </Node>
          </Node>
        </Node>
        <Node pos="r" depth="1" NCoef="0" IVar="9" Cut="1.1650775372982025e-01" cType="1" res="2.7742981910705566e-03" rms="3.0738741159439087e-01" purity="5.9324806928634644e-01" nType="0">
          <Node pos="l" depth="2" NCoef="0" IVar="-1" Cut="0.0000000000000000e+00" cType="1" res="9.1492170467972755e-03" rms="2.9410201311111450e-01" purity="1.7574162781238556e-01" nType="-99"/>
          <Node pos="r" depth="2" NCoef="0" IVar="7" Cut="6.9301199913024902e-01" cType="1" res="1.7105010338127613e-03" rms="3.0848118662834167e-01" purity="6.2918871641159058e-01" nType="0">
            <Node pos="l" depth="3" NCoef="0" IVar="7" Cut="2.8734639286994934e-01" cType="1" res="-1.6196192009374499e-03" rms="3.1279993057250977e-01" purity="6.4772343635559082e-01" nType="0">
              <Node pos="l" depth="4" NCoef="0" IVar="0" Cut="2.0731706619262695e+00" cType="1" res="5.8686439879238605e-03" rms="3.1932809948921204e-01" purity="6.5325045585632324e-01" nType="0">
                <Node pos="l" depth="5" NCoef="0" IVar="-1" Cut="0.0000000000000000e+00" cType="1" res="8.0431336537003517e-03" rms="3.4316664934158325e-01" purity="3.7729120254516602e-01" nType="-99"/>
                <Node pos="r" depth="5" NCoef="0" IVar="-1" Cut="0.0000000000000000e+00" cType="1" res="2.4995629792101681e-04" rms="3.0730324983596802e-01" purity="7.8333228826522827e-01" nType="-99"/>
              </Node>
              <Node pos="r" depth="4" NCoef="0" IVar="4" Cut="1.3458207702636719e+02" cType="1" res="-7.5750621035695076e-03" rms="3.0737891793251038e-01" purity="6.4332777261734009e-01" nType="0">
                <Node pos="l" depth="5" NCoef="0" IVar="-1" Cut="0.0000000000000000e+00" cType="1" res="-1.6899048350751400e-03" rms="3.0456158518791199e-01" purity="6.9544303417205811e-01" nType="-99"/>
                <Node pos="r" depth="5" NCoef="0" IVar="-1" Cut="0.0000000000000000e+00" cType="1" res="-1.0066142305731773e-02" rms="3.1593546271324158e-01" purity="4.7400411963462830e-01" nType="-99"/>
              </Node>
            </Node>
            <Node pos="r" depth="3" NCoef="0" IVar="5" Cut="1.0619433593750000e+02" cType="1" res="5.1549179479479790e-03" rms="3.0391129851341248e-01" purity="6.1001789569854736e-01" nType="0">
              <Node pos="l" depth="4" NCoef="0" IVar="9" Cut="3.7147200107574463e-01" cType="1" res="8.6901867762207985e-03" rms="3.0418592691421509e-01" purity="6.5717220306396484e-01" nType="0">
                <Node pos="l" depth="5" NCoef="0" IVar="-1" Cut="0.0000000000000000e+00" cType="1" res="1.8196294549852610e-03" rms="3.1497159600257874e-01" purity="5.9864717721939087e-01" nType="-99"/>
                <Node pos="r" depth="5" NCoef="0" IVar="-1" Cut="0.0000000000000000e+00" cType="1" res="1.1135065928101540e-02" rms="2.8018456697463989e-01" purity="7.7873122692108154e-01" nType="-99"/>
              </Node>
              <Node pos="r" depth="4" NCoef="0" IVar="4" Cut="1.2385694122314453e+02" cType="1" res="-7.2847395204007626e-03" rms="3.0261480808258057e-01" purity="4.4409459829330444e-01" nType="0">
                <Node pos="l" depth="5" NCoef="0" IVar="-1" Cut="0.0000000000000000e+00" cType="1" res="-8.9606028050184250e-03" rms="3.1451955437660217e-01" purity="4.2663514614105225e-01" nType="-99"/>
                <Node pos="r" depth="5" NCoef="0" IVar="-1" Cut="0.0000000000000000e+00" cType="1" res="2.6953285560011864e-03" rms="2.8794753551483154e-01" purity="4.6401423215866089e-01" nType="-99"/>
              </Node>
            </Node>
          </Node>
        </Node>
      </Node>
    </BinaryTree>
    <BinaryTree type="DecisionTree" boostWeight="1.0000000000000000e+00" itree="299">
      <Node pos="s" depth="0" NCoef="0" IVar="4" Cut="2.2098414611816406e+02" cType="1" res="-1.7887672584038228e-05" rms="2.9569950699806213e-01" purity="4.9961227178573608e-01" nType="0">
        <Node pos="l" depth="1" NCoef="0" IVar="4" Cut="1.2417137145996094e+02" cType="1" res="-4.7264192835427821e-04" rms="2.9648298025131226e-01" purity="5.1292347908020020e-01" nType="0">
          <Node pos="l" depth="2" NCoef="0" IVar="8" Cut="4.7681760787963867e-01" cType="1" res="8.9759280672296882e-04" rms="3.0213984847068787e-01" purity="5.5076891183853149e-01" nType="0">
            <Node pos="l" depth="3" NCoef="0" IVar="7" Cut="1.0318351984024048e+00" cType="1" res="-5.3418637253344059e-04" rms="2.9198396205902100e-01" purity="5.3285706043243408e-01" nType="0">
              <Node pos="l" depth="4" NCoef="0" IVar="6" Cut="2.0688529014587402e+00" cType="1" res="-4.2639961466193199e-03" rms="3.0307960510253906e-01" purity="5.6412136554718018e-01" nType="0">
                <Node pos="l" depth="5" NCoef="0" IVar="-1" Cut="0.0000000000000000e+00" cType="1" res="-5.3485240787267685e-03" rms="3.0308651924133301e-01" purity="4.4861546158790588e-01" nType="-99"/>
                <Node pos="r" depth="5" NCoef="0" IVar="-1" Cut="0.0000000000000000e+00" cType="1" res="-9.2521753686014563e-05" rms="3.0300828814506531e-01" purity="6.4686304330825806e-01" nType="-99"/>
              </Node>
              <Node pos="r" depth="4" NCoef="0" IVar="9" Cut="3.5682296752929688e-01" cType="1" res="2.2442534100264311e-03" rms="2.8340443968772888e-01" purity="5.0956743955612183e-01" nType="0">
                <Node pos="l" depth="5" NCoef="0" IVar="-1" Cut="0.0000000000000000e+00" cType="1" res="-4.2056228267028928e-04" rms="2.7829250693321228e-01" purity="4.6989402174949646e-01" nType="-99"/>
                <Node pos="r" depth="5" NCoef="0" IVar="-1" Cut="0.0000000000000000e+00" cType="1" res="4.0030791424214840e-03" rms="2.9135692119598389e-01" purity="5.7321465015411377e-01" nType="-99"/>
              </Node>
            </Node>
            <Node pos="r" depth="3" NCoef="0" IVar="1" Cut="2.0731706619262695e+00" cType="1" res="5.3179878741502762e-03" rms="3.3149838447570801e-01" purity="6.0606902837753296e-01" nType="0">
              <Node pos="l" depth="4" NCoef="0" IVar="4" Cut="7.5262390136718750e+01" cType="1" res="1.2405234389007092e-02" rms="3.5857537388801575e-01" purity="4.0130910277366638e-01" nType="0">
                <Node pos="l" depth="5" NCoef="0" IVar="-1" Cut="0.0000000000000000e+00" cType="1" res="1.0200798511505127e-02" rms="3.7312260270118713e-01" purity="3.1408673524856567e-01" nType="-99"/>
                <Node pos="r" depth="5" NCoef="0" IVar="-1" Cut="0.0000000000000000e+00" cType="1" res="1.5196430031210184e-03" rms="3.4901049733161926e-01" purity="4.5515161752700806e-01" nType="-99"/>
              </Node>
              <Node pos="r" depth="4" NCoef="0" IVar="-1" Cut="0.0000000000000000e+00" cType="1" res="-2.8942627250216901e-04" rms="3.0713289976119995e-01" purity="7.7575457096099854e-01" nType="-99"/>
            </Node>
          </Node>
          <Node pos="r" depth="2" NCoef="0" IVar="9" Cut="5.8599555492401123e-01" cType="1" res="-2.9276555869728327e-03" rms="2.8605166077613831e-01" purity="4.4511687755584717e-01" nType="0">
            <Node pos="l" depth="3" NCoef="0" IVar="4" Cut="1.9500991821289062e+02" cType="1" res="-1.9336809637024999e-03" rms="2.8490287065505981e-01" purity="4.4166833162307739e-01" nType="0">
              <Node pos="l" depth="4" NCoef="0" IVar="0" Cut="1.0975610017776489e+00" cType="1" res="-3.1731335911899805e-03" rms="2.8599289059638977e-01" purity="4.8140111565589905e-01" nType="0">
                <Node pos="l" depth="5" NCoef="0" IVar="-1" Cut="0.0000000000000000e+00" cType="1" res="-7.6356516219675541e-03" rms="2.2752718627452850e-01" purity="1.3973660767078400e-01" nType="-99"/>
                <Node pos="r" depth="5" NCoef="0" IVar="-1" Cut="0.0000000000000000e+00" cType="1" res="-2.1809070312883705e-04" rms="3.0871379375457764e-01" purity="6.3544785976409912e-01" nType="-99"/>
              </Node>
              <Node pos="r" depth="4" NCoef="0" IVar="9" Cut="2.2879728674888611e-01" cType="1" res="6.1209872364997864e-03" rms="2.7758035063743591e-01" purity="1.8346191942691803e-01" nType="0">
                <Node pos="l" depth="5" NCoef="0" IVar="-1" Cut="0.0000000000000000e+00" cType="1" res="-2.8959368355572224e-03" rms="2.1334600448608398e-01" purity="7.0765748620033264e-02" nType="-99"/>
                <Node pos="r" depth="5" NCoef="0" IVar="-1" Cut="0.0000000000000000e+00" cType="1" res="7.1586892008781433e-03" rms="3.2875567674636841e-01" purity="2.9493078589439392e-01" nType="-99"/>
              </Node>
            </Node>
            <Node pos="r" depth="3" NCoef="0" IVar="-1" Cut="0.0000000000000000e+00" cType="1" res="-7.9933181405067444e-03" rms="2.9992040991783142e-01" purity="4.8874133825302124e-01" nType="-99"/>
          </Node>
        </Node>
        <Node pos="r" depth="1" NCoef="0" IVar="5" Cut="9.5204940795898438e+01" cType="1" res="1.0500884614884853e-02" rms="2.7675157785415649e-01" purity="1.9171462953090668e-01" nType="0">
          <Node pos="l" depth="2" NCoef="0" IVar="-1" Cut="0.0000000000000000e+00" cType="1" res="1.1163697578012943e-02" rms="3.1244936585426331e-01" purity="2.4082405865192413e-01" nType="-99"/>
          <Node pos="r" depth="2" NCoef="0" IVar="-1" Cut="0.0000000000000000e+00" cType="1" res="5.2427890477702022e-04" rms="2.3402966558933258e-01" purity="1.4121243357658386e-01" nType="-99"/>
        </Node>
      </Node>
    </BinaryTree>
    <BinaryTree type="DecisionTree" boostWeight="1.0000000000000000e+00" itree="300">
      <Node pos="s" depth="0" NCoef="0" IVar="9" Cut="8.4038054943084717e-01" cType="1" res="1.7077738884836435e-03" rms="2.9645562171936035e-01" purity="5.0248456001281738e-01" nType="0">
        <Node pos="l" depth="1" NCoef="0" IVar="4" Cut="5.8497375488281250e+01" cType="1" res="1.2838934781029820e-03" rms="2.9535385966300964e-01" purity="5.0425189733505249e-01" nType="0">
          <Node pos="l" depth="2" NCoef="0" IVar="3" Cut="2.0731706619262695e+00" cType="1" res="-7.6972986571490765e-03" rms="3.1452801823616028e-01" purity="2.0354197919368744e-01" nType="0">
            <Node pos="l" depth="3" NCoef="0" IVar="7" Cut="1.0182251930236816e+00" cType="1" res="-1.5191385522484779e-02" rms="3.1928011775016785e-01" purity="2.2658760845661163e-01" nType="0">
              <Node pos="l" depth="4" NCoef="0" IVar="-1" Cut="0.0000000000000000e+00" cType="1" res="-1.1054504662752151e-02" rms="3.3648490905761719e-01" purity="2.8318363428115845e-01" nType="-99"/>
              <Node pos="r" depth="4" NCoef="0" IVar="-1" Cut="0.0000000000000000e+00" cType="1" res="-1.6406893264502287e-03" rms="3.0169054865837097e-01" purity="1.7332223057746887e-01" nType="-99"/>
            </Node>
            <Node pos="r" depth="3" NCoef="0" IVar="-1" Cut="0.0000000000000000e+00" cType="1" res="6.3487892039120197e-03" rms="3.0168506503105164e-01" purity="1.4666621387004852e-01" nType="-99"/>
          </Node>
          <Node pos="r" depth="2" NCoef="0" IVar="4" Cut="6.7839012145996094e+01" cType="1" res="1.9769277423620224e-03" rms="2.9381087422370911e-01" purity="5.2745616436004639e-01" nType="0">
            <Node pos="l" depth="3" NCoef="0" IVar="-1" Cut="0.0000000000000000e+00" cType="1" res="9.4555495306849480e-03" rms="3.4588992595672607e-01" purity="3.0143132805824280e-01" nType="-99"/>
            <Node pos="r" depth="3" NCoef="0" IVar="8" Cut="9.6248888969421387e-01" cType="1" res="1.2100761523470283e-03" rms="2.9150205850601196e-01" purity="5.3652107715606689e-01" nType="0">
              <Node pos="l" depth="4" NCoef="0" IVar="8" Cut="7.0431423187255859e-01" cType="1" res="1.6269796760752797e-03" rms="2.9039627313613892e-01" purity="5.4344981908798218e-01" nType="0">
                <Node pos="l" depth="5" NCoef="0" IVar="-1" Cut="0.0000000000000000e+00" cType="1" res="6.7632616264745593e-04" rms="2.8749138116836548e-01" purity="5.4391771554946899e-01" nType="-99"/>
                <Node pos="r" depth="5" NCoef="0" IVar="-1" Cut="0.0000000000000000e+00" cType="1" res="4.6048206277191639e-03" rms="3.3970880508422852e-01" purity="5.3476470708847046e-01" nType="-99"/>
              </Node>
              <Node pos="r" depth="4" NCoef="0" IVar="-1" Cut="0.0000000000000000e+00" cType="1" res="-6.0760774649679661e-03" rms="3.2628312706947327e-01" purity="3.0295646190643311e-01" nType="-99"/>
            </Node>
          </Node>
        </Node>
        <Node pos="r" depth="1" NCoef="0" IVar="-1" Cut="0.0000000000000000e+00" cType="1" res="6.4667300321161747e-03" rms="3.2601496577262878e-01" purity="4.5220354199409485e-01" nType="-99"/>
      </Node>
    </BinaryTree>
    <BinaryTree type="DecisionTree" boostWeight="1.0000000000000000e+00" itree="301">
      <Node pos="s" depth="0" NCoef="0" IVar="4" Cut="5.2868499755859375e+01" cType="1" res="1.9135274924337864e-03" rms="2.9586786031723022e-01" purity="5.0354111194610596e-01" nType="0">
        <Node pos="l" depth="1" NCoef="0" IVar="6" Cut="1.4558653831481934e+00" cType="1" res="-7.1794353425502777e-03" rms="3.0989137291908264e-01" purity="1.9776827096939087e-01" nType="0">
          <Node pos="l" depth="2" NCoef="0" IVar="-1" Cut="0.0000000000000000e+00" cType="1" res="-1.0704250074923038e-02" rms="2.8358596563339233e-01" purity="1.3701885938644409e-01" nType="-99"/>
          <Node pos="r" depth="2" NCoef="0" IVar="-1" Cut="0.0000000000000000e+00" cType="1" res="-2.0999091793783009e-04" rms="3.2382544875144958e-01" purity="2.3260986804962158e-01" nType="-99"/>
        </Node>
        <Node pos="r" depth="1" NCoef="0" IVar="4" Cut="1.2979791259765625e+02" cType="1" res="2.4695827160030603e-03" rms="2.9497954249382019e-01" purity="5.2223986387252808e-01" nType="0">
          <Node pos="l" depth="2" NCoef="0" IVar="9" Cut="5.5945134162902832e-01" cType="1" res="3.9356336928904057e-03" rms="2.9685088992118835e-01" purity="6.0909229516983032e-01" nType="0">
            <Node pos="l" depth="3" NCoef="0" IVar="3" Cut="3.0487804412841797e+00" cType="1" res="2.9046342242509127e-03" rms="2.9648017883300781e-01" purity="5.9623557329177856e-01" nType="0">
              <Node pos="l" depth="4" NCoef="0" IVar="7" Cut="5.7025325298309326e-01" cType="1" res="1.6867677913978696e-03" rms="2.9158103466033936e-01" purity="6.4446127414703369e-01" nType="0">
                <Node pos="l" depth="5" NCoef="0" IVar="-1" Cut="0.0000000000000000e+00" cType="1" res="-2.6235522236675024e-03" rms="2.9864969849586487e-01" purity="6.7293608188629150e-01" nType="-99"/>
                <Node pos="r" depth="5" NCoef="0" IVar="-1" Cut="0.0000000000000000e+00" cType="1" res="2.2273049689829350e-03" rms="2.8907337784767151e-01" purity="6.3465017080307007e-01" nType="-99"/>
              </Node>
              <Node pos="r" depth="4" NCoef="0" IVar="6" Cut="2.6818380355834961e+00" cType="1" res="9.3519613146781921e-03" rms="3.2109647989273071e-01" purity="3.4093099832534790e-01" nType="0">
                <Node pos="l" depth="5" NCoef="0" IVar="-1" Cut="0.0000000000000000e+00" cType="1" res="7.4705262668430805e-03" rms="3.2767671346664429e-01" purity="2.7608457207679749e-01" nType="-99"/>
                <Node pos="r" depth="5" NCoef="0" IVar="-1" Cut="0.0000000000000000e+00" cType="1" res="-2.2326828911900520e-03" rms="3.0339378118515015e-01" purity="5.0478482246398926e-01" nType="-99"/>
              </Node>
            </Node>
            <Node pos="r" depth="3" NCoef="0" IVar="3" Cut="1.0975610017776489e+00" cType="1" res="9.0271215885877609e-03" rms="2.9862263798713684e-01" purity="6.7258381843566895e-01" nType="0">
              <Node pos="l" depth="4" NCoef="0" IVar="4" Cut="8.2889678955078125e+01" cType="1" res="1.1607617139816284e-02" rms="2.9370942711830139e-01" purity="7.3608106374740601e-01" nType="0">
                <Node pos="l" depth="5" NCoef="0" IVar="-1" Cut="0.0000000000000000e+00" cType="1" res="1.7891735769808292e-03" rms="3.5001847147941589e-01" purity="5.2475953102111816e-01" nType="-99"/>
                <Node pos="r" depth="5" NCoef="0" IVar="-1" Cut="0.0000000000000000e+00" cType="1" res="8.8232569396495819e-03" rms="2.7100875973701477e-01" purity="8.1068158149719238e-01" nType="-99"/>
              </Node>
              <Node pos="r" depth="4" NCoef="0" IVar="-1" Cut="0.0000000000000000e+00" cType="1" res="3.8371141999959946e-04" rms="3.1364160776138306e-01" purity="4.7000834345817566e-01" nType="-99"/>
            </Node>
          </Node>
          <Node pos="r" depth="2" NCoef="0" IVar="9" Cut="5.3639656305313110e-01" cType="1" res="-4.2421510443091393e-04" rms="2.9122883081436157e-01" purity="3.5080417990684509e-01" nType="0">
            <Node pos="l" depth="3" NCoef="0" IVar="7" Cut="7.2920596599578857e-01" cType="1" res="4.0424481267109513e-04" rms="2.8802123665809631e-01" purity="3.4206300973892212e-01" nType="0">
              <Node pos="l" depth="4" NCoef="0" IVar="8" Cut="3.5864067077636719e-01" cType="1" res="-3.8601460400968790e-03" rms="3.1325191259384155e-01" purity="3.8001099228858948e-01" nType="0">
                <Node pos="l" depth="5" NCoef="0" IVar="-1" Cut="0.0000000000000000e+00" cType="1" res="4.5026708394289017e-03" rms="3.0243051052093506e-01" purity="2.2144998610019684e-01" nType="-99"/>
                <Node pos="r" depth="5" NCoef="0" IVar="-1" Cut="0.0000000000000000e+00" cType="1" res="-5.1723080687224865e-03" rms="3.1957343220710754e-01" purity="4.7817420959472656e-01" nType="-99"/>
              </Node>
              <Node pos="r" depth="4" NCoef="0" IVar="8" Cut="2.7408292889595032e-01" cType="1" res="2.3774451110512018e-03" rms="2.7554363012313843e-01" purity="3.2450386881828308e-01" nType="0">
                <Node pos="l" depth="5" NCoef="0" IVar="-1" Cut="0.0000000000000000e+00" cType="1" res="-2.1679182536900043e-03" rms="2.5682854652404785e-01" purity="1.9933837652206421e-01" nType="-99"/>
                <Node pos="r" depth="5" NCoef="0" IVar="-1" Cut="0.0000000000000000e+00" cType="1" res="3.7304353900253773e-03" rms="2.8972485661506653e-01" purity="4.2572388052940369e-01" nType="-99"/>
              </Node>
            </Node>
            <Node pos="r" depth="3" NCoef="0" IVar="-1" Cut="0.0000000000000000e+00" cType="1" res="-4.1726068593561649e-03" rms="3.2072275876998901e-01" purity="4.3605574965476990e-01" nType="-99"/>
          </Node>
        </Node>
      </Node>
    </BinaryTree>
    <BinaryTree type="DecisionTree" boostWeight="1.0000000000000000e+00" itree="302">
      <Node pos="s" depth="0" NCoef="0" IVar="5" Cut="1.0602635192871094e+02" cType="1" res="1.9219053501728922e-04" rms="2.9573914408683777e-01" purity="5.0023603439331055e-01" nType="0">
        <Node pos="l" depth="1" NCoef="0" IVar="5" Cut="5.1262905120849609e+01" cType="1" res="1.5109917148947716e-03" rms="3.0152523517608643e-01" purity="5.8650970458984375e-01" nType="0">
          <Node pos="l" depth="2" NCoef="0" IVar="5" Cut="4.6532199859619141e+01" cType="1" res="7.3496899567544460e-03" rms="3.5125994682312012e-01" purity="3.6958211660385132e-01" nType="0">
            <Node pos="l" depth="3" NCoef="0" IVar="2" Cut="1.0975610017776489e+00" cType="1" res="2.7768630534410477e-03" rms="3.4925615787506104e-01" purity="3.5170626640319824e-01" nType="0">
              <Node pos="l" depth="4" NCoef="0" IVar="9" Cut="3.2781299948692322e-01" cType="1" res="-2.5279589463025331e-03" rms="3.5981062054634094e-01" purity="4.1515731811523438e-01" nType="0">
                <Node pos="l" depth="5" NCoef="0" IVar="-1" Cut="0.0000000000000000e+00" cType="1" res="-3.9028909523040056e-03" rms="3.4186071157455444e-01" purity="3.1175684928894043e-01" nType="-99"/>
                <Node pos="r" depth="5" NCoef="0" IVar="-1" Cut="0.0000000000000000e+00" cType="1" res="1.2602022616192698e-03" rms="3.7541866302490234e-01" purity="5.1001310348510742e-01" nType="-99"/>
              </Node>
              <Node pos="r" depth="4" NCoef="0" IVar="-1" Cut="0.0000000000000000e+00" cType="1" res="8.6217140778899193e-03" rms="3.2304376363754272e-01" purity="2.0413927733898163e-01" nType="-99"/>
            </Node>
            <Node pos="r" depth="3" NCoef="0" IVar="-1" Cut="0.0000000000000000e+00" cType="1" res="8.8627813383936882e-03" rms="3.5701042413711548e-01" purity="4.2481532692909241e-01" nType="-99"/>
          </Node>
          <Node pos="r" depth="2" NCoef="0" IVar="6" Cut="7.6624220609664917e-01" cType="1" res="6.3689920352771878e-04" rms="2.9334488511085510e-01" purity="6.1898517608642578e-01" nType="0">
            <Node pos="l" depth="3" NCoef="0" IVar="9" Cut="4.7693949937820435e-01" cType="1" res="-6.2021417543292046e-03" rms="3.1256845593452454e-01" purity="4.0539023280143738e-01" nType="0">
              <Node pos="l" depth="4" NCoef="0" IVar="7" Cut="1.3691066503524780e+00" cType="1" res="-1.1782440356910229e-02" rms="3.0099356174468994e-01" purity="2.7530881762504578e-01" nType="0">
                <Node pos="l" depth="5" NCoef="0" IVar="-1" Cut="0.0000000000000000e+00" cType="1" res="-1.0260960087180138e-02" rms="3.1226491928100586e-01" purity="2.7005264163017273e-01" nType="-99"/>
                <Node pos="r" depth="5" NCoef="0" IVar="-1" Cut="0.0000000000000000e+00" cType="1" res="-1.9342056475579739e-03" rms="2.9026284813880920e-01" purity="2.8002434968948364e-01" nType="-99"/>
              </Node>
              <Node pos="r" depth="4" NCoef="0" IVar="-1" Cut="0.0000000000000000e+00" cType="1" res="1.2013643281534314e-03" rms="3.3013144135475159e-01" purity="6.1453199386596680e-01" nType="-99"/>
            </Node>
            <Node pos="r" depth="3" NCoef="0" IVar="7" Cut="3.1932678222656250e+00" cType="1" res="1.6416405560448766e-03" rms="2.9039993882179260e-01" purity="6.5036493539810181e-01" nType="0">
              <Node pos="l" depth="4" NCoef="0" IVar="4" Cut="6.4300315856933594e+01" cType="1" res="8.5138913709670305e-04" rms="2.9095917940139771e-01" purity="6.5953868627548218e-01" nType="0">
                <Node pos="l" depth="5" NCoef="0" IVar="-1" Cut="0.0000000000000000e+00" cType="1" res="3.5891069564968348e-03" rms="3.6144584417343140e-01" purity="3.6932578682899475e-01" nType="-99"/>
                <Node pos="r" depth="5" NCoef="0" IVar="-1" Cut="0.0000000000000000e+00" cType="1" res="1.4379023014043923e-05" rms="2.8355404734611511e-01" purity="6.8633639812469482e-01" nType="-99"/>
              </Node>
              <Node pos="r" depth="4" NCoef="0" IVar="-1" Cut="0.0000000000000000e+00" cType="1" res="7.6350336894392967e-03" rms="2.8104755282402039e-01" purity="5.0431680679321289e-01" nType="-99"/>
            </Node>
          </Node>
        </Node>
        <Node pos="r" depth="1" NCoef="0" IVar="9" Cut="6.9753718376159668e-01" cType="1" res="-3.0358182266354561e-03" rms="2.8104829788208008e-01" purity="2.8906551003456116e-01" nType="0">
          <Node pos="l" depth="2" NCoef="0" IVar="6" Cut="1.4558603763580322e+00" cType="1" res="-1.6827044310048223e-03" rms="2.8063803911209106e-01" purity="2.9674655199050903e-01" nType="0">
            <Node pos="l" depth="3" NCoef="0" IVar="7" Cut="1.2363388538360596e+00" cType="1" res="5.6601641699671745e-03" rms="2.7516350150108337e-01" purity="1.3617001473903656e-01" nType="0">
              <Node pos="l" depth="4" NCoef="0" IVar="0" Cut="1.0975610017776489e+00" cType="1" res="2.0846972241997719e-02" rms="3.2157173752784729e-01" purity="1.9202844798564911e-01" nType="0">
                <Node pos="l" depth="5" NCoef="0" IVar="-1" Cut="0.0000000000000000e+00" cType="1" res="1.0416699573397636e-02" rms="2.3316904902458191e-01" purity="6.6016197204589844e-02" nType="-99"/>
                <Node pos="r" depth="5" NCoef="0" IVar="-1" Cut="0.0000000000000000e+00" cType="1" res="1.2217476032674313e-02" rms="3.8579306006431580e-01" purity="3.0936801433563232e-01" nType="-99"/>
              </Node>
              <Node pos="r" depth="4" NCoef="0" IVar="4" Cut="1.1725341796875000e+02" cType="1" res="-1.0091637261211872e-02" rms="2.1564766764640808e-01" purity="7.8233510255813599e-02" nType="0">
                <Node pos="l" depth="5" NCoef="0" IVar="-1" Cut="0.0000000000000000e+00" cType="1" res="-6.7065223120152950e-03" rms="2.3557172715663910e-01" purity="9.0856648981571198e-02" nType="-99"/>
                <Node pos="r" depth="5" NCoef="0" IVar="-1" Cut="0.0000000000000000e+00" cType="1" res="-1.3856474310159683e-02" rms="1.9387274980545044e-01" purity="6.5726965665817261e-02" nType="-99"/>
              </Node>
            </Node>
            <Node pos="r" depth="3" NCoef="0" IVar="6" Cut="1.7847840785980225e+00" cType="1" res="-4.9077281728386879e-03" rms="2.8294879198074341e-01" purity="3.6727252602577209e-01" nType="0">
              <Node pos="l" depth="4" NCoef="0" IVar="-1" Cut="0.0000000000000000e+00" cType="1" res="-1.1509185656905174e-02" rms="2.6443627476692200e-01" purity="1.4500257372856140e-01" nType="-99"/>
              <Node pos="r" depth="4" NCoef="0" IVar="1" Cut="3.0487804412841797e+00" cType="1" res="-3.3661846537142992e-03" rms="2.8524804115295410e-01" purity="3.9637807011604309e-01" nType="0">
                <Node pos="l" depth="5" NCoef="0" IVar="-1" Cut="0.0000000000000000e+00" cType="1" res="9.1203473857603967e-05" rms="2.7995854616165161e-01" purity="2.4223344027996063e-01" nType="-99"/>
                <Node pos="r" depth="5" NCoef="0" IVar="-1" Cut="0.0000000000000000e+00" cType="1" res="-4.6140579506754875e-03" rms="2.9249674081802368e-01" purity="6.1447924375534058e-01" nType="-99"/>
              </Node>
            </Node>
          </Node>
          <Node pos="r" depth="2" NCoef="0" IVar="-1" Cut="0.0000000000000000e+00" cType="1" res="-1.1480987071990967e-02" rms="2.8576335310935974e-01" purity="1.8878929316997528e-01" nType="-99"/>
        </Node>
      </Node>
    </BinaryTree>
    <BinaryTree type="DecisionTree" boostWeight="1.0000000000000000e+00" itree="303">
      <Node pos="s" depth="0" NCoef="0" IVar="6" Cut="2.9117181301116943e+00" cType="1" res="-1.5790843463037163e-04" rms="2.9534769058227539e-01" purity="5.0038731098175049e-01" nType="0">
        <Node pos="l" depth="1" NCoef="0" IVar="0" Cut="2.0731706619262695e+00" cType="1" res="-1.1393297463655472e-03" rms="2.9920911788940430e-01" purity="4.6531248092651367e-01" nType="0">
          <Node pos="l" depth="2" NCoef="0" IVar="8" Cut="7.1460330486297607e-01" cType="1" res="2.6187102776020765e-03" rms="2.7209118008613586e-01" purity="2.1047145128250122e-01" nType="0">
            <Node pos="l" depth="3" NCoef="0" IVar="4" Cut="1.5714949035644531e+02" cType="1" res="1.3138793874531984e-03" rms="2.6749879121780396e-01" purity="2.1000315248966217e-01" nType="0">
              <Node pos="l" depth="4" NCoef="0" IVar="8" Cut="2.6157015562057495e-01" cType="1" res="2.9810203704982996e-03" rms="2.8528487682342529e-01" purity="2.5308999419212341e-01" nType="0">
                <Node pos="l" depth="5" NCoef="0" IVar="-1" Cut="0.0000000000000000e+00" cType="1" res="-1.1943451827391982e-03" rms="2.4964284896850586e-01" purity="1.6217233240604401e-01" nType="-99"/>
                <Node pos="r" depth="5" NCoef="0" IVar="-1" Cut="0.0000000000000000e+00" cType="1" res="3.3078421838581562e-03" rms="3.0786520242691040e-01" purity="3.1707715988159180e-01" nType="-99"/>
              </Node>
              <Node pos="r" depth="4" NCoef="0" IVar="8" Cut="2.4438615143299103e-01" cType="1" res="-4.5944014564156532e-03" rms="1.9148653745651245e-01" purity="5.7305123656988144e-02" nType="0">
                <Node pos="l" depth="5" NCoef="0" IVar="-1" Cut="0.0000000000000000e+00" cType="1" res="7.7515584416687489e-03" rms="1.7014949023723602e-01" purity="3.6982603371143341e-02" nType="-99"/>
                <Node pos="r" depth="5" NCoef="0" IVar="-1" Cut="0.0000000000000000e+00" cType="1" res="-1.1198805645108223e-02" rms="2.0799343287944794e-01" purity="7.4998646974563599e-02" nType="-99"/>
              </Node>
            </Node>
            <Node pos="r" depth="3" NCoef="0" IVar="-1" Cut="0.0000000000000000e+00" cType="1" res="9.2255165800452232e-03" rms="3.1877523660659790e-01" purity="2.1572858095169067e-01" nType="-99"/>
          </Node>
          <Node pos="r" depth="2" NCoef="0" IVar="4" Cut="1.5766548156738281e+02" cType="1" res="-3.6950274370610714e-03" rms="3.1630018353462219e-01" purity="6.3862001895904541e-01" nType="0">
            <Node pos="l" depth="3" NCoef="0" IVar="3" Cut="1.0975610017776489e+00" cType="1" res="-5.3649810142815113e-03" rms="3.1066939234733582e-01" purity="6.9719147682189941e-01" nType="0">
              <Node pos="l" depth="4" NCoef="0" IVar="4" Cut="7.3213478088378906e+01" cType="1" res="-2.4550016969442368e-03" rms="3.0373296141624451e-01" purity="7.3621195554733276e-01" nType="0">
                <Node pos="l" depth="5" NCoef="0" IVar="-1" Cut="0.0000000000000000e+00" cType="1" res="-5.0910501740872860e-03" rms="3.7165915966033936e-01" purity="4.1643980145454407e-01" nType="-99"/>
                <Node pos="r" depth="5" NCoef="0" IVar="-1" Cut="0.0000000000000000e+00" cType="1" res="-5.1053386414423585e-04" rms="2.9417365789413452e-01" purity="7.7589714527130127e-01" nType="-99"/>
              </Node>
              <Node pos="r" depth="4" NCoef="0" IVar="6" Cut="1.2072985172271729e+00" cType="1" res="-1.6816804185509682e-02" rms="3.3633708953857422e-01" purity="5.4363173246383667e-01" nType="0">
                <Node pos="l" depth="5" NCoef="0" IVar="-1" Cut="0.0000000000000000e+00" cType="1" res="-1.1220177635550499e-02" rms="3.4044137597084045e-01" purity="4.0515553951263428e-01" nType="-99"/>
                <Node pos="r" depth="5" NCoef="0" IVar="-1" Cut="0.0000000000000000e+00" cType="1" res="-5.7312641292810440e-03" rms="3.3490580320358276e-01" purity="5.8883285522460938e-01" nType="-99"/>
              </Node>
            </Node>
            <Node pos="r" depth="3" NCoef="0" IVar="7" Cut="7.3021620512008667e-01" cType="1" res="6.1752642504870892e-03" rms="3.4755995869636536e-01" purity="2.9243224859237671e-01" nType="0">
              <Node pos="l" depth="4" NCoef="0" IVar="-1" Cut="0.0000000000000000e+00" cType="1" res="7.5286966748535633e-03" rms="3.9120003581047058e-01" purity="3.5878387093544006e-01" nType="-99"/>
              <Node pos="r" depth="4" NCoef="0" IVar="6" Cut="1.7754418849945068e+00" cType="1" res="-2.0120032131671906e-03" rms="3.2052150368690491e-01" purity="2.5564205646514893e-01" nType="0">
                <Node pos="l" depth="5" NCoef="0" IVar="-1" Cut="0.0000000000000000e+00" cType="1" res="-5.8691906742751598e-03" rms="2.9910573363304138e-01" purity="1.5692456066608429e-01" nType="-99"/>
                <Node pos="r" depth="5" NCoef="0" IVar="-1" Cut="0.0000000000000000e+00" cType="1" res="2.4520573206245899e-03" rms="3.3723413944244385e-01" purity="3.3843767642974854e-01" nType="-99"/>
              </Node>
            </Node>
          </Node>
        </Node>
        <Node pos="r" depth="1" NCoef="0" IVar="9" Cut="2.3572696745395660e-01" cType="1" res="5.0968383438885212e-03" rms="2.7368795871734619e-01" purity="6.8818551301956177e-01" nType="0">
          <Node pos="l" depth="2" NCoef="0" IVar="-1" Cut="0.0000000000000000e+00" cType="1" res="7.4909031391143799e-03" rms="3.0788493156433105e-01" purity="4.6495801210403442e-01" nType="-99"/>
          <Node pos="r" depth="2" NCoef="0" IVar="8" Cut="3.1481152772903442e-01" cType="1" res="2.2182562388479710e-03" rms="2.6190835237503052e-01" purity="7.5861257314682007e-01" nType="0">
            <Node pos="l" depth="3" NCoef="0" IVar="-1" Cut="0.0000000000000000e+00" cType="1" res="-2.4546934291720390e-03" rms="2.9634013772010803e-01" purity="6.1086457967758179e-01" nType="-99"/>
            <Node pos="r" depth="3" NCoef="0" IVar="-1" Cut="0.0000000000000000e+00" cType="1" res="5.0095696933567524e-03" rms="2.3764213919639587e-01" purity="8.5143530368804932e-01" nType="-99"/>
          </Node>
        </Node>
      </Node>
    </BinaryTree>
    <BinaryTree type="DecisionTree" boostWeight="1.0000000000000000e+00" itree="304">
      <Node pos="s" depth="0" NCoef="0" IVar="1" Cut="3.0487804412841797e+00" cType="1" res="-7.6625385554507375e-04" rms="2.9404830932617188e-01" purity="5.0050944089889526e-01" nType="0">
        <Node pos="l" depth="1" NCoef="0" IVar="5" Cut="1.0227202606201172e+02" cType="1" res="-3.4568707924336195e-03" rms="3.0264154076576233e-01" purity="3.1506583094596863e-01" nType="0">
          <Node pos="l" depth="2" NCoef="0" IVar="7" Cut="2.2910029888153076e+00" cType="1" res="-6.2039140611886978e-03" rms="3.2164910435676575e-01" purity="3.9876022934913635e-01" nType="0">
            <Node pos="l" depth="3" NCoef="0" IVar="4" Cut="8.8099937438964844e+01" cType="1" res="-7.7979951165616512e-03" rms="3.3015611767768860e-01" purity="4.1646677255630493e-01" nType="0">
              <Node pos="l" depth="4" NCoef="0" IVar="7" Cut="1.2293145656585693e+00" cType="1" res="-1.4947338961064816e-02" rms="3.4028974175453186e-01" purity="3.1491106748580933e-01" nType="0">
                <Node pos="l" depth="5" NCoef="0" IVar="-1" Cut="0.0000000000000000e+00" cType="1" res="-7.8781573101878166e-03" rms="3.4528219699859619e-01" purity="3.4869858622550964e-01" nType="-99"/>
                <Node pos="r" depth="5" NCoef="0" IVar="-1" Cut="0.0000000000000000e+00" cType="1" res="-6.5913109574466944e-04" rms="3.2807350158691406e-01" purity="2.3690907657146454e-01" nType="-99"/>
              </Node>
              <Node pos="r" depth="4" NCoef="0" IVar="4" Cut="1.0784394836425781e+02" cType="1" res="-4.8804664984345436e-03" rms="3.2588517665863037e-01" purity="4.5790997147560120e-01" nType="0">
                <Node pos="l" depth="5" NCoef="0" IVar="-1" Cut="0.0000000000000000e+00" cType="1" res="2.1532089449465275e-03" rms="3.3477565646171570e-01" purity="5.5839294195175171e-01" nType="-99"/>
                <Node pos="r" depth="5" NCoef="0" IVar="-1" Cut="0.0000000000000000e+00" cType="1" res="-3.9582517929375172e-03" rms="3.2278028130531311e-01" purity="4.2419475317001343e-01" nType="-99"/>
              </Node>
            </Node>
            <Node pos="r" depth="3" NCoef="0" IVar="6" Cut="2.2987258434295654e+00" cType="1" res="9.7125250613316894e-04" rms="2.8006592392921448e-01" purity="3.1906074285507202e-01" nType="0">
              <Node pos="l" depth="4" NCoef="0" IVar="-1" Cut="0.0000000000000000e+00" cType="1" res="5.3249928168952465e-03" rms="2.7558830380439758e-01" purity="2.1011382341384888e-01" nType="-99"/>
              <Node pos="r" depth="4" NCoef="0" IVar="-1" Cut="0.0000000000000000e+00" cType="1" res="-4.7974870540201664e-03" rms="2.8590402007102966e-01" purity="4.7203299403190613e-01" nType="-99"/>
            </Node>
          </Node>
          <Node pos="r" depth="2" NCoef="0" IVar="8" Cut="4.0852949023246765e-01" cType="1" res="1.0934423189610243e-03" rms="2.6814728975296021e-01" purity="1.7643111944198608e-01" nType="0">
            <Node pos="l" depth="3" NCoef="0" IVar="5" Cut="1.1494412231445312e+02" cType="1" res="4.0696440264582634e-03" rms="2.5384956598281860e-01" purity="1.4984223246574402e-01" nType="0">
              <Node pos="l" depth="4" NCoef="0" IVar="-1" Cut="0.0000000000000000e+00" cType="1" res="1.1712669394910336e-02" rms="2.8320690989494324e-01" purity="1.8817891180515289e-01" nType="-99"/>
              <Node pos="r" depth="4" NCoef="0" IVar="7" Cut="7.4180406332015991e-01" cType="1" res="-4.3199572246521711e-04" rms="2.4265526235103607e-01" purity="1.3651885092258453e-01" nType="0">
                <Node pos="l" depth="5" NCoef="0" IVar="-1" Cut="0.0000000000000000e+00" cType="1" res="5.0081349909305573e-03" rms="2.8801712393760681e-01" purity="1.5752740204334259e-01" nType="-99"/>
                <Node pos="r" depth="5" NCoef="0" IVar="-1" Cut="0.0000000000000000e+00" cType="1" res="-3.1150234863162041e-03" rms="2.2195486724376678e-01" purity="1.2815502285957336e-01" nType="-99"/>
              </Node>
            </Node>
            <Node pos="r" depth="3" NCoef="0" IVar="9" Cut="2.3083876073360443e-01" cType="1" res="-7.5391279533505440e-03" rms="3.0569669604301453e-01" purity="2.5355300307273865e-01" nType="0">
              <Node pos="l" depth="4" NCoef="0" IVar="-1" Cut="0.0000000000000000e+00" cType="1" res="1.0291226208209991e-03" rms="2.5273799896240234e-01" purity="9.2656537890434265e-02" nType="-99"/>
              <Node pos="r" depth="4" NCoef="0" IVar="-1" Cut="0.0000000000000000e+00" cType="1" res="-5.8961766771972179e-03" rms="3.3914411067962646e-01" purity="3.7143704295158386e-01" nType="-99"/>
            </Node>
          </Node>
        </Node>
        <Node pos="r" depth="1" NCoef="0" IVar="8" Cut="7.1451336145401001e-01" cType="1" res="2.3417770862579346e-03" rms="2.8376650810241699e-01" purity="7.1472215652465820e-01" nType="0">
          <Node pos="l" depth="2" NCoef="0" IVar="7" Cut="1.8010116815567017e+00" cType="1" res="2.9849507845938206e-03" rms="2.7820461988449097e-01" purity="7.2087717056274414e-01" nType="0">
            <Node pos="l" depth="3" NCoef="0" IVar="8" Cut="4.0179881453514099e-01" cType="1" res="1.5627767425030470e-03" rms="2.8056862950325012e-01" purity="7.4448031187057495e-01" nType="0">
              <Node pos="l" depth="4" NCoef="0" IVar="0" Cut="4.0243902206420898e+00" cType="1" res="-1.7675599083304405e-03" rms="2.9209625720977783e-01" purity="6.8068546056747437e-01" nType="0">
                <Node pos="l" depth="5" NCoef="0" IVar="-1" Cut="0.0000000000000000e+00" cType="1" res="-3.9068064652383327e-03" rms="3.0827343463897705e-01" purity="5.0221461057662964e-01" nType="-99"/>
                <Node pos="r" depth="5" NCoef="0" IVar="-1" Cut="0.0000000000000000e+00" cType="1" res="2.1024153102189302e-03" rms="2.7702984213829041e-01" purity="8.3726245164871216e-01" nType="-99"/>
              </Node>
              <Node pos="r" depth="4" NCoef="0" IVar="6" Cut="2.1454713344573975e+00" cType="1" res="5.4723969660699368e-03" rms="2.6634702086448669e-01" purity="8.1937181949615479e-01" nType="0">
                <Node pos="l" depth="5" NCoef="0" IVar="-1" Cut="0.0000000000000000e+00" cType="1" res="7.4717943789437413e-04" rms="3.0319175124168396e-01" purity="7.3498123884201050e-01" nType="-99"/>
                <Node pos="r" depth="5" NCoef="0" IVar="-1" Cut="0.0000000000000000e+00" cType="1" res="6.7193820141255856e-03" rms="2.3724345862865448e-01" purity="8.7823522090911865e-01" nType="-99"/>
              </Node>
            </Node>
            <Node pos="r" depth="3" NCoef="0" IVar="4" Cut="9.4197151184082031e+01" cType="1" res="6.7742774263024330e-03" rms="2.7176910638809204e-01" purity="6.5798741579055786e-01" nType="0">
              <Node pos="l" depth="4" NCoef="0" IVar="-1" Cut="0.0000000000000000e+00" cType="1" res="-2.8591172304004431e-03" rms="3.0563807487487793e-01" purity="4.9297231435775757e-01" nType="-99"/>
              <Node pos="r" depth="4" NCoef="0" IVar="8" Cut="1.9198960065841675e-01" cType="1" res="9.6327550709247589e-03" rms="2.6342713832855225e-01" purity="6.9528561830520630e-01" nType="0">
                <Node pos="l" depth="5" NCoef="0" IVar="-1" Cut="0.0000000000000000e+00" cType="1" res="2.1270066499710083e-03" rms="2.8462871909141541e-01" purity="5.2662181854248047e-01" nType="-99"/>
                <Node pos="r" depth="5" NCoef="0" IVar="-1" Cut="0.0000000000000000e+00" cType="1" res="8.6998026818037033e-03" rms="2.5274711847305298e-01" purity="7.7494937181472778e-01" nType="-99"/>
              </Node>
            </Node>
          </Node>
          <Node pos="r" depth="2" NCoef="0" IVar="-1" Cut="0.0000000000000000e+00" cType="1" res="-2.7823017444461584e-03" rms="3.5250282287597656e-01" purity="6.2842702865600586e-01" nType="-99"/>
        </Node>
      </Node>
    </BinaryTree>
    <BinaryTree type="DecisionTree" boostWeight="1.0000000000000000e+00" itree="305">
      <Node pos="s" depth="0" NCoef="0" IVar="9" Cut="7.9745924472808838e-01" cType="1" res="-7.4780773138627410e-04" rms="2.9492947459220886e-01" purity="4.9895960092544556e-01" nType="0">
        <Node pos="l" depth="1" NCoef="0" IVar="9" Cut="5.8529149740934372e-02" cType="1" res="-1.1510131880640984e-03" rms="2.9361957311630249e-01" purity="5.0052863359451294e-01" nType="0">
          <Node pos="l" depth="2" NCoef="0" IVar="-1" Cut="0.0000000000000000e+00" cType="1" res="-1.4559051021933556e-02" rms="1.9144673645496368e-01" purity="4.9412544816732407e-02" nType="-99"/>
          <Node pos="r" depth="2" NCoef="0" IVar="8" Cut="6.0034996271133423e-01" cType="1" res="-8.9338328689336777e-04" rms="2.9553866386413574e-01" purity="5.1084721088409424e-01" nType="0">
            <Node pos="l" depth="3" NCoef="0" IVar="4" Cut="9.9119125366210938e+01" cType="1" res="-1.5137298032641411e-03" rms="2.8884387016296387e-01" purity="5.1073604822158813e-01" nType="0">
              <Node pos="l" depth="4" NCoef="0" IVar="9" Cut="4.5502781867980957e-01" cType="1" res="-4.4553764164447784e-03" rms="3.0972945690155029e-01" purity="3.9375168085098267e-01" nType="0">
                <Node pos="l" depth="5" NCoef="0" IVar="-1" Cut="0.0000000000000000e+00" cType="1" res="-3.0012871138751507e-04" rms="3.0379804968833923e-01" purity="3.4020376205444336e-01" nType="-99"/>
                <Node pos="r" depth="5" NCoef="0" IVar="-1" Cut="0.0000000000000000e+00" cType="1" res="-5.9642265550792217e-03" rms="3.2197222113609314e-01" purity="5.0906461477279663e-01" nType="-99"/>
              </Node>
              <Node pos="r" depth="4" NCoef="0" IVar="8" Cut="2.3456616699695587e-01" cType="1" res="-1.6512689762748778e-04" rms="2.7873578667640686e-01" purity="5.6436771154403687e-01" nType="0">
                <Node pos="l" depth="5" NCoef="0" IVar="-1" Cut="0.0000000000000000e+00" cType="1" res="2.4589421227574348e-03" rms="2.8063848614692688e-01" purity="3.5842409729957581e-01" nType="-99"/>
                <Node pos="r" depth="5" NCoef="0" IVar="-1" Cut="0.0000000000000000e+00" cType="1" res="-1.1997366091236472e-03" rms="2.7788046002388000e-01" purity="6.5447241067886353e-01" nType="-99"/>
              </Node>
            </Node>
            <Node pos="r" depth="3" NCoef="0" IVar="7" Cut="1.1343798637390137e+00" cType="1" res="3.4390185028314590e-03" rms="3.3859220147132874e-01" purity="5.1162320375442505e-01" nType="0">
              <Node pos="l" depth="4" NCoef="0" IVar="9" Cut="2.2073352336883545e-01" cType="1" res="8.8812820613384247e-03" rms="3.4091261029243469e-01" purity="5.6282228231430054e-01" nType="0">
                <Node pos="l" depth="5" NCoef="0" IVar="-1" Cut="0.0000000000000000e+00" cType="1" res="9.6048451960086823e-03" rms="3.5400417447090149e-01" purity="3.5025203227996826e-01" nType="-99"/>
                <Node pos="r" depth="5" NCoef="0" IVar="-1" Cut="0.0000000000000000e+00" cType="1" res="1.9239307148382068e-03" rms="3.3635967969894409e-01" purity="6.3299083709716797e-01" nType="-99"/>
              </Node>
              <Node pos="r" depth="4" NCoef="0" IVar="-1" Cut="0.0000000000000000e+00" cType="1" res="-8.1420140340924263e-03" rms="3.2868582010269165e-01" purity="3.1487485766410828e-01" nType="-99"/>
            </Node>
          </Node>
        </Node>
        <Node pos="r" depth="1" NCoef="0" IVar="-1" Cut="0.0000000000000000e+00" cType="1" res="4.1314163245260715e-03" rms="3.2404923439025879e-01" purity="4.6208459138870239e-01" nType="-99"/>
      </Node>
    </BinaryTree>
    <BinaryTree type="DecisionTree" boostWeight="1.0000000000000000e+00" itree="306">
      <Node pos="s" depth="0" NCoef="0" IVar="7" Cut="3.4575083255767822e+00" cType="1" res="-1.0738731361925602e-03" rms="2.9492983222007751e-01" purity="4.9775424599647522e-01" nType="0">
        <Node pos="l" depth="1" NCoef="0" IVar="7" Cut="1.6865928471088409e-01" cType="1" res="-1.6737575642764568e-03" rms="2.9628986120223999e-01" purity="5.0712728500366211e-01" nType="0">
          <Node pos="l" depth="2" NCoef="0" IVar="6" Cut="1.9156022071838379e+00" cType="1" res="-9.5304707065224648e-03" rms="3.0279910564422607e-01" purity="5.5626434087753296e-01" nType="0">
            <Node pos="l" depth="3" NCoef="0" IVar="-1" Cut="0.0000000000000000e+00" cType="1" res="-9.2476904392242432e-03" rms="3.0798044800758362e-01" purity="4.3818613886833191e-01" nType="-99"/>
            <Node pos="r" depth="3" NCoef="0" IVar="-1" Cut="0.0000000000000000e+00" cType="1" res="-1.6849852399900556e-03" rms="2.9881787300109863e-01" purity="6.4190346002578735e-01" nType="-99"/>
          </Node>
          <Node pos="r" depth="2" NCoef="0" IVar="5" Cut="6.6192306518554688e+01" cType="1" res="-8.8030303595587611e-04" rms="2.9561290144920349e-01" purity="5.0216490030288696e-01" nType="0">
            <Node pos="l" depth="3" NCoef="0" IVar="6" Cut="1.3792330026626587e+00" cType="1" res="-5.6209717877209187e-03" rms="3.3573594689369202e-01" purity="4.1065600514411926e-01" nType="0">
              <Node pos="l" depth="4" NCoef="0" IVar="4" Cut="1.1701993560791016e+02" cType="1" res="4.3555218726396561e-03" rms="3.3391830325126648e-01" purity="3.4137347340583801e-01" nType="0">
                <Node pos="l" depth="5" NCoef="0" IVar="-1" Cut="0.0000000000000000e+00" cType="1" res="-2.6701542083173990e-03" rms="3.3741179108619690e-01" purity="3.5498398542404175e-01" nType="-99"/>
                <Node pos="r" depth="5" NCoef="0" IVar="-1" Cut="0.0000000000000000e+00" cType="1" res="7.6975161209702492e-03" rms="3.2979568839073181e-01" purity="3.2695612311363220e-01" nType="-99"/>
              </Node>
              <Node pos="r" depth="4" NCoef="0" IVar="7" Cut="1.6927452087402344e+00" cType="1" res="-1.0611320845782757e-02" rms="3.3653053641319275e-01" purity="4.4531184434890747e-01" nType="0">
                <Node pos="l" depth="5" NCoef="0" IVar="-1" Cut="0.0000000000000000e+00" cType="1" res="-2.6393129955977201e-03" rms="3.4930798411369324e-01" purity="4.9023196101188660e-01" nType="-99"/>
                <Node pos="r" depth="5" NCoef="0" IVar="-1" Cut="0.0000000000000000e+00" cType="1" res="-1.1934850364923477e-02" rms="2.9440373182296753e-01" purity="3.1021779775619507e-01" nType="-99"/>
              </Node>
            </Node>
            <Node pos="r" depth="3" NCoef="0" IVar="4" Cut="7.6416275024414062e+01" cType="1" res="2.1415720402728766e-04" rms="2.8553876280784607e-01" purity="5.2329123020172119e-01" nType="0">
              <Node pos="l" depth="4" NCoef="0" IVar="5" Cut="7.9920227050781250e+01" cType="1" res="6.3863242976367474e-03" rms="3.2295209169387817e-01" purity="2.7432006597518921e-01" nType="0">
                <Node pos="l" depth="5" NCoef="0" IVar="-1" Cut="0.0000000000000000e+00" cType="1" res="-3.0424771830439568e-03" rms="3.5666364431381226e-01" purity="4.2574995756149292e-01" nType="-99"/>
                <Node pos="r" depth="5" NCoef="0" IVar="-1" Cut="0.0000000000000000e+00" cType="1" res="5.2550015971064568e-03" rms="3.1415134668350220e-01" purity="2.3768444359302521e-01" nType="-99"/>
              </Node>
              <Node pos="r" depth="4" NCoef="0" IVar="8" Cut="7.9382616281509399e-01" cType="1" res="-8.8437082013115287e-04" rms="2.7833890914916992e-01" purity="5.6760329008102417e-01" nType="0">
                <Node pos="l" depth="5" NCoef="0" IVar="-1" Cut="0.0000000000000000e+00" cType="1" res="-1.9484749645926058e-04" rms="2.7663010358810425e-01" purity="5.7678478956222534e-01" nType="-99"/>
                <Node pos="r" depth="5" NCoef="0" IVar="-1" Cut="0.0000000000000000e+00" cType="1" res="-6.8384734913706779e-03" rms="3.1331005692481995e-01" purity="3.6566317081451416e-01" nType="-99"/>
              </Node>
            </Node>
          </Node>
        </Node>
        <Node pos="r" depth="1" NCoef="0" IVar="5" Cut="9.1853752136230469e+01" cType="1" res="1.2056216597557068e-02" rms="2.6306638121604919e-01" purity="2.9260063171386719e-01" nType="0">
          <Node pos="l" depth="2" NCoef="0" IVar="-1" Cut="0.0000000000000000e+00" cType="1" res="1.2518761679530144e-02" rms="2.9210525751113892e-01" purity="4.3684953451156616e-01" nType="-99"/>
          <Node pos="r" depth="2" NCoef="0" IVar="-1" Cut="0.0000000000000000e+00" cType="1" res="-5.1789171993732452e-04" rms="2.2624452412128448e-01" purity="1.3412778079509735e-01" nType="-99"/>
        </Node>
      </Node>
    </BinaryTree>
    <BinaryTree type="DecisionTree" boostWeight="1.0000000000000000e+00" itree="307">
      <Node pos="s" depth="0" NCoef="0" IVar="0" Cut="2.0731706619262695e+00" cType="1" res="1.0867367964237928e-03" rms="2.9534745216369629e-01" purity="5.0163865089416504e-01" nType="0">
        <Node pos="l" depth="1" NCoef="0" IVar="5" Cut="5.5368286132812500e+01" cType="1" res="-2.0666366908699274e-03" rms="2.6677173376083374e-01" purity="2.2897024452686310e-01" nType="0">
          <Node pos="l" depth="2" NCoef="0" IVar="4" Cut="1.1123744201660156e+02" cType="1" res="-1.1829101480543613e-02" rms="2.7465781569480896e-01" purity="1.3122433423995972e-01" nType="0">
            <Node pos="l" depth="3" NCoef="0" IVar="-1" Cut="0.0000000000000000e+00" cType="1" res="-1.1031864210963249e-02" rms="2.8327533602714539e-01" purity="1.3878378272056580e-01" nType="-99"/>
            <Node pos="r" depth="3" NCoef="0" IVar="-1" Cut="0.0000000000000000e+00" cType="1" res="-2.5021107867360115e-03" rms="2.6551786065101624e-01" purity="1.2368676066398621e-01" nType="-99"/>
          </Node>
          <Node pos="r" depth="2" NCoef="0" IVar="6" Cut="9.9611431360244751e-01" cType="1" res="-7.0368748856708407e-04" rms="2.6562356948852539e-01" purity="2.4261666834354401e-01" nType="0">
            <Node pos="l" depth="3" NCoef="0" IVar="5" Cut="8.8544265747070312e+01" cType="1" res="-6.3293017446994781e-03" rms="2.5148731470108032e-01" purity="1.2279757857322693e-01" nType="0">
              <Node pos="l" depth="4" NCoef="0" IVar="-1" Cut="0.0000000000000000e+00" cType="1" res="-1.1799274012446404e-02" rms="2.8176456689834595e-01" purity="1.9373263418674469e-01" nType="-99"/>
              <Node pos="r" depth="4" NCoef="0" IVar="5" Cut="1.1991499328613281e+02" cType="1" res="1.8271829467266798e-03" rms="2.3282995820045471e-01" purity="8.3923093974590302e-02" nType="0">
                <Node pos="l" depth="5" NCoef="0" IVar="-1" Cut="0.0000000000000000e+00" cType="1" res="8.2542235031723976e-03" rms="2.6619118452072144e-01" purity="1.1789035052061081e-01" nType="-99"/>
                <Node pos="r" depth="5" NCoef="0" IVar="-1" Cut="0.0000000000000000e+00" cType="1" res="-9.0347770601511002e-03" rms="1.9007734954357147e-01" purity="4.7363534569740295e-02" nType="-99"/>
              </Node>
            </Node>
            <Node pos="r" depth="3" NCoef="0" IVar="2" Cut="1.0975610017776489e+00" cType="1" res="1.0272376239299774e-03" rms="2.6980057358741760e-01" purity="2.7948337793350220e-01" nType="0">
              <Node pos="l" depth="4" NCoef="0" IVar="4" Cut="1.4592797851562500e+02" cType="1" res="5.6400769390165806e-03" rms="3.1160730123519897e-01" purity="3.9789429306983948e-01" nType="0">
                <Node pos="l" depth="5" NCoef="0" IVar="-1" Cut="0.0000000000000000e+00" cType="1" res="1.3466703239828348e-03" rms="3.2157370448112488e-01" purity="4.7056794166564941e-01" nType="-99"/>
                <Node pos="r" depth="5" NCoef="0" IVar="-1" Cut="0.0000000000000000e+00" cType="1" res="9.1876247897744179e-03" rms="2.7733629941940308e-01" purity="1.6659122705459595e-01" nType="-99"/>
              </Node>
              <Node pos="r" depth="4" NCoef="0" IVar="3" Cut="2.0731706619262695e+00" cType="1" res="-5.3543415851891041e-03" rms="1.9772526621818542e-01" purity="1.1566912382841110e-01" nType="0">
                <Node pos="l" depth="5" NCoef="0" IVar="-1" Cut="0.0000000000000000e+00" cType="1" res="-1.1261174222454429e-03" rms="2.1864706277847290e-01" purity="1.5276212990283966e-01" nType="-99"/>
                <Node pos="r" depth="5" NCoef="0" IVar="-1" Cut="0.0000000000000000e+00" cType="1" res="-2.4084553122520447e-02" rms="1.4053487777709961e-01" purity="3.3801529556512833e-02" nType="-99"/>
              </Node>
            </Node>
          </Node>
        </Node>
        <Node pos="r" depth="1" NCoef="0" IVar="8" Cut="1.2487208843231201e-01" cType="1" res="3.0556637793779373e-03" rms="3.1184861063957214e-01" purity="6.7188936471939087e-01" nType="0">
          <Node pos="l" depth="2" NCoef="0" IVar="-1" Cut="0.0000000000000000e+00" cType="1" res="6.9084749557077885e-03" rms="3.2093241810798645e-01" purity="3.4214216470718384e-01" nType="-99"/>
          <Node pos="r" depth="2" NCoef="0" IVar="1" Cut="1.0975610017776489e+00" cType="1" res="2.3332012351602316e-03" rms="3.1124883890151978e-01" purity="6.9282650947570801e-01" nType="0">
            <Node pos="l" depth="3" NCoef="0" IVar="4" Cut="8.8343780517578125e+01" cType="1" res="6.1775054782629013e-03" rms="3.7103432416915894e-01" purity="4.4162818789482117e-01" nType="0">
              <Node pos="l" depth="4" NCoef="0" IVar="8" Cut="3.7598255276679993e-01" cType="1" res="2.1393632516264915e-02" rms="3.8854891061782837e-01" purity="3.9608028531074524e-01" nType="0">
                <Node pos="l" depth="5" NCoef="0" IVar="-1" Cut="0.0000000000000000e+00" cType="1" res="3.3461402636021376e-03" rms="3.6074730753898621e-01" purity="3.2157030701637268e-01" nType="-99"/>
                <Node pos="r" depth="5" NCoef="0" IVar="-1" Cut="0.0000000000000000e+00" cType="1" res="1.0421497747302055e-02" rms="4.1415435075759888e-01" purity="4.7079369425773621e-01" nType="-99"/>
              </Node>
              <Node pos="r" depth="4" NCoef="0" IVar="7" Cut="8.0644440650939941e-01" cType="1" res="1.8816697411239147e-04" rms="3.6373460292816162e-01" purity="4.5955663919448853e-01" nType="0">
                <Node pos="l" depth="5" NCoef="0" IVar="-1" Cut="0.0000000000000000e+00" cType="1" res="-3.3912179060280323e-03" rms="3.7383371591567993e-01" purity="4.9877607822418213e-01" nType="-99"/>
                <Node pos="r" depth="5" NCoef="0" IVar="-1" Cut="0.0000000000000000e+00" cType="1" res="2.8555504977703094e-03" rms="3.5606589913368225e-01" purity="4.3110251426696777e-01" nType="-99"/>
              </Node>
            </Node>
            <Node pos="r" depth="3" NCoef="0" IVar="4" Cut="9.4968589782714844e+01" cType="1" res="6.7993823904544115e-05" rms="2.6986408233642578e-01" purity="8.4084182977676392e-01" nType="0">
              <Node pos="l" depth="4" NCoef="0" IVar="-1" Cut="0.0000000000000000e+00" cType="1" res="-5.2693681791424751e-03" rms="3.2893568277359009e-01" purity="7.4630039930343628e-01" nType="-99"/>
              <Node pos="r" depth="4" NCoef="0" IVar="4" Cut="1.5168730163574219e+02" cType="1" res="2.4629994295537472e-03" rms="2.5588917732238770e-01" purity="8.6039018630981445e-01" nType="0">
                <Node pos="l" depth="5" NCoef="0" IVar="-1" Cut="0.0000000000000000e+00" cType="1" res="9.6545566339045763e-04" rms="2.3927669227123260e-01" purity="9.0689337253570557e-01" nType="-99"/>
                <Node pos="r" depth="5" NCoef="0" IVar="-1" Cut="0.0000000000000000e+00" cType="1" res="4.5836144126951694e-03" rms="3.6310914158821106e-01" purity="4.8447486758232117e-01" nType="-99"/>
              </Node>
            </Node>
          </Node>
        </Node>
      </Node>
    </BinaryTree>
    <BinaryTree type="DecisionTree" boostWeight="1.0000000000000000e+00" itree="308">
      <Node pos="s" depth="0" NCoef="0" IVar="5" Cut="7.3408271789550781e+01" cType="1" res="-1.9981830846518278e-03" rms="2.9225948452949524e-01" purity="5.0009661912918091e-01" nType="0">
        <Node pos="l" depth="1" NCoef="0" IVar="5" Cut="4.7976325988769531e+01" cType="1" res="-6.0896687209606171e-03" rms="3.2352256774902344e-01" purity="4.7428897023200989e-01" nType="0">
          <Node pos="l" depth="2" NCoef="0" IVar="7" Cut="6.3061970472335815e-01" cType="1" res="-1.8134327547159046e-04" rms="3.4406030178070068e-01" purity="3.5673877596855164e-01" nType="0">
            <Node pos="l" depth="3" NCoef="0" IVar="-1" Cut="0.0000000000000000e+00" cType="1" res="-3.7044279742985964e-03" rms="3.5574373602867126e-01" purity="4.3559870123863220e-01" nType="-99"/>
            <Node pos="r" depth="3" NCoef="0" IVar="7" Cut="1.6047434806823730e+00" cType="1" res="4.8889536410570145e-03" rms="3.3757942914962769e-01" purity="3.1484487652778625e-01" nType="0">
              <Node pos="l" depth="4" NCoef="0" IVar="-1" Cut="0.0000000000000000e+00" cType="1" res="5.7001640088856220e-03" rms="3.6606684327125549e-01" purity="3.9506301283836365e-01" nType="-99"/>
              <Node pos="r" depth="4" NCoef="0" IVar="-1" Cut="0.0000000000000000e+00" cType="1" res="-5.2422503940761089e-03" rms="2.9007363319396973e-01" purity="1.9683699309825897e-01" nType="-99"/>
            </Node>
          </Node>
          <Node pos="r" depth="2" NCoef="0" IVar="9" Cut="2.5174835324287415e-01" cType="1" res="-8.4619419649243355e-03" rms="3.1486853957176208e-01" purity="5.2148687839508057e-01" nType="0">
            <Node pos="l" depth="3" NCoef="0" IVar="6" Cut="1.9156044721603394e+00" cType="1" res="-7.6549127697944641e-04" rms="3.0672004818916321e-01" purity="3.6197990179061890e-01" nType="0">
              <Node pos="l" depth="4" NCoef="0" IVar="-1" Cut="0.0000000000000000e+00" cType="1" res="-5.8320588432252407e-03" rms="2.9278212785720825e-01" purity="2.2652676701545715e-01" nType="-99"/>
              <Node pos="r" depth="4" NCoef="0" IVar="-1" Cut="0.0000000000000000e+00" cType="1" res="3.0873115174472332e-03" rms="3.1647571921348572e-01" purity="4.6255791187286377e-01" nType="-99"/>
            </Node>
            <Node pos="r" depth="3" NCoef="0" IVar="0" Cut="3.0487804412841797e+00" cType="1" res="-1.1964031495153904e-02" rms="3.1844574213027954e-01" purity="5.9406685829162598e-01" nType="0">
              <Node pos="l" depth="4" NCoef="0" IVar="1" Cut="1.0975610017776489e+00" cType="1" res="-2.0254760980606079e-02" rms="3.1536710262298584e-01" purity="3.3694928884506226e-01" nType="0">
                <Node pos="l" depth="5" NCoef="0" IVar="-1" Cut="0.0000000000000000e+00" cType="1" res="-1.4110131189227104e-02" rms="2.7539435029029846e-01" purity="1.2564799189567566e-01" nType="-99"/>
                <Node pos="r" depth="5" NCoef="0" IVar="-1" Cut="0.0000000000000000e+00" cType="1" res="-6.5513290464878082e-03" rms="3.4799849987030029e-01" purity="5.3092759847640991e-01" nType="-99"/>
              </Node>
              <Node pos="r" depth="4" NCoef="0" IVar="-1" Cut="0.0000000000000000e+00" cType="1" res="-3.2756265718489885e-03" rms="3.2025220990180969e-01" purity="7.5534427165985107e-01" nType="-99"/>
            </Node>
          </Node>
        </Node>
        <Node pos="r" depth="1" NCoef="0" IVar="8" Cut="4.2170545458793640e-01" cType="1" res="-5.1363912643864751e-04" rms="2.8003975749015808e-01" purity="5.0946062803268433e-01" nType="0">
          <Node pos="l" depth="2" NCoef="0" IVar="7" Cut="2.4563601016998291e+00" cType="1" res="-2.0685391500592232e-03" rms="2.7327963709831238e-01" purity="4.6696233749389648e-01" nType="0">
            <Node pos="l" depth="3" NCoef="0" IVar="8" Cut="1.1390573531389236e-01" cType="1" res="-4.0178140625357628e-03" rms="2.7915048599243164e-01" purity="4.7870230674743652e-01" nType="0">
              <Node pos="l" depth="4" NCoef="0" IVar="-1" Cut="0.0000000000000000e+00" cType="1" res="6.8888026289641857e-03" rms="2.5459259748458862e-01" purity="1.4405982196331024e-01" nType="-99"/>
              <Node pos="r" depth="4" NCoef="0" IVar="8" Cut="3.9167609810829163e-01" cType="1" res="-4.8776846379041672e-03" rms="2.8078013658523560e-01" purity="5.0228554010391235e-01" nType="0">
                <Node pos="l" depth="5" NCoef="0" IVar="-1" Cut="0.0000000000000000e+00" cType="1" res="-3.6617338191717863e-03" rms="2.8161463141441345e-01" purity="4.8190197348594666e-01" nType="-99"/>
                <Node pos="r" depth="5" NCoef="0" IVar="-1" Cut="0.0000000000000000e+00" cType="1" res="2.7219515759497881e-03" rms="2.7382439374923706e-01" purity="6.6569864749908447e-01" nType="-99"/>
              </Node>
            </Node>
            <Node pos="r" depth="3" NCoef="0" IVar="9" Cut="2.0236648619174957e-01" cType="1" res="5.0155515782535076e-03" rms="2.5066149234771729e-01" purity="4.2429661750793457e-01" nType="0">
              <Node pos="l" depth="4" NCoef="0" IVar="4" Cut="1.1158264923095703e+02" cType="1" res="-6.1875702813267708e-03" rms="2.4092808365821838e-01" purity="3.2974809408187866e-01" nType="0">
                <Node pos="l" depth="5" NCoef="0" IVar="-1" Cut="0.0000000000000000e+00" cType="1" res="-1.3548308983445168e-02" rms="2.4628670513629913e-01" purity="2.8302237391471863e-01" nType="-99"/>
                <Node pos="r" depth="5" NCoef="0" IVar="-1" Cut="0.0000000000000000e+00" cType="1" res="1.7216942505910993e-03" rms="2.3712064325809479e-01" purity="3.5895422101020813e-01" nType="-99"/>
              </Node>
              <Node pos="r" depth="4" NCoef="0" IVar="4" Cut="1.0545587158203125e+02" cType="1" res="1.8286466598510742e-02" rms="2.6110219955444336e-01" purity="5.3629624843597412e-01" nType="0">
                <Node pos="l" depth="5" NCoef="0" IVar="-1" Cut="0.0000000000000000e+00" cType="1" res="1.3337120413780212e-02" rms="2.7587711811065674e-01" purity="4.7656348347663879e-01" nType="-99"/>
                <Node pos="r" depth="5" NCoef="0" IVar="-1" Cut="0.0000000000000000e+00" cType="1" res="1.0126086883246899e-02" rms="2.5048059225082397e-01" purity="5.7705312967300415e-01" nType="-99"/>
              </Node>
            </Node>
          </Node>
          <Node pos="r" depth="2" NCoef="0" IVar="1" Cut="4.0243902206420898e+00" cType="1" res="2.9889983125030994e-03" rms="2.9467028379440308e-01" purity="6.0519415140151978e-01" nType="0">
            <Node pos="l" depth="3" NCoef="0" IVar="4" Cut="7.2030990600585938e+01" cType="1" res="8.0799004063010216e-03" rms="3.1499680876731873e-01" purity="4.7113871574401855e-01" nType="0">
              <Node pos="l" depth="4" NCoef="0" IVar="-1" Cut="0.0000000000000000e+00" cType="1" res="8.5937632247805595e-03" rms="3.5200959444046021e-01" purity="3.2705247402191162e-01" nType="-99"/>
              <Node pos="r" depth="4" NCoef="0" IVar="4" Cut="1.1109777832031250e+02" cType="1" res="5.4798997007310390e-03" rms="3.0699643492698669e-01" purity="4.9994456768035889e-01" nType="0">
                <Node pos="l" depth="5" NCoef="0" IVar="-1" Cut="0.0000000000000000e+00" cType="1" res="-3.6922215949743986e-03" rms="3.0889999866485596e-01" purity="5.1312440633773804e-01" nType="-99"/>
                <Node pos="r" depth="5" NCoef="0" IVar="-1" Cut="0.0000000000000000e+00" cType="1" res="6.5246135927736759e-03" rms="3.0579662322998047e-01" purity="4.9316102266311646e-01" nType="-99"/>
              </Node>
            </Node>
            <Node pos="r" depth="3" NCoef="0" IVar="5" Cut="1.0508821868896484e+02" cType="1" res="-3.9284038357436657e-03" rms="2.6440307497978210e-01" purity="7.8734570741653442e-01" nType="0">
              <Node pos="l" depth="4" NCoef="0" IVar="-1" Cut="0.0000000000000000e+00" cType="1" res="-7.4892846168950200e-04" rms="2.4210797250270844e-01" purity="8.5460841655731201e-01" nType="-99"/>
              <Node pos="r" depth="4" NCoef="0" IVar="-1" Cut="0.0000000000000000e+00" cType="1" res="-5.7474137283861637e-03" rms="3.1415423750877380e-01" purity="6.1542093753814697e-01" nType="-99"/>
            </Node>
          </Node>
        </Node>
      </Node>
    </BinaryTree>
    <BinaryTree type="DecisionTree" boostWeight="1.0000000000000000e+00" itree="309">
      <Node pos="s" depth="0" NCoef="0" IVar="7" Cut="2.8512659668922424e-01" cType="1" res="-3.3913343213498592e-04" rms="2.9400798678398132e-01" purity="5.0049424171447754e-01" nType="0">
        <Node pos="l" depth="1" NCoef="0" IVar="1" Cut="1.0975610017776489e+00" cType="1" res="-6.3245720230042934e-03" rms="3.0400151014328003e-01" purity="5.5771231651306152e-01" nType="0">
          <Node pos="l" depth="2" NCoef="0" IVar="7" Cut="1.4604081213474274e-01" cType="1" res="-1.5740707516670227e-02" rms="3.2747951149940491e-01" purity="2.9695975780487061e-01" nType="0">
            <Node pos="l" depth="3" NCoef="0" IVar="-1" Cut="0.0000000000000000e+00" cType="1" res="-1.5729337465018034e-03" rms="3.3612054586410522e-01" purity="3.1221583485603333e-01" nType="-99"/>
            <Node pos="r" depth="3" NCoef="0" IVar="-1" Cut="0.0000000000000000e+00" cType="1" res="-1.4030972495675087e-02" rms="3.1705099344253540e-01" purity="2.8001806139945984e-01" nType="-99"/>
          </Node>
          <Node pos="r" depth="2" NCoef="0" IVar="9" Cut="3.5932791233062744e-01" cType="1" res="1.4072433987166733e-04" rms="2.8659114241600037e-01" purity="7.3674988746643066e-01" nType="0">
            <Node pos="l" depth="3" NCoef="0" IVar="-1" Cut="0.0000000000000000e+00" cType="1" res="-3.6924001760780811e-03" rms="3.2852026820182800e-01" purity="5.5798470973968506e-01" nType="-99"/>
            <Node pos="r" depth="3" NCoef="0" IVar="-1" Cut="0.0000000000000000e+00" cType="1" res="2.6927618309855461e-03" rms="2.6368907094001770e-01" purity="8.2377594709396362e-01" nType="-99"/>
          </Node>
        </Node>
        <Node pos="r" depth="1" NCoef="0" IVar="5" Cut="4.0936405181884766e+01" cType="1" res="6.9519353564828634e-04" rms="2.9223397374153137e-01" purity="4.9060654640197754e-01" nType="0">
          <Node pos="l" depth="2" NCoef="0" IVar="0" Cut="3.0487804412841797e+00" cType="1" res="1.0668258182704449e-02" rms="3.5003513097763062e-01" purity="3.2384011149406433e-01" nType="0">
            <Node pos="l" depth="3" NCoef="0" IVar="-1" Cut="0.0000000000000000e+00" cType="1" res="7.6082749292254448e-03" rms="2.9817610979080200e-01" purity="1.5345993638038635e-01" nType="-99"/>
            <Node pos="r" depth="3" NCoef="0" IVar="-1" Cut="0.0000000000000000e+00" cType="1" res="3.1150693539530039e-03" rms="3.9483398199081421e-01" purity="4.9299126863479614e-01" nType="-99"/>
          </Node>
          <Node pos="r" depth="2" NCoef="0" IVar="6" Cut="2.8350949287414551e+00" cType="1" res="2.0269074593670666e-04" rms="2.8907135128974915e-01" purity="4.9884197115898132e-01" nType="0">
            <Node pos="l" depth="3" NCoef="0" IVar="6" Cut="1.3829755783081055e-01" cType="1" res="-9.1704993974417448e-04" rms="2.9461559653282166e-01" purity="4.4820410013198853e-01" nType="0">
              <Node pos="l" depth="4" NCoef="0" IVar="-1" Cut="0.0000000000000000e+00" cType="1" res="-8.6541287600994110e-03" rms="2.7835234999656677e-01" purity="2.7685710787773132e-01" nType="-99"/>
              <Node pos="r" depth="4" NCoef="0" IVar="3" Cut="4.0243902206420898e+00" cType="1" res="-4.4174879440106452e-04" rms="2.9511669278144836e-01" purity="4.5377010107040405e-01" nType="0">
                <Node pos="l" depth="5" NCoef="0" IVar="-1" Cut="0.0000000000000000e+00" cType="1" res="2.9155614902265370e-04" rms="2.9817214608192444e-01" purity="5.0097191333770752e-01" nType="-99"/>
                <Node pos="r" depth="5" NCoef="0" IVar="-1" Cut="0.0000000000000000e+00" cType="1" res="-3.9669312536716461e-03" rms="2.7601969242095947e-01" purity="1.7079775035381317e-01" nType="-99"/>
              </Node>
            </Node>
            <Node pos="r" depth="3" NCoef="0" IVar="7" Cut="2.4378418922424316e+00" cType="1" res="4.3945596553385258e-03" rms="2.6725509762763977e-01" purity="6.8841028213500977e-01" nType="0">
              <Node pos="l" depth="4" NCoef="0" IVar="9" Cut="2.8850600123405457e-01" cType="1" res="2.0040420349687338e-03" rms="2.6643094420433044e-01" purity="7.0034480094909668e-01" nType="0">
                <Node pos="l" depth="5" NCoef="0" IVar="-1" Cut="0.0000000000000000e+00" cType="1" res="-4.3453332036733627e-03" rms="3.0344992876052856e-01" purity="4.6966597437858582e-01" nType="-99"/>
                <Node pos="r" depth="5" NCoef="0" IVar="-1" Cut="0.0000000000000000e+00" cType="1" res="4.2372080497443676e-03" rms="2.5012120604515076e-01" purity="7.9186117649078369e-01" nType="-99"/>
              </Node>
              <Node pos="r" depth="4" NCoef="0" IVar="-1" Cut="0.0000000000000000e+00" cType="1" res="9.2645268887281418e-03" rms="2.7085468173027039e-01" purity="6.3160157203674316e-01" nType="-99"/>
            </Node>
          </Node>
        </Node>
      </Node>
    </BinaryTree>
    <BinaryTree type="DecisionTree" boostWeight="1.0000000000000000e+00" itree="310">
      <Node pos="s" depth="0" NCoef="0" IVar="3" Cut="2.0731706619262695e+00" cType="1" res="5.8056926354765892e-04" rms="2.9537180066108704e-01" purity="5.0013911724090576e-01" nType="0">
        <Node pos="l" depth="1" NCoef="0" IVar="9" Cut="8.4041154384613037e-01" cType="1" res="-5.1919434918090701e-04" rms="2.9392153024673462e-01" purity="5.5427819490432739e-01" nType="0">
          <Node pos="l" depth="2" NCoef="0" IVar="9" Cut="1.4367520809173584e-01" cType="1" res="-1.0641915723681450e-03" rms="2.9247078299522400e-01" purity="5.5443429946899414e-01" nType="0">
            <Node pos="l" depth="3" NCoef="0" IVar="1" Cut="1.0975610017776489e+00" cType="1" res="-7.5619961135089397e-03" rms="2.6674047112464905e-01" purity="1.9065162539482117e-01" nType="0">
              <Node pos="l" depth="4" NCoef="0" IVar="0" Cut="1.0975610017776489e+00" cType="1" res="7.8665517503395677e-04" rms="2.2303502261638641e-01" purity="8.3404630422592163e-02" nType="0">
                <Node pos="l" depth="5" NCoef="0" IVar="-1" Cut="0.0000000000000000e+00" cType="1" res="-1.3461383059620857e-02" rms="1.1839279532432556e-01" purity="1.6651745885610580e-02" nType="-99"/>
                <Node pos="r" depth="5" NCoef="0" IVar="-1" Cut="0.0000000000000000e+00" cType="1" res="3.6865726578980684e-03" rms="2.8502267599105835e-01" purity="1.4235985279083252e-01" nType="-99"/>
              </Node>
              <Node pos="r" depth="4" NCoef="0" IVar="-1" Cut="0.0000000000000000e+00" cType="1" res="-8.3649288862943649e-03" rms="3.1088584661483765e-01" purity="3.1933039426803589e-01" nType="-99"/>
            </Node>
            <Node pos="r" depth="3" NCoef="0" IVar="7" Cut="2.5597028732299805e+00" cType="1" res="-2.4746434064581990e-04" rms="2.9553636908531189e-01" purity="6.0015916824340820e-01" nType="0">
              <Node pos="l" depth="4" NCoef="0" IVar="7" Cut="3.1215873360633850e-01" cType="1" res="-1.1994331143796444e-03" rms="2.9842010140419006e-01" purity="6.0563087463378906e-01" nType="0">
                <Node pos="l" depth="5" NCoef="0" IVar="-1" Cut="0.0000000000000000e+00" cType="1" res="2.3153657093644142e-03" rms="3.0705997347831726e-01" purity="6.3832986354827881e-01" nType="-99"/>
                <Node pos="r" depth="5" NCoef="0" IVar="-1" Cut="0.0000000000000000e+00" cType="1" res="-1.3977357884868979e-03" rms="2.9630634188652039e-01" purity="5.9782958030700684e-01" nType="-99"/>
              </Node>
              <Node pos="r" depth="4" NCoef="0" IVar="8" Cut="1.5646728873252869e-01" cType="1" res="8.3967484533786774e-03" rms="2.6777946949005127e-01" purity="5.5047392845153809e-01" nType="0">
                <Node pos="l" depth="5" NCoef="0" IVar="-1" Cut="0.0000000000000000e+00" cType="1" res="-2.5208326987922192e-03" rms="2.9112884402275085e-01" purity="3.5108405351638794e-01" nType="-99"/>
                <Node pos="r" depth="5" NCoef="0" IVar="-1" Cut="0.0000000000000000e+00" cType="1" res="1.2406074441969395e-02" rms="2.4595978856086731e-01" purity="7.1776849031448364e-01" nType="-99"/>
              </Node>
            </Node>
          </Node>
          <Node pos="r" depth="2" NCoef="0" IVar="-1" Cut="0.0000000000000000e+00" cType="1" res="7.0255780592560768e-03" rms="3.3373615145683289e-01" purity="5.4964447021484375e-01" nType="-99"/>
        </Node>
        <Node pos="r" depth="1" NCoef="0" IVar="7" Cut="1.1742187738418579e+00" cType="1" res="4.6469299122691154e-03" rms="3.0063843727111816e-01" purity="2.9996064305305481e-01" nType="0">
          <Node pos="l" depth="2" NCoef="0" IVar="9" Cut="3.5842719674110413e-01" cType="1" res="1.0000144131481647e-02" rms="3.3217743039131165e-01" purity="3.6079883575439453e-01" nType="0">
            <Node pos="l" depth="3" NCoef="0" IVar="5" Cut="9.9217910766601562e+01" cType="1" res="2.4234954267740250e-02" rms="3.3763831853866577e-01" purity="2.4772876501083374e-01" nType="0">
              <Node pos="l" depth="4" NCoef="0" IVar="-1" Cut="0.0000000000000000e+00" cType="1" res="4.0301713161170483e-03" rms="3.3692535758018494e-01" purity="2.9094302654266357e-01" nType="-99"/>
              <Node pos="r" depth="4" NCoef="0" IVar="-1" Cut="0.0000000000000000e+00" cType="1" res="2.3662526160478592e-02" rms="3.3759960532188416e-01" purity="2.0484766364097595e-01" nType="-99"/>
            </Node>
            <Node pos="r" depth="3" NCoef="0" IVar="6" Cut="1.4558577537536621e+00" cType="1" res="-1.2949884403496981e-03" rms="3.2733941078186035e-01" purity="4.5051842927932739e-01" nType="0">
              <Node pos="l" depth="4" NCoef="0" IVar="-1" Cut="0.0000000000000000e+00" cType="1" res="4.7883442603051662e-03" rms="3.5584911704063416e-01" purity="3.4640786051750183e-01" nType="-99"/>
              <Node pos="r" depth="4" NCoef="0" IVar="7" Cut="5.1550889015197754e-01" cType="1" res="-8.0095287412405014e-03" rms="3.1112083792686462e-01" purity="5.0516706705093384e-01" nType="0">
                <Node pos="l" depth="5" NCoef="0" IVar="-1" Cut="0.0000000000000000e+00" cType="1" res="-5.1674833521246910e-03" rms="3.1688967347145081e-01" purity="5.1165401935577393e-01" nType="-99"/>
                <Node pos="r" depth="5" NCoef="0" IVar="-1" Cut="0.0000000000000000e+00" cType="1" res="-2.3051949683576822e-03" rms="3.0505523085594177e-01" purity="4.9851313233375549e-01" nType="-99"/>
              </Node>
            </Node>
          </Node>
          <Node pos="r" depth="2" NCoef="0" IVar="1" Cut="2.0731706619262695e+00" cType="1" res="-1.7524554859846830e-03" rms="2.5777789950370789e-01" purity="2.2723288834095001e-01" nType="0">
            <Node pos="l" depth="3" NCoef="0" IVar="4" Cut="9.3892593383789062e+01" cType="1" res="-5.4319626651704311e-03" rms="2.2782956063747406e-01" purity="1.1163615435361862e-01" nType="0">
              <Node pos="l" depth="4" NCoef="0" IVar="-1" Cut="0.0000000000000000e+00" cType="1" res="-1.1391075327992439e-02" rms="2.0689752697944641e-01" purity="7.5165428221225739e-02" nType="-99"/>
              <Node pos="r" depth="4" NCoef="0" IVar="-1" Cut="0.0000000000000000e+00" cType="1" res="-1.2903955066576600e-03" rms="2.3870328068733215e-01" purity="1.3213051855564117e-01" nType="-99"/>
            </Node>
            <Node pos="r" depth="3" NCoef="0" IVar="-1" Cut="0.0000000000000000e+00" cType="1" res="2.5328984484076500e-03" rms="3.0489698052406311e-01" purity="4.3852642178535461e-01" nType="-99"/>
          </Node>
        </Node>
      </Node>
    </BinaryTree>
    <BinaryTree type="DecisionTree" boostWeight="1.0000000000000000e+00" itree="311">
      <Node pos="s" depth="0" NCoef="0" IVar="9" Cut="8.3558189868927002e-01" cType="1" res="-4.7337121213786304e-04" rms="2.9483947157859802e-01" purity="4.9944439530372620e-01" nType="0">
        <Node pos="l" depth="1" NCoef="0" IVar="7" Cut="5.7025277614593506e-01" cType="1" res="-5.7138095144182444e-05" rms="2.9443192481994629e-01" purity="5.0176334381103516e-01" nType="0">
          <Node pos="l" depth="2" NCoef="0" IVar="9" Cut="2.0473733544349670e-01" cType="1" res="3.9509460330009460e-03" rms="3.1501588225364685e-01" purity="5.6112545728683472e-01" nType="0">
            <Node pos="l" depth="3" NCoef="0" IVar="-1" Cut="0.0000000000000000e+00" cType="1" res="1.3750103302299976e-02" rms="3.1856983900070190e-01" purity="2.1866686642169952e-01" nType="-99"/>
            <Node pos="r" depth="3" NCoef="0" IVar="8" Cut="2.3214437067508698e-01" cType="1" res="1.3534007593989372e-03" rms="3.1445729732513428e-01" purity="6.0568839311599731e-01" nType="0">
              <Node pos="l" depth="4" NCoef="0" IVar="-1" Cut="0.0000000000000000e+00" cType="1" res="1.2143489904701710e-02" rms="3.1956622004508972e-01" purity="3.6698660254478455e-01" nType="-99"/>
              <Node pos="r" depth="4" NCoef="0" IVar="8" Cut="6.7104291915893555e-01" cType="1" res="-1.6682501882314682e-03" rms="3.1360876560211182e-01" purity="6.3954555988311768e-01" nType="0">
                <Node pos="l" depth="5" NCoef="0" IVar="-1" Cut="0.0000000000000000e+00" cType="1" res="-2.3172395303845406e-03" rms="3.0583155155181885e-01" purity="6.4627605676651001e-01" nType="-99"/>
                <Node pos="r" depth="5" NCoef="0" IVar="-1" Cut="0.0000000000000000e+00" cType="1" res="5.5027059279382229e-03" rms="3.5402980446815491e-01" purity="6.0147368907928467e-01" nType="-99"/>
              </Node>
            </Node>
          </Node>
          <Node pos="r" depth="2" NCoef="0" IVar="2" Cut="4.0243902206420898e+00" cType="1" res="-1.6400597523897886e-03" rms="2.8587925434112549e-01" purity="4.7831925749778748e-01" nType="0">
            <Node pos="l" depth="3" NCoef="0" IVar="4" Cut="1.4014688110351562e+02" cType="1" res="-7.6018099207431078e-04" rms="3.0057495832443237e-01" purity="5.6142437458038330e-01" nType="0">
              <Node pos="l" depth="4" NCoef="0" IVar="8" Cut="1.1082454770803452e-01" cType="1" res="-2.0355025772005320e-03" rms="2.9835429787635803e-01" purity="6.4141160249710083e-01" nType="0">
                <Node pos="l" depth="5" NCoef="0" IVar="-1" Cut="0.0000000000000000e+00" cType="1" res="-8.7682353332638741e-03" rms="2.9791179299354553e-01" purity="2.5347131490707397e-01" nType="-99"/>
                <Node pos="r" depth="5" NCoef="0" IVar="-1" Cut="0.0000000000000000e+00" cType="1" res="-6.1083253240212798e-04" rms="2.9835766553878784e-01" purity="6.6521507501602173e-01" nType="-99"/>
              </Node>
              <Node pos="r" depth="4" NCoef="0" IVar="1" Cut="1.0975610017776489e+00" cType="1" res="3.4328084439039230e-03" rms="3.0772584676742554e-01" purity="2.9844325780868530e-01" nType="0">
                <Node pos="l" depth="5" NCoef="0" IVar="-1" Cut="0.0000000000000000e+00" cType="1" res="6.0941339470446110e-03" rms="3.0758020281791687e-01" purity="2.3111316561698914e-01" nType="-99"/>
                <Node pos="r" depth="5" NCoef="0" IVar="-1" Cut="0.0000000000000000e+00" cType="1" res="-3.1526465900242329e-03" rms="3.0762791633605957e-01" purity="3.8647285103797913e-01" nType="-99"/>
              </Node>
            </Node>
            <Node pos="r" depth="3" NCoef="0" IVar="4" Cut="1.2279249572753906e+02" cType="1" res="-6.0228956863284111e-03" rms="1.9691188633441925e-01" purity="6.4357735216617584e-02" nType="0">
              <Node pos="l" depth="4" NCoef="0" IVar="4" Cut="7.7240516662597656e+01" cType="1" res="-2.1338700316846371e-03" rms="2.1710062026977539e-01" purity="7.9881072044372559e-02" nType="0">
                <Node pos="l" depth="5" NCoef="0" IVar="-1" Cut="0.0000000000000000e+00" cType="1" res="-1.3290472328662872e-02" rms="1.5002489089965820e-01" purity="2.5796953588724136e-02" nType="-99"/>
                <Node pos="r" depth="5" NCoef="0" IVar="-1" Cut="0.0000000000000000e+00" cType="1" res="1.2688768329098821e-03" rms="2.5218632817268372e-01" purity="1.1612394452095032e-01" nType="-99"/>
              </Node>
              <Node pos="r" depth="4" NCoef="0" IVar="4" Cut="1.6622898864746094e+02" cType="1" res="-1.0901720263063908e-02" rms="1.6806492209434509e-01" purity="4.4883541762828827e-02" nType="0">
                <Node pos="l" depth="5" NCoef="0" IVar="-1" Cut="0.0000000000000000e+00" cType="1" res="-1.7880795523524284e-02" rms="1.9096048176288605e-01" purity="6.5200559794902802e-02" nType="-99"/>
                <Node pos="r" depth="5" NCoef="0" IVar="-1" Cut="0.0000000000000000e+00" cType="1" res="-7.1990415453910828e-03" rms="1.4327648282051086e-01" purity="2.6086077094078064e-02" nType="-99"/>
              </Node>
            </Node>
          </Node>
        </Node>
        <Node pos="r" depth="1" NCoef="0" IVar="-1" Cut="0.0000000000000000e+00" cType="1" res="-6.1319582164287567e-03" rms="3.0610150098800659e-01" purity="4.3265607953071594e-01" nType="-99"/>
      </Node>
    </BinaryTree>
    <BinaryTree type="DecisionTree" boostWeight="1.0000000000000000e+00" itree="312">
      <Node pos="s" depth="0" NCoef="0" IVar="5" Cut="6.9800209045410156e+01" cType="1" res="5.1237852312624454e-04" rms="2.9448992013931274e-01" purity="5.0137633085250854e-01" nType="0">
        <Node pos="l" depth="1" NCoef="0" IVar="1" Cut="2.0731706619262695e+00" cType="1" res="4.6172193251550198e-03" rms="3.3670243620872498e-01" purity="4.4868344068527222e-01" nType="0">
          <Node pos="l" depth="2" NCoef="0" IVar="4" Cut="9.3912666320800781e+01" cType="1" res="1.0480497963726521e-02" rms="3.4179311990737915e-01" purity="2.6467090845108032e-01" nType="0">
            <Node pos="l" depth="3" NCoef="0" IVar="0" Cut="2.0731706619262695e+00" cType="1" res="1.9473912194371223e-02" rms="3.4576141834259033e-01" purity="2.4902781844139099e-01" nType="0">
              <Node pos="l" depth="4" NCoef="0" IVar="-1" Cut="0.0000000000000000e+00" cType="1" res="7.0016281679272652e-03" rms="2.5901958346366882e-01" purity="9.1511011123657227e-02" nType="-99"/>
              <Node pos="r" depth="4" NCoef="0" IVar="-1" Cut="0.0000000000000000e+00" cType="1" res="8.9631062000989914e-03" rms="4.1571599245071411e-01" purity="4.0966552495956421e-01" nType="-99"/>
            </Node>
            <Node pos="r" depth="3" NCoef="0" IVar="5" Cut="4.8680309295654297e+01" cType="1" res="5.2439477294683456e-03" rms="3.3935135602951050e-01" purity="2.7377927303314209e-01" nType="0">
              <Node pos="l" depth="4" NCoef="0" IVar="-1" Cut="0.0000000000000000e+00" cType="1" res="7.1975183673202991e-03" rms="3.4462437033653259e-01" purity="2.3019357025623322e-01" nType="-99"/>
              <Node pos="r" depth="4" NCoef="0" IVar="8" Cut="3.5877022147178650e-01" cType="1" res="-1.0840104660019279e-03" rms="3.3585357666015625e-01" purity="3.0106353759765625e-01" nType="0">
                <Node pos="l" depth="5" NCoef="0" IVar="-1" Cut="0.0000000000000000e+00" cType="1" res="3.2672705128788948e-03" rms="3.2523623108863831e-01" purity="2.3526506125926971e-01" nType="-99"/>
                <Node pos="r" depth="5" NCoef="0" IVar="-1" Cut="0.0000000000000000e+00" cType="1" res="-3.7514821160584688e-03" rms="3.4702274203300476e-01" purity="3.7378695607185364e-01" nType="-99"/>
              </Node>
            </Node>
          </Node>
          <Node pos="r" depth="2" NCoef="0" IVar="9" Cut="2.1776403486728668e-01" cType="1" res="-1.5823793364688754e-03" rms="3.3112177252769470e-01" purity="6.4325094223022461e-01" nType="0">
            <Node pos="l" depth="3" NCoef="0" IVar="-1" Cut="0.0000000000000000e+00" cType="1" res="-9.5098046585917473e-03" rms="3.3170405030250549e-01" purity="4.2983111739158630e-01" nType="-99"/>
            <Node pos="r" depth="3" NCoef="0" IVar="6" Cut="1.6857305765151978e+00" cType="1" res="3.0866214074194431e-03" rms="3.3081138134002686e-01" purity="6.9164311885833740e-01" nType="0">
              <Node pos="l" depth="4" NCoef="0" IVar="-1" Cut="0.0000000000000000e+00" cType="1" res="5.3637763485312462e-03" rms="3.4956169128417969e-01" purity="6.2349551916122437e-01" nType="-99"/>
              <Node pos="r" depth="4" NCoef="0" IVar="-1" Cut="0.0000000000000000e+00" cType="1" res="-1.4820762444287539e-03" rms="3.1860724091529846e-01" purity="7.3345643281936646e-01" nType="-99"/>
            </Node>
          </Node>
        </Node>
        <Node pos="r" depth="1" NCoef="0" IVar="4" Cut="8.8111251831054688e+01" cType="1" res="-6.7838991526514292e-04" rms="2.8104951977729797e-01" purity="5.1666200160980225e-01" nType="0">
          <Node pos="l" depth="2" NCoef="0" IVar="5" Cut="1.3799990844726562e+02" cType="1" res="-5.3428928367793560e-03" rms="3.0649474263191223e-01" purity="3.2381194829940796e-01" nType="0">
            <Node pos="l" depth="3" NCoef="0" IVar="7" Cut="5.7025545835494995e-01" cType="1" res="-7.7956500463187695e-03" rms="3.1139832735061646e-01" purity="3.5304358601570129e-01" nType="0">
              <Node pos="l" depth="4" NCoef="0" IVar="4" Cut="6.7982322692871094e+01" cType="1" res="-1.5490168705582619e-02" rms="3.2401713728904724e-01" purity="4.1864567995071411e-01" nType="0">
                <Node pos="l" depth="5" NCoef="0" IVar="-1" Cut="0.0000000000000000e+00" cType="1" res="-1.2501043267548084e-02" rms="3.2816290855407715e-01" purity="3.0254757404327393e-01" nType="-99"/>
                <Node pos="r" depth="5" NCoef="0" IVar="-1" Cut="0.0000000000000000e+00" cType="1" res="-1.0709991911426187e-03" rms="3.1957489252090454e-01" purity="5.2566957473754883e-01" nType="-99"/>
              </Node>
              <Node pos="r" depth="4" NCoef="0" IVar="4" Cut="5.8779487609863281e+01" cType="1" res="-4.5899087563157082e-03" rms="3.0593034625053406e-01" purity="3.2571205496788025e-01" nType="0">
